002b
ffcc
ffdc
0063
0007
ffc9
fff5
ffaf
0071
001d
ffad
0056
0017
ffe9
ff8d
ffac
0000
0000
0000
0000
0000
0000
0000
0000
004a
0078
ffbc
002e
003e
ffc3
0070
0005
000c
003a
ffe5
fff8
000d
ffb7
004f
003d
0000
0000
0000
0000
0000
0000
0000
0000
ffae
002f
0054
0032
ff7e
ffe3
ff9e
0018
0059
0081
0001
002d
ffe2
0037
0048
002a
0000
0000
0000
0000
0000
0000
0000
0000
fff1
0040
ffc1
fffa
ffa2
ff9b
ffc8
ffa9
ffcc
ffd2
0023
0024
ffc8
fff3
0070
0023
0000
0000
0000
0000
0000
0000
0000
0000
000c
0021
005f
007f
0000
ffff
0052
0003
0006
ffde
0083
0005
007b
ffc4
ffed
007f
0000
0000
0000
0000
0000
0000
0000
0000
000a
ffeb
0027
ff83
0031
ffda
ffd5
ff88
001f
ff9e
0038
ffc2
ff81
0050
ff85
ffae
0000
0000
0000
0000
0000
0000
0000
0000
000e
0037
fff5
ffb3
0021
0005
ffc5
002d
0037
ffe5
000d
ff9a
002b
ffbf
ffc2
ffdc
0000
0000
0000
0000
0000
0000
0000
0000
ffcc
0024
0049
0057
0048
001d
ff7e
0063
0046
ffa4
ffc5
ffe4
ffef
0079
ff9d
ffd0
0000
0000
0000
0000
0000
0000
0000
0000
0059
ffd5
ff83
ffb6
ffae
0006
ff9e
0015
0076
fff9
0000
ffcf
ffc2
ffac
0029
ffa2
0000
0000
0000
0000
0000
0000
0000
0000
0038
fff7
0028
ffba
ffba
ffbd
0076
0005
ffe4
fff3
ffe7
ff7e
0070
0023
ffe2
ffa0
0000
0000
0000
0000
0000
0000
0000
0000
ffdd
001a
ff90
ffbe
0043
0044
005d
0029
005d
ffcb
fff2
0037
fffd
0049
005d
007b
0000
0000
0000
0000
0000
0000
0000
0000
fff5
0081
0050
ffff
ff86
ffeb
ffd9
003b
0062
ffb0
ffe4
ffe8
0069
0026
ffef
ffe2
0000
0000
0000
0000
0000
0000
0000
0000
ff8e
000a
0079
ffeb
ff90
0017
004f
ffe2
ffd0
004f
ff97
0013
003e
ff85
001f
ffcb
0000
0000
0000
0000
0000
0000
0000
0000
006a
0052
0047
fff3
0002
ffa7
ffd4
0001
006e
001e
003f
ffca
0058
ff9a
004d
ffa0
0000
0000
0000
0000
0000
0000
0000
0000
003d
fff0
ff7f
ffa2
ffe0
0002
0041
ffc5
ffb5
0054
ff8a
ffcb
0017
0066
0055
0034
0000
0000
0000
0000
0000
0000
0000
0000
ffee
0053
ff79
0009
ff7a
0029
ffe9
0021
ff83
ffc9
ffb2
ff71
ffa2
ffce
0020
ffb4
0000
0000
0000
0000
0000
0000
0000
0000
ffc8
ffd6
ffca
002e
0063
ffce
0053
ffee
0002
002b
0087
ffe3
ffb6
0011
006b
ffe2
0000
0000
0000
0000
0000
0000
0000
0000
ffd7
ffc4
0030
003a
ffeb
ffde
ffb4
0031
ffdb
ffe3
ff71
ff7f
ffb3
ff90
ffda
ffaf
0000
0000
0000
0000
0000
0000
0000
0000
0052
fff3
ff83
ff79
ffa0
0059
0018
004e
ff79
000a
ffbf
ffe3
000f
003c
ffa8
ff8a
0000
0000
0000
0000
0000
0000
0000
0000
001c
ff89
0012
ffa8
005d
ff75
ffcb
0066
ff87
0018
ffa9
0006
fff9
000d
ffb6
ffe2
0000
0000
0000
0000
0000
0000
0000
0000
ffb5
0063
0020
ff8f
003d
ffcd
ff97
0021
ff99
ffc8
006d
ff81
ffee
ff8a
ffdc
000e
0000
0000
0000
0000
0000
0000
0000
0000
0074
0001
ffe3
fffa
ffe9
ffec
001a
fff0
0083
001e
0007
008a
ffc8
0060
0008
0079
0000
0000
0000
0000
0000
0000
0000
0000
ffda
0004
ffa7
005c
ff9c
0059
ffb4
0047
0086
ffbc
ffcd
ffab
003a
0037
ffb3
ffe5
0000
0000
0000
0000
0000
0000
0000
0000
ffc1
fff3
ffd8
ffc2
006c
0069
ff71
ffa5
0043
ffa7
0055
0068
fff2
000b
fff4
ffe2
0000
0000
0000
0000
0000
0000
0000
0000
ffbb
000b
0043
ffa5
ffb8
ffd2
ff95
0039
0060
0046
002f
000d
0071
fff3
ffb4
0027
0000
0000
0000
0000
0000
0000
0000
0000
ffb8
003b
0003
002d
0028
0027
000e
ffa1
005c
0092
0016
0040
005e
0057
ff87
003c
0000
0000
0000
0000
0000
0000
0000
0000
006d
ffea
005b
002c
0060
0043
ff90
ffe3
ffc0
ffb1
004c
003c
ffd5
ffde
001e
ff90
0000
0000
0000
0000
0000
0000
0000
0000
0014
0052
0001
0044
0024
ffb2
ffdc
0000
ff98
0066
ffa2
0045
ffcd
0015
0021
006e
0000
0000
0000
0000
0000
0000
0000
0000
ffe2
ffa9
0069
fff8
0074
005b
ff9f
fffc
0015
0014
ffb6
ffab
0028
ffac
fff6
ffe5
0000
0000
0000
0000
0000
0000
0000
0000
001d
ffa3
ff89
ff70
ffe4
ff85
ffb1
0030
ff87
0056
005c
ffcb
ffbd
005b
ffa1
0031
0000
0000
0000
0000
0000
0000
0000
0000
ff8e
005b
0018
ffa5
fff7
005e
ffc5
000c
0035
0030
002a
ff9f
ffce
0066
0065
fff9
0000
0000
0000
0000
0000
0000
0000
0000
0015
ff96
fff6
ff96
ffe3
ff8d
0020
ffa5
0009
ffaa
001e
0010
ffa4
ffcf
ff92
ffe2
0000
0000
0000
0000
0000
0000
0000
0000
ffbf
0010
ffd9
ff9e
0057
0052
ff9e
006d
fffe
000b
ffa3
ffcf
0045
0074
0070
006a
0000
0000
0000
0000
0000
0000
0000
0000
ffbd
003e
ffad
fff1
0067
ff82
ffec
0009
ff79
ff7a
0003
ff89
0048
005f
0065
0059
0000
0000
0000
0000
0000
0000
0000
0000
000c
0030
ff8f
ffc2
ffa6
fff2
fffa
0017
000a
ffd5
005e
004a
ff9d
ffbf
0047
001b
0000
0000
0000
0000
0000
0000
0000
0000
ffb0
0062
ffb4
0009
ff9f
ffc8
0000
0033
ffb8
006d
004d
008a
0056
005c
ff9f
ff9f
0000
0000
0000
0000
0000
0000
0000
0000
006e
000b
0046
0079
ffb3
005b
ffd9
0010
0004
ff9f
0027
ffe4
ffa0
ffc3
0062
0050
0000
0000
0000
0000
0000
0000
0000
0000
fff2
002c
0009
004d
fffd
007b
0000
0093
ffa6
ff88
0018
004a
0038
ffb4
ffbe
ff7f
0000
0000
0000
0000
0000
0000
0000
0000
ffa7
ffab
0081
0071
0077
0015
ffac
0061
004e
0030
ffb2
004e
000d
0039
0046
ff96
0000
0000
0000
0000
0000
0000
0000
0000
0072
fffc
002c
ffb2
ff99
ffd0
ffb7
ffb7
0055
ffec
000f
0081
0020
ffcb
007a
ffe6
0000
0000
0000
0000
0000
0000
0000
0000
000c
ffda
006d
0054
0036
003b
fffa
002b
004a
0021
004e
ffeb
0074
ffb6
ffd8
ffd5
0000
0000
0000
0000
0000
0000
0000
0000
0024
0039
ff94
0044
0062
ffa2
ffc7
0034
005f
0063
0030
fffa
000f
001d
ffc2
ffc5
0000
0000
0000
0000
0000
0000
0000
0000
0083
007e
0047
0064
0051
0020
0009
ffc2
0001
ffac
fffa
003c
ffc8
0073
000c
0028
0000
0000
0000
0000
0000
0000
0000
0000
006a
0016
fff2
ffc7
ffd2
ffbb
0044
0000
ffc3
00aa
007d
009f
fffe
002e
0090
0030
0000
0000
0000
0000
0000
0000
0000
0000
0026
fff5
ffd6
001d
ffbe
002b
0008
ffd9
ffc8
ff8c
ffd4
fffe
0027
003a
ffeb
ffc2
0000
0000
0000
0000
0000
0000
0000
0000
ffe6
0046
006d
001e
0029
0033
005d
fff0
ffa9
006a
ffaa
0036
ffab
0028
005d
ffc8
0000
0000
0000
0000
0000
0000
0000
0000
004a
001b
fff7
ff9a
000d
0062
fffe
ff95
002f
ffa7
ffab
003a
000b
ffdd
0067
ffbd
0000
0000
0000
0000
0000
0000
0000
0000
ffa1
004e
0032
0074
ffc4
001b
ffda
ffa4
0001
ffaf
0010
fff8
0027
0041
ffc2
ffbf
0000
0000
0000
0000
0000
0000
0000
0000
0084
0020
0030
000b
000c
0005
0031
ff8d
fffa
ffb3
fff0
0052
ff9d
ffdb
0025
0086
0000
0000
0000
0000
0000
0000
0000
0000
0010
0050
0055
006b
ffea
002a
0053
ff9b
fffb
ffae
0075
001c
007a
006e
008b
fff7
0000
0000
0000
0000
0000
0000
0000
0000
0056
ffaf
ffc5
004f
001e
0064
ffaf
0070
ffcd
ff94
ffb5
ffe9
fff6
ffd2
0049
ffea
0000
0000
0000
0000
0000
0000
0000
0000
ffe6
004e
000a
fff0
ff86
007f
ffa4
002e
0070
001b
fff3
0068
003e
ff98
ffa0
ffae
0000
0000
0000
0000
0000
0000
0000
0000
0012
fff1
005f
004a
ffc7
0026
0043
0079
ffac
ff86
ffaa
0080
0002
ffff
ff97
fffc
0000
0000
0000
0000
0000
0000
0000
0000
ffec
008a
0070
0050
ffad
fff2
0041
0022
0038
0024
0036
0059
0067
ffe9
0031
0047
0000
0000
0000
0000
0000
0000
0000
0000
0028
0029
0050
ffcb
0000
ffd4
007c
0069
ffcf
ffd9
0013
ffd5
ffc8
0081
0065
0055
0000
0000
0000
0000
0000
0000
0000
0000
0016
0024
003a
0061
0066
ffa2
ffb9
ff85
0064
ffcf
ffe0
0042
ffcc
0051
ffee
005d
0000
0000
0000
0000
0000
0000
0000
0000
0051
ffd5
ff8e
0005
ffbd
006f
0051
ffd0
0010
0057
ffcb
008c
ffd9
ffaa
ffc5
ffd9
0000
0000
0000
0000
0000
0000
0000
0000
0067
0049
0020
ff8b
ffa3
ffb9
ffd3
004c
005a
ffc6
ffd9
ffa4
002f
005e
ff81
ff7c
0000
0000
0000
0000
0000
0000
0000
0000
0050
ff92
0006
002f
0004
ffb8
ff6c
ffe0
ff87
ffe1
0038
ffd6
002b
001d
ff74
0000
0000
0000
0000
0000
0000
0000
0000
0000
0029
ff8e
007a
0006
0029
0011
0047
fffe
003f
0037
001f
001f
0048
ff80
ffd6
0026
0000
0000
0000
0000
0000
0000
0000
0000
004b
0002
ff99
ff92
ffd8
006b
0080
0033
001a
ffd2
ffa0
fffa
004a
0038
0005
ffa2
0000
0000
0000
0000
0000
0000
0000
0000
ff99
ff9b
0054
ffa1
002f
0017
0059
008b
0015
ffd5
ffd5
ff74
ffce
ffcf
002d
ffed
0000
0000
0000
0000
0000
0000
0000
0000
004e
fff5
000e
ffa0
ff95
003d
ffc8
ffe9
0058
ff8c
002b
fff1
ffaf
ff88
ff85
ffd6
0000
0000
0000
0000
0000
0000
0000
0000
fff3
ff8b
ffe4
ffe5
0027
ff98
ffe5
ff94
001d
ffa7
002a
ffce
0006
ffbf
ffff
004f
0000
0000
0000
0000
0000
0000
0000
0000
0011
0050
0063
004f
fffc
007c
ffd4
ffc1
ffb5
ffc1
ffcc
ff90
ff9f
fffa
0024
0041
0000
0000
0000
0000
0000
0000
0000
0000
ff6e
0059
0050
ffdc
0054
0048
001f
0035
0038
0031
ffb9
002d
fff9
ff6a
ffbd
ffd4
0000
0000
0000
0000
0000
0000
0000
0000
ff71
001a
ff8f
ffb6
0066
005d
004e
0036
0002
003f
ffb7
ff7b
ff86
004f
ff76
ff95
0000
0000
0000
0000
0000
0000
0000
0000
003d
0048
004c
ffff
0058
ff7b
ffb1
004f
ffbd
ff9e
ffb5
ff7c
0067
fff7
ff9e
ffff
0000
0000
0000
0000
0000
0000
0000
0000
ffd3
002e
0000
ffcf
0045
0007
ffd4
001c
0037
ff94
0016
0049
005f
ffae
ffa7
0070
0000
0000
0000
0000
0000
0000
0000
0000
006d
fff5
0062
0073
0058
fff0
001c
005b
004d
0034
002e
fff9
ffe7
ffe1
002a
0008
0000
0000
0000
0000
0000
0000
0000
0000
ff88
ff86
ffa2
fff9
0007
002a
0053
ffd9
ff98
ffab
ff97
ffae
003c
ffcb
0060
005a
0000
0000
0000
0000
0000
0000
0000
0000
ffdf
003a
ffe7
ffcd
001d
ffbc
ffe6
ffdc
004b
0058
ffd7
0074
ff87
ffd0
0071
ffd0
0000
0000
0000
0000
0000
0000
0000
0000
ffca
ff8d
ffab
0065
ffbb
fff1
ffff
ffbf
006d
0011
ff9c
ffd0
ffb3
0029
ffd5
fffc
0000
0000
0000
0000
0000
0000
0000
0000
0065
ffd6
005d
0057
0031
ffc0
003c
ff8b
ffff
0035
fff3
ff9b
0047
0057
0026
0016
0000
0000
0000
0000
0000
0000
0000
0000
ffac
ffcd
fff8
0019
ff9d
006f
ff66
ffcb
0002
0050
fff3
ff9f
ffca
ff72
ff58
0000
0000
0000
0000
0000
0000
0000
0000
0000
ff9c
ff9c
003b
ffad
ffaf
ffc5
002d
fff3
ffe7
000f
005f
ff95
0071
ffcd
0017
0061
0000
0000
0000
0000
0000
0000
0000
0000
ffb3
0050
ffff
ffd4
ffed
0022
0004
ffb4
ffa8
fffa
ff87
ffd3
ff7e
000e
ffa6
ff7e
0000
0000
0000
0000
0000
0000
0000
0000
ffac
ffc6
ffac
ff74
ffa7
ffd0
0019
004b
0025
ffba
0004
ff9e
0045
ff9d
ff9f
0051
0000
0000
0000
0000
0000
0000
0000
0000
fff6
ffa0
ff82
002e
ffab
0017
fff7
006b
0004
0042
ff80
ff88
002d
ffca
ffe6
0018
0000
0000
0000
0000
0000
0000
0000
0000
0012
004a
ffcc
0024
ffda
0037
003c
0018
fff0
0007
ffb5
fffa
004f
0084
ffff
0023
0000
0000
0000
0000
0000
0000
0000
0000
ffcc
ff8e
ffac
ffb7
0073
0054
0020
ffc7
0051
ffb5
001b
ffc6
ffd6
004b
ffe9
ffd1
0000
0000
0000
0000
0000
0000
0000
0000
0044
0017
0022
0034
ffc9
ffd2
004f
0028
ffa6
ff8f
ffa2
ffc5
0002
ff80
003a
001b
0000
0000
0000
0000
0000
0000
0000
0000
0046
fffa
0017
006c
000c
0003
ffe8
0006
0021
0001
002a
ff93
ffea
ff8c
0059
ffeb
0000
0000
0000
0000
0000
0000
0000
0000
0048
0016
004d
001c
006b
ffb6
ffdc
ff9e
0015
ffdc
ffde
006e
ffcc
ffb4
ffed
ffc0
0000
0000
0000
0000
0000
0000
0000
0000
000a
0000
0084
0007
0073
ff97
ffd8
0025
fffb
ffad
ffca
003a
ffc0
007e
0037
ffde
0000
0000
0000
0000
0000
0000
0000
0000
0040
ffea
ffe3
007f
fff4
004e
0000
fff4
ffa7
ffa3
ffe3
ffd4
ffef
0066
0076
ffea
0000
0000
0000
0000
0000
0000
0000
0000
ffd3
001b
001e
ffb5
ffe1
ffbd
ffff
0048
ffb0
fffd
ffb0
ffea
ffc1
0059
ff9c
0045
0000
0000
0000
0000
0000
0000
0000
0000
ff83
001b
ffc2
ffa2
004c
ffcf
000a
ffdf
0075
ffeb
003a
0032
0015
ffbb
ffb6
002f
0000
0000
0000
0000
0000
0000
0000
0000
0029
ffd3
004e
0064
fffe
0052
ffbb
007a
ffa9
ff98
ff8d
0005
ffb1
0070
ff94
ffdd
0000
0000
0000
0000
0000
0000
0000
0000
007b
ffad
0058
0030
ffb6
ffe2
0057
ffb1
ffb8
0043
ffef
0092
0050
007d
003f
004d
0000
0000
0000
0000
0000
0000
0000
0000
ffb8
0014
0000
fffe
0017
ff86
0025
ffb3
ff86
0066
ffa7
0011
ffaa
ffb3
ff87
001c
0000
0000
0000
0000
0000
0000
0000
0000
ffd2
ffb5
ffc1
0060
fffd
fffc
ffa4
ff97
0008
ffbf
0037
0019
0030
0048
ffc6
ffd1
0000
0000
0000
0000
0000
0000
0000
0000
0017
ffcd
003c
0013
ff9d
ff8e
ff8c
0022
004d
0064
ffd5
ffd8
001e
002f
0012
001a
0000
0000
0000
0000
0000
0000
0000
0000
0049
0069
ffe9
00a3
ff7d
ffbc
001f
007a
ff77
ffa7
0062
001b
0062
ffd0
0078
fff4
0000
0000
0000
0000
0000
0000
0000
0000
ff9d
004e
ffde
fffa
ffd1
0030
0005
0084
ffc2
ffb1
fff6
ffc3
003e
003c
0057
003a
0000
0000
0000
0000
0000
0000
0000
0000
ff76
ff91
007e
0012
0040
ffb1
ffad
ff8a
ffea
0070
ff9d
ff86
006e
0001
ffa2
0001
0000
0000
0000
0000
0000
0000
0000
0000
002f
ffae
ffe9
ffdb
ffdc
0075
ffe6
ff86
ff95
ffe3
006b
ffe7
ff8c
0018
0068
0033
0000
0000
0000
0000
0000
0000
0000
0000
ffe2
ff76
000d
ff76
ff8a
002a
001a
004f
0013
ff87
ffcb
fff2
0027
0044
002e
0019
0000
0000
0000
0000
0000
0000
0000
0000
008d
003e
006e
ffd6
005d
0059
002a
004f
0057
000a
0052
ffc1
004b
0065
ffc8
006f
0000
0000
0000
0000
0000
0000
0000
0000
ffda
ffcc
fffa
006f
0041
ff93
002e
0064
0060
fff2
ffa0
0082
ffd0
0083
ffef
ff9d
0000
0000
0000
0000
0000
0000
0000
0000
ffa4
0006
ffb8
ffdb
fff4
002d
ffbe
0037
ffbb
0032
fff1
001d
002b
ffce
0018
ffaf
0000
0000
0000
0000
0000
0000
0000
0000
0017
ffe1
0002
fffd
000d
ffa8
004a
ff83
0002
ffd7
ffdc
ffce
ffb4
0008
fff6
0059
0000
0000
0000
0000
0000
0000
0000
0000
ff92
ffc4
ffcb
ffbc
002f
ff8e
ffbb
0089
ff97
0058
ffbf
0008
001a
003f
0028
ffb6
0000
0000
0000
0000
0000
0000
0000
0000
ffd6
ffaa
ffb5
0010
ffc8
ff96
003a
003e
ff8c
0089
ffc1
0017
0066
003c
003d
004a
0000
0000
0000
0000
0000
0000
0000
0000
000e
0022
ffa9
ffa1
ffbc
ffaf
0038
0041
0045
0034
ffc3
ffe3
ffa8
005f
ff93
0057
0000
0000
0000
0000
0000
0000
0000
0000
0028
005e
ff5f
ffe9
002b
0069
002b
0003
0053
0014
ffa7
0047
001b
004f
ffbb
0057
0000
0000
0000
0000
0000
0000
0000
0000
0049
ffb8
ffda
ff7d
ffbc
ff95
0058
0023
003f
ff95
ffe1
000b
002d
ff9a
ff84
0054
0000
0000
0000
0000
0000
0000
0000
0000
0009
0044
006f
007b
0081
ffee
fff7
fff7
0059
ffba
0037
fffe
ffd1
0049
ff94
0000
0000
0000
0000
0000
0000
0000
0000
0000
003c
0065
0070
007b
fff7
0019
0071
0048
0041
fff8
fff2
ff9e
0077
ffca
ff8a
0091
0000
0000
0000
0000
0000
0000
0000
0000
0022
ff95
ffe7
000c
0009
ffc7
0098
0020
fffc
0030
0077
ffb4
006a
fffd
ffe5
007a
0000
0000
0000
0000
0000
0000
0000
0000
ff75
ff80
0061
0033
005a
ffdb
ffc5
ffb1
003b
0006
ffd5
0039
003a
0049
ffe7
0050
0000
0000
0000
0000
0000
0000
0000
0000
ff75
ffaa
0058
001c
fff9
ff9d
003a
ffed
006d
0046
ff92
ffe4
ffbd
fff3
0007
001d
0000
0000
0000
0000
0000
0000
0000
0000
ffd1
ffb6
ffce
ffd6
ffce
ffbd
ffdc
ffc1
ffe0
0015
ffbe
ff9a
003c
ff85
fff3
ff70
0000
0000
0000
0000
0000
0000
0000
0000
002e
ffc0
fffa
0042
0052
003e
ffcb
ff8b
ff9f
0021
ffe5
ff82
003f
001e
ff84
001c
0000
0000
0000
0000
0000
0000
0000
0000
0019
002e
0024
fff3
fffe
0057
ff99
ff8c
0037
0005
006d
0047
0064
0052
ffcc
ffe4
0000
0000
0000
0000
0000
0000
0000
0000
ff7b
ffd5
000a
0026
ffa0
ffac
ffaa
0073
0004
ffe0
ff95
0041
ffa0
ffb4
ffae
0058
0000
0000
0000
0000
0000
0000
0000
0000
000f
0020
0073
002e
fffa
ffb1
ffb0
ffa5
ffd3
000c
fff9
ffc1
ffb1
0007
0059
004c
0000
0000
0000
0000
0000
0000
0000
0000
ffc4
ffb9
0022
ffbb
006b
fffb
0040
ffaf
ffa6
fffb
0003
ffdc
ff75
0020
ffb0
ff65
0000
0000
0000
0000
0000
0000
0000
0000
002f
ffe3
ffe0
0028
ffcc
0030
0016
ffcc
0048
ffc8
ffdb
0008
fffb
ffad
007a
0066
0000
0000
0000
0000
0000
0000
0000
0000
0099
ff97
0073
0057
ffcf
0065
ffca
ffaa
002e
0035
0082
0014
0030
0004
0062
0007
0000
0000
0000
0000
0000
0000
0000
0000
003c
003e
0038
ffb6
000b
ff95
0043
0069
ff96
001b
004d
004b
002a
0020
fff7
0053
0000
0000
0000
0000
0000
0000
0000
0000
ffa3
ff96
005f
006c
ffd1
0057
0056
ffa9
0043
ffee
0056
ffe3
ffd4
ff9a
0060
002a
0000
0000
0000
0000
0000
0000
0000
0000
001c
ffff
ffa7
ff8f
000e
ffac
0023
007b
0077
007e
ffbb
fffc
ffc9
001f
ffa5
005c
0000
0000
0000
0000
0000
0000
0000
0000
ffad
ffcf
ffd6
ff77
0000
ff8f
002a
0049
ffd3
ffe7
ff8f
0022
002f
ffe0
ffa8
002f
0000
0000
0000
0000
0000
0000
0000
0000
ffe3
0041
002e
0011
ffcf
002e
ffa5
0088
ff80
005b
ffbb
ff70
fff4
ff6b
ffde
0030
0000
0000
0000
0000
0000
0000
0000
0000
ffdd
ffa9
fffc
004c
ffde
fff3
001d
0007
0055
001e
0061
0012
007c
001e
ffc8
ffd9
0000
0000
0000
0000
0000
0000
0000
0000
007e
009e
ff7f
0030
ff9f
000d
ffa9
ffca
fff6
0005
ffe9
0028
ffc1
0050
0046
002c
0000
0000
0000
0000
0000
0000
0000
0000
fffe
000f
0015
0046
002f
ffb0
ff96
fff1
ffdd
ffdd
fff2
001e
006e
ffb8
ffdf
004d
0000
0000
0000
0000
0000
0000
0000
0000
0044
ffb5
0047
ffaf
ffea
0073
0021
ffc7
004f
004d
004b
ffa0
ff9f
ffbc
ffa3
0076
0000
0000
0000
0000
0000
0000
0000
0000
ffd1
ffe2
0023
0077
ffbe
0006
ffe4
0031
007d
0089
000b
ffbd
ffa8
ffdd
ff8a
0001
0000
0000
0000
0000
0000
0000
0000
0000
0017
ffab
ffea
ff86
002f
0037
ff89
005e
006c
ffd3
0006
ffe1
ffbb
ff82
fffd
000b
0000
0000
0000
0000
0000
0000
0000
0000
ff8a
0056
00ad
ffbc
002a
ffeb
ffe1
0049
0085
0037
0072
003d
0047
003c
ffdf
001a
0000
0000
0000
0000
0000
0000
0000
0000
ffcb
0048
fffd
fff0
0055
0032
ffed
0011
0041
0012
ffd6
0019
ff9f
ffac
001d
ffd1
0000
0000
0000
0000
0000
0000
0000
0000
0046
0040
0089
007b
ffb2
004a
ff92
000f
ffa8
0046
ffd9
0019
ffcc
ffc7
0050
0005
0000
0000
0000
0000
0000
0000
0000
0000
ff98
ffe1
0047
ffbb
fff5
ffe1
ffac
ffe2
005c
ffcc
0018
ffeb
003d
ffef
ff9b
ffb3
0000
0000
0000
0000
0000
0000
0000
0000
ffef
fff7
ffca
0035
0037
000b
ff9e
ffa5
ffd1
ffb5
fffe
0021
ffd3
0034
ffd3
ffdb
0000
0000
0000
0000
0000
0000
0000
0000
ffdd
ffa0
007b
0009
0048
004c
0000
ffb0
004f
fff2
0068
003a
006b
006d
ffc9
ffef
0000
0000
0000
0000
0000
0000
0000
0000
ff65
fffa
ffc8
0032
ff96
0011
ff6e
ff9d
ffb7
0055
fff1
ffd6
ffef
0031
ffc8
ff97
0000
0000
0000
0000
0000
0000
0000
0000
0052
ffa6
0052
ff85
ffea
0075
fff6
0010
ff9d
004c
fffb
fff5
ffa6
ffb5
ffd5
001a
0000
0000
0000
0000
0000
0000
0000
0000
0017
0012
0000
005a
ffc7
0053
0011
ffa0
0036
0027
ffe0
0017
ffe4
0019
ffcb
0039
0000
0000
0000
0000
0000
0000
0000
0000
fffe
0057
ffe2
ffed
0082
ff88
ffb3
ffab
ffd9
ff8b
ffd0
ff9c
ffd9
fffa
ff98
0052
0000
0000
0000
0000
0000
0000
0000
0000
0001
003c
0083
ffa5
0012
ff9b
ff9c
ffc4
0034
ffe8
0019
ffc8
0017
ff94
0021
ffbb
0000
0000
0000
0000
0000
0000
0000
0000
ff5f
0061
0052
0001
0057
0036
fff5
000e
ffa6
ff98
ffa2
ffba
ff95
ff77
004b
0020
0000
0000
0000
0000
0000
0000
0000
0000
ffcd
ffe7
005c
ff9f
007e
ffc8
ffc8
0073
0022
0043
ff9d
0004
ffc4
ffc2
fff6
ffe9
0000
0000
0000
0000
0000
0000
0000
0000
ff62
ffce
ffcf
ffc4
ffee
fff1
ff75
ffae
ffbf
fffe
ffac
ff78
0060
0023
0001
ff7d
0000
0000
0000
0000
0000
0000
0000
0000
002d
ffd7
ff95
005f
0043
0088
ffbb
ffef
0056
0078
ff9d
ffe0
ffff
0064
ffc9
002d
0000
0000
0000
0000
0000
0000
0000
0000
0000
0000
0000
0000
0000
0000
0000
0000
0000
0000
0000
0000
0000
0000
0000
0000
0000
0000
0000
0000
0000
0000
0000
0000
ff66
ff75
ffb9
0044
ffbe
fff1
ff85
ffbe
0017
fff4
0047
ff6b
0029
ffaf
ffdc
ffbb
0000
0000
0000
0000
0000
0000
0000
0000
0070
003b
fff2
001c
ffb1
0024
fff0
0063
0020
0024
0014
0024
ffcb
ffca
ffb9
007f
0000
0000
0000
0000
0000
0000
0000
0000
0000
0000
0000
0000
0000
0000
0000
0000
0000
0000
0000
0000
0000
0000
0000
0000
0000
0000
0000
0000
0000
0000
0000
0000
0088
0005
0075
001d
0029
ffb2
000a
ff9c
ffd3
0071
fff4
ffe2
ffd2
ffda
0046
ffa2
0000
0000
0000
0000
0000
0000
0000
0000
0023
ff99
002f
ffec
ffa4
ffe8
001b
fff2
0042
ff9b
fff0
006b
0022
0028
0019
ffc4
0000
0000
0000
0000
0000
0000
0000
0000
0000
0000
0000
0000
0000
0000
0000
0000
0000
0000
0000
0000
0000
0000
0000
0000
0000
0000
0000
0000
0000
0000
0000
0000
ffa2
ffd2
0030
0031
0054
0040
ffce
0034
0058
ff84
fff1
0075
0008
004e
0006
ff8f
0000
0000
0000
0000
0000
0000
0000
0000
004b
0076
fff6
ffd8
ff93
001f
0064
0011
ffa0
ffb0
001d
ffd6
ffef
ffd4
0022
0008
0000
0000
0000
0000
0000
0000
0000
0000
0000
0000
0000
0000
0000
0000
0000
0000
0000
0000
0000
0000
0000
0000
0000
0000
0000
0000
0000
0000
0000
0000
0000
0000
003a
0044
ff9f
003c
0049
fff8
fff7
0063
004a
ffe1
ffa5
004a
0024
0051
008c
fffb
0000
0000
0000
0000
0000
0000
0000
0000
0069
ffa9
ffcb
002f
fff8
0068
ff95
0071
fff6
ffcc
ffb0
0076
ffc2
0029
ffa4
0000
0000
0000
0000
0000
0000
0000
0000
0000
0000
0000
0000
0000
0000
0000
0000
0000
0000
0000
0000
0000
0000
0000
0000
0000
0000
0000
0000
0000
0000
0000
0000
0000
ffc8
000b
0018
006e
fff2
006e
ffb9
0022
ffb9
0081
ffbc
0014
0030
000b
fff6
ffb3
0000
0000
0000
0000
0000
0000
0000
0000
0064
ffb2
0058
ffe5
fff6
ffcb
ffc8
0072
0037
ff90
ffce
0059
0035
ffd6
ffe6
ffe0
0000
0000
0000
0000
0000
0000
0000
0000
0000
0000
0000
0000
0000
0000
0000
0000
0000
0000
0000
0000
0000
0000
0000
0000
0000
0000
0000
0000
0000
0000
0000
0000
ffcc
0065
0020
ffd7
004e
ffbf
0061
005e
ffd5
ff87
0032
002f
0034
0022
fffc
ff9f
0000
0000
0000
0000
0000
0000
0000
0000
0021
ffde
0064
0002
0083
fff9
ffde
0001
0068
ffa3
0056
ffa2
0087
001b
0019
ffa0
0000
0000
0000
0000
0000
0000
0000
0000
0000
0000
0000
0000
0000
0000
0000
0000
0000
0000
0000
0000
0000
0000
0000
0000
0000
0000
0000
0000
0000
0000
0000
0000
0036
ffc5
0055
ffba
0001
004a
006e
0051
ffbf
0006
ffaf
fff7
0003
fff5
0017
006b
0000
0000
0000
0000
0000
0000
0000
0000
ffb5
ffcf
0060
0059
0075
0009
ffb2
ff96
ffd4
0010
ffc9
0019
0025
ffd4
ffa5
ffb4
0000
0000
0000
0000
0000
0000
0000
0000
0000
0000
0000
0000
0000
0000
0000
0000
0000
0000
0000
0000
0000
0000
0000
0000
0000
0000
0000
0000
0000
0000
0000
0000
000b
ff8f
ffb5
005e
ffd8
003c
000c
ffe0
0027
ffcd
0003
ffa6
006a
ffe2
ffe2
0032
0000
0000
0000
0000
0000
0000
0000
0000
0017
ffea
ffe3
ffdc
ffd2
003a
ffca
005a
005d
ff8b
ffa9
0050
ff8b
002a
fff8
ffb9
0000
0000
0000
0000
0000
0000
0000
0000
000d
0045
ff9b
ff8c
ffc0
ffa8
0091
0029
ffc8
ff9b
ffb0
ffa1
003a
006a
ffc9
fffd
0000
0000
0000
0000
0000
0000
0000
0000
fffd
ffbf
ffe4
ffc3
ffe9
0023
002b
ffb4
fff5
001f
ffcd
ffc9
0000
004b
fff8
003c
0000
0000
0000
0000
0000
0000
0000
0000
0000
0086
007f
0008
ffb0
ffce
ffdc
001c
0055
ffa4
ffe2
001b
001b
0029
007d
ffef
0000
0000
0000
0000
0000
0000
0000
0000
ffea
ffbc
ffa5
001f
0021
0027
fff5
0071
fff8
000c
0077
0042
ffca
fff1
0000
001b
0000
0000
0000
0000
0000
0000
0000
0000
ff8a
0042
ffe3
fff1
ff9c
005c
0064
ff8f
ffc8
001b
0028
001d
0042
ffba
ffc2
ffb6
0000
0000
0000
0000
0000
0000
0000
0000
fff8
0052
ff9c
ffdc
ff60
ff8f
ff8c
000b
ff99
ffea
002a
ffc0
003c
ffd2
002f
ff87
0000
0000
0000
0000
0000
0000
0000
0000
006e
0038
ffe7
0051
ffc9
ffee
ff7f
0053
0039
ffcf
fffd
ffc1
fffc
ffa3
004e
fff9
0000
0000
0000
0000
0000
0000
0000
0000
ffd3
ffe2
000c
ffb8
0008
ffad
0027
ff96
ff9a
ffc1
0042
0010
ff9c
0038
0039
ffbc
0000
0000
0000
0000
0000
0000
0000
0000
0000
001a
ffd1
ff99
ffbf
fffb
008e
ffec
0084
002f
ffb3
fff4
007d
ffcc
ffca
0021
0000
0000
0000
0000
0000
0000
0000
0000
0026
0021
ffdd
ffce
ff83
0036
0000
ffee
ffc1
001d
0069
004b
0023
ffad
ffca
0034
0000
0000
0000
0000
0000
0000
0000
0000
0042
ffe7
0002
0034
0059
0037
003f
0076
ff9c
007a
ff91
005e
0053
ff8b
ffa0
003d
0000
0000
0000
0000
0000
0000
0000
0000
ff8d
ffa1
001c
fff1
0036
ffb9
0000
0020
ff97
0057
0007
000e
ff8e
003f
ffef
ffdd
0000
0000
0000
0000
0000
0000
0000
0000
ffe5
001a
0021
000b
0058
0033
ffba
ffb1
002c
0073
001a
0035
0063
0058
ffd3
0054
0000
0000
0000
0000
0000
0000
0000
0000
ff8b
ff98
006a
ffa6
002c
0016
ff92
0024
001e
0025
0022
ff88
ff9f
fffa
0045
004b
0000
0000
0000
0000
0000
0000
0000
0000
005f
fffa
ffbd
0022
ff93
ffd0
fff9
0066
0039
ffc0
000f
0006
ffda
ff99
001e
fff6
0000
0000
0000
0000
0000
0000
0000
0000
ffc4
0067
ffb2
0011
0014
0029
0014
0033
0029
0041
fff7
ffcc
ffec
ffaf
ffe1
ff88
0000
0000
0000
0000
0000
0000
0000
0000
003f
ffc5
fff3
ff8b
ff98
0055
ffb9
ffe6
0000
ff9f
ff9a
0059
003a
0022
005e
0013
0000
0000
0000
0000
0000
0000
0000
0000
ff7f
ffaa
0007
ff9a
003d
0008
ffcd
ff9f
0021
ffa2
0031
ffb0
0027
ff6f
ffd8
0024
0000
0000
0000
0000
0000
0000
0000
0000
0053
ffe7
0007
ffae
004c
0033
0062
0046
000d
ffbf
ffcc
004b
0061
ffe6
002e
0030
0000
0000
0000
0000
0000
0000
0000
0000
0063
ffe0
0048
0055
ffb3
004d
0044
ffa2
006c
0043
ffe7
ffed
ffbe
0017
0073
004c
0000
0000
0000
0000
0000
0000
0000
0000
ffe4
ffde
ffd5
ffe3
005a
0073
ffc2
ffc3
0047
0044
0023
000f
ffd5
ffbc
ffdf
ffca
0000
0000
0000
0000
0000
0000
0000
0000
ffbd
ff76
ffe3
0047
0022
001d
ffcd
0013
0042
0056
0049
ffad
fff5
ffb2
003f
ff9a
0000
0000
0000
0000
0000
0000
0000
0000
007b
ffa6
ffd2
ffb8
ffe1
0056
0035
006f
0042
ffe9
ffc3
0021
0000
0011
ffcf
ffca
0000
0000
0000
0000
0000
0000
0000
0000
ffa9
ffd9
003c
fff4
ff99
003e
004a
0007
ffba
ffde
003c
ffdb
000f
001d
003b
005f
0000
0000
0000
0000
0000
0000
0000
0000
ffa9
0052
0072
ffb9
0007
000a
0012
ffb6
ffea
002b
0034
0044
ffbb
ff8a
0011
ffed
0000
0000
0000
0000
0000
0000
0000
0000
00a9
ff7e
0017
ffea
0055
ffa6
0076
ffb4
fffa
004d
ff69
0054
005d
0059
0061
005e
0000
0000
0000
0000
0000
0000
0000
0000
fff2
fff3
0067
fff9
005d
002b
ffc3
0016
fff3
0054
ffd0
003e
ffb3
ff92
ffc2
ffea
0000
0000
0000
0000
0000
0000
0000
0000
fffd
ffff
004b
ff9b
0003
0049
ff6e
ffb4
0062
ffde
ffab
ffd3
0012
0019
0032
002c
0000
0000
0000
0000
0000
0000
0000
0000
0071
007c
0048
0009
0001
ff95
ffcb
0053
ffec
ffeb
fffc
ffd9
ffc0
ffb1
ffbd
ffa6
0000
0000
0000
0000
0000
0000
0000
0000
ffe1
ffae
fff7
ffb8
0060
0036
ffc4
001d
0034
0038
ffbe
ffde
ffdc
ffe8
0042
002e
0000
0000
0000
0000
0000
0000
0000
0000
006b
0001
ffb1
ffce
001a
fff6
fff6
0007
fffd
003f
0022
003d
fffa
0026
0045
0057
0000
0000
0000
0000
0000
0000
0000
0000
ffc7
fffc
0034
006a
ff94
ffbe
003e
ffb5
ff9e
ff78
ffec
fff8
ffcd
ffa5
ffc1
002d
0000
0000
0000
0000
0000
0000
0000
0000
ffd1
004c
005b
ff96
fff3
ffd4
0037
ffae
0020
006e
ffb7
fff8
006b
006c
005b
ffb8
0000
0000
0000
0000
0000
0000
0000
0000
ffdf
ff97
ffe8
0018
0064
0014
0016
006b
ff9e
0067
0027
ff97
ffbf
0065
0016
ffde
0000
0000
0000
0000
0000
0000
0000
0000
002d
004d
0058
fff9
0082
ffcb
ff8e
ffc9
ffc7
fff6
000f
ffd3
ff8e
005b
006a
ffc6
0000
0000
0000
0000
0000
0000
0000
0000
0073
ff5c
003d
0041
ffdf
ffaf
ffe5
ffae
ff7b
0066
ffb6
ff80
ff76
ff9d
ffc4
ff84
0000
0000
0000
0000
0000
0000
0000
0000
ffa0
ffcd
002f
ffbb
ffd7
0074
ffba
001f
0023
0041
0025
ffb0
ff9a
0060
0073
003f
0000
0000
0000
0000
0000
0000
0000
0000
004d
005b
0035
000d
ffbb
ffe6
0077
fffe
0015
fff1
ffef
ffbe
ffb1
003a
ffe5
001a
0000
0000
0000
0000
0000
0000
0000
0000
0024
ffdf
006d
0018
ffb5
ff91
006c
0051
fffe
ff91
0031
0030
0088
ffab
ffec
ffda
0000
0000
0000
0000
0000
0000
0000
0000
ff90
0008
fff2
ff9c
005c
0040
ff9d
fff3
0047
ffba
0048
ff77
0062
ffa5
0025
002e
0000
0000
0000
0000
0000
0000
0000
0000
ffdd
0054
0016
0068
ff9b
fff0
ffd1
003e
ffd5
0053
ffe4
ffb0
006a
ffd3
fff5
0074
0000
0000
0000
0000
0000
0000
0000
0000
ffe8
0021
004f
ff8f
ffb2
ffb5
001e
0014
0043
ffa0
0022
ffa4
002b
ffb7
0029
ffe7
0000
0000
0000
0000
0000
0000
0000
0000
ffd3
0072
0022
0012
0068
004f
ffeb
0073
0017
ff84
0090
ffeb
ff90
0002
0038
0074
0000
0000
0000
0000
0000
0000
0000
0000
0019
0048
0007
003d
ff96
fffc
0001
0021
ff71
fff4
ffde
0076
ff90
004c
ffb8
ffaf
0000
0000
0000
0000
0000
0000
0000
0000
ffd0
ff8e
001d
002f
fff2
ffcb
ffcb
fff2
005a
004f
ffbc
ffa9
fff6
ffa2
ffdb
0019
0000
0000
0000
0000
0000
0000
0000
0000
ffae
ffc3
ffbd
ffd7
ffe2
ff97
ff9b
ffc2
0029
0039
000d
ffdb
004b
000e
fffd
ffff
0000
0000
0000
0000
0000
0000
0000
0000
ffbd
ff93
0007
000c
000b
ffe5
002d
ff92
ffda
0034
006e
0040
0024
001b
0047
ff9e
0000
0000
0000
0000
0000
0000
0000
0000
006b
fff1
ffc2
001f
004d
0043
0062
ffa7
0019
0024
ffa9
0011
002a
ffe3
0085
007b
0000
0000
0000
0000
0000
0000
0000
0000
ff98
ffdf
ffd7
ffc6
0017
0045
008e
000f
0002
007c
fff1
ffa6
ffd2
ffc7
fff5
ffa5
0000
0000
0000
0000
0000
0000
0000
0000
ffb7
fff8
ffd6
0013
ffc1
004d
ff87
fff1
0055
005f
0011
0073
0042
0008
004d
ffe5
0000
0000
0000
0000
0000
0000
0000
0000
0076
ffc1
ffe1
0008
006e
0044
0055
ffb2
ffac
0077
0055
000c
ffef
0081
0044
ffd9
0000
0000
0000
0000
0000
0000
0000
0000
0032
ffda
005b
002b
0039
0037
ffb1
ffb4
ffd1
00a1
003b
ff9c
0069
0045
ffcc
ff81
0000
0000
0000
0000
0000
0000
0000
0000
003e
ffe0
fffa
0024
000d
ffad
ffe8
ff99
ffe7
ffd1
0038
0054
ffd6
ffc8
0014
fff7
0000
0000
0000
0000
0000
0000
0000
0000
0015
000b
001b
fff9
fff7
0017
0031
0026
ffc2
0036
ffb4
0078
ffd1
fff1
ff91
001f
0000
0000
0000
0000
0000
0000
0000
0000
003a
0045
0041
0031
002a
0030
0022
fffd
006b
002e
fff3
fff4
0007
0078
0030
ffc4
0000
0000
0000
0000
0000
0000
0000
0000
001f
ff80
ffd3
ffd9
007b
ffb6
0052
ffc6
ff9c
0030
ffe0
0023
ffff
0030
ff7c
ffc0
0000
0000
0000
0000
0000
0000
0000
0000
002b
0045
004f
ffe0
ff99
0015
000d
fff8
ffd9
fff5
0037
007c
001c
003b
0024
ffc8
0000
0000
0000
0000
0000
0000
0000
0000
ffb4
ffab
ffc1
ffe5
ffbf
ff8d
ff79
ffbc
005c
ff90
ffbc
ffe4
ffa7
ffa9
001a
0030
0000
0000
0000
0000
0000
0000
0000
0000
ffde
fff0
ffd8
001a
ffaa
ffb6
004d
ff85
005d
ffc9
ffaa
001e
ffc3
0062
005d
0006
0000
0000
0000
0000
0000
0000
0000
0000
0024
fffc
0024
001e
ff8b
ffbd
000f
fff2
0050
ff98
ffdd
ffbe
ffe5
001b
fffd
005e
0000
0000
0000
0000
0000
0000
0000
0000
002a
ffd5
ff84
ffac
ffd5
fffb
0038
0000
0000
ff84
fffb
ff9e
ffca
ff91
ff7c
ffe2
0000
0000
0000
0000
0000
0000
0000
0000
ff90
ff92
ffd7
ffbc
ff7d
ffa3
003d
ffa4
ffb9
ff83
0003
ffd6
fff8
fffc
000c
000a
0000
0000
0000
0000
0000
0000
0000
0000
ffe4
ffd0
ff8b
ffea
0059
0010
002e
ffd5
0032
0029
ff8c
001a
ffee
ffd3
0077
ffe7
0000
0000
0000
0000
0000
0000
0000
0000
0058
ffe6
007f
0067
ffa3
0024
0043
006f
ff9b
0065
008e
ffd2
fff9
0014
ffa5
ff9e
0000
0000
0000
0000
0000
0000
0000
0000
0027
ff98
ffd7
0062
0032
fff3
ffaf
fffe
004e
0066
ffa9
ff87
003c
ffd8
ffd5
0032
0000
0000
0000
0000
0000
0000
0000
0000
0015
ffcf
ff9c
ffde
ff97
0028
0039
ff93
ffce
ffff
003c
ff8d
004d
ff7b
ffc9
ffb5
0000
0000
0000
0000
0000
0000
0000
0000
004e
ff81
ffd2
ffbc
ffae
0056
0028
ff82
ffa4
ffcf
ffc5
0040
ffbc
0049
004f
ff9d
0000
0000
0000
0000
0000
0000
0000
0000
ffd4
ffe2
ffab
ffa7
ffce
001f
ff92
0061
007c
0059
0073
0013
ffff
ffbc
ffce
ffbd
0000
0000
0000
0000
0000
0000
0000
0000
ff9c
0051
0017
0086
ffcc
0055
ffe5
ffa3
ff7c
ff7d
0055
0022
005d
0050
0031
0064
0000
0000
0000
0000
0000
0000
0000
0000
ffa0
ffc1
ffe9
ffe8
000e
001d
ffb2
ffb1
ffe3
ffa6
ffec
0046
004c
0049
006f
0019
0000
0000
0000
0000
0000
0000
0000
0000
0030
ff9a
0012
ffab
ff98
004e
000c
ffc6
ffaa
fff0
0061
004d
002e
007e
0058
0079
0000
0000
0000
0000
0000
0000
0000
0000
0087
0012
ff9b
0027
ffdd
ffe3
0047
ffe9
0031
0012
ffb7
ff98
ff9f
ffdf
ffc8
ffde
0000
0000
0000
0000
0000
0000
0000
0000
ff9e
ffbf
00ac
fff9
0061
007e
ff97
ffbe
ff91
ffd3
0067
0044
0048
ffb0
ff94
ff77
0000
0000
0000
0000
0000
0000
0000
0000
ffe6
fffa
002a
0054
fff7
0036
0024
0041
002c
ffe4
0012
ffad
ffff
fff1
ffe3
ff85
0000
0000
0000
0000
0000
0000
0000
0000
0018
ff8c
002d
ffe5
ff76
fffb
ffd3
ffd6
ffcb
fff6
ffaa
fff9
003d
0065
ff86
ffe9
0000
0000
0000
0000
0000
0000
0000
0000
ff8e
ff8c
006b
ffeb
fff3
0070
ffde
000a
002e
ffc9
ff9d
0006
ffcd
ff69
000d
ffcb
0000
0000
0000
0000
0000
0000
0000
0000
006f
ff96
ffb3
0035
0027
ffce
ffc0
ff7c
0054
0032
ffd0
003f
0027
0068
ffba
0030
0000
0000
0000
0000
0000
0000
0000
0000
0015
0008
0025
005f
0011
ffe4
ffbb
ffcc
0003
ff96
003a
005b
0050
004e
0030
000f
0000
0000
0000
0000
0000
0000
0000
0000
0030
ffa5
ff9f
004b
ffd5
ffba
0070
001e
ffd9
0070
0000
ffe1
002d
0076
000e
ffb6
0000
0000
0000
0000
0000
0000
0000
0000
000f
ffc0
0054
ffc1
ffca
ffde
002d
ffce
001b
005b
ffe3
ffe4
003e
ffef
0052
0035
0000
0000
0000
0000
0000
0000
0000
0000
006d
ffe8
001a
ffea
ffec
ff8b
0078
0009
001a
0005
ffbf
001b
fff5
0031
0049
0035
0000
0000
0000
0000
0000
0000
0000
0000
fff8
ffbc
0044
ffef
ffff
002d
ffd8
ffb1
001f
001c
ffff
001a
006d
0010
fff0
ffd2
0000
0000
0000
0000
0000
0000
0000
0000
0069
0032
ff97
fffc
0047
0001
0024
ff98
0043
ffe5
fffc
0017
ffd8
0055
fff5
ffd0
0000
0000
0000
0000
0000
0000
0000
0000
ffc4
0057
0002
0026
ffea
0046
ffdd
ffb6
fff2
0006
ffc1
0038
ffbd
ffaf
006b
006d
0000
0000
0000
0000
0000
0000
0000
0000
0016
ffa3
ffb6
0071
ffb1
001d
ff8d
008b
ffd4
ff94
0046
ff9b
0033
ffbd
ffc3
ff96
0000
0000
0000
0000
0000
0000
0000
0000
ffee
ffda
0044
ffcf
0014
ff68
003c
ff96
005d
ffe7
0093
ff97
0034
ffe8
005e
ffbf
0000
0000
0000
0000
0000
0000
0000
0000
ffc9
ffc8
ff9e
ffde
0030
fff7
ffa6
0056
0016
ffef
ffdc
005e
fff8
0004
0058
000c
0000
0000
0000
0000
0000
0000
0000
0000
fffb
0014
0062
0037
003d
ffc9
ffb0
0060
008c
003a
ffb1
0008
ffcb
ffea
0006
0065
0000
0000
0000
0000
0000
0000
0000
0000
000e
006f
ffb2
ffe4
0014
ff7b
0055
0030
ffc6
ffad
ffcd
0020
0000
0057
ff71
ffde
0000
0000
0000
0000
0000
0000
0000
0000
0006
003f
ffc2
ffe9
007b
0037
fff8
ffbb
0049
0047
003d
0018
ffe0
0048
0064
0039
0000
0000
0000
0000
0000
0000
0000
0000
ffed
ffc2
fff3
ffd6
ffd5
ffbc
0021
ff8f
fffd
ffd0
ffed
ffc0
000d
004a
0051
ffdc
0000
0000
0000
0000
0000
0000
0000
0000
0065
ffce
ffcc
002a
ffb2
0071
fff9
fff6
0032
0006
ffd3
0034
0061
ffe3
0018
0066
0000
0000
0000
0000
0000
0000
0000
0000
ffb6
ff9b
ffba
fffd
0000
008b
ffa6
ff8f
0091
ffb6
0048
ff7d
0005
0060
fff9
0062
0000
0000
0000
0000
0000
0000
0000
0000
0039
ffcd
0055
002d
005a
ffa0
ff6b
0031
ff85
0076
ff8e
007d
ffc8
000c
001e
001a
0000
0000
0000
0000
0000
0000
0000
0000
0052
ffb5
ffdf
ffec
ffea
0077
0048
0058
0033
0071
fff5
ffbf
ffd6
0007
fffc
ffae
0000
0000
0000
0000
0000
0000
0000
0000
ffa2
ff6d
ffbc
ff84
0045
ffdd
0002
ff86
0053
004e
0008
0019
ffdf
ffd6
000f
ffac
0000
0000
0000
0000
0000
0000
0000
0000
001a
ffce
0021
0040
002d
0059
0029
0004
ffe1
ff99
ffd6
ffff
0062
ffd8
001c
ff9a
0000
0000
0000
0000
0000
0000
0000
0000
0013
ffd2
002e
0066
ffbc
0047
0030
ffeb
ff9b
ffde
ffed
0068
005d
ffca
005b
fffd
0000
0000
0000
0000
0000
0000
0000
0000
0051
ff92
000e
0006
007b
ff9a
0067
ffdd
007e
0062
004d
005c
ff9f
004b
0029
ffa3
0000
0000
0000
0000
0000
0000
0000
0000
0042
002c
0070
ff7d
0049
007d
ffdb
0073
0066
ffe7
ff9d
ffa9
0052
003b
ffae
0014
0000
0000
0000
0000
0000
0000
0000
0000
0027
003e
005a
0016
0003
008d
0027
ffb1
0032
ffb0
ffe0
0011
0069
ffd1
fffe
005b
0000
0000
0000
0000
0000
0000
0000
0000
ff96
ffd8
ffb3
ffb8
ffff
ffc5
ff8d
ffe3
ffa0
ffa1
ffda
0044
0089
ffc6
ff9f
0027
0000
0000
0000
0000
0000
0000
0000
0000
ffa4
0034
ff96
ffa0
ff87
ff92
0043
ffda
ffc5
ffc8
0020
ffff
0022
ff74
fff6
0079
0000
0000
0000
0000
0000
0000
0000
0000
ffa6
ffe2
ffac
ff90
0061
ffa0
ffae
0053
0042
ff90
ff67
ff7b
0000
ff9c
ff9c
ff83
0000
0000
0000
0000
0000
0000
0000
0000
0001
001e
fff7
0061
0065
ff99
0053
0003
0023
0078
fff4
ff9d
0031
0038
0047
0043
0000
0000
0000
0000
0000
0000
0000
0000
ffce
0044
fff8
0019
fff9
ffb5
ffea
0021
0040
0032
ffb1
001e
0000
ffa0
ffbe
ffb2
0000
0000
0000
0000
0000
0000
0000
0000
002a
ffb0
006b
ffde
ffdc
0018
ffdf
fffa
fff0
0033
ffdf
0084
ffc0
0060
ffbb
ff88
0000
0000
0000
0000
0000
0000
0000
0000
ffe5
ffb9
ffa8
ffc5
ffe2
0016
ffca
0041
002b
002d
0036
0048
ff80
ffb5
0002
fff2
0000
0000
0000
0000
0000
0000
0000
0000
ff67
ffee
0008
0006
0072
0042
ffaa
0045
0027
ff88
0080
002c
ffa6
0014
0050
0017
0000
0000
0000
0000
0000
0000
0000
0000
ff56
000e
fff6
006e
ffb3
006d
0001
ffc5
003a
ff74
ffee
0060
0000
ff98
003b
ff70
0000
0000
0000
0000
0000
0000
0000
0000
ff62
ffe7
ff9f
ff7a
ffba
ffc2
0005
0016
0009
ffaa
ff93
0028
ffc2
ffa3
ffbc
ffec
0000
0000
0000
0000
0000
0000
0000
0000
0020
ffaa
0021
ff83
ff9f
fffb
0002
0012
fff9
0000
ffc8
ffc2
0016
ffce
0009
0054
0000
0000
0000
0000
0000
0000
0000
0000
ffe6
ffaa
0030
007e
005f
0059
ffa6
0018
ff94
ffdf
fffa
0012
ffa3
ff9b
ffc8
0066
0000
0000
0000
0000
0000
0000
0000
0000
0056
ff87
ffc5
ffbf
ffb8
0004
0022
001e
ffe1
ff8d
ffb3
ffa0
0064
ffd7
ff85
ff7f
0000
0000
0000
0000
0000
0000
0000
0000
ffb9
ffff
ffe5
fff5
ffc4
0050
ffe0
ff98
0074
ff98
0013
ffbf
ffec
ffb2
0032
0004
0000
0000
0000
0000
0000
0000
0000
0000
ff86
ff80
ff90
ffd1
0070
0090
0002
ff94
0020
0045
003d
0040
ff9d
ffa3
ff91
000d
0000
0000
0000
0000
0000
0000
0000
0000
ffcc
ffda
0077
0081
0013
ffad
0059
005f
0032
0063
ffc6
003c
0066
0056
fffb
0066
0000
0000
0000
0000
0000
0000
0000
0000
ffe3
ffbb
0007
ffe2
004b
0050
008d
0048
ffd5
ffb3
ff94
ffe0
0055
ffdc
ffe3
000d
0000
0000
0000
0000
0000
0000
0000
0000
0015
ffa4
ff8d
ffcd
ffbb
fff6
004d
000f
ffd4
004d
ff78
ffb2
ffb7
0032
0000
ffb4
0000
0000
0000
0000
0000
0000
0000
0000
ff92
ffd0
002f
ffc1
002c
ffda
ffca
fffb
002e
ffd1
fff5
0006
0053
ffe2
0047
ff8e
0000
0000
0000
0000
0000
0000
0000
0000
ffb7
ffd2
006a
fff6
0024
002a
ff94
ffbb
0026
ff94
ffb1
ff9c
0055
ffac
000f
ffdc
0000
0000
0000
0000
0000
0000
0000
0000
ffe8
0013
0057
008a
ffd7
0000
0053
000e
ff89
002a
ffc3
fffb
ffc1
0049
ff7f
ff9d
0000
0000
0000
0000
0000
0000
0000
0000
006e
ff86
002d
ff7e
ffa9
0053
fff4
fff0
ff85
0037
ffad
ff82
0004
003b
ffdb
ffca
0000
0000
0000
0000
0000
0000
0000
0000
007d
ff84
0003
fffb
0056
000f
fff2
ffda
ffb3
0009
ffd6
ffa4
ffcb
ffda
0013
0058
0000
0000
0000
0000
0000
0000
0000
0000
0044
ffe8
008e
0026
0034
fffb
005e
0059
0045
ffd1
ffd4
fff1
0018
0087
ffe7
001c
0000
0000
0000
0000
0000
0000
0000
0000
ff8e
ff9d
0059
ffa5
ff7e
ffe8
000e
ffc6
0016
ff87
ffc9
007a
ffcc
fff3
ffc4
ffa4
0000
0000
0000
0000
0000
0000
0000
0000
ffad
000b
003e
ff93
000a
002f
ffc6
001d
0074
0028
0079
006e
0009
0061
ffd0
0040
0000
0000
0000
0000
0000
0000
0000
0000
ff80
ffd8
ffa0
ff8e
0031
ffdd
0030
fff4
0039
ffbc
ffc7
ffcb
0033
ffc3
0054
ffc3
0000
0000
0000
0000
0000
0000
0000
0000
ffd9
fff3
ffc3
ffa8
0067
0021
0022
007b
0045
0015
001a
001e
0056
ffcf
0054
ffde
0000
0000
0000
0000
0000
0000
0000
0000
004e
ffef
ffdb
ffa5
007d
ffeb
0035
003f
0048
ff80
0065
0071
ffb0
ffd0
0037
ffda
0000
0000
0000
0000
0000
0000
0000
0000
ffc9
ffe3
ffbe
ffb5
006a
005c
0010
0021
ffa1
001c
004e
ffc8
0041
ffe2
0038
ff9f
0000
0000
0000
0000
0000
0000
0000
0000
ffff
0050
ffd8
ffcc
002c
ffa5
ffcf
ffd5
ffc4
ffd5
ffea
000b
0000
0067
ffc1
ffd2
0000
0000
0000
0000
0000
0000
0000
0000
0040
fffe
0057
0051
ffac
001a
004c
0021
ffcf
ff7d
0039
001a
ffad
ffb0
000d
0012
0000
0000
0000
0000
0000
0000
0000
0000
004a
0037
0021
ffe4
0003
ffdc
002f
005b
0052
ffbe
ffb2
0015
0009
0088
fff0
ffb4
0000
0000
0000
0000
0000
0000
0000
0000
ff9a
0010
ffe2
000e
0075
ffb9
005a
001c
0034
0078
ff79
ffec
0036
004b
ffe4
ff99
0000
0000
0000
0000
0000
0000
0000
0000
0001
ffef
ff79
0023
ffd6
000b
0022
ff6f
ff55
ffa4
fff8
0033
ffbc
ff69
0036
003b
0000
0000
0000
0000
0000
0000
0000
0000
ff7c
0050
ffae
0054
0034
ffce
005f
0050
ffc5
0005
ffdd
0055
005a
ffdb
ffe8
ffc1
0000
0000
0000
0000
0000
0000
0000
0000
006c
ffaf
ff7b
ffce
ffcc
fffb
0066
004f
ffe9
0050
fff0
fffd
0028
ff73
ffca
004b
0000
0000
0000
0000
0000
0000
0000
0000
0073
006b
ffef
007b
ffcb
ffb0
0039
ffd0
0013
0017
0000
006e
ffbc
0066
ffc0
ff8a
0000
0000
0000
0000
0000
0000
0000
0000
ff88
0035
ffb1
0044
005f
fff9
ff71
001b
ffb1
ffb3
0089
ffc3
001a
ffb7
0041
0009
0000
0000
0000
0000
0000
0000
0000
0000
003a
ffd5
0079
ff96
0097
0052
ffe2
ffee
ffaa
ffd2
ffd3
ffa6
0019
ff89
ff84
002f
0000
0000
0000
0000
0000
0000
0000
0000
002f
ffba
ff7e
000b
001b
0007
007f
000b
ff92
0077
000e
0085
0002
ffc3
ff89
0035
0000
0000
0000
0000
0000
0000
0000
0000
002f
0037
ffcf
0024
ffd4
ff6f
0026
0010
ffd5
0017
0062
000e
ffbd
0024
001e
0034
0000
0000
0000
0000
0000
0000
0000
0000
002e
0061
0005
0079
ff9a
0037
ffc2
0042
0037
0010
ffa4
0032
0030
0076
ff9c
fffc
0000
0000
0000
0000
0000
0000
0000
0000
0000
0000
0000
0000
0000
0000
0000
0000
0000
0000
0000
0000
0000
0000
0000
0000
0000
0000
0000
0000
0000
0000
0000
0000
ff89
ffce
ffd8
000c
ff9f
fffb
ff9d
0022
ffa6
0029
ffa5
ff80
ff9b
ff68
ffbb
ffc4
0000
0000
0000
0000
0000
0000
0000
0000
001f
0035
ffd2
fff4
0057
ffeb
004a
ffcc
006a
ffca
000b
000b
0059
ffc7
ffd9
008f
0000
0000
0000
0000
0000
0000
0000
0000
0000
0000
0000
0000
0000
0000
0000
0000
0000
0000
0000
0000
0000
0000
0000
0000
0000
0000
0000
0000
0000
0000
0000
0000
ffb5
000a
fff0
ffe4
0003
ffae
ffc9
003b
002b
0066
ff86
002f
ffd4
004d
006e
ffb6
0000
0000
0000
0000
0000
0000
0000
0000
0069
ff96
ffd8
ffba
001c
0083
fffb
0071
0037
ffb0
ffde
0009
0032
006c
006d
002e
0000
0000
0000
0000
0000
0000
0000
0000
0000
0000
0000
0000
0000
0000
0000
0000
0000
0000
0000
0000
0000
0000
0000
0000
0000
0000
0000
0000
0000
0000
0000
0000
ffea
ffda
003d
004f
ffc7
003c
007b
ffda
003f
ffb4
0001
0024
0012
ffbc
004b
000a
0000
0000
0000
0000
0000
0000
0000
0000
ffed
006a
0079
ffc4
ffff
ff9c
ffb1
ff99
ffa1
0059
fff9
0005
003f
ffff
ffa0
0067
0000
0000
0000
0000
0000
0000
0000
0000
0000
0000
0000
0000
0000
0000
0000
0000
0000
0000
0000
0000
0000
0000
0000
0000
0000
0000
0000
0000
0000
0000
0000
0000
0078
ffba
ffcf
0075
fff8
0029
fff5
ffad
0075
002b
006f
0086
0001
ffdf
0028
ffd7
0000
0000
0000
0000
0000
0000
0000
0000
0026
006e
ffa2
ffcf
0012
0031
003d
ffe6
ffff
0048
ffdb
005c
ffa7
ffcd
ff9a
ff9c
0000
0000
0000
0000
0000
0000
0000
0000
0000
0000
0000
0000
0000
0000
0000
0000
0000
0000
0000
0000
0000
0000
0000
0000
0000
0000
0000
0000
0000
0000
0000
0000
0011
0076
0050
0036
ffd7
ffa6
000e
000a
0026
0011
ffc1
005f
0040
0002
ffca
003b
0000
0000
0000
0000
0000
0000
0000
0000
001d
001c
ff84
0007
0031
0027
fff1
ff96
fffd
0067
ff93
001e
004a
0057
0065
0070
0000
0000
0000
0000
0000
0000
0000
0000
0000
0000
0000
0000
0000
0000
0000
0000
0000
0000
0000
0000
0000
0000
0000
0000
0000
0000
0000
0000
0000
0000
0000
0000
ffb2
fff1
000d
0020
ffca
0054
fff6
006a
0055
0047
000a
0030
0054
005c
0053
ff8c
0000
0000
0000
0000
0000
0000
0000
0000
ffd9
0096
0034
006f
ffcb
ffb8
0064
007d
0001
0023
0027
fff5
000c
ffe7
ffe9
fffd
0000
0000
0000
0000
0000
0000
0000
0000
0000
0000
0000
0000
0000
0000
0000
0000
0000
0000
0000
0000
0000
0000
0000
0000
0000
0000
0000
0000
0000
0000
0000
0000
ffb6
ffd3
0053
003d
0002
ffcf
ffb4
0051
ffe3
fff8
007f
0069
ff9c
0013
0055
002c
0000
0000
0000
0000
0000
0000
0000
0000
ffbf
003f
0073
ffff
ff78
0078
ff81
007e
ff7d
005a
0068
0026
ff95
ff9e
002e
001e
0000
0000
0000
0000
0000
0000
0000
0000
0000
0000
0000
0000
0000
0000
0000
0000
0000
0000
0000
0000
0000
0000
0000
0000
0000
0000
0000
0000
0000
0000
0000
0000
0010
0000
ffe9
0051
004a
ffd3
0029
ffbb
0073
ffc8
ff8d
ffd0
ffd3
ffe6
0051
ffa7
0000
0000
0000
0000
0000
0000
0000
0000
0049
fffe
ffeb
ffa7
ffde
0041
ffda
006c
0004
ffe2
ffb4
ffd4
0024
ffbd
ffcc
006e
0000
0000
0000
0000
0000
0000
0000
0000
ffe7
0094
003a
ffb9
0078
000f
fffa
ffd4
ffe1
ff91
0035
0044
fff8
ffc3
0003
0015
0000
0000
0000
0000
0000
0000
0000
0000
0037
009b
004e
ffb3
ffe5
ff9e
0049
0055
ffaa
002e
ffe1
ffe7
ffb7
008f
0068
0066
0000
0000
0000
0000
0000
0000
0000
0000
ffc7
006d
000e
ffda
002f
ff9d
ffdd
ffab
ffaa
0058
ff96
ffbc
ffb3
0027
0053
ffce
0000
0000
0000
0000
0000
0000
0000
0000
ffc6
005d
0074
ffa0
ffb3
0033
ffb9
ffc4
0032
004d
ff7a
005b
ffcb
0028
002e
0052
0000
0000
0000
0000
0000
0000
0000
0000
0062
ffff
ff89
0035
ffb1
007b
fffb
002e
0008
005f
0057
ffbf
0002
ffab
0067
ffb8
0000
0000
0000
0000
0000
0000
0000
0000
0034
ffc0
ffc8
ffdf
0002
0013
fffb
0023
004f
ff9d
ffa4
ffae
ffe9
ffec
ffb8
ffa6
0000
0000
0000
0000
0000
0000
0000
0000
ffdd
0048
004a
ffba
ff86
ffc4
0002
ffec
003a
006f
0022
000e
ffa5
0032
ffd5
0020
0000
0000
0000
0000
0000
0000
0000
0000
0004
ff6c
ffcf
0051
0098
0077
ff94
ffb8
0031
ffef
000d
0040
0062
0036
ffdd
ff75
0000
0000
0000
0000
0000
0000
0000
0000
0021
005e
ff9d
0000
0008
ff85
0000
ffe2
004a
0064
ffab
006e
ffd9
005b
000b
0050
0000
0000
0000
0000
0000
0000
0000
0000
ffda
006c
ffb8
ffa2
ffec
ff9f
fff7
fff1
ff93
000f
0028
ffef
0055
0079
004c
0052
0000
0000
0000
0000
0000
0000
0000
0000
0052
0056
ffb5
ffa9
ffd6
004a
0017
ffc5
ff79
0074
0054
0029
ff91
0062
ffa9
ffb0
0000
0000
0000
0000
0000
0000
0000
0000
fff0
ff94
009b
ffcd
0050
ffa5
ff89
002b
002c
0087
0018
0002
0012
ffb8
fffa
0045
0000
0000
0000
0000
0000
0000
0000
0000
ffdd
ffdc
0037
ffd4
0058
ffc6
ffe0
ff88
0039
ffa1
0048
ffb0
ff8b
ff9a
ff9d
0021
0000
0000
0000
0000
0000
0000
0000
0000
0054
ff92
ff99
ff76
0013
ffd4
ffde
fff9
ff75
0058
ffdd
ffb4
003e
003b
004e
ff81
0000
0000
0000
0000
0000
0000
0000
0000
ffa2
ffca
ffb3
0034
ffb3
ffb4
0025
004c
000b
0043
0057
0007
0020
ff98
0003
ffb4
0000
0000
0000
0000
0000
0000
0000
0000
ffc3
ffd9
0014
ff98
ffdf
0081
ff97
000e
004b
ff95
002d
000d
fffa
ff9c
0059
ff6c
0000
0000
0000
0000
0000
0000
0000
0000
0019
006a
ffd9
0004
ffa6
0032
0052
ffc6
0055
0068
ffef
ffd9
0068
005c
0047
0077
0000
0000
0000
0000
0000
0000
0000
0000
0056
ffe1
0020
ffb8
ffb8
0088
001b
ff73
002b
0046
ff9c
ff90
ffaf
ffe3
ff95
ffe9
0000
0000
0000
0000
0000
0000
0000
0000
0041
0058
0039
000c
ff7a
ffe9
0059
fffb
0036
003b
0057
0023
ffb0
000f
fffc
ffba
0000
0000
0000
0000
0000
0000
0000
0000
0081
0086
ffbe
007e
0020
0014
0055
ff94
0042
002e
ffd4
000d
fffc
0016
0021
0085
0000
0000
0000
0000
0000
0000
0000
0000
ffe1
0009
ffb9
0017
0073
ff70
ffb9
ffcc
005e
ffea
0043
fff1
ffcd
ffcb
ffc7
0041
0000
0000
0000
0000
0000
0000
0000
0000
ffc8
0036
ffa7
0030
000c
ffec
ffa1
0052
0001
ff99
001e
0017
ff83
ffa9
fff1
003d
0000
0000
0000
0000
0000
0000
0000
0000
0043
004c
004d
ffd1
003e
fff2
0059
ffbd
ff9e
ff86
0006
0002
0002
0048
001b
ffdc
0000
0000
0000
0000
0000
0000
0000
0000
ffaa
0030
0036
ff61
ffb0
fff5
005f
ffc8
ffaa
fff0
fff5
0053
ff8b
ff82
005e
0043
0000
0000
0000
0000
0000
0000
0000
0000
ff99
ff8f
0066
ff9d
002d
ffff
ffeb
ffac
0003
005c
0018
ff9d
0009
ff93
fff5
0000
0000
0000
0000
0000
0000
0000
0000
0000
ffea
0062
001f
000d
0052
ff8b
002b
ffe4
ffbc
0052
ffa5
0010
ffc2
0075
ffc3
ffc0
0000
0000
0000
0000
0000
0000
0000
0000
006a
0019
ffee
005b
ff9c
ffad
ffbf
007e
0075
ffab
0042
ffa2
ffa4
007c
0016
ff99
0000
0000
0000
0000
0000
0000
0000
0000
0034
0061
ff94
ffe0
ffe0
004b
ffba
fffc
0051
0006
0064
0002
0013
0054
0075
0023
0000
0000
0000
0000
0000
0000
0000
0000
ffad
005e
0013
0040
0051
ffb0
0066
005f
ffcc
ffd0
fff7
ff89
0087
006e
0017
ff8f
0000
0000
0000
0000
0000
0000
0000
0000
0073
fff1
0065
0010
ff88
003f
0084
ffc0
fff3
0046
0027
ffba
ffe6
ff89
000e
ffa1
0000
0000
0000
0000
0000
0000
0000
0000
ffe7
ffbf
0049
007e
ffb0
ffd6
003a
0047
001d
004d
ffd2
006f
ff9f
ffeb
0000
007e
0000
0000
0000
0000
0000
0000
0000
0000
000f
ffc0
ffa2
0042
001c
ffa4
ffc2
0079
ffdf
0016
0049
0066
ff9b
ffa3
ff7e
ffe8
0000
0000
0000
0000
0000
0000
0000
0000
ffc9
ff93
0044
0039
0003
0027
ffd0
005b
0007
006c
ff91
006c
fffa
001a
006a
ffe3
0000
0000
0000
0000
0000
0000
0000
0000
fff3
0070
0007
fff6
ff96
ff97
0010
ff9b
0001
ffc7
ffd2
ffe1
004c
002e
000b
ffeb
0000
0000
0000
0000
0000
0000
0000
0000
ffc0
0060
0004
005a
0020
fff1
ffdc
0034
002c
ffff
0063
ffb1
0029
0081
007c
0018
0000
0000
0000
0000
0000
0000
0000
0000
ff80
0062
fffb
ff79
0033
0005
0076
ffb1
ffd8
001b
ffae
003b
005f
ff67
0001
fffe
0000
0000
0000
0000
0000
0000
0000
0000
0089
fff4
ff90
ffc7
0024
ffe7
006a
006b
ffc8
0082
fffc
ff99
ffb7
0070
0057
0027
0000
0000
0000
0000
0000
0000
0000
0000
fffb
0002
0048
002c
0024
0017
0058
0079
ffb0
ffae
002e
005f
0032
fff1
0027
004a
0000
0000
0000
0000
0000
0000
0000
0000
0041
fff5
0022
0036
ff84
ffd6
0014
ff90
fff8
ffa7
0056
003b
fffe
006d
0048
ffb2
0000
0000
0000
0000
0000
0000
0000
0000
006a
fffb
ffe3
0047
ff9f
005b
fff3
0044
ffc6
0000
ffd6
007e
ff8b
0075
ff94
0017
0000
0000
0000
0000
0000
0000
0000
0000
ff9a
006d
fff6
000d
fffb
ff78
0031
0028
ffd6
ff91
0008
0044
ffbd
0022
002c
0076
0000
0000
0000
0000
0000
0000
0000
0000
0006
007a
002d
ffa6
006a
ffa5
0022
0043
003d
ffb8
ff9e
0075
ff93
0093
ffce
0069
0000
0000
0000
0000
0000
0000
0000
0000
ffb6
0007
0008
002b
000d
ffae
0068
0031
0079
0065
000e
ffdb
005c
0037
0042
0020
0000
0000
0000
0000
0000
0000
0000
0000
ff88
ffe4
005c
ff9a
ff74
ffe7
ff87
0042
0069
0061
ffcd
ffa4
0090
fff9
003d
ffc3
0000
0000
0000
0000
0000
0000
0000
0000
001f
002c
fff8
0031
ffc8
0036
ffe7
ffaa
0008
ffda
fff4
ffc5
ffb7
005e
ffa6
ffa5
0000
0000
0000
0000
0000
0000
0000
0000
ffb9
fffe
fff1
0056
ffcc
ffdd
004d
ffd3
0039
ffa7
ffef
0016
ffec
004a
0009
000d
0000
0000
0000
0000
0000
0000
0000
0000
0077
ff8f
0037
0004
0032
0004
0010
0062
ffca
0044
0013
fff2
ff8f
ffa0
fff3
ffb0
0000
0000
0000
0000
0000
0000
0000
0000
0073
ff9a
ffd0
0004
0068
0004
ffb8
ffd3
001d
ffa7
0062
0056
ff80
0075
0060
0051
0000
0000
0000
0000
0000
0000
0000
0000
ffc5
ff8a
ffd5
fffe
ffd8
0013
0005
ffd3
ffb7
0033
0063
0027
ffa8
0030
0078
0038
0000
0000
0000
0000
0000
0000
0000
0000
ffa9
ffe5
0079
ffb1
0022
0030
006d
0067
ffbc
007d
ffba
fffb
0002
ffea
ff97
ffdb
0000
0000
0000
0000
0000
0000
0000
0000
0076
003c
002e
ffa1
ff93
ffc3
007e
ffec
007f
fff7
ff9a
000c
fff4
0040
0049
0046
0000
0000
0000
0000
0000
0000
0000
0000
004b
ff98
ffe7
0047
ff9b
ffbe
0075
008c
ffa1
ffd0
0084
ff69
ff90
0049
ffbc
ff86
0000
0000
0000
0000
0000
0000
0000
0000
0069
fff9
ffcf
003f
fffb
0022
008d
006d
ffe8
0020
ffe6
0020
ffb2
ffec
ffcb
006d
0000
0000
0000
0000
0000
0000
0000
0000
fff8
003c
ffaa
ffb1
000c
ff86
ffc5
ffae
ffe5
ff89
ffef
fffb
ff92
0067
0048
002b
0000
0000
0000
0000
0000
0000
0000
0000
0075
ffb3
fffe
002f
ffb0
fff1
ff8a
0059
ffe7
002d
004b
ffec
fff0
ffa8
fff6
ffbd
0000
0000
0000
0000
0000
0000
0000
0000
ffb2
0031
ff8d
ff86
002f
ff98
000c
005f
0003
006c
ff79
0061
005c
ffbc
ffdd
ffb8
0000
0000
0000
0000
0000
0000
0000
0000
0040
0061
004e
0055
ffc4
ffdf
ff7d
ffda
0022
0047
ff82
0058
ffb8
003f
ffe2
ffa4
0000
0000
0000
0000
0000
0000
0000
0000
ff84
fff3
0059
0072
fff7
006f
0015
ff8d
002f
0068
0021
fffa
ffa1
000e
ffe2
fffd
0000
0000
0000
0000
0000
0000
0000
0000
ffff
fff3
ffba
005c
fff0
0036
ffaa
002d
ffa3
002e
0021
ffcc
fff5
0010
ff92
ffb8
0000
0000
0000
0000
0000
0000
0000
0000
0023
ffec
ffb0
ff89
ffd4
0030
0026
002c
0038
004f
0016
0014
0029
ffb4
ffde
ffdc
0000
0000
0000
0000
0000
0000
0000
0000
003d
ff89
fffa
ffcb
ffda
0017
0042
005e
ff8c
000a
ff90
ffc8
ffb8
003a
ffb9
ffa3
0000
0000
0000
0000
0000
0000
0000
0000
ffcc
ffb4
0012
003d
0046
ffeb
0060
ffb2
0035
ff94
0041
ff8f
ffc1
ffc5
0054
ffe4
0000
0000
0000
0000
0000
0000
0000
0000
ff96
002e
ff9d
001c
ffa2
0036
ff6e
0057
0037
0022
fffb
0049
0004
ffa9
003a
0028
0000
0000
0000
0000
0000
0000
0000
0000
ffb3
ffaf
0045
002d
ff90
0000
ffa8
0033
0032
008b
ffb9
002e
005a
ff83
ffdf
ffc0
0000
0000
0000
0000
0000
0000
0000
0000
0034
0035
ffdc
002f
0063
0075
fff5
000e
ffb8
ff9b
fffa
004d
ffe4
fff9
001e
000b
0000
0000
0000
0000
0000
0000
0000
0000
ffe8
0048
0065
0013
ffc2
ffae
ff9c
0048
ffc4
0015
ffc1
fff6
006a
ffeb
ffff
ffd2
0000
0000
0000
0000
0000
0000
0000
0000
002a
ff97
0005
ffae
004e
ffe4
ff82
004f
ffed
ffb2
fffe
0021
0069
ffe0
ffb2
ffc9
0000
0000
0000
0000
0000
0000
0000
0000
fff5
ffcd
0029
fff7
0056
ff8c
001c
ffdf
0040
0038
fffd
fff5
0007
fffd
0074
ffab
0000
0000
0000
0000
0000
0000
0000
0000
0022
ffd9
ffda
ffb1
ffda
0026
ffa6
0010
ffba
0075
ffcd
0031
0046
ff74
ffe8
004c
0000
0000
0000
0000
0000
0000
0000
0000
ffff
0071
0022
ffe1
fffa
000e
0036
0031
005c
0081
ff98
ffbe
ff88
002f
000b
0068
0000
0000
0000
0000
0000
0000
0000
0000
ffaa
ffec
000e
ffca
ffb4
0032
ffeb
ffef
ff91
ffcb
002d
ffc0
ffe1
0083
0078
ffb2
0000
0000
0000
0000
0000
0000
0000
0000
ffd4
0016
ffc2
ffbf
0005
0057
0061
0052
0020
002d
0058
ff97
ffef
ff9b
002f
004a
0000
0000
0000
0000
0000
0000
0000
0000
003e
ff5e
ffdf
001a
ffb3
0074
0023
0074
ff87
0005
0061
0040
0030
ffed
fff6
ff97
0000
0000
0000
0000
0000
0000
0000
0000
0000
ffc1
001b
0011
fff4
000b
001e
001c
008f
000e
ffa8
ffa9
0062
ff9d
0040
0041
0000
0000
0000
0000
0000
0000
0000
0000
0000
ffdf
ffc6
ffe7
ffce
0035
fff7
ffbb
0055
ffe1
ffd0
ffb5
fff0
ffb8
ff7d
0011
0000
0000
0000
0000
0000
0000
0000
0000
004e
000a
ffa4
002b
ff98
0041
ffd4
ffca
0006
0004
ffce
000c
ffa3
0031
0048
ffc5
0000
0000
0000
0000
0000
0000
0000
0000
0015
ffba
0040
0016
0015
0023
ffcd
ffd2
ff81
000c
ffc9
fff9
ffc3
0027
ffbd
0052
0000
0000
0000
0000
0000
0000
0000
0000
0036
ffe7
fff0
0071
0069
0024
003c
fffc
0048
ffee
ffe6
ffeb
0073
007d
fff3
0096
0000
0000
0000
0000
0000
0000
0000
0000
ffd0
ffff
004e
ff8d
ffb6
ffd3
0007
002a
002f
0002
0022
ffed
fff8
ffa9
0069
ffe7
0000
0000
0000
0000
0000
0000
0000
0000
0052
0035
001b
ffe2
fff1
0077
0059
006b
ffcd
0093
002a
0026
0083
006b
000d
ffcc
0000
0000
0000
0000
0000
0000
0000
0000
0028
ff99
004e
ffda
fff8
004b
0074
0044
ff86
ff97
0043
0024
fff0
007a
003f
000f
0000
0000
0000
0000
0000
0000
0000
0000
ffb8
0083
005d
0061
fff4
ffff
0021
ffbc
002b
0010
007b
0044
0004
006d
0053
0046
0000
0000
0000
0000
0000
0000
0000
0000
0024
0066
006b
0023
0030
0047
006b
ff92
ffc2
003d
002f
0052
0034
0010
ffaa
0053
0000
0000
0000
0000
0000
0000
0000
0000
0053
006a
0028
ffc8
ffac
0018
ffba
0019
ffcb
ffb5
ffe9
0047
000c
003a
0050
ffd7
0000
0000
0000
0000
0000
0000
0000
0000
006a
0000
006c
0019
001b
0035
ffd3
0033
0075
0080
ffc2
ffa8
002a
ffdd
0057
ffe0
0000
0000
0000
0000
0000
0000
0000
0000
fffe
ff74
005b
006a
ffbb
ffb8
ffce
000b
ffb3
0016
ff92
003a
0041
ffb9
ffe2
0020
0000
0000
0000
0000
0000
0000
0000
0000
0054
ffe7
ffa8
006d
ffe3
0038
0020
ffb6
004b
ffee
004a
fff7
ff96
ff81
fffe
ffbb
0000
0000
0000
0000
0000
0000
0000
0000
006b
ffb3
001b
000e
ffbe
0042
0032
000f
fff1
ff76
fff1
ffaa
fff1
ffdd
ffba
ff9a
0000
0000
0000
0000
0000
0000
0000
0000
002d
003a
ffef
0047
ffef
ffdd
ff9f
0036
ff96
ff84
ff70
ffcd
ffdb
0032
ff9f
005d
0000
0000
0000
0000
0000
0000
0000
0000
ffe6
ffc9
0029
000b
ff83
005c
007e
ffcc
003c
0060
002d
0039
0021
0076
0087
fff8
0000
0000
0000
0000
0000
0000
0000
0000
001e
0018
fff3
0007
001e
ffe0
006f
ffec
007c
ffb0
fffe
ffb0
0015
0018
ffce
ffec
0000
0000
0000
0000
0000
0000
0000
0000
fffa
006e
005c
ffed
0087
ffc1
ffb4
ffa9
ffbc
005c
0020
007f
ff88
ffac
0031
0023
0000
0000
0000
0000
0000
0000
0000
0000
0048
006a
0037
ffe5
ffbe
ff8d
ffa2
0084
ff6d
ff87
ffe9
ffaa
0001
002a
ffd1
ffb5
0000
0000
0000
0000
0000
0000
0000
0000
005f
005f
008f
002a
ff81
0036
0056
ffb9
ffd5
004e
002c
ffcd
0040
0027
ffde
ff83
0000
0000
0000
0000
0000
0000
0000
0000
ffa6
0012
ffc8
008d
005e
ff97
007f
fff5
ffcc
006b
0083
0034
003e
0077
ffaf
003b
0000
0000
0000
0000
0000
0000
0000
0000
0049
0053
ffa6
ffb6
ffee
ff94
ffc9
ffd5
ff72
0055
0021
fff3
0024
ffc8
0009
0050
0000
0000
0000
0000
0000
0000
0000
0000
0004
ffae
004f
ffcc
000b
ff8a
ffa7
003e
0016
ffdd
0030
0036
006d
004e
0007
005e
0000
0000
0000
0000
0000
0000
0000
0000
ffd9
002c
005f
fff5
ffd1
ffb3
ffc0
ffd7
fffb
0008
fff9
ff8e
0049
ffb7
0011
004b
0000
0000
0000
0000
0000
0000
0000
0000
ffa9
ff9e
ff9e
ffe8
007d
ffec
ffc0
ffe3
0075
002b
ff9f
ff79
ffc0
0011
fffd
0000
0000
0000
0000
0000
0000
0000
0000
0000
ffc3
ffa3
ffb1
ff8e
0063
0057
ffb0
0027
ffec
0034
0068
ffce
0017
003f
003d
0060
0000
0000
0000
0000
0000
0000
0000
0000
001b
0054
ffec
ff8e
0015
003d
0084
fff4
0072
ffb1
ffd5
fff0
ffcb
0061
0020
0041
0000
0000
0000
0000
0000
0000
0000
0000
fff5
003a
001f
ffd5
004a
0003
ffe3
ffe4
0053
0048
0004
ffe9
0031
0028
003c
0001
0000
0000
0000
0000
0000
0000
0000
0000
ffeb
ffbb
fff7
ffcd
005b
0086
ff90
ffbe
ff76
0032
ffe0
ffa9
0046
0030
ffa5
ffbd
0000
0000
0000
0000
0000
0000
0000
0000
001f
0000
000f
0048
ffd1
002d
ffcc
ffb6
ff6e
fffc
ffa5
ffc8
000b
0031
003c
0004
0000
0000
0000
0000
0000
0000
0000
0000
fff6
0046
0035
ffbf
0006
0013
ffcc
0073
002c
0069
ff98
002a
fff7
ff85
ffad
0042
0000
0000
0000
0000
0000
0000
0000
0000
0030
0000
ffbf
001d
0037
0006
ffe3
0004
0068
0014
0069
006c
ffb3
0001
0061
ffdb
0000
0000
0000
0000
0000
0000
0000
0000
003c
ffaa
ffa0
0039
ffbf
ff8d
ffdd
ffa6
0016
002d
fffa
ffdf
0032
004e
0051
ffcd
0000
0000
0000
0000
0000
0000
0000
0000
fff5
0075
ff9f
fffa
005c
ff92
fff1
0034
ffe1
0046
ffd0
ff9e
ffbd
0005
fff5
0079
0000
0000
0000
0000
0000
0000
0000
0000
0060
0035
007c
000e
0002
0000
ffbe
0015
006a
ffb1
ffe2
ff82
0058
0044
ffca
ff9c
0000
0000
0000
0000
0000
0000
0000
0000
ffd2
ffb7
ffbf
0007
005a
0062
ffb7
ff9b
ffa8
ffbc
ffca
ffac
000a
003e
ff6f
ffc1
0000
0000
0000
0000
0000
0000
0000
0000
0033
ffed
0065
ff96
ff51
003b
ff8a
ffa1
ffd2
ffb1
ffd0
ffd7
0054
ff76
0022
0012
0000
0000
0000
0000
0000
0000
0000
0000
fff7
0041
ffc0
ffd3
002d
ffc8
ff7d
005c
ffb7
ffbb
0047
0047
ffb7
ff7d
ffc3
ffac
0000
0000
0000
0000
0000
0000
0000
0000
0066
004e
ffbd
000e
005d
ff9b
0043
000a
ffe5
fff9
0076
0070
ffd9
004d
ff91
fff1
0000
0000
0000
0000
0000
0000
0000
0000
ffc7
ff78
0020
ffa0
ffe2
0064
ff82
000f
ffdb
006f
0030
ff8d
ffec
ffcb
ff53
002d
0000
0000
0000
0000
0000
0000
0000
0000
ffff
006f
ff8a
0021
fffa
0052
0003
002d
0061
ffa8
006a
ff8d
005a
ffb4
fff1
001c
0000
0000
0000
0000
0000
0000
0000
0000
ffae
0013
0065
002a
0029
ffbf
ffec
003f
004a
004a
005c
0022
0052
ff9b
005b
000e
0000
0000
0000
0000
0000
0000
0000
0000
0057
0072
0054
ffca
0061
0058
ff89
ffac
0020
0032
ffe4
0004
ff8b
0059
005c
ffff
0000
0000
0000
0000
0000
0000
0000
0000
0019
fff3
ff94
0038
003b
0023
0080
004f
ffff
ffb1
ff91
ffbc
0061
004e
0077
0076
0000
0000
0000
0000
0000
0000
0000
0000
ffcb
004b
0021
0067
005c
ffab
fff6
ffa7
000b
ffd9
ffde
ff86
fff4
0029
ff7d
ffbd
0000
0000
0000
0000
0000
0000
0000
0000
0017
002f
004b
ffed
0019
004e
006f
0071
ffdf
ffaf
0069
ff83
004a
ffb4
fffc
ff81
0000
0000
0000
0000
0000
0000
0000
0000
0073
0046
ffea
fffd
ff91
002b
002d
ffd9
ffdf
ffd9
ffb1
ffef
ffd6
ffc2
000a
ffc0
0000
0000
0000
0000
0000
0000
0000
0000
ff71
ff95
0069
0037
ff9c
ffa3
004d
ffb4
ffec
0068
0057
ffdd
ff8f
ffd9
003b
0015
0000
0000
0000
0000
0000
0000
0000
0000
ffe3
ff9d
0021
ffa9
ffea
ff9a
ffda
0061
ff5f
ffba
ff81
fff9
ff70
ffd4
ffc1
ffd4
0000
0000
0000
0000
0000
0000
0000
0000
ffa3
0005
ffde
ffb9
0055
0054
001c
fff1
0027
0015
0048
0078
0004
ffdb
006c
003c
0000
0000
0000
0000
0000
0000
0000
0000
ffc6
000b
0017
0053
003e
0043
ffef
ffb2
ffd2
fffa
0070
0010
ff99
fff4
ffb2
008d
0000
0000
0000
0000
0000
0000
0000
0000
fff5
006e
ffec
0077
0020
ffd8
0069
0078
ffd2
ffe4
0049
0042
ffc0
006a
ffbf
ffa1
0000
0000
0000
0000
0000
0000
0000
0000
0010
0073
0036
ff99
ffa0
ff8a
ff9d
006b
ffd7
001e
0003
ffe2
006c
0073
003e
0053
0000
0000
0000
0000
0000
0000
0000
0000
0033
0055
ffc5
ffea
000c
003a
fffa
ff8e
000a
ffa7
fff8
ffcb
ff99
ffab
0059
ffd0
0000
0000
0000
0000
0000
0000
0000
0000
004a
0074
002e
fff1
0026
000e
0023
ffe0
0000
0081
ff95
ffe6
ff8e
ffe1
ff81
ffd0
0000
0000
0000
0000
0000
0000
0000
0000
005c
ffd6
0049
0082
0015
ffd8
ffb1
004b
0083
ffaf
0047
0042
ffec
ffa5
0059
ffd3
0000
0000
0000
0000
0000
0000
0000
0000
ffb3
0021
003c
000a
003e
0016
0078
fff5
ffc9
001c
0008
ffe6
ffe1
0068
ffaa
ffa9
0000
0000
0000
0000
0000
0000
0000
0000
0039
0060
0088
0005
ff8a
0027
0044
0000
fffc
002e
ff97
ffa3
0015
0068
ffc0
004c
0000
0000
0000
0000
0000
0000
0000
0000
fff3
fff7
ffde
ffb3
ffad
ffcc
0046
ffbe
0060
0023
000c
002a
fffd
ff8b
0015
005b
0000
0000
0000
0000
0000
0000
0000
0000
0030
006b
0086
005b
fff3
004c
ff96
0027
0044
0024
0060
ffdb
005d
000d
001d
0065
0000
0000
0000
0000
0000
0000
0000
0000
004f
ff99
004e
ff81
ffec
0050
ff8c
ffea
ffe1
003c
ffc1
ffe7
ff8f
ffb4
0028
ffa4
0000
0000
0000
0000
0000
0000
0000
0000
ffb3
ff8c
0006
ff5e
000e
ffa8
004c
ffb1
ffa7
ff74
005e
ff9a
ff85
ff9c
ffc1
ff9d
0000
0000
0000
0000
0000
0000
0000
0000
0025
ff8c
007f
004f
0056
ffc7
001c
0014
ffef
ffa8
fffa
0049
0005
ff80
006e
ffcb
0000
0000
0000
0000
0000
0000
0000
0000
ffdc
0059
ff97
ffac
0045
fff1
ffd6
0075
ff75
ffb5
0071
ff93
ffa5
0054
007c
001d
0000
0000
0000
0000
0000
0000
0000
0000
000d
005d
0065
0088
000c
fff0
0011
004c
ffe3
ffa7
fff4
ff9d
0043
ffe0
ffba
004e
0000
0000
0000
0000
0000
0000
0000
0000
000b
005d
002d
0030
001f
004f
002f
0030
003a
0017
0020
0072
0032
0083
0010
0019
0000
0000
0000
0000
0000
0000
0000
0000
ff8c
0041
ffc1
0017
0015
004b
ff9f
000d
0081
0023
ffff
0025
ffae
ffab
0003
ffda
0000
0000
0000
0000
0000
0000
0000
0000
ffdc
0063
0048
ff9b
004b
fffe
0074
0011
0033
ffaa
fffe
ff9a
004b
0002
ffdd
ffc2
0000
0000
0000
0000
0000
0000
0000
0000
fffc
ffef
0094
ffb7
ff90
0061
003e
0031
ffed
ffe1
0050
ffed
0032
ffaf
ff79
0012
0000
0000
0000
0000
0000
0000
0000
0000
0013
fff4
0034
001b
0025
ffa0
ff9a
003b
0054
ffc9
ffec
0000
0067
ff9f
0016
0069
0000
0000
0000
0000
0000
0000
0000
0000
0000
0000
0000
0000
0000
0000
0000
0000
0000
0000
0000
0000
0000
0000
0000
0000
0000
0000
0000
0000
0000
0000
0000
0000
0017
ff83
ff8d
0035
0073
0057
ff94
0050
ffe7
ffd0
0001
0005
ff81
ff86
ffdf
001a
0000
0000
0000
0000
0000
0000
0000
0000
0059
ffa3
fff8
0021
ff7c
0048
ffeb
004a
0042
ffcd
0037
002a
004f
ffc1
001b
ffd0
0000
0000
0000
0000
0000
0000
0000
0000
0000
0000
0000
0000
0000
0000
0000
0000
0000
0000
0000
0000
0000
0000
0000
0000
0000
0000
0000
0000
0000
0000
0000
0000
0024
0046
000e
ffa5
0039
002e
ffe0
0075
004b
ffbc
0034
003f
ffbc
ffca
0072
ffea
0000
0000
0000
0000
0000
0000
0000
0000
ffd9
0011
000d
ff99
005b
0000
005a
0011
0051
0081
ffe3
ffb0
0040
002e
0042
fff7
0000
0000
0000
0000
0000
0000
0000
0000
0000
0000
0000
0000
0000
0000
0000
0000
0000
0000
0000
0000
0000
0000
0000
0000
0000
0000
0000
0000
0000
0000
0000
0000
0067
fff4
ff7e
004e
ffce
0011
001b
ffd3
fff6
0030
0000
0028
ffe7
0016
fffd
ffe5
0000
0000
0000
0000
0000
0000
0000
0000
004c
0081
ffcb
0016
0072
ffad
ffc5
fff3
ffce
0039
0030
0009
0008
fff4
0057
0010
0000
0000
0000
0000
0000
0000
0000
0000
0000
0000
0000
0000
0000
0000
0000
0000
0000
0000
0000
0000
0000
0000
0000
0000
0000
0000
0000
0000
0000
0000
0000
0000
ff96
ffda
ffdd
ffca
ff92
ffd7
000a
ffc0
0082
0005
ff94
0021
0049
0064
005a
0061
0000
0000
0000
0000
0000
0000
0000
0000
007c
004b
ffaf
ff93
ffa0
001a
0023
ffb9
ffb2
fffe
ff8a
fff0
0005
ffa3
0076
ffdd
0000
0000
0000
0000
0000
0000
0000
0000
0000
0000
0000
0000
0000
0000
0000
0000
0000
0000
0000
0000
0000
0000
0000
0000
0000
0000
0000
0000
0000
0000
0000
0000
ffd7
fffe
ffe2
000d
007c
0079
0058
ffbb
ffc1
0000
0039
ffe8
0014
0058
0035
ffa3
0000
0000
0000
0000
0000
0000
0000
0000
fffd
ff89
ffed
ffba
ffb6
0014
ffa8
ffb9
ff99
003e
0049
0031
ffe7
003e
0058
ffe2
0000
0000
0000
0000
0000
0000
0000
0000
0000
0000
0000
0000
0000
0000
0000
0000
0000
0000
0000
0000
0000
0000
0000
0000
0000
0000
0000
0000
0000
0000
0000
0000
fff1
005c
ffbe
000d
003e
ff8b
fff1
0003
ffd4
ffef
ffcc
0047
ffa0
0000
0026
ff7b
0000
0000
0000
0000
0000
0000
0000
0000
0018
ffaf
005b
007e
ffeb
ff9e
ff9a
0047
ffe5
006d
ffed
0063
0046
0022
0028
ffc2
0000
0000
0000
0000
0000
0000
0000
0000
0000
0000
0000
0000
0000
0000
0000
0000
0000
0000
0000
0000
0000
0000
0000
0000
0000
0000
0000
0000
0000
0000
0000
0000
fff0
0072
000c
0004
ffc2
ff99
0070
0087
ffba
ff81
ffc9
ffc3
005f
ffc8
006a
0054
0000
0000
0000
0000
0000
0000
0000
0000
ffad
0060
0072
ff88
fff3
ffed
ffc4
005e
ff7c
004b
ffc1
ff95
0021
002c
fff8
ff85
0000
0000
0000
0000
0000
0000
0000
0000
0000
0000
0000
0000
0000
0000
0000
0000
0000
0000
0000
0000
0000
0000
0000
0000
0000
0000
0000
0000
0000
0000
0000
0000
0011
ffe4
006e
ffe7
ffef
007e
ffc1
0035
ff8f
008b
fffa
001c
ffa0
004f
0044
ff76
0000
0000
0000
0000
0000
0000
0000
0000
0065
ffb5
fff7
ffa8
ffed
ffd5
0046
ff9d
0003
ffd9
0042
ffd0
0016
0052
0048
ffa2
0000
0000
0000
0000
0000
0000
0000
0000
006d
ffc8
fff8
ffd8
ffc9
ffdd
0023
ffe6
000b
fff2
0022
ffec
0015
ffcb
000a
ffa1
0000
0000
0000
0000
0000
0000
0000
0000
0025
001f
004d
0014
002d
ffdc
ffc3
0049
ffad
ffb4
ffd1
ffab
ffc3
004e
005d
0098
0000
0000
0000
0000
0000
0000
0000
0000
fffb
0036
000a
0031
0048
ffab
ffe0
ffac
ffe9
0052
ffa1
006c
002c
0036
0058
0025
0000
0000
0000
0000
0000
0000
0000
0000
ffa2
ffaf
ff9f
004b
ffc9
0001
ff7e
005a
ffac
0066
ffff
ff82
ffc3
ff62
0013
000e
0000
0000
0000
0000
0000
0000
0000
0000
000d
ffbc
002a
fff5
0008
fff0
0023
ffcb
ffc7
ffe3
ffbb
0028
0024
006c
0074
ff90
0000
0000
0000
0000
0000
0000
0000
0000
0005
001b
ffc2
ffd1
ffb1
001f
0075
004e
ffb7
ff9b
0020
ffd0
003f
001c
0073
ffa6
0000
0000
0000
0000
0000
0000
0000
0000
ffa4
ffc3
0055
ffdc
0064
000e
ffd0
0014
0003
0049
0011
000d
002a
ff9a
ff95
0028
0000
0000
0000
0000
0000
0000
0000
0000
ffc0
ffc7
ff8f
fffc
ffd8
ffc4
ff99
004e
ffba
fff9
005d
ffc6
003c
ffd9
0072
0016
0000
0000
0000
0000
0000
0000
0000
0000
fff1
0035
0046
ffc9
ffd3
0040
ffbc
005c
0024
002c
0080
ffd0
ffa8
ffab
ffdb
0054
0000
0000
0000
0000
0000
0000
0000
0000
001a
0077
ffdf
fffe
fff1
0055
0029
ff88
ffde
0060
000d
ffe3
fffe
ffa6
ffee
003f
0000
0000
0000
0000
0000
0000
0000
0000
ffc3
0017
0032
000d
ff94
003e
005f
0027
ffd3
0021
ffe4
0059
ffbf
ff97
ffb4
fffe
0000
0000
0000
0000
0000
0000
0000
0000
003c
003e
0073
ffff
ffc2
0069
006f
006c
0064
006a
0000
ffa9
001f
ffc1
001b
ffa9
0000
0000
0000
0000
0000
0000
0000
0000
fff0
005c
0056
ffd4
ffdc
ffc8
fff1
0008
0034
ffd0
ff7c
ff9d
0039
0017
005b
ffed
0000
0000
0000
0000
0000
0000
0000
0000
ffd4
ffdb
ffac
ff6b
0035
0016
ffdc
ffc4
ff9c
006d
ffcb
0040
ff9a
ffd9
0018
ffec
0000
0000
0000
0000
0000
0000
0000
0000
0083
007f
ffe0
ffb7
ffe1
ffc9
002b
ffc2
0008
ffb8
ffae
0021
000f
0003
0067
ffcd
0000
0000
0000
0000
0000
0000
0000
0000
005c
ffb2
ffad
0033
ffc3
007d
ff8c
0035
ff87
0071
006c
0050
ff84
ff90
0000
fff0
0000
0000
0000
0000
0000
0000
0000
0000
0043
ffc8
0033
0020
0033
001d
ff85
001b
ffec
ffa2
0011
0027
ffe9
ffd7
ffde
ffee
0000
0000
0000
0000
0000
0000
0000
0000
ff8d
ff8e
0000
ff68
0063
ffcf
ffd2
0008
006d
ffc5
ffc8
ffa1
0065
0021
ffff
ffb3
0000
0000
0000
0000
0000
0000
0000
0000
006f
0035
0051
0053
ff8a
ff9b
ffb6
ffc9
001c
006d
ffbc
ffef
ff9a
ff82
0056
0054
0000
0000
0000
0000
0000
0000
0000
0000
ffbf
0079
fff9
ffce
ffcf
0031
005a
0049
0023
0045
ffe9
0000
000d
ffb9
005f
ffbe
0000
0000
0000
0000
0000
0000
0000
0000
ff9c
ffe1
ff9c
ffd8
ffb7
ff8c
fff3
ff9b
003c
ff93
ffe1
0013
ffc0
fff9
0013
fff0
0000
0000
0000
0000
0000
0000
0000
0000
ffe8
0023
008d
ffa8
0002
fffd
ffb4
0051
fffe
001d
ffcf
0051
002e
001d
ffdf
ffb9
0000
0000
0000
0000
0000
0000
0000
0000
0023
005e
0003
0082
001b
000b
0000
0064
0077
ff9d
ffc7
ffd3
0054
002f
0048
007c
0000
0000
0000
0000
0000
0000
0000
0000
ff8e
ffeb
0058
001c
ffd1
ffd6
0014
003c
ffaa
0000
ffb7
005f
0047
ffb1
ffbd
007e
0000
0000
0000
0000
0000
0000
0000
0000
0027
ffd2
ff91
ffa1
ffb9
0014
ff99
ff85
0008
ffd5
ff98
fffb
ffe2
ffd0
ffd6
0069
0000
0000
0000
0000
0000
0000
0000
0000
0066
0049
0049
0045
fff2
002a
fff8
000b
0011
0060
ff82
0065
ffe7
fff0
ffe6
00a2
0000
0000
0000
0000
0000
0000
0000
0000
0018
003c
ffc1
0002
003e
ffdf
fff7
0012
0041
0003
ff9b
007b
ff95
002d
ffdd
0000
0000
0000
0000
0000
0000
0000
0000
0000
0073
ff67
ff8b
0068
ffeb
0023
ff8e
004c
ffc3
0015
0065
0071
004e
ffec
ffa3
ffef
0000
0000
0000
0000
0000
0000
0000
0000
007c
ffe4
ffdd
ffeb
ffa6
0068
ff87
fff6
ff94
001b
fffe
fffd
0021
ffa3
0047
0055
0000
0000
0000
0000
0000
0000
0000
0000
ffea
0061
fff6
0059
fff4
ffa9
0060
ffdc
ffd6
fff6
fffd
ff9c
0025
0035
ffd6
ff98
0000
0000
0000
0000
0000
0000
0000
0000
0012
005a
ffe6
ffc3
0044
ffc6
ffa5
ffd7
004b
0006
ffc9
ffe4
0075
ff99
ffc7
000c
0000
0000
0000
0000
0000
0000
0000
0000
fffb
004f
0014
005a
ffbb
ffa6
0068
ff88
ffe1
ffb7
0001
ffe3
ffbe
0065
ffc7
0019
0000
0000
0000
0000
0000
0000
0000
0000
002e
0069
fff0
0023
ffa4
006d
ffcc
0013
0037
003f
002a
ff92
ffe7
ffd5
fff7
ffaa
0000
0000
0000
0000
0000
0000
0000
0000
0073
ffea
ff9f
0062
0030
ffbd
0051
000c
002d
0016
ffc4
ffec
007b
ffac
ff84
ffbc
0000
0000
0000
0000
0000
0000
0000
0000
ffde
0005
ff93
ffc2
ffc0
ffee
0070
0006
0042
0004
003f
002f
fff0
ff9e
ffc0
ffc7
0000
0000
0000
0000
0000
0000
0000
0000
0037
ff7f
0052
ffd7
fffe
0069
001e
fffb
fff0
ff95
fff1
ffba
0017
ffdd
0064
ff89
0000
0000
0000
0000
0000
0000
0000
0000
003a
0038
0042
ffb2
ffff
004e
0024
ffc0
003b
ffea
005b
0020
002b
0047
fffe
0055
0000
0000
0000
0000
0000
0000
0000
0000
ffa0
ffc1
005e
ff94
0011
ffc0
0089
0054
ffc0
fffb
0069
0046
ffc7
0003
0046
0028
0000
0000
0000
0000
0000
0000
0000
0000
0069
ffb1
ff8f
0044
0029
004b
ffae
0053
007c
ffc9
ff8a
0040
fffd
ffbb
004b
0067
0000
0000
0000
0000
0000
0000
0000
0000
ffa3
0047
ffb3
005c
ffd8
0009
0086
0016
ffb0
fff5
0039
004a
ffe7
0001
ffc6
000f
0000
0000
0000
0000
0000
0000
0000
0000
ffe5
ff8a
fff3
ffc0
fffe
fff0
0036
0048
0015
0038
0008
0045
0034
ffd1
ffda
0013
0000
0000
0000
0000
0000
0000
0000
0000
ffaf
001f
ff9a
ffcf
001a
ffdf
ffbf
ff8f
ffc4
ffb4
ffa4
0084
ffda
0016
0096
0043
0000
0000
0000
0000
0000
0000
0000
0000
ffe0
0080
fffc
fffb
003e
001b
ffd3
ff9b
ff86
002d
ffe1
ffd4
0090
ffd8
002f
0015
0000
0000
0000
0000
0000
0000
0000
0000
0075
ff9d
0057
ffcd
0048
0016
ffa6
005d
ff9d
ffef
ffd5
ffb2
ffb2
0013
0022
005d
0000
0000
0000
0000
0000
0000
0000
0000
0065
ffdd
0018
ffc8
fffd
0063
ffdd
ffe4
ff9e
ffbd
ffa7
0006
ffd7
ffd1
0046
ffbd
0000
0000
0000
0000
0000
0000
0000
0000
ffb4
ffcf
ffbd
007f
ffbf
003e
ffe9
000f
0057
ffaf
ffd7
006a
002b
ffd3
ffbe
006d
0000
0000
0000
0000
0000
0000
0000
0000
001d
000c
ffd4
0049
ffa7
001f
ff8d
001f
0066
0053
ffc6
0000
001e
0040
004b
ff9a
0000
0000
0000
0000
0000
0000
0000
0000
fff1
ffd2
ffae
005f
ffa4
ffa3
ffb8
ffe4
0061
0030
0023
0004
003e
fff4
0022
ffd8
0000
0000
0000
0000
0000
0000
0000
0000
ffd6
fff8
ffa7
ffe7
0089
001e
0086
0010
0073
0056
0023
0064
fffc
0081
ffc7
ffc1
0000
0000
0000
0000
0000
0000
0000
0000
0029
0031
ffca
ffad
0059
ffca
003e
0071
0030
ffeb
0064
ff91
ff8c
ff85
006b
fffb
0000
0000
0000
0000
0000
0000
0000
0000
0080
0000
ffde
ffe2
ffac
005c
ff95
fffb
000c
ffcf
001a
0037
0024
006a
ff93
0019
0000
0000
0000
0000
0000
0000
0000
0000
ff81
001a
ffea
0052
0005
ffe6
ffd8
ffd0
000f
ff90
0050
fff3
ff69
0081
0015
0068
0000
0000
0000
0000
0000
0000
0000
0000
0053
008e
ffb9
005e
004f
002d
0072
005a
ffdb
0044
ffcb
0059
ffbf
ffad
ffcf
0059
0000
0000
0000
0000
0000
0000
0000
0000
ffc0
ffa7
000a
0047
0084
ff86
0064
0011
005d
ffe1
ffda
001d
ff9b
ffed
ffba
ff96
0000
0000
0000
0000
0000
0000
0000
0000
005d
0038
0076
ffb4
ffbb
002a
ffa4
0055
ffc5
002c
ffae
ff99
004a
002f
0054
005f
0000
0000
0000
0000
0000
0000
0000
0000
ff97
ff94
ffeb
0021
0001
0044
0041
0054
ffbb
ffb8
ffcd
ffed
ffeb
004b
ffb6
ffd5
0000
0000
0000
0000
0000
0000
0000
0000
0040
fffa
ffd2
001b
ff6e
fff4
ff70
ffc6
001b
002c
ffe4
0055
ffad
ffe7
0016
fff3
0000
0000
0000
0000
0000
0000
0000
0000
ffb9
ffbc
ffd5
0007
fffe
ffdb
ff94
0000
0064
0005
0000
ffed
001b
0059
005e
ffc8
0000
0000
0000
0000
0000
0000
0000
0000
ffe0
0030
ffdb
0033
001a
0032
0052
fffe
ff94
ffe7
0031
003e
fffd
0007
0024
000b
0000
0000
0000
0000
0000
0000
0000
0000
0053
0043
0051
ff97
fff9
005c
ffc1
000c
004c
ffc4
0000
ffee
ffe2
0064
ffb8
ffba
0000
0000
0000
0000
0000
0000
0000
0000
ff7d
0015
ffdd
000b
ff93
0069
0030
ffcc
0011
fffa
0051
ffa4
ffda
ffb6
ff71
0012
0000
0000
0000
0000
0000
0000
0000
0000
0019
005d
0014
ffca
ffbd
0071
ffca
006c
0065
ffb6
004b
0006
0013
ffbd
0048
fff7
0000
0000
0000
0000
0000
0000
0000
0000
ff90
005c
0045
ffdb
001a
0016
0030
fff7
001c
ffe6
ffd2
ffa0
ff8e
000b
006c
0030
0000
0000
0000
0000
0000
0000
0000
0000
ff72
ffe0
0003
004a
ffbd
0049
fff8
006c
ffb2
ffbc
006b
ff91
001f
fff1
0036
ff99
0000
0000
0000
0000
0000
0000
0000
0000
ffb0
0036
0003
ffb7
ffb1
ff91
0065
0004
fffb
fff1
ffb9
ffe4
000f
003d
ffd1
0054
0000
0000
0000
0000
0000
0000
0000
0000
0031
ff9f
0056
ffa0
ffd0
ffdb
0038
0096
000b
fff1
fff2
ff90
0018
ff92
ff9c
ff90
0000
0000
0000
0000
0000
0000
0000
0000
001e
002b
004a
0032
0030
0042
0006
ffe4
003a
ffd6
0018
ff97
ffc5
0028
0033
0066
0000
0000
0000
0000
0000
0000
0000
0000
ffc3
0007
ffbf
fff9
0044
ff95
0021
ff8d
fff4
ffb5
ffce
ffb1
ffe8
002a
004b
0031
0000
0000
0000
0000
0000
0000
0000
0000
ff8c
ff95
0073
ffe4
ffac
0058
0011
0049
0043
ffa0
002f
ff9d
0045
0012
ffec
0002
0000
0000
0000
0000
0000
0000
0000
0000
003a
ffd0
0002
ffba
004a
005b
ffc3
ff8e
ff7f
ffe6
0052
0021
0066
ffac
0039
ffec
0000
0000
0000
0000
0000
0000
0000
0000
0016
ff9f
ffee
ffd8
005a
ffec
0086
ffeb
ffbe
ff9e
ffd8
ffe2
0072
0072
005b
0043
0000
0000
0000
0000
0000
0000
0000
0000
ffe2
ffc2
0000
ffc0
fff6
ffbc
0058
ffca
ff99
ff93
ffa1
ffca
0059
ffe6
0097
ff86
0000
0000
0000
0000
0000
0000
0000
0000
ffa8
0023
ffb2
0006
ff74
005c
0014
0042
ff89
ffca
fff3
001f
ff6b
ff79
ff95
003b
0000
0000
0000
0000
0000
0000
0000
0000
0065
0017
003a
005a
ffe0
ffd8
ffaa
ff8f
0066
000c
ffa2
ffbf
002d
ffca
0033
005a
0000
0000
0000
0000
0000
0000
0000
0000
ff7c
0055
ffa0
ff82
0004
ffcb
0030
ffd4
ffff
ffd8
0067
ffc8
002f
0047
0046
0016
0000
0000
0000
0000
0000
0000
0000
0000
0037
0008
0023
003e
0047
fff4
ff91
ff9e
ffaf
0007
ffaf
0047
0014
0022
003f
0020
0000
0000
0000
0000
0000
0000
0000
0000
0062
ffa5
ffe6
ffac
0075
ffa5
ffff
ffa3
001c
0018
ffd3
0023
006a
0073
0004
fff4
0000
0000
0000
0000
0000
0000
0000
0000
ffb5
0076
ff99
ffe5
002b
ffaf
0050
0027
0049
ff80
fff0
0011
ffae
ffa1
ffd6
ffd7
0000
0000
0000
0000
0000
0000
0000
0000
004b
ffb2
ff8b
ffbb
ffa4
ffdb
ffe9
ffc3
0053
0023
ff8c
0043
ff91
ffaa
0000
ffe1
0000
0000
0000
0000
0000
0000
0000
0000
ff89
fffa
ffda
0006
ff98
ffb1
ffaf
003e
ffc7
0052
0047
ffb9
0041
0019
0047
ff84
0000
0000
0000
0000
0000
0000
0000
0000
0085
ff97
0044
ffc8
0026
0054
0051
0064
ffa3
0005
ffca
ff7e
0054
ff79
ffc8
0009
0000
0000
0000
0000
0000
0000
0000
0000
002e
ffc7
0064
005b
fff6
007e
ffc6
007b
fffb
007e
ffd8
0053
004a
ffc5
008e
ffd4
0000
0000
0000
0000
0000
0000
0000
0000
0056
ffbc
0003
ffe6
ffa3
ffef
0069
ffd9
0051
ff94
0056
ff8f
0066
0067
0032
ffe2
0000
0000
0000
0000
0000
0000
0000
0000
0003
0075
ff8f
0016
ff86
ff83
fffe
0045
000d
000c
0045
0022
0067
0022
ffc1
0055
0000
0000
0000
0000
0000
0000
0000
0000
ffdc
ffa6
ffc8
ffdd
ffe2
ffd7
ffd5
ffb9
0017
ffc5
0010
ffeb
ffa2
0038
0039
ff8a
0000
0000
0000
0000
0000
0000
0000
0000
004c
0019
ff98
ff9b
ffbd
ffeb
fff3
007a
fff0
ffd8
0034
ffa1
ffce
ff9a
ff8e
004f
0000
0000
0000
0000
0000
0000
0000
0000
003f
0049
ffba
ffb2
ffae
0045
002c
ffb3
007f
0070
0002
ffd6
0016
ffdf
0038
007a
0000
0000
0000
0000
0000
0000
0000
0000
0018
0000
fffe
003b
0061
004e
0028
ffb3
0054
ff9e
ffae
0058
0027
ffb9
ffa1
ffa6
0000
0000
0000
0000
0000
0000
0000
0000
ff87
ffd9
ffdf
ffa4
004a
fff6
ff72
ff9e
0044
fff8
ff96
002f
ffb9
0034
000e
0028
0000
0000
0000
0000
0000
0000
0000
0000
ffe1
0002
0009
006e
0011
000e
ffa4
ffb1
003b
0038
ff9f
ff94
0069
ffab
ffec
ffa1
0000
0000
0000
0000
0000
0000
0000
0000
ffef
ff8a
fff9
fff9
0065
0075
ffa7
0069
ffa1
ffd8
ffa4
ff82
003d
ffe8
ffe3
0074
0000
0000
0000
0000
0000
0000
0000
0000
ffd6
ffd4
002e
0070
000f
ffcf
002d
ffc7
0077
0089
ffa6
0093
ffbe
ffd0
009e
ffef
0000
0000
0000
0000
0000
0000
0000
0000
ff96
0074
ffdf
ffa6
ffa7
005b
ff9f
ff82
ffc5
0032
ffca
003a
0003
0032
fff9
0064
0000
0000
0000
0000
0000
0000
0000
0000
0057
0056
ffd0
ff8e
003e
0066
ffaa
0066
004d
0045
ffdd
003d
0012
005a
ffa7
001a
0000
0000
0000
0000
0000
0000
0000
0000
0044
0023
0081
ffd5
004d
ffae
0024
fff0
ffcf
0046
0045
0001
002f
0016
ffc5
0036
0000
0000
0000
0000
0000
0000
0000
0000
fff4
0041
0071
ff85
0042
ffe0
0005
ffd1
fff4
000f
0059
0018
ff9f
0019
004c
fffe
0000
0000
0000
0000
0000
0000
0000
0000
0042
0051
0000
ffcd
ffd5
003a
0037
ffa5
fffe
ffb8
0053
ffa6
ffab
ffb8
0010
ffc7
0000
0000
0000
0000
0000
0000
0000
0000
0081
ff9f
ffe7
0033
0005
0020
ffdd
ffef
ffb5
ffac
ffdd
0030
ff9b
0062
ffee
000b
0000
0000
0000
0000
0000
0000
0000
0000
ffe1
ffda
004b
006d
ffb7
ff87
fff9
0033
ff82
ffb7
ffaf
0057
001d
0013
0073
0023
0000
0000
0000
0000
0000
0000
0000
0000
0065
0058
0040
ffa8
ffff
ffe0
ffe6
0027
0017
004d
002d
0003
ffb0
0077
000a
ffc6
0000
0000
0000
0000
0000
0000
0000
0000
ffe3
002c
005b
006c
000c
ffa1
0062
ffc9
fff1
004b
ff94
fffc
ffaf
ffa0
0009
0044
0000
0000
0000
0000
0000
0000
0000
0000
0058
003c
ff90
0040
0064
0095
000b
0036
0047
ff90
ffa1
fffe
ffc8
000d
ffe4
ff81
0000
0000
0000
0000
0000
0000
0000
0000
0010
ff97
0065
ffe0
ffaf
0085
ffe3
0000
003d
ffaa
0005
002f
0043
ffc6
ffd7
0049
0000
0000
0000
0000
0000
0000
0000
0000
0051
ff73
ff9e
ffe4
0002
0070
ff89
ffb5
ff7d
0078
ffab
001d
0038
fff2
0004
ffda
0000
0000
0000
0000
0000
0000
0000
0000
ffdc
ffa2
ffd6
0050
006f
ffba
ffe1
003e
005c
ffd2
fffe
ff8f
ffab
ffb9
0029
ffef
0000
0000
0000
0000
0000
0000
0000
0000
ffde
ff90
008f
0075
fff7
003e
ffd4
003e
0064
ffb5
ffd8
001e
ffcc
002c
ffce
0015
0000
0000
0000
0000
0000
0000
0000
0000
ff9c
ff9b
006d
fff3
ff91
0037
ffb3
0013
0066
ffa8
ffd3
0080
ffc0
000f
ff94
ffa9
0000
0000
0000
0000
0000
0000
0000
0000
ffae
ffe5
ffc7
000b
ffff
ff85
0056
ffcd
007c
000b
004d
008c
005b
ffb3
ffd7
ffbf
0000
0000
0000
0000
0000
0000
0000
0000
fff8
000d
002b
002c
ffd0
ffd5
ff87
ffe9
ffb9
ffe9
0000
ffed
ff9a
000f
ff90
ffaf
0000
0000
0000
0000
0000
0000
0000
0000
ffa9
ff55
0031
0001
ff7f
ffae
ffeb
001e
ffa2
0041
0062
0007
0050
003d
0011
ffae
0000
0000
0000
0000
0000
0000
0000
0000
ffab
ff67
ffd4
ffa2
ffd4
fff2
ffca
0069
fffe
fff1
ff8c
ffa1
ff85
ff91
ff9a
ff76
0000
0000
0000
0000
0000
0000
0000
0000
004d
ff6e
006d
ffea
ff9c
0014
fff0
0011
ffa4
ffc7
ffb8
005f
ff8e
ffb2
ff85
fffd
0000
0000
0000
0000
0000
0000
0000
0000
0002
0026
002d
004e
ffc6
0053
0000
0008
ff9d
ff9c
002b
ffbd
fff3
fffa
ffca
0016
0000
0000
0000
0000
0000
0000
0000
0000
ffc5
fff4
002b
ff66
ff96
0080
ff89
0029
003d
0028
001f
ffab
0011
ffce
ff83
004e
0000
0000
0000
0000
0000
0000
0000
0000
ffd5
fff4
0069
000e
001c
001c
0016
ff82
0003
ffb8
ffd0
ffcf
fff6
ff86
006a
0067
0000
0000
0000
0000
0000
0000
0000
0000
ff70
ff78
006b
ffff
ffd2
ffd1
0042
0065
ff8d
ffc4
ffe2
fff7
ff78
ffa3
ffd3
fff5
0000
0000
0000
0000
0000
0000
0000
0000
ff8a
ff9f
fff3
0019
ffa9
ffcf
0001
ff87
ff82
0039
0076
ffcd
002a
ffb2
000e
ff97
0000
0000
0000
0000
0000
0000
0000
0000
0010
ffb5
0050
0007
0002
ffeb
ffb2
0075
0055
0030
ffd3
003a
ff9b
ffb1
001a
0010
0000
0000
0000
0000
0000
0000
0000
0000
ffed
ffe0
ffe3
ff7d
0005
ffe0
ffb6
ffeb
ff91
ff9b
0063
0054
fff7
002c
000a
ffd0
0000
0000
0000
0000
0000
0000
0000
0000
ffc5
ff95
ff96
fff3
ffed
fff7
ffe5
0052
006a
ffc9
000c
0039
0060
ffa8
ffc7
ff91
0000
0000
0000
0000
0000
0000
0000
0000
000d
0049
ffd7
0006
0011
001c
000b
ff92
fff2
ff93
ffc3
001e
0035
fff3
ffd5
ffde
0000
0000
0000
0000
0000
0000
0000
0000
ff83
0017
002e
ff76
ffef
ff96
004e
002c
0059
0037
0068
ffa8
ff7a
ff8e
0009
ffb5
0000
0000
0000
0000
0000
0000
0000
0000
ff90
fff5
ffcb
0009
ff98
0000
0027
ffdb
ff83
0021
ffde
002e
ff70
ffd2
ff71
ffa1
0000
0000
0000
0000
0000
0000
0000
0000
0083
000e
0034
0058
0062
ffaf
005e
ffa3
0011
0055
0072
0064
0005
ffde
0060
ff9d
0000
0000
0000
0000
0000
0000
0000
0000
ffda
fff7
0022
0002
ff97
0070
ffc8
ffa6
008c
007c
0056
0037
006a
000d
ffad
0068
0000
0000
0000
0000
0000
0000
0000
0000
004d
000a
fff4
001e
0009
ff9e
001f
ffca
ff91
fff2
000b
000f
ffdf
0001
001a
001e
0000
0000
0000
0000
0000
0000
0000
0000
ffe4
0021
0040
fff3
fffb
0000
fff6
ff9a
fff9
0017
005f
ffa4
ffc7
006c
ffa1
0057
0000
0000
0000
0000
0000
0000
0000
0000
0014
0067
002c
0036
ff92
0012
0047
ffe3
006c
fff5
0053
ffdf
005f
000a
ffc7
ffaa
0000
0000
0000
0000
0000
0000
0000
0000
007e
0060
ffbd
000f
ff8c
0039
0030
003b
fffa
0080
ffc9
004a
fffd
001b
0018
ffb0
0000
0000
0000
0000
0000
0000
0000
0000
0006
0038
0071
001a
ffc4
ff8a
002b
ffb9
ff88
0012
0038
ffdf
ff8a
ffea
002c
ff99
0000
0000
0000
0000
0000
0000
0000
0000
ff8d
ffa9
fff0
005e
0079
005e
0018
005f
ffbe
ffe8
ffa3
ffe7
0079
ffca
ffcc
ffd0
0000
0000
0000
0000
0000
0000
0000
0000
ffaa
ffef
0005
003c
000a
0043
0000
0060
ffe0
0007
ffd9
ff86
007c
0007
fff3
ff83
0000
0000
0000
0000
0000
0000
0000
0000
002d
ffcb
ff8d
003f
ffbb
000e
ffd7
ffb2
003f
ffd3
ffb6
006b
0071
ffe7
ffa7
0011
0000
0000
0000
0000
0000
0000
0000
0000
0046
ffd9
0050
0026
0023
ff84
ffa0
0076
fff7
0026
fff4
ffed
0019
0021
ffcc
0006
0000
0000
0000
0000
0000
0000
0000
0000
ffe3
ffa6
0066
ffcc
003f
0070
001b
0044
ffcb
ffb5
0079
ffb8
0032
fff2
006d
ffcc
0000
0000
0000
0000
0000
0000
0000
0000
0005
0048
0060
ff7a
004c
0066
ff94
fff3
ff87
002c
001d
005a
ffd3
ff8d
ffa0
004a
0000
0000
0000
0000
0000
0000
0000
0000
ffbe
fff3
0048
0043
ffc2
ff8d
ff9f
0047
0032
0023
0043
ffe3
0031
ffdd
0036
ffe5
0000
0000
0000
0000
0000
0000
0000
0000
0022
006a
ffe6
fff8
006e
0010
fff1
004d
ffd3
ff8e
ffc1
ffa3
000f
0032
0068
ffc4
0000
0000
0000
0000
0000
0000
0000
0000
0049
003d
0016
001e
0032
ffbd
ff93
0049
0049
005a
ffe6
005a
002e
ffb3
ff8a
003c
0000
0000
0000
0000
0000
0000
0000
0000
ffcb
000d
0001
ff7e
005a
0043
001c
fffc
0044
003f
ffba
ffd4
002a
0024
ff90
0059
0000
0000
0000
0000
0000
0000
0000
0000
0024
ff85
fff7
ffc2
0041
007f
002f
003d
0022
006c
ff82
ffc5
0050
0007
0045
ff94
0000
0000
0000
0000
0000
0000
0000
0000
0082
ffcf
ffdd
ffe2
005d
ff89
ffb3
0005
ffd6
0043
0003
0041
0055
000a
0017
0044
0000
0000
0000
0000
0000
0000
0000
0000
ffb0
ff74
0002
0049
0053
ffeb
ffb5
ffd8
0001
ffdf
003c
0007
ff84
ffde
0014
ff7c
0000
0000
0000
0000
0000
0000
0000
0000
001b
ff90
0052
0038
ff9f
ffcd
ffcf
0011
ffa2
0000
001b
0022
0002
fffe
fffc
ffb8
0000
0000
0000
0000
0000
0000
0000
0000
0000
0000
0000
0000
0000
0000
0000
0000
0000
0000
0000
0000
0000
0000
0000
0000
0000
0000
0000
0000
0000
0000
0000
0000
005e
003a
ff98
0057
0073
ff93
ffb1
0029
ffa8
fff9
0067
ffa9
ff78
0002
ffd2
fff3
0000
0000
0000
0000
0000
0000
0000
0000
006b
0028
ffeb
0019
ff9f
ffe4
002d
ff9e
ffc8
ffbf
ffdc
005b
004b
0054
ff97
0070
0000
0000
0000
0000
0000
0000
0000
0000
0000
0000
0000
0000
0000
0000
0000
0000
0000
0000
0000
0000
0000
0000
0000
0000
0000
0000
0000
0000
0000
0000
0000
0000
0010
ffda
004e
ffbf
0019
005b
0049
ffe4
ffe0
0072
ffcf
ffaf
fffe
007b
001f
007e
0000
0000
0000
0000
0000
0000
0000
0000
0012
0079
ffa5
fff8
fffb
0009
ffd0
0036
ffa2
fff3
ffeb
ffa0
ffb2
0049
0009
006d
0000
0000
0000
0000
0000
0000
0000
0000
0000
0000
0000
0000
0000
0000
0000
0000
0000
0000
0000
0000
0000
0000
0000
0000
0000
0000
0000
0000
0000
0000
0000
0000
0022
ff94
002b
003e
0008
ffb4
0041
ffaa
ffda
000f
0034
fff0
0051
003d
ffd9
0082
0000
0000
0000
0000
0000
0000
0000
0000
0047
fff9
ffff
ff8f
0062
ffcb
0039
ffbf
ffec
0078
0039
002b
fff0
001e
0022
0066
0000
0000
0000
0000
0000
0000
0000
0000
0000
0000
0000
0000
0000
0000
0000
0000
0000
0000
0000
0000
0000
0000
0000
0000
0000
0000
0000
0000
0000
0000
0000
0000
ffbd
001c
ff96
ffba
ffe4
ffe2
0094
ffc3
ffb5
0042
004d
ffb2
ffab
0019
0000
ff8e
0000
0000
0000
0000
0000
0000
0000
0000
ffbe
0048
ff95
001e
ff99
0008
0069
0064
0080
0003
ffee
ffa9
0026
ff8c
ffd7
ffb4
0000
0000
0000
0000
0000
0000
0000
0000
0000
0000
0000
0000
0000
0000
0000
0000
0000
0000
0000
0000
0000
0000
0000
0000
0000
0000
0000
0000
0000
0000
0000
0000
ffa5
0030
ffde
ffc3
0000
005e
001f
005e
ffc7
ffc9
002e
ffab
ffc9
fff8
006e
ff99
0000
0000
0000
0000
0000
0000
0000
0000
0011
0007
0034
ffea
0075
ff7f
0010
0077
ffad
005a
fff0
0045
ff9f
0034
0002
ffa5
0000
0000
0000
0000
0000
0000
0000
0000
0000
0000
0000
0000
0000
0000
0000
0000
0000
0000
0000
0000
0000
0000
0000
0000
0000
0000
0000
0000
0000
0000
0000
0000
0020
ffda
0012
ff8c
ffe5
000c
ff90
fff1
ffc2
0058
0052
ffc1
ffa6
ffb2
ff91
ffdc
0000
0000
0000
0000
0000
0000
0000
0000
0068
0065
005d
0052
ffe5
fff9
0044
0032
ffbc
000a
fff5
ffab
0071
0005
ff8d
004b
0000
0000
0000
0000
0000
0000
0000
0000
0000
0000
0000
0000
0000
0000
0000
0000
0000
0000
0000
0000
0000
0000
0000
0000
0000
0000
0000
0000
0000
0000
0000
0000
ffd2
ffdd
ffda
fffe
ffb9
ff84
0008
ff7c
0067
0020
ffd5
004f
0007
0010
0068
0000
0000
0000
0000
0000
0000
0000
0000
0000
ffcb
0020
001b
0045
0037
0001
000b
0061
ffb2
0045
ff87
005d
005c
ff9e
ffbe
ffdc
0000
0000
0000
0000
0000
0000
0000
0000
0000
0000
0000
0000
0000
0000
0000
0000
0000
0000
0000
0000
0000
0000
0000
0000
0000
0000
0000
0000
0000
0000
0000
0000
0040
ffda
fff8
ffd5
0057
ffa1
0027
ff8e
ffae
002a
000c
ffec
ff98
002f
ffae
fffb
0000
0000
0000
0000
0000
0000
0000
0000
0070
0063
0026
0038
ffa9
ffc2
ffac
fffa
ffe3
001e
0026
ffb7
000d
ffd6
ff9f
0008
0000
0000
0000
0000
0000
0000
0000
0000
ffc4
0028
ffd7
0011
0054
fffa
ffd6
0016
000c
004f
002e
fffc
ffb4
000d
0007
ffc0
0000
0000
0000
0000
0000
0000
0000
0000
ffd8
0076
0085
fff9
0000
006e
006c
ffab
ffd7
001d
ffe2
0031
005c
ffbf
fff3
008f
0000
0000
0000
0000
0000
0000
0000
0000
ffd4
0046
ffa3
0051
0036
0033
ffdd
ffe3
000b
ff9d
004d
006e
ff8f
0016
0093
0038
0000
0000
0000
0000
0000
0000
0000
0000
0030
ffc0
fff4
ff88
004d
0075
ffc7
ffd2
007e
006e
ffaa
0006
ffd4
ffe2
ffe8
0034
0000
0000
0000
0000
0000
0000
0000
0000
ff9e
0007
002a
000f
0061
ffb6
002e
ffd3
002d
ffda
0012
0025
0012
ff9b
0057
0008
0000
0000
0000
0000
0000
0000
0000
0000
fff3
ffc2
ffcf
ffdc
000f
ffd7
fff4
ffcc
002b
ffde
ffcb
fff9
ff96
ffe4
ffbd
ff8f
0000
0000
0000
0000
0000
0000
0000
0000
ff97
0050
0034
ffd0
0071
002a
ff8b
006a
005e
002c
0027
0009
0048
002b
ff8b
ffa9
0000
0000
0000
0000
0000
0000
0000
0000
ff98
0005
0055
0044
fff8
ffea
fff0
ffab
0032
ffec
ffc3
fffe
ffa7
0046
005e
ffb5
0000
0000
0000
0000
0000
0000
0000
0000
006b
ffcb
0017
ffdb
0046
0048
ffe8
000b
0052
005e
001e
fff9
0041
ffd1
ffaf
007d
0000
0000
0000
0000
0000
0000
0000
0000
001b
0018
ffbf
005d
ffd9
fffd
ffeb
0006
ff93
fff8
007c
0060
0066
ff9f
ffc1
0045
0000
0000
0000
0000
0000
0000
0000
0000
ff80
ff93
0065
0062
ffdf
0006
ff80
0043
0047
0074
000f
ffb0
ffeb
005c
0016
002a
0000
0000
0000
0000
0000
0000
0000
0000
ffd0
ff88
ffe1
ffc6
0012
001b
0044
ffcc
0083
ffa8
0046
ffd0
0003
0044
0070
ffe5
0000
0000
0000
0000
0000
0000
0000
0000
ffb3
003a
005e
0066
ff9c
0071
fff1
ffa1
0016
ffb6
ffd1
ffda
ffe6
fffb
005b
ffa4
0000
0000
0000
0000
0000
0000
0000
0000
fff0
0015
ffeb
ffd1
ff8e
0022
ffff
ffb4
000c
0034
ffc2
ff99
004e
0029
fff0
002c
0000
0000
0000
0000
0000
0000
0000
0000
0017
ffce
0068
0065
ff83
0033
0016
fffc
ffcf
ffdd
ffaf
0003
0071
0071
ffe9
0065
0000
0000
0000
0000
0000
0000
0000
0000
002c
ff94
ffd8
0026
006f
001a
ffb4
0047
ff90
0009
006b
0072
003d
0066
0034
002e
0000
0000
0000
0000
0000
0000
0000
0000
005f
ffbf
ffa5
ff9a
ff7d
0061
ffbe
ffc4
ffeb
0064
ffae
ffa5
0032
0006
ffb8
fffe
0000
0000
0000
0000
0000
0000
0000
0000
005a
004f
ffef
ffef
0029
ffe6
005b
fff1
006e
ff73
0007
ffba
ff98
001d
0029
ff97
0000
0000
0000
0000
0000
0000
0000
0000
004c
ffe7
ffa3
ffcb
ffe5
ffe8
ffeb
fff1
0060
ffd4
ffbe
ff71
ffde
ff87
001d
000c
0000
0000
0000
0000
0000
0000
0000
0000
000e
ffb1
0071
006a
000c
0018
0044
007a
000e
fff0
0008
ffaf
004c
ffed
005d
0054
0000
0000
0000
0000
0000
0000
0000
0000
0010
fff4
007d
ffdc
0039
fffd
ffcc
0048
ffc5
0034
ffeb
ffa8
ffbb
ffd8
0070
ffd3
0000
0000
0000
0000
0000
0000
0000
0000
006d
003f
fff3
ff8d
002e
fff6
0036
003d
ffa9
ff99
0019
0033
ff86
0065
ffe5
fff9
0000
0000
0000
0000
0000
0000
0000
0000
ffb0
0058
007f
ffe9
ff9d
002f
ffc5
fffa
0054
ffa1
0056
0046
ffc3
0025
ffc6
005e
0000
0000
0000
0000
0000
0000
0000
0000
ffe1
0048
ff8d
0065
ffb5
ffe9
ff7c
ff9a
ffac
0063
ffb1
0024
ffb9
ffcd
ffed
0049
0000
0000
0000
0000
0000
0000
0000
0000
001f
ffeb
ff99
ffd6
0067
0043
0016
ff6e
ffef
002c
ffe1
fff5
003b
ffea
0029
ffbf
0000
0000
0000
0000
0000
0000
0000
0000
004f
0064
0039
006e
ffc4
0049
0045
fff9
ffa9
0085
008a
ffd6
002e
000f
0046
006c
0000
0000
0000
0000
0000
0000
0000
0000
000b
0023
ffbf
ffdb
002f
0021
0005
ffa4
005c
ffcd
ffc4
ffb9
0049
0058
ff9c
0080
0000
0000
0000
0000
0000
0000
0000
0000
ffa1
ffa1
ffe6
ffb6
004a
ff9d
fff8
002d
ffb9
0004
0067
ffd1
ffd1
ff95
007e
ff9d
0000
0000
0000
0000
0000
0000
0000
0000
0006
ffa4
0079
0054
006b
ff8a
0040
ffe0
ffe5
ffcc
ffd2
ffbb
fff6
fff3
006d
ffab
0000
0000
0000
0000
0000
0000
0000
0000
ff84
0026
0009
0008
0044
0074
ff72
0009
ffe4
ff9c
ffa2
ff8c
007a
ff9f
ffe9
0031
0000
0000
0000
0000
0000
0000
0000
0000
ff95
0010
001d
007a
ffa7
003a
0051
fffe
0050
fff4
ffbc
ffea
0016
ff87
ffa3
0046
0000
0000
0000
0000
0000
0000
0000
0000
006e
003f
002e
0044
ffbf
002d
fffc
006e
ffd6
0005
0005
ff78
002d
ffe8
ff8f
ffca
0000
0000
0000
0000
0000
0000
0000
0000
ff8b
ff9f
ff99
ffc6
ff99
ff9a
0094
ffad
ffee
0038
ffab
ffd2
0079
ffc9
ffbe
fffd
0000
0000
0000
0000
0000
0000
0000
0000
ffb3
0021
0033
ffd6
ff8b
ffa3
ffb2
fffd
ffa7
0029
0081
ffb7
0032
006c
0056
0031
0000
0000
0000
0000
0000
0000
0000
0000
ffd2
ffa9
004b
002c
ff92
ffd5
ffc3
0031
ffb7
fff1
ffc6
0055
fffd
006f
006c
000b
0000
0000
0000
0000
0000
0000
0000
0000
0037
fff5
ffed
0026
ff92
004f
ff95
ffda
003b
002e
ff85
0031
ffbe
fff7
ffa3
0015
0000
0000
0000
0000
0000
0000
0000
0000
fffe
ffeb
ffa1
0049
ffdd
ffae
0066
007a
fff2
fff2
0050
ff9b
005b
0031
ff9b
fff8
0000
0000
0000
0000
0000
0000
0000
0000
003b
ff8c
005e
0049
ff9c
ff9e
ffb7
005b
fff1
006e
0089
ffac
000c
ffa6
002f
ffc4
0000
0000
0000
0000
0000
0000
0000
0000
ffd5
0003
0077
ffaa
0068
ffa6
006a
0003
004f
fff6
fffa
fff4
ff8a
ffb5
ffe1
ffd6
0000
0000
0000
0000
0000
0000
0000
0000
0029
0024
ffbf
0081
0005
004c
ffd7
0049
000d
ffeb
ffdb
005e
ffdf
ffcd
ffc2
ffbb
0000
0000
0000
0000
0000
0000
0000
0000
0076
0015
0061
0026
ffb7
001f
ffb0
0014
ffed
0064
ffc6
0001
0031
ff97
ffb9
ffee
0000
0000
0000
0000
0000
0000
0000
0000
0052
0050
0051
ffca
003b
ff72
0029
fff1
001f
0046
0074
001e
007f
ffe7
000f
ffd4
0000
0000
0000
0000
0000
0000
0000
0000
fff0
0024
ffd5
ffcb
0003
ffe3
0043
0045
ffd8
ffd8
002f
fff0
ffdd
006e
005d
0055
0000
0000
0000
0000
0000
0000
0000
0000
ffc6
ffe1
0028
000b
008f
001f
0016
0066
0047
0057
0013
006a
ffe4
ffd2
0043
008f
0000
0000
0000
0000
0000
0000
0000
0000
ffc3
ffcf
ffea
0056
0051
006d
0054
ffa9
003e
0072
ffec
0066
0006
ff9b
0010
fffd
0000
0000
0000
0000
0000
0000
0000
0000
0032
ffcd
ffb0
0053
ff90
001d
0055
0055
ff98
003e
ffb3
0021
ffde
ffb8
0060
ff91
0000
0000
0000
0000
0000
0000
0000
0000
ffb6
0068
001f
ffb7
0052
ff8b
ffc8
ffd2
ffd7
002b
006d
002b
006d
ffbb
ffa6
ffca
0000
0000
0000
0000
0000
0000
0000
0000
0007
ffcc
0061
fff8
ff9a
ffad
ffcf
0054
0059
ffc1
004f
008d
ffed
0070
007b
ffcf
0000
0000
0000
0000
0000
0000
0000
0000
0031
ffd2
ffe0
0010
ffd0
ffa8
ffbf
0073
ffd3
001e
ffde
001f
ffd0
0058
0037
0077
0000
0000
0000
0000
0000
0000
0000
0000
0020
ff9b
ffac
0030
fffc
0012
0000
006c
001a
003a
0053
0013
ff88
ffc2
0062
ffca
0000
0000
0000
0000
0000
0000
0000
0000
0078
ff9f
003d
ffd5
ffcb
ffe3
fffb
ffec
000e
ffcb
ffaf
ff9e
006d
0017
ffe6
ffdb
0000
0000
0000
0000
0000
0000
0000
0000
006f
0029
004e
ffb9
0075
0039
0025
ff79
ffb3
ffa0
fff9
0000
0065
ffbd
ffc7
fff3
0000
0000
0000
0000
0000
0000
0000
0000
ff99
0066
0027
004e
ff99
003a
0026
fff0
ffee
ff98
ffc2
004c
ffd6
ffdc
ffe4
ffd3
0000
0000
0000
0000
0000
0000
0000
0000
0025
ff9a
0067
ffe9
0053
0032
ffe3
ffad
0047
005b
ffea
002d
fff0
0042
0074
ff87
0000
0000
0000
0000
0000
0000
0000
0000
fff9
ff97
0016
ff85
0057
0009
ffc3
0000
001e
0000
ffef
0048
ffd7
ffc8
ffe9
fff9
0000
0000
0000
0000
0000
0000
0000
0000
ffac
0033
ff6f
ffe4
ffb8
ffea
002d
ffbe
0031
0030
001f
ffb9
ffd9
ffbe
ffb6
ffa3
0000
0000
0000
0000
0000
0000
0000
0000
ffd7
fff4
0024
ffee
0076
fff9
003e
001e
000e
0047
ff8a
0000
0066
ffcd
ff8e
fffb
0000
0000
0000
0000
0000
0000
0000
0000
000f
002c
ffd4
0035
ffe9
004e
ffb6
fff4
fffd
ffd8
0024
004f
001a
0021
ffec
0002
0000
0000
0000
0000
0000
0000
0000
0000
000e
004c
ffaa
001a
ff87
0000
ffd2
ffe3
003b
ffd1
006c
001c
ff9e
001e
0022
0057
0000
0000
0000
0000
0000
0000
0000
0000
0000
ffc0
ffa2
ffd5
0044
0058
0009
0074
0052
ffce
0048
ffa3
0078
003b
002d
ff7b
0000
0000
0000
0000
0000
0000
0000
0000
ff95
ffc0
0006
000b
0049
006b
ffc5
ff73
0024
001e
ff86
0032
005c
ffdd
0011
ffdb
0000
0000
0000
0000
0000
0000
0000
0000
ffbd
ffae
ffb2
ffc9
ffdc
ffea
0030
ffc9
005c
0038
ffbc
ff84
001b
fff3
0002
ff9a
0000
0000
0000
0000
0000
0000
0000
0000
0026
0022
006b
ffd6
001c
0077
0056
0060
005f
ffaf
0045
ffa4
ff93
ff9b
ff8f
ffaf
0000
0000
0000
0000
0000
0000
0000
0000
0016
0078
0083
ffdf
0077
000a
ffb1
ff72
ffd2
ffca
006d
ffeb
ff7f
0031
003c
ffff
0000
0000
0000
0000
0000
0000
0000
0000
0045
0025
ffe8
005e
0002
001c
ff9a
0023
0071
ffb4
fff0
ff98
ffa1
ffbf
ffa9
ffd9
0000
0000
0000
0000
0000
0000
0000
0000
ffa2
0041
0062
0061
0088
ffea
fffd
0027
0049
ff7e
ffcb
ffde
0064
fffd
ffd1
0001
0000
0000
0000
0000
0000
0000
0000
0000
004f
0049
ffa3
ffdd
007f
ff8f
0045
ffd7
0000
0023
ff92
006c
fffc
ff9b
002d
0039
0000
0000
0000
0000
0000
0000
0000
0000
0075
004e
003f
ffc0
ffc6
003a
ffea
000c
ffff
fff4
003c
ff90
ffdc
ffd2
000a
0059
0000
0000
0000
0000
0000
0000
0000
0000
fffb
0069
0044
0019
fff5
004e
0027
0028
000c
0079
ff94
002b
ff78
0053
0025
ff9c
0000
0000
0000
0000
0000
0000
0000
0000
ffa8
ffc2
0003
0075
ffdb
ffd3
001c
ffd1
ffd7
ffbb
ffca
0070
ffd3
0051
ff81
ffa8
0000
0000
0000
0000
0000
0000
0000
0000
0025
ffab
001b
ffe6
003a
ffe8
0044
006c
0037
ffd9
0092
ffd1
0063
ffd4
0008
0034
0000
0000
0000
0000
0000
0000
0000
0000
0076
005f
0004
ffb6
006c
fffa
ffb9
001a
0017
001b
0058
005f
ffc6
0042
002c
006b
0000
0000
0000
0000
0000
0000
0000
0000
ffca
0045
0041
ff96
0010
0036
0000
0017
ff90
ffad
002c
008e
001a
ff80
ffc5
ffa7
0000
0000
0000
0000
0000
0000
0000
0000
000b
003a
ffed
ffed
003f
ffe1
ffb2
004c
0063
ff8d
ff8f
ff98
0084
ff8f
ff9a
004d
0000
0000
0000
0000
0000
0000
0000
0000
ffa1
ffaa
003e
ff6b
002e
ff7a
ff8b
ff71
0017
004f
0058
0068
ffec
000c
0083
ff82
0000
0000
0000
0000
0000
0000
0000
0000
ffd0
ff87
fff6
0010
0012
0026
0073
ffa8
ffca
0053
ff98
ffc7
ffd2
ffdc
001c
003e
0000
0000
0000
0000
0000
0000
0000
0000
ffad
ffaa
0068
005f
003e
0056
ff7d
002d
0072
ff9b
ffb6
ffdc
ff92
ffb6
0044
ffa4
0000
0000
0000
0000
0000
0000
0000
0000
006f
005e
ffbd
ffbd
006c
ffa2
0018
ffbf
ffee
000c
fffc
ffa3
0041
0070
000a
ffcb
0000
0000
0000
0000
0000
0000
0000
0000
ffaa
ffc0
ffd2
000a
003c
0065
ff9e
0075
0017
ff8f
0000
0075
0049
ffcc
005a
ffd6
0000
0000
0000
0000
0000
0000
0000
0000
ff89
000b
ffb8
005c
007e
008f
ffb5
ff8a
ffb9
ffa8
ffa9
0056
001f
ffaf
ffcc
fff9
0000
0000
0000
0000
0000
0000
0000
0000
ffaf
0047
001b
ffbd
ff67
001b
ffc8
0012
004b
0049
ff87
001e
ffd5
ffbb
0008
ffc8
0000
0000
0000
0000
0000
0000
0000
0000
ffde
ffdb
ffcc
008f
ffc2
ffd4
0015
007f
ffb4
ff92
ffb2
ffb6
0030
fff2
0077
006d
0000
0000
0000
0000
0000
0000
0000
0000
ffac
ffad
0000
0053
ffe5
0078
0021
ffa2
0023
0038
0013
003b
0048
001f
fff7
ffd9
0000
0000
0000
0000
0000
0000
0000
0000
ffee
ffcf
ffa3
ff9f
0088
ffa5
0092
002c
ffb6
ff9c
fff8
ffb6
ff96
0057
ffc7
0043
0000
0000
0000
0000
0000
0000
0000
0000
ffa6
ffa7
ffdf
0078
006c
0069
ffbb
ff8b
0054
001a
ffbd
fff1
0052
ffb3
ffd3
ffe3
0000
0000
0000
0000
0000
0000
0000
0000
ff7a
0076
ffac
002f
001c
ffcc
ffe6
0053
002f
ff8a
0005
ffd4
ff71
000d
0037
0013
0000
0000
0000
0000
0000
0000
0000
0000
007a
0005
ffae
003e
fffe
000d
0024
ffcc
0081
ff97
0060
0076
004d
fff3
005b
ff97
0000
0000
0000
0000
0000
0000
0000
0000
007d
0056
ffd2
007d
0066
ffc6
ffb9
0051
002e
0061
ffc3
0045
0025
ff78
ffbe
fffc
0000
0000
0000
0000
0000
0000
0000
0000
ffc4
0046
ffed
0004
0032
007f
ffe0
005b
ff98
ff9c
ff94
002e
ffdc
ffb2
0014
ffdd
0000
0000
0000
0000
0000
0000
0000
0000
002d
001d
ffac
0073
0047
ffb4
0014
003b
ffc1
ffeb
ffc1
ffc0
ff8d
007b
003b
0028
0000
0000
0000
0000
0000
0000
0000
0000
004f
004d
0061
ffa0
ff81
ffc9
fff6
0062
ffba
0061
ffea
ff85
ffbe
002b
0050
ffd7
0000
0000
0000
0000
0000
0000
0000
0000
0045
ff9c
0029
fff3
002b
ffd7
0034
0078
ffeb
ffa1
ffd8
0004
0032
0040
0000
fffe
0000
0000
0000
0000
0000
0000
0000
0000
0018
ffee
003a
0076
0014
ff65
ff88
003b
ffb7
000a
fff9
ffb3
ffd9
002b
ffd8
007f
0000
0000
0000
0000
0000
0000
0000
0000
0028
ffcf
0012
0034
007c
ff9a
ffac
ff95
ff9b
ffa1
ffd2
0056
004a
0051
ffbe
0052
0000
0000
0000
0000
0000
0000
0000
0000
ffb9
0059
ff97
ff91
ffb7
007f
004c
0005
ffbf
fff8
ffeb
ffb0
ffc4
003f
000d
0063
0000
0000
0000
0000
0000
0000
0000
0000
0048
ffaf
0044
ffd0
fffc
0053
ffd0
ff8d
0043
0007
002c
0033
0063
ff93
ff7d
ff74
0000
0000
0000
0000
0000
0000
0000
0000
fff7
ffe2
0075
001e
ffa3
004c
ffd4
0066
0059
0021
0056
ffaf
006b
000a
ffc2
ffb6
0000
0000
0000
0000
0000
0000
0000
0000
ffaf
ffad
003d
ffa7
ffc8
0037
ffa0
ff9a
006c
ffb4
004c
0047
ffd2
ff9c
fff8
ffa3
0000
0000
0000
0000
0000
0000
0000
0000
ffcb
0090
ffbb
ffeb
ffd6
ffb4
ffb5
0065
0056
001d
ff91
004c
ffb4
ff9b
0063
0078
0000
0000
0000
0000
0000
0000
0000
0000
fff5
0022
003a
ff9a
0073
ffc0
0017
ffc9
ffb3
ffad
fff5
0065
fff4
fffc
0051
ffd1
0000
0000
0000
0000
0000
0000
0000
0000
0065
0039
003f
ffb6
0045
ffd3
0037
ffec
0025
0059
004a
ffd1
0020
ff91
ff91
ff81
0000
0000
0000
0000
0000
0000
0000
0000
ffe5
006c
004e
ffb9
ffbb
003b
002e
003a
fffe
000f
0062
000e
003f
0053
ffac
0002
0000
0000
0000
0000
0000
0000
0000
0000
006b
fff4
0025
ffd5
0025
0044
ffe8
0050
0063
fff1
0039
ffd4
0024
ffe7
ffa2
0027
0000
0000
0000
0000
0000
0000
0000
0000
0008
0062
0063
001e
007a
ff71
0006
ff9d
ffca
ffac
0055
0040
ffe6
ff8c
ffe0
0000
0000
0000
0000
0000
0000
0000
0000
0000
fff1
ff8c
004c
0043
ffb4
fff7
002f
ffb1
0015
0047
003c
ffbb
0032
fff8
0020
001b
0000
0000
0000
0000
0000
0000
0000
0000
003e
006b
ffd6
0083
fff4
002d
ffb9
0047
ffa8
ffd9
ff9a
000b
ffd4
0069
ffc9
004b
0000
0000
0000
0000
0000
0000
0000
0000
ffe1
000c
002c
0028
0042
0042
ffd6
ffee
ffcc
005b
ffb5
ffc3
ff9a
003f
0038
0051
0000
0000
0000
0000
0000
0000
0000
0000
004b
0011
ffb3
002f
006e
ffa3
ffa4
ffa9
ffbf
ffb6
005f
ff99
006a
ffc4
ffde
ffe1
0000
0000
0000
0000
0000
0000
0000
0000
ffe4
0016
005d
ffd6
0081
0030
0006
0053
ffed
ff9b
ffed
ffee
006c
0023
0076
fff4
0000
0000
0000
0000
0000
0000
0000
0000
0013
0027
fff4
0017
0070
000d
0024
0007
ffd8
ffee
ffff
0015
ff97
0032
003f
ff5e
0000
0000
0000
0000
0000
0000
0000
0000
ffb4
0042
004d
fffb
ffd8
ffae
005c
001d
0088
002e
ff6c
0034
ffde
0056
0041
ff45
0000
0000
0000
0000
0000
0000
0000
0000
ff91
ff91
ff8a
0051
ff98
ffad
ffe7
006c
0041
ffd9
ffdd
0038
ffc5
ffc6
0008
ff66
0000
0000
0000
0000
0000
0000
0000
0000
004b
ff87
ff9a
ffe9
0054
ffd7
0056
ff8c
0047
ffbd
fffe
0031
ff97
005b
fff5
fff4
0000
0000
0000
0000
0000
0000
0000
0000
002d
ffd3
ffe4
0050
ffdb
0066
004b
001d
ff95
0042
ff90
0071
ff8e
ffb1
ff91
ffa8
0000
0000
0000
0000
0000
0000
0000
0000
0048
ffc5
000c
0016
0058
000e
ffe5
ffa9
0043
ffee
0027
000d
ffe8
0063
000c
0057
0000
0000
0000
0000
0000
0000
0000
0000
ffd2
005c
0048
ff8b
ffd6
ff85
000d
ff8b
004c
ffe0
ffe4
0006
0028
ffd6
ff9a
ffe5
0000
0000
0000
0000
0000
0000
0000
0000
000b
0064
0071
ffe7
ffc4
0054
000b
ffc3
003d
002b
ffad
ffe8
002f
ffc7
006f
ffbd
0000
0000
0000
0000
0000
0000
0000
0000
0000
ff8f
ffb7
fffe
0059
ffdc
ffbe
ffc5
0047
0015
ffb9
0045
fff4
005d
ffc1
ffc9
0000
0000
0000
0000
0000
0000
0000
0000
ffc2
ffbf
fff0
ff9e
0034
ffc2
0022
003a
0026
0014
ffd6
ffbd
ffa6
ffcf
ffe4
ffde
0000
0000
0000
0000
0000
0000
0000
0000
ffeb
ff83
0061
ffb9
005f
ffb5
0044
ffac
ffcf
ffe0
ff92
ff79
0027
004d
ffdc
ffb1
0000
0000
0000
0000
0000
0000
0000
0000
005b
003c
0034
ff83
ffa5
001a
ffe8
0060
0017
ffe1
006d
0048
000f
0018
fffc
0008
0000
0000
0000
0000
0000
0000
0000
0000
ffc1
ffc1
ff6e
ffd9
ffec
0016
ffb5
0053
ffa6
ffd4
ffb1
0015
ffb5
0024
ffe6
fff3
0000
0000
0000
0000
0000
0000
0000
0000
0057
fff3
0005
ffb9
0000
ffe0
ff82
ffe5
0039
0005
ff6a
0040
ff95
0024
002f
ffb6
0000
0000
0000
0000
0000
0000
0000
0000
008c
003a
002c
ff9d
001a
000c
004d
fff1
ff76
003e
001b
0040
0000
0026
0040
ffed
0000
0000
0000
0000
0000
0000
0000
0000
fff4
ffee
0005
ffa1
0048
003d
ffc1
004a
ff93
fff8
006d
fffa
ffe0
0047
006d
ffee
0000
0000
0000
0000
0000
0000
0000
0000
ffc3
0019
003f
0008
0077
0017
0073
0031
ffe4
ffde
ffa6
0066
0053
ffa4
ffb6
ff93
0000
0000
0000
0000
0000
0000
0000
0000
ffaa
ffa0
ffa6
0067
0023
ff83
ffa2
ffa7
0005
0089
ffcf
ff88
000e
ff93
ffc1
0035
0000
0000
0000
0000
0000
0000
0000
0000
007d
ffa6
ffff
005c
ffa2
ffd8
fff2
ffbf
ff88
ffcf
0031
ffef
ff99
ffd9
007b
ffc7
0000
0000
0000
0000
0000
0000
0000
0000
ffdb
ffcb
ff8b
ffb4
ff98
0046
007e
ffe8
fff2
ffe7
ff8f
ffb8
ffb3
ff91
007b
005b
0000
0000
0000
0000
0000
0000
0000
0000
005f
002d
0016
005d
0027
0079
ff9e
ffad
0033
0000
0029
0054
ff75
0079
fff6
0017
0000
0000
0000
0000
0000
0000
0000
0000
0040
ff91
fff9
ffd5
ffb9
000d
ff97
ffa0
004f
ffd7
0074
0039
ffc1
0055
ff97
0064
0000
0000
0000
0000
0000
0000
0000
0000
0040
fffd
0020
0057
0042
ff96
ffe6
ffeb
0023
005e
ffc5
0055
ff7d
006e
fff1
ffac
0000
0000
0000
0000
0000
0000
0000
0000
0015
ffa8
0010
ffb0
0040
0029
0073
ffee
ffe0
ffe1
0033
ffac
ffb2
0030
ffe4
ff7a
0000
0000
0000
0000
0000
0000
0000
0000
ffdc
fff1
000c
004e
ffcb
ffeb
002a
ffd3
0062
ff8d
004b
ff8f
0003
ffdd
fffa
0047
0000
0000
0000
0000
0000
0000
0000
0000
ffdb
003c
ffb0
ffc9
0014
0064
ffa7
0044
fffc
002b
0066
0038
0054
0023
ffa1
0005
0000
0000
0000
0000
0000
0000
0000
0000
ffb5
ffd9
0005
0011
ffdd
ffc4
ffb5
ffa4
fff8
ffe0
004e
004f
ffc3
002e
ffe4
005a
0000
0000
0000
0000
0000
0000
0000
0000
ff7c
0066
fff9
ffce
006d
000b
ffee
0075
0058
0070
ffd8
ff95
ff9b
0032
003d
ffbb
0000
0000
0000
0000
0000
0000
0000
0000
0019
ff9e
ff8d
0027
0070
001c
ff9d
0053
005b
001e
ff96
000a
ffeb
ff8d
ff95
0066
0000
0000
0000
0000
0000
0000
0000
0000
005f
0058
ff8c
ffcb
0043
0023
fff7
0026
ff7f
0029
ffea
ff9f
0028
0071
006c
0046
0000
0000
0000
0000
0000
0000
0000
0000
006c
0017
ffcc
000d
fff1
ffa0
fff1
ff93
ffe2
003c
0042
0061
ffd4
fff3
ffce
0050
0000
0000
0000
0000
0000
0000
0000
0000
0055
0050
ff8e
002c
ffc9
ffa0
ffa4
ffc3
0075
0004
003c
0076
ffba
0054
0023
ffe0
0000
0000
0000
0000
0000
0000
0000
0000
0066
0077
0003
001c
ff93
0011
000d
ffd4
0017
ffcd
ff89
ffe1
004f
005e
ffca
004a
0000
0000
0000
0000
0000
0000
0000
0000
0043
ffea
ff92
000e
ffc5
0078
0074
0049
0072
0015
001d
005a
ffb1
000c
0045
0049
0000
0000
0000
0000
0000
0000
0000
0000
ff9c
0034
fff2
0052
fff5
0067
0059
ffc1
ffc2
ffc6
0011
ffd3
002c
001d
ffe0
ff98
0000
0000
0000
0000
0000
0000
0000
0000
0000
0000
0000
0000
0000
0000
0000
0000
0000
0000
0000
0000
0000
0000
0000
0000
0000
0000
0000
0000
0000
0000
0000
0000
001e
000b
001a
0002
0075
ffe5
ffb6
ff67
0029
ff8b
ffb7
0044
0029
ff9a
0047
0052
0000
0000
0000
0000
0000
0000
0000
0000
0007
ff90
0017
fff1
0060
ffdd
0039
0010
006b
004d
ffb2
ffdf
ffc8
0059
fff9
ffda
0000
0000
0000
0000
0000
0000
0000
0000
0000
0000
0000
0000
0000
0000
0000
0000
0000
0000
0000
0000
0000
0000
0000
0000
0000
0000
0000
0000
0000
0000
0000
0000
fff4
0061
0026
0021
ff8e
0060
ffda
ffcc
ff9e
0006
0058
ffde
0003
001d
0010
002c
0000
0000
0000
0000
0000
0000
0000
0000
ffbb
fff0
ffc9
ffae
001b
ffc4
ff9e
ffc5
ff8c
0016
002d
007a
ffab
0037
006d
0057
0000
0000
0000
0000
0000
0000
0000
0000
0000
0000
0000
0000
0000
0000
0000
0000
0000
0000
0000
0000
0000
0000
0000
0000
0000
0000
0000
0000
0000
0000
0000
0000
0038
fffd
ffc6
ffd2
0051
0084
ff95
fff7
ffcd
ffa8
0030
0044
ffa5
ffc3
002a
007d
0000
0000
0000
0000
0000
0000
0000
0000
ffd6
ffa4
0021
0047
0028
ffd4
ffb7
ffda
ffc0
ffa6
ffc1
0057
007b
fff9
0056
0050
0000
0000
0000
0000
0000
0000
0000
0000
0000
0000
0000
0000
0000
0000
0000
0000
0000
0000
0000
0000
0000
0000
0000
0000
0000
0000
0000
0000
0000
0000
0000
0000
ffcc
ffe2
0066
ffd8
002c
fff8
0053
0020
fff4
ff94
0045
ffb8
0036
ffe9
fff6
006f
0000
0000
0000
0000
0000
0000
0000
0000
ffbc
0070
ffde
fff9
ff91
000c
0013
0028
0016
ffe4
0029
0047
ffe4
ffb3
0018
ffbd
0000
0000
0000
0000
0000
0000
0000
0000
0000
0000
0000
0000
0000
0000
0000
0000
0000
0000
0000
0000
0000
0000
0000
0000
0000
0000
0000
0000
0000
0000
0000
0000
ffac
0047
0022
ffae
0056
ffe3
ffd4
0047
002a
000e
ffd2
0064
ffd0
ff93
0087
0017
0000
0000
0000
0000
0000
0000
0000
0000
ffd8
0021
002f
ffa1
007f
0028
0018
0022
0082
ff8c
ffdd
fff0
0069
ffb5
ff90
0025
0000
0000
0000
0000
0000
0000
0000
0000
0000
0000
0000
0000
0000
0000
0000
0000
