1111100000000000000000007e54100101102000010020000200100000000000
1100100000000000000000007e5410010114200001002000020014a000000000
1111100000000000000000007e54100901102100010021f00200100000000000
1100100000000000000000007e54100901142100010021f0020014a000000000
1111100000000000000000007e54100901102200010023f00200100000000000
1100100000000000000000007e54100901142200010023f0020014a000000000
1111100000000000000000007e54100901102300010025f00200100000000000
1100100000000000000000007e54100901142300010025f0020014a000000000
1111100000000000000000007e54100901102400010027f00200100000000000
1100100000000000000000007e54100901142400010027f0020014a000000000
1111100000000000000000007e54100901102500010029f00200100000000000
1100100000000000000000007e54100901142500010029f0020014a000000000
1111100000000000000000007e5410090110260001002bf00200100000000000
1100100000000000000000007e5410090114260001002bf0020014a000000000
1111100000000000000000007e5410110110270001002df00200100000000000
1100100000000000000000007e5410110114270001002df0020014a000000000
1111100000000000000000007e5410190110a000010210000200100000000000
1100100000000000000000007e5410190114a00001021000020014a000000000
1111100000000000000000007e5410210110a100010211f00200100000000000
1100100000000000000000007e5410210114a100010211f0020014a000000000
1111100000000000000000007e5410210110a200010213f00200100000000000
1100100000000000000000007e5410210114a200010213f0020014a000000000
1111100000000000000000007e5410210110a300010215f00200100000000000
1100100000000000000000007e5410210114a300010215f0020014a000000000
1111100000000000000000007e5410210110a400010217f00200100000000000
1100100000000000000000007e5410210114a400010217f0020014a000000000
1111100000000000000000007e5410210110a500010219f00200100000000000
1100100000000000000000007e5410210114a500010219f0020014a000000000
1111100000000000000000007e5410210110a60001021bf00200100000000000
1100100000000000000000007e5410210114a60001021bf0020014a000000000
1111100000000000000000007e5410290110a70001021df00200100000000000
1100100000000000000000007e5410290114a70001021df0020014a000000000
1111100000000000000000007e54101901112000010410000200100000000000
1100100000000000000000007e5410190115200001041000020014a000000000
1111100000000000000000007e54102101112100010411f00200100000000000
1100100000000000000000007e54102101152100010411f0020014a000000000
1111100000000000000000007e54102101112200010413f00200100000000000
1100100000000000000000007e54102101152200010413f0020014a000000000
1111100000000000000000007e54102101112300010415f00200100000000000
1100100000000000000000007e54102101152300010415f0020014a000000000
1111100000000000000000007e54102101112400010417f00200100000000000
1100100000000000000000007e54102101152400010417f0020014a000000000
1111100000000000000000007e54102101112500010419f00200100000000000
1100100000000000000000007e54102101152500010419f0020014a000000000
1111100000000000000000007e5410210111260001041bf00200100000000000
1100100000000000000000007e5410210115260001041bf0020014a000000000
1111100000000000000000007e5410290111270001041df00200100000000000
1100100000000000000000007e5410290115270001041df0020014a000000000
1111100000000000000000007e5410190111a000010610000200100000000000
1100100000000000000000007e5410190115a00001061000020014a000000000
1111100000000000000000007e5410210111a100010611f00200100000000000
1100100000000000000000007e5410210115a100010611f0020014a000000000
1111100000000000000000007e5410210111a200010613f00200100000000000
1100100000000000000000007e5410210115a200010613f0020014a000000000
1111100000000000000000007e5410210111a300010615f00200100000000000
1100100000000000000000007e5410210115a300010615f0020014a000000000
1111100000000000000000007e5410210111a400010617f00200100000000000
1100100000000000000000007e5410210115a400010617f0020014a000000000
1111100000000000000000007e5410210111a500010619f00200100000000000
1100100000000000000000007e5410210115a500010619f0020014a000000000
1111100000000000000000007e5410210111a60001061bf00200100000000000
1100100000000000000000007e5410210115a60001061bf0020014a000000000
1111100000000000000000007e5410290111a70001061df00200100000000000
1100100000000000000000007e5410290115a70001061df0020014a000000000
1111100000000000000000007e54101901122000010810000200100000000000
1100100000000000000000007e5410190116200001081000020014a000000000
1111100000000000000000007e54102101122100010811f00200100000000000
1100100000000000000000007e54102101162100010811f0020014a000000000
1111100000000000000000007e54102101122200010813f00200100000000000
1100100000000000000000007e54102101162200010813f0020014a000000000
1111100000000000000000007e54102101122300010815f00200100000000000
1100100000000000000000007e54102101162300010815f0020014a000000000
1111100000000000000000007e54102101122400010817f00200100000000000
1100100000000000000000007e54102101162400010817f0020014a000000000
1111100000000000000000007e54102101122500010819f00200100000000000
1100100000000000000000007e54102101162500010819f0020014a000000000
1111100000000000000000007e5410210112260001081bf00200100000000000
1100100000000000000000007e5410210116260001081bf0020014a000000000
1111100000000000000000007e5410290112270001081df00200100000000000
1100100000000000000000007e5410290116270001081df0020014a000000000
1111100000000000000000007e5410190112a000010a10000200100000000000
1100100000000000000000007e5410190116a000010a1000020014a000000000
1111100000000000000000007e5410210112a100010a11f00200100000000000
1100100000000000000000007e5410210116a100010a11f0020014a000000000
1111100000000000000000007e5410210112a200010a13f00200100000000000
1100100000000000000000007e5410210116a200010a13f0020014a000000000
1111100000000000000000007e5410210112a300010a15f00200100000000000
1100100000000000000000007e5410210116a300010a15f0020014a000000000
1111100000000000000000007e5410210112a400010a17f00200100000000000
1100100000000000000000007e5410210116a400010a17f0020014a000000000
1111100000000000000000007e5410210112a500010a19f00200100000000000
1100100000000000000000007e5410210116a500010a19f0020014a000000000
1111100000000000000000007e5410210112a600010a1bf00200100000000000
1100100000000000000000007e5410210116a600010a1bf0020014a000000000
1111100000000000000000007e5410290112a700010a1df00200100000000000
1100100000000000000000007e5410290116a700010a1df0020014a000000000
1111100000000000000000007e54101901132000010c10000200100000000000
1100100000000000000000007e54101901172000010c1000020014a000000000
1111100000000000000000007e54102101132100010c11f00200100000000000
1100100000000000000000007e54102101172100010c11f0020014a000000000
1111100000000000000000007e54102101132200010c13f00200100000000000
1100100000000000000000007e54102101172200010c13f0020014a000000000
1111100000000000000000007e54102101132300010c15f00200100000000000
1100100000000000000000007e54102101172300010c15f0020014a000000000
1111100000000000000000007e54102101132400010c17f00200100000000000
1100100000000000000000007e54102101172400010c17f0020014a000000000
1111100000000000000000007e54102101132500010c19f00200100000000000
1100100000000000000000007e54102101172500010c19f0020014a000000000
1111100000000000000000007e54102101132600010c1bf00200100000000000
1100100000000000000000007e54102101172600010c1bf0020014a000000000
1111100000000000000000007e54102901132700010c1df00200100000000000
1100100000000000000000007e54102901172700010c1df0020014a000000000
1111100000000000000000007e5410310113a000010e10000200100000000000
1100100000000000000000007e5410310117a000010e1000020014a000000000
1111100000000000000000007e5410390113a100010e11f00200100000000000
1100100000000000000000007e5410390117a100010e11f0020014a000000000
1111100000000000000000007e5410390113a200010e13f00200100000000000
1100100000000000000000007e5410390117a200010e13f0020014a000000000
1111100000000000000000007e5410390113a300010e15f00200100000000000
1100100000000000000000007e5410390117a300010e15f0020014a000000000
1111100000000000000000007e5410390113a400010e17f00200100000000000
1100100000000000000000007e5410390117a400010e17f0020014a000000000
1111100000000000000000007e5410390113a500010e19f00200100000000000
1100100000000000000000007e5410390117a500010e19f0020014a000000000
1111100000000000000000007e5410390113a600010e1bf00200100000000000
1100100000000000000000007e5410390117a600010e1bf0020014a000000000
1111100000000000000000007e5410410113a700010e1df00200100000000000
1100100000000000000000007e5410450117a700010e1df0020014a000000000
