1111100000000000000000007a410448000000000122a4000230b2600122c400
1100100000000000000000007a41044a000000000122a8000230b6e00122c400
1111100000000000000000007a41044a000000000122ac000230bb600122c400
1100100000000000000000007a41044a000000000122b0000230bfe00122c400
1111100000000000000000007a41044a000000000122b4000230c4600122c400
1100100000000000000000007a41044a000000000122b8000230c8e00122c400
1111100000000000000000007a41044a000000000122bc000230cd600122c400
1100100000000000000000007a51044b000000000122c0000230d1e00122c400
1111100000000000000000007a410448000000000122a4000230d6800122c800
1100100000000000000000007a41044a000000000122a8000230db000122c800
1111100000000000000000007a41044a000000000122ac000230df800122c800
1100100000000000000000007a41044a000000000122b0000230e4000122c800
1111100000000000000000007a41044a000000000122b4000230e8800122c800
1100100000000000000000007a41044a000000000122b8000230ed000122c800
1111100000000000000000007a41044a000000000122bc000230f1800122c800
1100100000000000000000007a51044b000000000122c0000230f6000122c800
1111100000000000000000007a410448000000000122a4000230faa00122cc00
1100100000000000000000007a41044a000000000122a8000230ff200122cc00
1111100000000000000000007a41044a000000000122ac00023103a00122cc00
1100100000000000000000007a41044a000000000122b000023108200122cc00
1111100000000000000000007a41044a000000000122b40002310ca00122cc00
1100100000000000000000007a41044a000000000122b800023111200122cc00
1111100000000000000000007a41044a000000000122bc00023115a00122cc00
1100100000000000000000007a51044b000000000122c00002311a200122cc00
1111100000000000000000007a410448000000000122a40002311ec00122d000
1100100000000000000000007a41044a000000000122a800023123400122d000
1111100000000000000000007a41044a000000000122ac00023127c00122d000
1100100000000000000000007a41044a000000000122b00002312c400122d000
1111100000000000000000007a41044a000000000122b400023130c00122d000
1100100000000000000000007a41044a000000000122b800023135400122d000
1111100000000000000000007a41044a000000000122bc00023139c00122d000
1100100000000000000000007a51044b000000000122c00002313e400122d000
1111100000000000000000007a410448000000000122a400023142e00122d400
1100100000000000000000007a41044a000000000122a800023147600122d400
1111100000000000000000007a41044a000000000122ac0002314be00122d400
1100100000000000000000007a41044a000000000122b000023150600122d400
1111100000000000000000007a41044a000000000122b400023154e00122d400
1100100000000000000000007a41044a000000000122b800023159600122d400
1111100000000000000000007a41044a000000000122bc0002315de00122d400
1100100000000000000000007a51044b000000000122c000023162600122d400
1111100000000000000000007a410448000000000122a400023167000122d800
1100100000000000000000007a41044a000000000122a80002316b800122d800
1111100000000000000000007a41044a000000000122ac00023170000122d800
1100100000000000000000007a41044a000000000122b000023174800122d800
1111100000000000000000007a41044a000000000122b400023179000122d800
1100100000000000000000007a41044a000000000122b80002317d800122d800
1111100000000000000000007a41044a000000000122bc00023182000122d800
1100100000000000000000007a51044b000000000122c000023186800122d800
1111100000000000000000007a410448000000000122a40002318b200122dc00
1100100000000000000000007a41044a000000000122a80002318fa00122dc00
1111100000000000000000007a41044a000000000122ac00023194200122dc00
1100100000000000000000007a41044a000000000122b000023198a00122dc00
1111100000000000000000007a41044a000000000122b40002319d200122dc00
1100100000000000000000007a41044a000000000122b8000231a1a00122dc00
1111100000000000000000007a41044a000000000122bc000231a6200122dc00
1100100000000000000000007a51044b000000000122c0000231aaa00122dc00
1111100000000000000000007a410448000000000122a4000231af400122e000
1100100000000000000000007a41044a000000000122a8000231b3c00122e000
1111100000000000000000007a41044a000000000122ac000231b8400122e000
1100100000000000000000007a41044a000000000122b0000231bcc00122e000
1111100000000000000000007a41044a000000000122b4000231c1400122e000
1100100000000000000000007a41044a000000000122b8000231c5c00122e000
1111100000000000000000007a41044a000000000122bc000231ca400122e000
1100100000000000000000007a51044b000000000122c0000231cec00122e000
1111100000000000000000007a410448000000000122a4000231d3600122e400
1100100000000000000000007a41044a000000000122a8000231d7e00122e400
1111100000000000000000007a41044a000000000122ac000231dc600122e400
1100100000000000000000007a41044a000000000122b0000231e0e00122e400
1111100000000000000000007a41044a000000000122b4000231e5600122e400
1100100000000000000000007a41044a000000000122b8000231e9e00122e400
1111100000000000000000007a41044a000000000122bc000231ee600122e400
1100100000000000000000007a51044b000000000122c0000231f2e00122e400
1111100000000000000000007a410448000000000122a4000231f7800122e800
1100100000000000000000007a41044a000000000122a8000231fc000122e800
1111100000000000000000007a41044a000000000122ac00023200800122e800
1100100000000000000000007a41044a000000000122b000023205000122e800
1111100000000000000000007a41044a000000000122b400023209800122e800
1100100000000000000000007a41044a000000000122b80002320e000122e800
1111100000000000000000007a41044a000000000122bc00023212800122e800
1100100000000000000000007a51044b000000000122c000023217000122e800
1111100000000000000000007a410448000000000122a40002321ba00122ec00
1100100000000000000000007a41044a000000000122a800023220200122ec00
1111100000000000000000007a41044a000000000122ac00023224a00122ec00
1100100000000000000000007a41044a000000000122b000023229200122ec00
1111100000000000000000007a41044a000000000122b40002322da00122ec00
1100100000000000000000007a41044a000000000122b800023232200122ec00
1111100000000000000000007a41044a000000000122bc00023236a00122ec00
1100100000000000000000007a51044b000000000122c00002323b200122ec00
1111100000000000000000007a410448000000000122a40002323fc00122f000
1100100000000000000000007a41044a000000000122a800023244400122f000
1111100000000000000000007a41044a000000000122ac00023248c00122f000
1100100000000000000000007a41044a000000000122b00002324d400122f000
1111100000000000000000007a41044a000000000122b400023251c00122f000
1100100000000000000000007a41044a000000000122b800023256400122f000
1111100000000000000000007a41044a000000000122bc0002325ac00122f000
1100100000000000000000007a51044b000000000122c00002325f400122f000
1111100000000000000000007a410448000000000122a400023263e00122f400
1100100000000000000000007a41044a000000000122a800023268600122f400
1111100000000000000000007a41044a000000000122ac0002326ce00122f400
1100100000000000000000007a41044a000000000122b000023271600122f400
1111100000000000000000007a41044a000000000122b400023275e00122f400
1100100000000000000000007a41044a000000000122b80002327a600122f400
1111100000000000000000007a41044a000000000122bc0002327ee00122f400
1100100000000000000000007a51044b000000000122c000023283600122f400
1111100000000000000000007a410448000000000122a400023288000122f800
1100100000000000000000007a41044a000000000122a80002328c800122f800
1111100000000000000000007a41044a000000000122ac00023291000122f800
1100100000000000000000007a41044a000000000122b000023295800122f800
1111100000000000000000007a41044a000000000122b40002329a000122f800
1100100000000000000000007a41044a000000000122b80002329e800122f800
1111100000000000000000007a41044a000000000122bc000232a3000122f800
1100100000000000000000007a51044b000000000122c0000232a7800122f800
1111100000000000000000007a410448000000000122a4000232ac200122fc00
1100100000000000000000007a41044a000000000122a8000232b0a00122fc00
1111100000000000000000007a41044a000000000122ac000232b5200122fc00
1100100000000000000000007a41044a000000000122b0000232b9a00122fc00
1111100000000000000000007a41044a000000000122b4000232be200122fc00
1100100000000000000000007a41044a000000000122b8000232c2a00122fc00
1111100000000000000000007a41044a000000000122bc000232c7200122fc00
1100100000000000000000007a51044b000000000122c0000232cba00122fc00
1111100000000000000000007a410448000000000122a4000232d04001230000
1100100000000000000000007a41044a000000000122a8000232d4c001230000
1111100000000000000000007a41044a000000000122ac000232d94001230000
1100100000000000000000007a41044a000000000122b0000232ddc001230000
1111100000000000000000007a41044a000000000122b4000232e24001230000
1100100000000000000000007a41044a000000000122b8000232e6c001230000
1111100000000000000000007a41044a000000000122bc000232eb4001230000
1100100000000000000000007a51044f000000000122c0000232efc001230000
