1111100000000000000000007a410450000000000122200002301cc00122a400
1100100000000000000000007a4104520000000001222c00023021400122a400
1111100000000000000000007a4104520000000001223800023025c00122a400
1100100000000000000000007a410452000000000122440002302a400122a400
1111100000000000000000007a410452000000000122500002302ec00122a400
1100100000000000000000007a4104520000000001225c00023033400122a400
1111100000000000000000007a4104520000000001226800023037c00122a400
1100100000000000000000007a410452000000000122740002303c400122a400
1111100000000000000000007a4104520000000001228000023040c00122a400
1100100000000000000000007a4104520000000001228c00023045400122a400
111110000000000000000000727104530000000001229800023049c00122a400
1100100000000000000000007a410450000000000122200002304ea00122b000
1111100000000000000000007a4104520000000001222c00023053200122b000
1100100000000000000000007a4104520000000001223800023057a00122b000
1111100000000000000000007a410452000000000122440002305c200122b000
1100100000000000000000007a4104520000000001225000023060a00122b000
1111100000000000000000007a4104520000000001225c00023065200122b000
1100100000000000000000007a4104520000000001226800023069a00122b000
1111100000000000000000007a410452000000000122740002306e200122b000
1100100000000000000000007a4104520000000001228000023072a00122b000
1111100000000000000000007a4104520000000001228c00023077200122b000
11001000000000000000000072710453000000000122980002307ba00122b000
1111100000000000000000005a4104500000000001222000023080800122bc00
1100100000000000000000005a4104520000000001222c00023085000122bc00
1111100000000000000000005a4104520000000001223800023089800122bc00
1100100000000000000000005a410452000000000122440002308e000122bc00
1111100000000000000000005a4104520000000001225000023092800122bc00
1100100000000000000000005a4104520000000001225c00023097000122bc00
1111100000000000000000005a410452000000000122680002309b800122bc00
1100100000000000000000005a41045200000000012274000230a0000122bc00
1111100000000000000000005a41045200000000012280000230a4800122bc00
1100100000000000000000005a4104520000000001228c000230a9000122bc00
1111100000000000000000005271045700000000012298000230ad800122bc00
