1111100000000000000000007a441048011e2000011c20000200cec000000000
1100100000000000000000007a44104a011e2000011c60000200d34000000000
1111100000000000000000007a44104a011e2000011ca0000200d7c000000000
1100100000000000000000007a44104a011e2000011ce0000200dc4000000000
1111100000000000000000007a44104a011e2000011d20000200e0c000000000
1100100000000000000000007a44104a011e2000011d60000200e54000000000
1111100000000000000000007a44104a011e2000011da0000200e9c000000000
1100100000000000000000007e54104b011e2000011de0000200ee4000000000
1111100000000000000000007a441048011e3000011c20000200f2e000000000
1100100000000000000000007a44104a011e3000011c60000200f76000000000
1111100000000000000000007a44104a011e3000011ca0000200fbe000000000
1100100000000000000000007a44104a011e3000011ce0000201006000000000
1111100000000000000000007a44104a011e3000011d2000020104e000000000
1100100000000000000000007a44104a011e3000011d60000201096000000000
1111100000000000000000007a44104a011e3000011da00002010de000000000
1100100000000000000000007e54104b011e3000011de0000201126000000000
1111100000000000000000007a441048011e4000011c20000201170000000000
1100100000000000000000007a44104a011e4000011c600002011b8000000000
1111100000000000000000007a44104a011e4000011ca0000201200000000000
1100100000000000000000007a44104a011e4000011ce0000201248000000000
1111100000000000000000007a44104a011e4000011d20000201290000000000
1100100000000000000000007a44104a011e4000011d600002012d8000000000
1111100000000000000000007a44104a011e4000011da0000201320000000000
1100100000000000000000007e54104b011e4000011de0000201368000000000
1111100000000000000000007a441048011e5000011c200002013b2000000000
1100100000000000000000007a44104a011e5000011c600002013fa000000000
1111100000000000000000007a44104a011e5000011ca0000201442000000000
1100100000000000000000007a44104a011e5000011ce000020148a000000000
1111100000000000000000007a44104a011e5000011d200002014d2000000000
1100100000000000000000007a44104a011e5000011d6000020151a000000000
1111100000000000000000007a44104a011e5000011da0000201562000000000
1100100000000000000000007e54104b011e5000011de00002015aa000000000
1111100000000000000000007a441048011e6000011c200002015f4000000000
1100100000000000000000007a44104a011e6000011c6000020163c000000000
1111100000000000000000007a44104a011e6000011ca0000201684000000000
1100100000000000000000007a44104a011e6000011ce00002016cc000000000
1111100000000000000000007a44104a011e6000011d20000201714000000000
1100100000000000000000007a44104a011e6000011d6000020175c000000000
1111100000000000000000007a44104a011e6000011da00002017a4000000000
1100100000000000000000007e54104b011e6000011de00002017ec000000000
1111100000000000000000007a441048011e7000011c20000201836000000000
1100100000000000000000007a44104a011e7000011c6000020187e000000000
1111100000000000000000007a44104a011e7000011ca00002018c6000000000
1100100000000000000000007a44104a011e7000011ce000020190e000000000
1111100000000000000000007a44104a011e7000011d20000201956000000000
1100100000000000000000007a44104a011e7000011d6000020199e000000000
1111100000000000000000007a44104a011e7000011da00002019e6000000000
1100100000000000000000007e54104b011e7000011de0000201a2e000000000
1111100000000000000000007a441048011e8000011c20000201a78000000000
1100100000000000000000007a44104a011e8000011c60000201ac0000000000
1111100000000000000000007a44104a011e8000011ca0000201b08000000000
1100100000000000000000007a44104a011e8000011ce0000201b50000000000
1111100000000000000000007a44104a011e8000011d20000201b98000000000
1100100000000000000000007a44104a011e8000011d60000201be0000000000
1111100000000000000000007a44104a011e8000011da0000201c28000000000
1100100000000000000000007e54104b011e8000011de0000201c70000000000
1111100000000000000000007a441048011e9000011c20000201cba000000000
1100100000000000000000007a44104a011e9000011c60000201d02000000000
1111100000000000000000007a44104a011e9000011ca0000201d4a000000000
1100100000000000000000007a44104a011e9000011ce0000201d92000000000
1111100000000000000000007a44104a011e9000011d20000201dda000000000
1100100000000000000000007a44104a011e9000011d60000201e22000000000
1111100000000000000000007a44104a011e9000011da0000201e6a000000000
1100100000000000000000007e54104b011e9000011de0000201eb2000000000
1111100000000000000000007a441048011ea000011c20000201efc000000000
1100100000000000000000007a44104a011ea000011c60000201f44000000000
1111100000000000000000007a44104a011ea000011ca0000201f8c000000000
1100100000000000000000007a44104a011ea000011ce0000201fd4000000000
1111100000000000000000007a44104a011ea000011d2000020201c000000000
1100100000000000000000007a44104a011ea000011d60000202064000000000
1111100000000000000000007a44104a011ea000011da00002020ac000000000
1100100000000000000000007e54104b011ea000011de00002020f4000000000
1111100000000000000000007a441048011eb000011c2000020213e000000000
1100100000000000000000007a44104a011eb000011c60000202186000000000
1111100000000000000000007a44104a011eb000011ca00002021ce000000000
1100100000000000000000007a44104a011eb000011ce0000202216000000000
1111100000000000000000007a44104a011eb000011d2000020225e000000000
1100100000000000000000007a44104a011eb000011d600002022a6000000000
1111100000000000000000007a44104a011eb000011da00002022ee000000000
1100100000000000000000007e54104b011eb000011de0000202336000000000
1111100000000000000000007a441048011ec000011c20000202380000000000
1100100000000000000000007a44104a011ec000011c600002023c8000000000
1111100000000000000000007a44104a011ec000011ca0000202410000000000
1100100000000000000000007a44104a011ec000011ce0000202458000000000
1111100000000000000000007a44104a011ec000011d200002024a0000000000
1100100000000000000000007a44104a011ec000011d600002024e8000000000
1111100000000000000000007a44104a011ec000011da0000202530000000000
1100100000000000000000007e54104b011ec000011de0000202578000000000
1111100000000000000000007a441048011ed000011c200002025c2000000000
1100100000000000000000007a44104a011ed000011c6000020260a000000000
1111100000000000000000007a44104a011ed000011ca0000202652000000000
1100100000000000000000007a44104a011ed000011ce000020269a000000000
1111100000000000000000007a44104a011ed000011d200002026e2000000000
1100100000000000000000007a44104a011ed000011d6000020272a000000000
1111100000000000000000007a44104a011ed000011da0000202772000000000
1100100000000000000000007e54104b011ed000011de00002027ba000000000
1111100000000000000000007a441048011ee000011c20000202804000000000
1100100000000000000000007a44104a011ee000011c6000020284c000000000
1111100000000000000000007a44104a011ee000011ca0000202894000000000
1100100000000000000000007a44104a011ee000011ce00002028dc000000000
1111100000000000000000007a44104a011ee000011d20000202924000000000
1100100000000000000000007a44104a011ee000011d6000020296c000000000
1111100000000000000000007a44104a011ee000011da00002029b4000000000
1100100000000000000000007e54104b011ee000011de00002029fc000000000
1111100000000000000000007a441048011ef000011c20000202a46000000000
1100100000000000000000007a44104a011ef000011c60000202a8e000000000
1111100000000000000000007a44104a011ef000011ca0000202ad6000000000
1100100000000000000000007a44104a011ef000011ce0000202b1e000000000
1111100000000000000000007a44104a011ef000011d20000202b66000000000
1100100000000000000000007a44104a011ef000011d60000202bae000000000
1111100000000000000000007a44104a011ef000011da0000202bf6000000000
1100100000000000000000007e54104b011ef000011de0000202c3e000000000
1111100000000000000000007a441048011f0000011c20000202c88000000000
1100100000000000000000007a44104a011f0000011c60000202cd0000000000
1111100000000000000000007a44104a011f0000011ca0000202d18000000000
1100100000000000000000007a44104a011f0000011ce0000202d60000000000
1111100000000000000000007a44104a011f0000011d20000202da8000000000
1100100000000000000000007a44104a011f0000011d60000202df0000000000
1111100000000000000000007a44104a011f0000011da0000202e38000000000
1100100000000000000000007e54104b011f0000011de0000202e80000000000
1111100000000000000000007a441048011f1000011c20000202eca000000000
1100100000000000000000007a44104a011f1000011c60000202f12000000000
1111100000000000000000007a44104a011f1000011ca0000202f5a000000000
1100100000000000000000007a44104a011f1000011ce0000202fa2000000000
1111100000000000000000007a44104a011f1000011d20000202fea000000000
1100100000000000000000007a44104a011f1000011d60000203032000000000
1111100000000000000000007a44104a011f1000011da000020307a000000000
1100100000000000000000007e54104f011f1000011de00002030c2000000000
