1111100000000000000001047a410450000000006ffd000070005cc06ffd8400
1100100000000000000001047a410452000000006ffd0c00700061406ffd8400
1111100000000000000001047a410452000000006ffd1800700065c06ffd8400
1100100000000000000001047a410452000000006ffd240070006a406ffd8400
1111100000000000000001047a410452000000006ffd300070006ec06ffd8400
1100100000000000000001047a410452000000006ffd3c00700073406ffd8400
1111100000000000000001047a410452000000006ffd4800700077c06ffd8400
1100100000000000000001047a410452000000006ffd540070007c406ffd8400
1111100000000000000001047a410452000000006ffd6000700080c06ffd8400
1100100000000000000001047a410452000000006ffd6c00700085406ffd8400
11111000000000000000010472710453000000006ffd7800700089c06ffd8400
1100100000000000000001047a410450000000006ffd000070008ea06ffd9000
1111100000000000000001047a410452000000006ffd0c00700093206ffd9000
1100100000000000000001047a410452000000006ffd1800700097a06ffd9000
1111100000000000000001047a410452000000006ffd240070009c206ffd9000
1100100000000000000001047a410452000000006ffd30007000a0a06ffd9000
1111100000000000000001047a410452000000006ffd3c007000a5206ffd9000
1100100000000000000001047a410452000000006ffd48007000a9a06ffd9000
1111100000000000000001047a410452000000006ffd54007000ae206ffd9000
1100100000000000000001047a410452000000006ffd60007000b2a06ffd9000
1111100000000000000001047a410452000000006ffd6c007000b7206ffd9000
11001000000000000000010472710453000000006ffd78007000bba06ffd9000
1111100000000000000001045a410450000000006ffd00007000c0806ffd9c00
1100100000000000000001045a410452000000006ffd0c007000c5006ffd9c00
1111100000000000000001045a410452000000006ffd18007000c9806ffd9c00
1100100000000000000001045a410452000000006ffd24007000ce006ffd9c00
1111100000000000000001045a410452000000006ffd30007000d2806ffd9c00
1100100000000000000001045a410452000000006ffd3c007000d7006ffd9c00
1111100000000000000001045a410452000000006ffd48007000db806ffd9c00
1100100000000000000001045a410452000000006ffd54007000e0006ffd9c00
1111100000000000000001045a410452000000006ffd60007000e4806ffd9c00
1100100000000000000001045a410452000000006ffd6c007000e9006ffd9c00
11111000000000000000010452710457000000006ffd78007000ed806ffd9c00
