1111100000000000000002087a420848000000006ffe7c0070036b807000bc00
1100100000000000000002087a42084a000000006ffe8c00700370007000bc00
1111100000000000000002087a42084a000000006ffe9c00700374807000bc00
1100100000000000000002087a42084a000000006ffeac00700379007000bc00
1111100000000000000002087a42084a000000006ffa000070037d807000bc00
1100100000000000000002087a42084a000000006ffa1000700382007000bc00
1111100000000000000002087a42084a000000006ffa2000700386807000bc00
1100100000000000000002087a42084a000000006ffa300070038b007000bc00
1111100000000000000002087a42084a000000006ffa400070038f807000bc00
1100100000000000000002087a42084a000000006ffa5000700394007000bc00
1111100000000000000002087a42084a000000006ffa6000700398807000bc00
1100100000000000000002087a42084a000000006ffa700070039d007000bc00
1111100000000000000002087a42084a000000006ffa80007003a1807000bc00
1100100000000000000002087a42084a000000006ffa90007003a6007000bc00
1111100000000000000002087a42084a000000006ffaa0007003aa807000bc00
1100100000000000000002087a42084a000000006ffab0007003af007000bc00
1111100000000000000002087a42084a000000006ffac0007003b3807000bc00
1100100000000000000002087a42084a000000006ffad0007003b8007000bc00
1111100000000000000002087a42084a000000006ffae0007003bc807000bc00
1100100000000000000002087a42084a000000006ffaf0007003c1007000bc00
1111100000000000000002087a42084a000000006ffb00007003c5807000bc00
1100100000000000000002087a42084a000000006ffb10007003ca007000bc00
1111100000000000000002087a42084a000000006ffb20007003ce807000bc00
1100100000000000000002087a42084a000000006ffb30007003d3007000bc00
1111100000000000000002087a42084a000000006ffb40007003d7807000bc00
1100100000000000000002087a42084a000000006ffb50007003dc007000bc00
1111100000000000000002087a42084a000000006ffb60007003e0807000bc00
1100100000000000000002087a42084a000000006ffb70007003e5007000bc00
1111100000000000000002087a42084a000000006ffb80007003e9807000bc00
1100100000000000000002087a42084a000000006ffb90007003ee007000bc00
1111100000000000000002087a42084a000000006ffba0007003f2807000bc00
1100100000000000000002087a42084a000000006ffbb0007003f7007000bc00
1111100000000000000002087a42084a000000006ffbc0007003fb807000bc00
1100100000000000000002087a42084a000000006ffbd000700400007000bc00
1111100000000000000002087a42084a000000006ffbe000700404807000bc00
1100100000000000000002087a52084b000000006ffbf000700409007000bc00
1111100000000000000002087a420848000000006ffe7c0070040da07000cc00
1100100000000000000002087a42084a000000006ffe8c00700412207000cc00
1111100000000000000002087a42084a000000006ffe9c00700416a07000cc00
1100100000000000000002087a42084a000000006ffeac0070041b207000cc00
1111100000000000000002087a42084a000000006ffa000070041fa07000cc00
1100100000000000000002087a42084a000000006ffa1000700424207000cc00
1111100000000000000002087a42084a000000006ffa2000700428a07000cc00
1100100000000000000002087a42084a000000006ffa300070042d207000cc00
1111100000000000000002087a42084a000000006ffa4000700431a07000cc00
1100100000000000000002087a42084a000000006ffa5000700436207000cc00
1111100000000000000002087a42084a000000006ffa600070043aa07000cc00
1100100000000000000002087a42084a000000006ffa700070043f207000cc00
1111100000000000000002087a42084a000000006ffa8000700443a07000cc00
1100100000000000000002087a42084a000000006ffa9000700448207000cc00
1111100000000000000002087a42084a000000006ffaa00070044ca07000cc00
1100100000000000000002087a42084a000000006ffab000700451207000cc00
1111100000000000000002087a42084a000000006ffac000700455a07000cc00
1100100000000000000002087a42084a000000006ffad00070045a207000cc00
1111100000000000000002087a42084a000000006ffae00070045ea07000cc00
1100100000000000000002087a42084a000000006ffaf000700463207000cc00
1111100000000000000002087a42084a000000006ffb0000700467a07000cc00
1100100000000000000002087a42084a000000006ffb100070046c207000cc00
1111100000000000000002087a42084a000000006ffb2000700470a07000cc00
1100100000000000000002087a42084a000000006ffb3000700475207000cc00
1111100000000000000002087a42084a000000006ffb4000700479a07000cc00
1100100000000000000002087a42084a000000006ffb500070047e207000cc00
1111100000000000000002087a42084a000000006ffb6000700482a07000cc00
1100100000000000000002087a42084a000000006ffb7000700487207000cc00
1111100000000000000002087a42084a000000006ffb800070048ba07000cc00
1100100000000000000002087a42084a000000006ffb9000700490207000cc00
1111100000000000000002087a42084a000000006ffba000700494a07000cc00
1100100000000000000002087a42084a000000006ffbb000700499207000cc00
1111100000000000000002087a42084a000000006ffbc00070049da07000cc00
1100100000000000000002087a42084a000000006ffbd0007004a2207000cc00
1111100000000000000002087a42084a000000006ffbe0007004a6a07000cc00
1100100000000000000002087a52084b000000006ffbf0007004ab207000cc00
1111100000000000000002087a420848000000006ffe7c007004afc07000dc00
1100100000000000000002087a42084a000000006ffe8c007004b4407000dc00
1111100000000000000002087a42084a000000006ffe9c007004b8c07000dc00
1100100000000000000002087a42084a000000006ffeac007004bd407000dc00
1111100000000000000002087a42084a000000006ffa00007004c1c07000dc00
1100100000000000000002087a42084a000000006ffa10007004c6407000dc00
1111100000000000000002087a42084a000000006ffa20007004cac07000dc00
1100100000000000000002087a42084a000000006ffa30007004cf407000dc00
1111100000000000000002087a42084a000000006ffa40007004d3c07000dc00
1100100000000000000002087a42084a000000006ffa50007004d8407000dc00
1111100000000000000002087a42084a000000006ffa60007004dcc07000dc00
1100100000000000000002087a42084a000000006ffa70007004e1407000dc00
1111100000000000000002087a42084a000000006ffa80007004e5c07000dc00
1100100000000000000002087a42084a000000006ffa90007004ea407000dc00
1111100000000000000002087a42084a000000006ffaa0007004eec07000dc00
1100100000000000000002087a42084a000000006ffab0007004f3407000dc00
1111100000000000000002087a42084a000000006ffac0007004f7c07000dc00
1100100000000000000002087a42084a000000006ffad0007004fc407000dc00
1111100000000000000002087a42084a000000006ffae000700500c07000dc00
1100100000000000000002087a42084a000000006ffaf000700505407000dc00
1111100000000000000002087a42084a000000006ffb0000700509c07000dc00
1100100000000000000002087a42084a000000006ffb100070050e407000dc00
1111100000000000000002087a42084a000000006ffb2000700512c07000dc00
1100100000000000000002087a42084a000000006ffb3000700517407000dc00
1111100000000000000002087a42084a000000006ffb400070051bc07000dc00
1100100000000000000002087a42084a000000006ffb5000700520407000dc00
1111100000000000000002087a42084a000000006ffb6000700524c07000dc00
1100100000000000000002087a42084a000000006ffb7000700529407000dc00
1111100000000000000002087a42084a000000006ffb800070052dc07000dc00
1100100000000000000002087a42084a000000006ffb9000700532407000dc00
1111100000000000000002087a42084a000000006ffba000700536c07000dc00
1100100000000000000002087a42084a000000006ffbb00070053b407000dc00
1111100000000000000002087a42084a000000006ffbc00070053fc07000dc00
1100100000000000000002087a42084a000000006ffbd000700544407000dc00
1111100000000000000002087a42084a000000006ffbe000700548c07000dc00
1100100000000000000002087a52084b000000006ffbf00070054d407000dc00
1111100000000000000002087a420848000000006ffe7c00700551e07000ec00
1100100000000000000002087a42084a000000006ffe8c00700556607000ec00
1111100000000000000002087a42084a000000006ffe9c0070055ae07000ec00
1100100000000000000002087a42084a000000006ffeac0070055f607000ec00
1111100000000000000002087a42084a000000006ffa0000700563e07000ec00
1100100000000000000002087a42084a000000006ffa1000700568607000ec00
1111100000000000000002087a42084a000000006ffa200070056ce07000ec00
1100100000000000000002087a42084a000000006ffa3000700571607000ec00
1111100000000000000002087a42084a000000006ffa4000700575e07000ec00
1100100000000000000002087a42084a000000006ffa500070057a607000ec00
1111100000000000000002087a42084a000000006ffa600070057ee07000ec00
1100100000000000000002087a42084a000000006ffa7000700583607000ec00
1111100000000000000002087a42084a000000006ffa8000700587e07000ec00
1100100000000000000002087a42084a000000006ffa900070058c607000ec00
1111100000000000000002087a42084a000000006ffaa000700590e07000ec00
1100100000000000000002087a42084a000000006ffab000700595607000ec00
1111100000000000000002087a42084a000000006ffac000700599e07000ec00
1100100000000000000002087a42084a000000006ffad00070059e607000ec00
1111100000000000000002087a42084a000000006ffae0007005a2e07000ec00
1100100000000000000002087a42084a000000006ffaf0007005a7607000ec00
1111100000000000000002087a42084a000000006ffb00007005abe07000ec00
1100100000000000000002087a42084a000000006ffb10007005b0607000ec00
1111100000000000000002087a42084a000000006ffb20007005b4e07000ec00
1100100000000000000002087a42084a000000006ffb30007005b9607000ec00
1111100000000000000002087a42084a000000006ffb40007005bde07000ec00
1100100000000000000002087a42084a000000006ffb50007005c2607000ec00
1111100000000000000002087a42084a000000006ffb60007005c6e07000ec00
1100100000000000000002087a42084a000000006ffb70007005cb607000ec00
1111100000000000000002087a42084a000000006ffb80007005cfe07000ec00
1100100000000000000002087a42084a000000006ffb90007005d4607000ec00
1111100000000000000002087a42084a000000006ffba0007005d8e07000ec00
1100100000000000000002087a42084a000000006ffbb0007005dd607000ec00
1111100000000000000002087a42084a000000006ffbc0007005e1e07000ec00
1100100000000000000002087a42084a000000006ffbd0007005e6607000ec00
1111100000000000000002087a42084a000000006ffbe0007005eae07000ec00
1100100000000000000002087a52084b000000006ffbf0007005ef607000ec00
1111100000000000000002087a420848000000006ffe7c007005f4007000fc00
1100100000000000000002087a42084a000000006ffe8c007005f8807000fc00
1111100000000000000002087a42084a000000006ffe9c007005fd007000fc00
1100100000000000000002087a42084a000000006ffeac00700601807000fc00
1111100000000000000002087a42084a000000006ffa0000700606007000fc00
1100100000000000000002087a42084a000000006ffa100070060a807000fc00
1111100000000000000002087a42084a000000006ffa200070060f007000fc00
1100100000000000000002087a42084a000000006ffa3000700613807000fc00
1111100000000000000002087a42084a000000006ffa4000700618007000fc00
1100100000000000000002087a42084a000000006ffa500070061c807000fc00
1111100000000000000002087a42084a000000006ffa6000700621007000fc00
1100100000000000000002087a42084a000000006ffa7000700625807000fc00
1111100000000000000002087a42084a000000006ffa800070062a007000fc00
1100100000000000000002087a42084a000000006ffa900070062e807000fc00
1111100000000000000002087a42084a000000006ffaa000700633007000fc00
1100100000000000000002087a42084a000000006ffab000700637807000fc00
1111100000000000000002087a42084a000000006ffac00070063c007000fc00
1100100000000000000002087a42084a000000006ffad000700640807000fc00
1111100000000000000002087a42084a000000006ffae000700645007000fc00
1100100000000000000002087a42084a000000006ffaf000700649807000fc00
1111100000000000000002087a42084a000000006ffb000070064e007000fc00
1100100000000000000002087a42084a000000006ffb1000700652807000fc00
1111100000000000000002087a42084a000000006ffb2000700657007000fc00
1100100000000000000002087a42084a000000006ffb300070065b807000fc00
1111100000000000000002087a42084a000000006ffb4000700660007000fc00
1100100000000000000002087a42084a000000006ffb5000700664807000fc00
1111100000000000000002087a42084a000000006ffb6000700669007000fc00
1100100000000000000002087a42084a000000006ffb700070066d807000fc00
1111100000000000000002087a42084a000000006ffb8000700672007000fc00
1100100000000000000002087a42084a000000006ffb9000700676807000fc00
1111100000000000000002087a42084a000000006ffba00070067b007000fc00
1100100000000000000002087a42084a000000006ffbb00070067f807000fc00
1111100000000000000002087a42084a000000006ffbc000700684007000fc00
1100100000000000000002087a42084a000000006ffbd000700688807000fc00
1111100000000000000002087a42084a000000006ffbe00070068d007000fc00
1100100000000000000002087a52084b000000006ffbf000700691807000fc00
1111100000000000000002087a420848000000006ffe7c007006962070010c00
1100100000000000000002087a42084a000000006ffe8c0070069aa070010c00
1111100000000000000002087a42084a000000006ffe9c0070069f2070010c00
1100100000000000000002087a42084a000000006ffeac007006a3a070010c00
1111100000000000000002087a42084a000000006ffa00007006a82070010c00
1100100000000000000002087a42084a000000006ffa10007006aca070010c00
1111100000000000000002087a42084a000000006ffa20007006b12070010c00
1100100000000000000002087a42084a000000006ffa30007006b5a070010c00
1111100000000000000002087a42084a000000006ffa40007006ba2070010c00
1100100000000000000002087a42084a000000006ffa50007006bea070010c00
1111100000000000000002087a42084a000000006ffa60007006c32070010c00
1100100000000000000002087a42084a000000006ffa70007006c7a070010c00
1111100000000000000002087a42084a000000006ffa80007006cc2070010c00
1100100000000000000002087a42084a000000006ffa90007006d0a070010c00
1111100000000000000002087a42084a000000006ffaa0007006d52070010c00
1100100000000000000002087a42084a000000006ffab0007006d9a070010c00
1111100000000000000002087a42084a000000006ffac0007006de2070010c00
1100100000000000000002087a42084a000000006ffad0007006e2a070010c00
1111100000000000000002087a42084a000000006ffae0007006e72070010c00
1100100000000000000002087a42084a000000006ffaf0007006eba070010c00
1111100000000000000002087a42084a000000006ffb00007006f02070010c00
1100100000000000000002087a42084a000000006ffb10007006f4a070010c00
1111100000000000000002087a42084a000000006ffb20007006f92070010c00
1100100000000000000002087a42084a000000006ffb30007006fda070010c00
1111100000000000000002087a42084a000000006ffb40007007022070010c00
1100100000000000000002087a42084a000000006ffb5000700706a070010c00
1111100000000000000002087a42084a000000006ffb600070070b2070010c00
1100100000000000000002087a42084a000000006ffb700070070fa070010c00
1111100000000000000002087a42084a000000006ffb80007007142070010c00
1100100000000000000002087a42084a000000006ffb9000700718a070010c00
1111100000000000000002087a42084a000000006ffba00070071d2070010c00
1100100000000000000002087a42084a000000006ffbb000700721a070010c00
1111100000000000000002087a42084a000000006ffbc0007007262070010c00
1100100000000000000002087a42084a000000006ffbd00070072aa070010c00
1111100000000000000002087a42084a000000006ffbe00070072f2070010c00
1100100000000000000002087a52084b000000006ffbf000700733a070010c00
1111100000000000000002087a420848000000006ffe7c007007384070011c00
1100100000000000000002087a42084a000000006ffe8c0070073cc070011c00
1111100000000000000002087a42084a000000006ffe9c007007414070011c00
1100100000000000000002087a42084a000000006ffeac00700745c070011c00
1111100000000000000002087a42084a000000006ffa000070074a4070011c00
1100100000000000000002087a42084a000000006ffa100070074ec070011c00
1111100000000000000002087a42084a000000006ffa20007007534070011c00
1100100000000000000002087a42084a000000006ffa3000700757c070011c00
1111100000000000000002087a42084a000000006ffa400070075c4070011c00
1100100000000000000002087a42084a000000006ffa5000700760c070011c00
1111100000000000000002087a42084a000000006ffa60007007654070011c00
1100100000000000000002087a42084a000000006ffa7000700769c070011c00
1111100000000000000002087a42084a000000006ffa800070076e4070011c00
1100100000000000000002087a42084a000000006ffa9000700772c070011c00
1111100000000000000002087a42084a000000006ffaa0007007774070011c00
1100100000000000000002087a42084a000000006ffab00070077bc070011c00
1111100000000000000002087a42084a000000006ffac0007007804070011c00
1100100000000000000002087a42084a000000006ffad000700784c070011c00
1111100000000000000002087a42084a000000006ffae0007007894070011c00
1100100000000000000002087a42084a000000006ffaf00070078dc070011c00
1111100000000000000002087a42084a000000006ffb00007007924070011c00
1100100000000000000002087a42084a000000006ffb1000700796c070011c00
1111100000000000000002087a42084a000000006ffb200070079b4070011c00
1100100000000000000002087a42084a000000006ffb300070079fc070011c00
1111100000000000000002087a42084a000000006ffb40007007a44070011c00
1100100000000000000002087a42084a000000006ffb50007007a8c070011c00
1111100000000000000002087a42084a000000006ffb60007007ad4070011c00
1100100000000000000002087a42084a000000006ffb70007007b1c070011c00
1111100000000000000002087a42084a000000006ffb80007007b64070011c00
1100100000000000000002087a42084a000000006ffb90007007bac070011c00
1111100000000000000002087a42084a000000006ffba0007007bf4070011c00
1100100000000000000002087a42084a000000006ffbb0007007c3c070011c00
1111100000000000000002087a42084a000000006ffbc0007007c84070011c00
1100100000000000000002087a42084a000000006ffbd0007007ccc070011c00
1111100000000000000002087a42084a000000006ffbe0007007d14070011c00
1100100000000000000002087a52084b000000006ffbf0007007d5c070011c00
1111100000000000000002087a420848000000006ffe7c007007da6070012c00
1100100000000000000002087a42084a000000006ffe8c007007dee070012c00
1111100000000000000002087a42084a000000006ffe9c007007e36070012c00
1100100000000000000002087a42084a000000006ffeac007007e7e070012c00
1111100000000000000002087a42084a000000006ffa00007007ec6070012c00
1100100000000000000002087a42084a000000006ffa10007007f0e070012c00
1111100000000000000002087a42084a000000006ffa20007007f56070012c00
1100100000000000000002087a42084a000000006ffa30007007f9e070012c00
1111100000000000000002087a42084a000000006ffa40007007fe6070012c00
1100100000000000000002087a42084a000000006ffa5000700802e070012c00
1111100000000000000002087a42084a000000006ffa60007008076070012c00
1100100000000000000002087a42084a000000006ffa700070080be070012c00
1111100000000000000002087a42084a000000006ffa80007008106070012c00
1100100000000000000002087a42084a000000006ffa9000700814e070012c00
1111100000000000000002087a42084a000000006ffaa0007008196070012c00
1100100000000000000002087a42084a000000006ffab00070081de070012c00
1111100000000000000002087a42084a000000006ffac0007008226070012c00
1100100000000000000002087a42084a000000006ffad000700826e070012c00
1111100000000000000002087a42084a000000006ffae00070082b6070012c00
1100100000000000000002087a42084a000000006ffaf00070082fe070012c00
1111100000000000000002087a42084a000000006ffb00007008346070012c00
1100100000000000000002087a42084a000000006ffb1000700838e070012c00
1111100000000000000002087a42084a000000006ffb200070083d6070012c00
1100100000000000000002087a42084a000000006ffb3000700841e070012c00
1111100000000000000002087a42084a000000006ffb40007008466070012c00
1100100000000000000002087a42084a000000006ffb500070084ae070012c00
1111100000000000000002087a42084a000000006ffb600070084f6070012c00
1100100000000000000002087a42084a000000006ffb7000700853e070012c00
1111100000000000000002087a42084a000000006ffb80007008586070012c00
1100100000000000000002087a42084a000000006ffb900070085ce070012c00
1111100000000000000002087a42084a000000006ffba0007008616070012c00
1100100000000000000002087a42084a000000006ffbb000700865e070012c00
1111100000000000000002087a42084a000000006ffbc00070086a6070012c00
1100100000000000000002087a42084a000000006ffbd00070086ee070012c00
1111100000000000000002087a42084a000000006ffbe0007008736070012c00
1100100000000000000002087a52084b000000006ffbf000700877e070012c00
1111100000000000000002087a420848000000006ffe7c0070087c8070013c00
1100100000000000000002087a42084a000000006ffe8c007008810070013c00
1111100000000000000002087a42084a000000006ffe9c007008858070013c00
1100100000000000000002087a42084a000000006ffeac0070088a0070013c00
1111100000000000000002087a42084a000000006ffa000070088e8070013c00
1100100000000000000002087a42084a000000006ffa10007008930070013c00
1111100000000000000002087a42084a000000006ffa20007008978070013c00
1100100000000000000002087a42084a000000006ffa300070089c0070013c00
1111100000000000000002087a42084a000000006ffa40007008a08070013c00
1100100000000000000002087a42084a000000006ffa50007008a50070013c00
1111100000000000000002087a42084a000000006ffa60007008a98070013c00
1100100000000000000002087a42084a000000006ffa70007008ae0070013c00
1111100000000000000002087a42084a000000006ffa80007008b28070013c00
1100100000000000000002087a42084a000000006ffa90007008b70070013c00
1111100000000000000002087a42084a000000006ffaa0007008bb8070013c00
1100100000000000000002087a42084a000000006ffab0007008c00070013c00
1111100000000000000002087a42084a000000006ffac0007008c48070013c00
1100100000000000000002087a42084a000000006ffad0007008c90070013c00
1111100000000000000002087a42084a000000006ffae0007008cd8070013c00
1100100000000000000002087a42084a000000006ffaf0007008d20070013c00
1111100000000000000002087a42084a000000006ffb00007008d68070013c00
1100100000000000000002087a42084a000000006ffb10007008db0070013c00
1111100000000000000002087a42084a000000006ffb20007008df8070013c00
1100100000000000000002087a42084a000000006ffb30007008e40070013c00
1111100000000000000002087a42084a000000006ffb40007008e88070013c00
1100100000000000000002087a42084a000000006ffb50007008ed0070013c00
1111100000000000000002087a42084a000000006ffb60007008f18070013c00
1100100000000000000002087a42084a000000006ffb70007008f60070013c00
1111100000000000000002087a42084a000000006ffb80007008fa8070013c00
1100100000000000000002087a42084a000000006ffb90007008ff0070013c00
1111100000000000000002087a42084a000000006ffba0007009038070013c00
1100100000000000000002087a42084a000000006ffbb0007009080070013c00
1111100000000000000002087a42084a000000006ffbc00070090c8070013c00
1100100000000000000002087a42084a000000006ffbd0007009110070013c00
1111100000000000000002087a42084a000000006ffbe0007009158070013c00
1100100000000000000002087a52084b000000006ffbf00070091a0070013c00
1111100000000000000002087a420848000000006ffe7c0070091ea070014c00
1100100000000000000002087a42084a000000006ffe8c007009232070014c00
1111100000000000000002087a42084a000000006ffe9c00700927a070014c00
1100100000000000000002087a42084a000000006ffeac0070092c2070014c00
1111100000000000000002087a42084a000000006ffa0000700930a070014c00
1100100000000000000002087a42084a000000006ffa10007009352070014c00
1111100000000000000002087a42084a000000006ffa2000700939a070014c00
1100100000000000000002087a42084a000000006ffa300070093e2070014c00
1111100000000000000002087a42084a000000006ffa4000700942a070014c00
1100100000000000000002087a42084a000000006ffa50007009472070014c00
1111100000000000000002087a42084a000000006ffa600070094ba070014c00
1100100000000000000002087a42084a000000006ffa70007009502070014c00
1111100000000000000002087a42084a000000006ffa8000700954a070014c00
1100100000000000000002087a42084a000000006ffa90007009592070014c00
1111100000000000000002087a42084a000000006ffaa00070095da070014c00
1100100000000000000002087a42084a000000006ffab0007009622070014c00
1111100000000000000002087a42084a000000006ffac000700966a070014c00
1100100000000000000002087a42084a000000006ffad00070096b2070014c00
1111100000000000000002087a42084a000000006ffae00070096fa070014c00
1100100000000000000002087a42084a000000006ffaf0007009742070014c00
1111100000000000000002087a42084a000000006ffb0000700978a070014c00
1100100000000000000002087a42084a000000006ffb100070097d2070014c00
1111100000000000000002087a42084a000000006ffb2000700981a070014c00
1100100000000000000002087a42084a000000006ffb30007009862070014c00
1111100000000000000002087a42084a000000006ffb400070098aa070014c00
1100100000000000000002087a42084a000000006ffb500070098f2070014c00
1111100000000000000002087a42084a000000006ffb6000700993a070014c00
1100100000000000000002087a42084a000000006ffb70007009982070014c00
1111100000000000000002087a42084a000000006ffb800070099ca070014c00
1100100000000000000002087a42084a000000006ffb90007009a12070014c00
1111100000000000000002087a42084a000000006ffba0007009a5a070014c00
1100100000000000000002087a42084a000000006ffbb0007009aa2070014c00
1111100000000000000002087a42084a000000006ffbc0007009aea070014c00
1100100000000000000002087a42084a000000006ffbd0007009b32070014c00
1111100000000000000002087a42084a000000006ffbe0007009b7a070014c00
1100100000000000000002087a52084b000000006ffbf0007009bc2070014c00
1111100000000000000002087a420848000000006ffe7c007009c0c070015c00
1100100000000000000002087a42084a000000006ffe8c007009c54070015c00
1111100000000000000002087a42084a000000006ffe9c007009c9c070015c00
1100100000000000000002087a42084a000000006ffeac007009ce4070015c00
1111100000000000000002087a42084a000000006ffa00007009d2c070015c00
1100100000000000000002087a42084a000000006ffa10007009d74070015c00
1111100000000000000002087a42084a000000006ffa20007009dbc070015c00
1100100000000000000002087a42084a000000006ffa30007009e04070015c00
1111100000000000000002087a42084a000000006ffa40007009e4c070015c00
1100100000000000000002087a42084a000000006ffa50007009e94070015c00
1111100000000000000002087a42084a000000006ffa60007009edc070015c00
1100100000000000000002087a42084a000000006ffa70007009f24070015c00
1111100000000000000002087a42084a000000006ffa80007009f6c070015c00
1100100000000000000002087a42084a000000006ffa90007009fb4070015c00
1111100000000000000002087a42084a000000006ffaa0007009ffc070015c00
1100100000000000000002087a42084a000000006ffab000700a044070015c00
1111100000000000000002087a42084a000000006ffac000700a08c070015c00
1100100000000000000002087a42084a000000006ffad000700a0d4070015c00
1111100000000000000002087a42084a000000006ffae000700a11c070015c00
1100100000000000000002087a42084a000000006ffaf000700a164070015c00
1111100000000000000002087a42084a000000006ffb0000700a1ac070015c00
1100100000000000000002087a42084a000000006ffb1000700a1f4070015c00
1111100000000000000002087a42084a000000006ffb2000700a23c070015c00
1100100000000000000002087a42084a000000006ffb3000700a284070015c00
1111100000000000000002087a42084a000000006ffb4000700a2cc070015c00
1100100000000000000002087a42084a000000006ffb5000700a314070015c00
1111100000000000000002087a42084a000000006ffb6000700a35c070015c00
1100100000000000000002087a42084a000000006ffb7000700a3a4070015c00
1111100000000000000002087a42084a000000006ffb8000700a3ec070015c00
1100100000000000000002087a42084a000000006ffb9000700a434070015c00
1111100000000000000002087a42084a000000006ffba000700a47c070015c00
1100100000000000000002087a42084a000000006ffbb000700a4c4070015c00
1111100000000000000002087a42084a000000006ffbc000700a50c070015c00
1100100000000000000002087a42084a000000006ffbd000700a554070015c00
1111100000000000000002087a42084a000000006ffbe000700a59c070015c00
1100100000000000000002087a52084b000000006ffbf000700a5e4070015c00
1111100000000000000002087a420848000000006ffe7c00700a62e070016c00
1100100000000000000002087a42084a000000006ffe8c00700a676070016c00
1111100000000000000002087a42084a000000006ffe9c00700a6be070016c00
1100100000000000000002087a42084a000000006ffeac00700a706070016c00
1111100000000000000002087a42084a000000006ffa0000700a74e070016c00
1100100000000000000002087a42084a000000006ffa1000700a796070016c00
1111100000000000000002087a42084a000000006ffa2000700a7de070016c00
1100100000000000000002087a42084a000000006ffa3000700a826070016c00
1111100000000000000002087a42084a000000006ffa4000700a86e070016c00
1100100000000000000002087a42084a000000006ffa5000700a8b6070016c00
1111100000000000000002087a42084a000000006ffa6000700a8fe070016c00
1100100000000000000002087a42084a000000006ffa7000700a946070016c00
1111100000000000000002087a42084a000000006ffa8000700a98e070016c00
1100100000000000000002087a42084a000000006ffa9000700a9d6070016c00
1111100000000000000002087a42084a000000006ffaa000700aa1e070016c00
1100100000000000000002087a42084a000000006ffab000700aa66070016c00
1111100000000000000002087a42084a000000006ffac000700aaae070016c00
1100100000000000000002087a42084a000000006ffad000700aaf6070016c00
1111100000000000000002087a42084a000000006ffae000700ab3e070016c00
1100100000000000000002087a42084a000000006ffaf000700ab86070016c00
1111100000000000000002087a42084a000000006ffb0000700abce070016c00
1100100000000000000002087a42084a000000006ffb1000700ac16070016c00
1111100000000000000002087a42084a000000006ffb2000700ac5e070016c00
1100100000000000000002087a42084a000000006ffb3000700aca6070016c00
1111100000000000000002087a42084a000000006ffb4000700acee070016c00
1100100000000000000002087a42084a000000006ffb5000700ad36070016c00
1111100000000000000002087a42084a000000006ffb6000700ad7e070016c00
1100100000000000000002087a42084a000000006ffb7000700adc6070016c00
1111100000000000000002087a42084a000000006ffb8000700ae0e070016c00
1100100000000000000002087a42084a000000006ffb9000700ae56070016c00
1111100000000000000002087a42084a000000006ffba000700ae9e070016c00
1100100000000000000002087a42084a000000006ffbb000700aee6070016c00
1111100000000000000002087a42084a000000006ffbc000700af2e070016c00
1100100000000000000002087a42084a000000006ffbd000700af76070016c00
1111100000000000000002087a42084a000000006ffbe000700afbe070016c00
1100100000000000000002087a52084b000000006ffbf000700b006070016c00
1111100000000000000002087a420848000000006ffe7c00700b050070017c00
1100100000000000000002087a42084a000000006ffe8c00700b098070017c00
1111100000000000000002087a42084a000000006ffe9c00700b0e0070017c00
1100100000000000000002087a42084a000000006ffeac00700b128070017c00
1111100000000000000002087a42084a000000006ffa0000700b170070017c00
1100100000000000000002087a42084a000000006ffa1000700b1b8070017c00
1111100000000000000002087a42084a000000006ffa2000700b200070017c00
1100100000000000000002087a42084a000000006ffa3000700b248070017c00
1111100000000000000002087a42084a000000006ffa4000700b290070017c00
1100100000000000000002087a42084a000000006ffa5000700b2d8070017c00
1111100000000000000002087a42084a000000006ffa6000700b320070017c00
1100100000000000000002087a42084a000000006ffa7000700b368070017c00
1111100000000000000002087a42084a000000006ffa8000700b3b0070017c00
1100100000000000000002087a42084a000000006ffa9000700b3f8070017c00
1111100000000000000002087a42084a000000006ffaa000700b440070017c00
1100100000000000000002087a42084a000000006ffab000700b488070017c00
1111100000000000000002087a42084a000000006ffac000700b4d0070017c00
1100100000000000000002087a42084a000000006ffad000700b518070017c00
1111100000000000000002087a42084a000000006ffae000700b560070017c00
1100100000000000000002087a42084a000000006ffaf000700b5a8070017c00
1111100000000000000002087a42084a000000006ffb0000700b5f0070017c00
1100100000000000000002087a42084a000000006ffb1000700b638070017c00
1111100000000000000002087a42084a000000006ffb2000700b680070017c00
1100100000000000000002087a42084a000000006ffb3000700b6c8070017c00
1111100000000000000002087a42084a000000006ffb4000700b710070017c00
1100100000000000000002087a42084a000000006ffb5000700b758070017c00
1111100000000000000002087a42084a000000006ffb6000700b7a0070017c00
1100100000000000000002087a42084a000000006ffb7000700b7e8070017c00
1111100000000000000002087a42084a000000006ffb8000700b830070017c00
1100100000000000000002087a42084a000000006ffb9000700b878070017c00
1111100000000000000002087a42084a000000006ffba000700b8c0070017c00
1100100000000000000002087a42084a000000006ffbb000700b908070017c00
1111100000000000000002087a42084a000000006ffbc000700b950070017c00
1100100000000000000002087a42084a000000006ffbd000700b998070017c00
1111100000000000000002087a42084a000000006ffbe000700b9e0070017c00
1100100000000000000002087a52084b000000006ffbf000700ba28070017c00
1111100000000000000002087a420848000000006ffe7c00700ba72070018c00
1100100000000000000002087a42084a000000006ffe8c00700baba070018c00
1111100000000000000002087a42084a000000006ffe9c00700bb02070018c00
1100100000000000000002087a42084a000000006ffeac00700bb4a070018c00
1111100000000000000002087a42084a000000006ffa0000700bb92070018c00
1100100000000000000002087a42084a000000006ffa1000700bbda070018c00
1111100000000000000002087a42084a000000006ffa2000700bc22070018c00
1100100000000000000002087a42084a000000006ffa3000700bc6a070018c00
1111100000000000000002087a42084a000000006ffa4000700bcb2070018c00
1100100000000000000002087a42084a000000006ffa5000700bcfa070018c00
1111100000000000000002087a42084a000000006ffa6000700bd42070018c00
1100100000000000000002087a42084a000000006ffa7000700bd8a070018c00
1111100000000000000002087a42084a000000006ffa8000700bdd2070018c00
1100100000000000000002087a42084a000000006ffa9000700be1a070018c00
1111100000000000000002087a42084a000000006ffaa000700be62070018c00
1100100000000000000002087a42084a000000006ffab000700beaa070018c00
1111100000000000000002087a42084a000000006ffac000700bef2070018c00
1100100000000000000002087a42084a000000006ffad000700bf3a070018c00
1111100000000000000002087a42084a000000006ffae000700bf82070018c00
1100100000000000000002087a42084a000000006ffaf000700bfca070018c00
1111100000000000000002087a42084a000000006ffb0000700c012070018c00
1100100000000000000002087a42084a000000006ffb1000700c05a070018c00
1111100000000000000002087a42084a000000006ffb2000700c0a2070018c00
1100100000000000000002087a42084a000000006ffb3000700c0ea070018c00
1111100000000000000002087a42084a000000006ffb4000700c132070018c00
1100100000000000000002087a42084a000000006ffb5000700c17a070018c00
1111100000000000000002087a42084a000000006ffb6000700c1c2070018c00
1100100000000000000002087a42084a000000006ffb7000700c20a070018c00
1111100000000000000002087a42084a000000006ffb8000700c252070018c00
1100100000000000000002087a42084a000000006ffb9000700c29a070018c00
1111100000000000000002087a42084a000000006ffba000700c2e2070018c00
1100100000000000000002087a42084a000000006ffbb000700c32a070018c00
1111100000000000000002087a42084a000000006ffbc000700c372070018c00
1100100000000000000002087a42084a000000006ffbd000700c3ba070018c00
1111100000000000000002087a42084a000000006ffbe000700c402070018c00
1100100000000000000002087a52084b000000006ffbf000700c44a070018c00
1111100000000000000002087a420848000000006ffe7c00700c494070019c00
1100100000000000000002087a42084a000000006ffe8c00700c4dc070019c00
1111100000000000000002087a42084a000000006ffe9c00700c524070019c00
1100100000000000000002087a42084a000000006ffeac00700c56c070019c00
1111100000000000000002087a42084a000000006ffa0000700c5b4070019c00
1100100000000000000002087a42084a000000006ffa1000700c5fc070019c00
1111100000000000000002087a42084a000000006ffa2000700c644070019c00
1100100000000000000002087a42084a000000006ffa3000700c68c070019c00
1111100000000000000002087a42084a000000006ffa4000700c6d4070019c00
1100100000000000000002087a42084a000000006ffa5000700c71c070019c00
1111100000000000000002087a42084a000000006ffa6000700c764070019c00
1100100000000000000002087a42084a000000006ffa7000700c7ac070019c00
1111100000000000000002087a42084a000000006ffa8000700c7f4070019c00
1100100000000000000002087a42084a000000006ffa9000700c83c070019c00
1111100000000000000002087a42084a000000006ffaa000700c884070019c00
1100100000000000000002087a42084a000000006ffab000700c8cc070019c00
1111100000000000000002087a42084a000000006ffac000700c914070019c00
1100100000000000000002087a42084a000000006ffad000700c95c070019c00
1111100000000000000002087a42084a000000006ffae000700c9a4070019c00
1100100000000000000002087a42084a000000006ffaf000700c9ec070019c00
1111100000000000000002087a42084a000000006ffb0000700ca34070019c00
1100100000000000000002087a42084a000000006ffb1000700ca7c070019c00
1111100000000000000002087a42084a000000006ffb2000700cac4070019c00
1100100000000000000002087a42084a000000006ffb3000700cb0c070019c00
1111100000000000000002087a42084a000000006ffb4000700cb54070019c00
1100100000000000000002087a42084a000000006ffb5000700cb9c070019c00
1111100000000000000002087a42084a000000006ffb6000700cbe4070019c00
1100100000000000000002087a42084a000000006ffb7000700cc2c070019c00
1111100000000000000002087a42084a000000006ffb8000700cc74070019c00
1100100000000000000002087a42084a000000006ffb9000700ccbc070019c00
1111100000000000000002087a42084a000000006ffba000700cd04070019c00
1100100000000000000002087a42084a000000006ffbb000700cd4c070019c00
1111100000000000000002087a42084a000000006ffbc000700cd94070019c00
1100100000000000000002087a42084a000000006ffbd000700cddc070019c00
1111100000000000000002087a42084a000000006ffbe000700ce24070019c00
1100100000000000000002087a52084b000000006ffbf000700ce6c070019c00
1111100000000000000002087a420848000000006ffe7c00700ceb607001ac00
1100100000000000000002087a42084a000000006ffe8c00700cefe07001ac00
1111100000000000000002087a42084a000000006ffe9c00700cf4607001ac00
1100100000000000000002087a42084a000000006ffeac00700cf8e07001ac00
1111100000000000000002087a42084a000000006ffa0000700cfd607001ac00
1100100000000000000002087a42084a000000006ffa1000700d01e07001ac00
1111100000000000000002087a42084a000000006ffa2000700d06607001ac00
1100100000000000000002087a42084a000000006ffa3000700d0ae07001ac00
1111100000000000000002087a42084a000000006ffa4000700d0f607001ac00
1100100000000000000002087a42084a000000006ffa5000700d13e07001ac00
1111100000000000000002087a42084a000000006ffa6000700d18607001ac00
1100100000000000000002087a42084a000000006ffa7000700d1ce07001ac00
1111100000000000000002087a42084a000000006ffa8000700d21607001ac00
1100100000000000000002087a42084a000000006ffa9000700d25e07001ac00
1111100000000000000002087a42084a000000006ffaa000700d2a607001ac00
1100100000000000000002087a42084a000000006ffab000700d2ee07001ac00
1111100000000000000002087a42084a000000006ffac000700d33607001ac00
1100100000000000000002087a42084a000000006ffad000700d37e07001ac00
1111100000000000000002087a42084a000000006ffae000700d3c607001ac00
1100100000000000000002087a42084a000000006ffaf000700d40e07001ac00
1111100000000000000002087a42084a000000006ffb0000700d45607001ac00
1100100000000000000002087a42084a000000006ffb1000700d49e07001ac00
1111100000000000000002087a42084a000000006ffb2000700d4e607001ac00
1100100000000000000002087a42084a000000006ffb3000700d52e07001ac00
1111100000000000000002087a42084a000000006ffb4000700d57607001ac00
1100100000000000000002087a42084a000000006ffb5000700d5be07001ac00
1111100000000000000002087a42084a000000006ffb6000700d60607001ac00
1100100000000000000002087a42084a000000006ffb7000700d64e07001ac00
1111100000000000000002087a42084a000000006ffb8000700d69607001ac00
1100100000000000000002087a42084a000000006ffb9000700d6de07001ac00
1111100000000000000002087a42084a000000006ffba000700d72607001ac00
1100100000000000000002087a42084a000000006ffbb000700d76e07001ac00
1111100000000000000002087a42084a000000006ffbc000700d7b607001ac00
1100100000000000000002087a42084a000000006ffbd000700d7fe07001ac00
1111100000000000000002087a42084a000000006ffbe000700d84607001ac00
1100100000000000000002087a52084f000000006ffbf000700d88e07001ac00
