1111100000000000000002087a4208486ffc00006ff900006fd350c06ffa0000
1100100000000000000002087a42084a6ffc00006ff910006fd355406ffa0000
1111100000000000000002087a42084a6ffc00006ff920006fd359c06ffa0000
1100100000000000000002087a42084a6ffc00006ff930006fd35e406ffa0000
1111100000000000000002087a42084a6ffc00006ff940006fd362c06ffa0000
1100100000000000000002087a42084a6ffc00006ff950006fd367406ffa0000
1111100000000000000002087a42084a6ffc00006ff960006fd36bc06ffa0000
1100100000000000000002087a42084a6ffc00006ff970006fd370406ffa0000
1111100000000000000002087a42084a6ffc00006ff980006fd374c06ffa0000
1100100000000000000002087a42084a6ffc00006ff990006fd379406ffa0000
1111100000000000000002087a42084a6ffc00006ff9a0006fd37dc06ffa0000
1100100000000000000002087a42084a6ffc00006ff9b0006fd382406ffa0000
1111100000000000000002087a42084a6ffc00006ff9c0006fd386c06ffa0000
1100100000000000000002087a42084a6ffc00006ff9d0006fd38b406ffa0000
1111100000000000000002087a42084a6ffc00006ff9e0006fd38fc06ffa0000
1100100000000000000002087e52084b6ffc00006ff9f0006fd394406ffa0000
1111100000000000000002087a4208486ffc04006ff900006fd398e06ffa1000
1100100000000000000002087a42084a6ffc04006ff910006fd39d606ffa1000
1111100000000000000002087a42084a6ffc04006ff920006fd3a1e06ffa1000
1100100000000000000002087a42084a6ffc04006ff930006fd3a6606ffa1000
1111100000000000000002087a42084a6ffc04006ff940006fd3aae06ffa1000
1100100000000000000002087a42084a6ffc04006ff950006fd3af606ffa1000
1111100000000000000002087a42084a6ffc04006ff960006fd3b3e06ffa1000
1100100000000000000002087a42084a6ffc04006ff970006fd3b8606ffa1000
1111100000000000000002087a42084a6ffc04006ff980006fd3bce06ffa1000
1100100000000000000002087a42084a6ffc04006ff990006fd3c1606ffa1000
1111100000000000000002087a42084a6ffc04006ff9a0006fd3c5e06ffa1000
1100100000000000000002087a42084a6ffc04006ff9b0006fd3ca606ffa1000
1111100000000000000002087a42084a6ffc04006ff9c0006fd3cee06ffa1000
1100100000000000000002087a42084a6ffc04006ff9d0006fd3d3606ffa1000
1111100000000000000002087a42084a6ffc04006ff9e0006fd3d7e06ffa1000
1100100000000000000002087e52084b6ffc04006ff9f0006fd3dc606ffa1000
1111100000000000000002087a4208486ffc08006ff900006fd3e1006ffa2000
1100100000000000000002087a42084a6ffc08006ff910006fd3e5806ffa2000
1111100000000000000002087a42084a6ffc08006ff920006fd3ea006ffa2000
1100100000000000000002087a42084a6ffc08006ff930006fd3ee806ffa2000
1111100000000000000002087a42084a6ffc08006ff940006fd3f3006ffa2000
1100100000000000000002087a42084a6ffc08006ff950006fd3f7806ffa2000
1111100000000000000002087a42084a6ffc08006ff960006fd3fc006ffa2000
1100100000000000000002087a42084a6ffc08006ff970006fd400806ffa2000
1111100000000000000002087a42084a6ffc08006ff980006fd405006ffa2000
1100100000000000000002087a42084a6ffc08006ff990006fd409806ffa2000
1111100000000000000002087a42084a6ffc08006ff9a0006fd40e006ffa2000
1100100000000000000002087a42084a6ffc08006ff9b0006fd412806ffa2000
1111100000000000000002087a42084a6ffc08006ff9c0006fd417006ffa2000
1100100000000000000002087a42084a6ffc08006ff9d0006fd41b806ffa2000
1111100000000000000002087a42084a6ffc08006ff9e0006fd420006ffa2000
1100100000000000000002087e52084b6ffc08006ff9f0006fd424806ffa2000
1111100000000000000002087a4208486ffc0c006ff900006fd429206ffa3000
1100100000000000000002087a42084a6ffc0c006ff910006fd42da06ffa3000
1111100000000000000002087a42084a6ffc0c006ff920006fd432206ffa3000
1100100000000000000002087a42084a6ffc0c006ff930006fd436a06ffa3000
1111100000000000000002087a42084a6ffc0c006ff940006fd43b206ffa3000
1100100000000000000002087a42084a6ffc0c006ff950006fd43fa06ffa3000
1111100000000000000002087a42084a6ffc0c006ff960006fd444206ffa3000
1100100000000000000002087a42084a6ffc0c006ff970006fd448a06ffa3000
1111100000000000000002087a42084a6ffc0c006ff980006fd44d206ffa3000
1100100000000000000002087a42084a6ffc0c006ff990006fd451a06ffa3000
1111100000000000000002087a42084a6ffc0c006ff9a0006fd456206ffa3000
1100100000000000000002087a42084a6ffc0c006ff9b0006fd45aa06ffa3000
1111100000000000000002087a42084a6ffc0c006ff9c0006fd45f206ffa3000
1100100000000000000002087a42084a6ffc0c006ff9d0006fd463a06ffa3000
1111100000000000000002087a42084a6ffc0c006ff9e0006fd468206ffa3000
1100100000000000000002087e52084b6ffc0c006ff9f0006fd46ca06ffa3000
1111100000000000000002087a4208486ffc10006ff900006fd471406ffa4000
1100100000000000000002087a42084a6ffc10006ff910006fd475c06ffa4000
1111100000000000000002087a42084a6ffc10006ff920006fd47a406ffa4000
1100100000000000000002087a42084a6ffc10006ff930006fd47ec06ffa4000
1111100000000000000002087a42084a6ffc10006ff940006fd483406ffa4000
1100100000000000000002087a42084a6ffc10006ff950006fd487c06ffa4000
1111100000000000000002087a42084a6ffc10006ff960006fd48c406ffa4000
1100100000000000000002087a42084a6ffc10006ff970006fd490c06ffa4000
1111100000000000000002087a42084a6ffc10006ff980006fd495406ffa4000
1100100000000000000002087a42084a6ffc10006ff990006fd499c06ffa4000
1111100000000000000002087a42084a6ffc10006ff9a0006fd49e406ffa4000
1100100000000000000002087a42084a6ffc10006ff9b0006fd4a2c06ffa4000
1111100000000000000002087a42084a6ffc10006ff9c0006fd4a7406ffa4000
1100100000000000000002087a42084a6ffc10006ff9d0006fd4abc06ffa4000
1111100000000000000002087a42084a6ffc10006ff9e0006fd4b0406ffa4000
1100100000000000000002087e52084b6ffc10006ff9f0006fd4b4c06ffa4000
1111100000000000000002087a4208486ffc14006ff900006fd4b9606ffa5000
1100100000000000000002087a42084a6ffc14006ff910006fd4bde06ffa5000
1111100000000000000002087a42084a6ffc14006ff920006fd4c2606ffa5000
1100100000000000000002087a42084a6ffc14006ff930006fd4c6e06ffa5000
1111100000000000000002087a42084a6ffc14006ff940006fd4cb606ffa5000
1100100000000000000002087a42084a6ffc14006ff950006fd4cfe06ffa5000
1111100000000000000002087a42084a6ffc14006ff960006fd4d4606ffa5000
1100100000000000000002087a42084a6ffc14006ff970006fd4d8e06ffa5000
1111100000000000000002087a42084a6ffc14006ff980006fd4dd606ffa5000
1100100000000000000002087a42084a6ffc14006ff990006fd4e1e06ffa5000
1111100000000000000002087a42084a6ffc14006ff9a0006fd4e6606ffa5000
1100100000000000000002087a42084a6ffc14006ff9b0006fd4eae06ffa5000
1111100000000000000002087a42084a6ffc14006ff9c0006fd4ef606ffa5000
1100100000000000000002087a42084a6ffc14006ff9d0006fd4f3e06ffa5000
1111100000000000000002087a42084a6ffc14006ff9e0006fd4f8606ffa5000
1100100000000000000002087e52084b6ffc14006ff9f0006fd4fce06ffa5000
1111100000000000000002087a4208486ffc18006ff900006fd501806ffa6000
1100100000000000000002087a42084a6ffc18006ff910006fd506006ffa6000
1111100000000000000002087a42084a6ffc18006ff920006fd50a806ffa6000
1100100000000000000002087a42084a6ffc18006ff930006fd50f006ffa6000
1111100000000000000002087a42084a6ffc18006ff940006fd513806ffa6000
1100100000000000000002087a42084a6ffc18006ff950006fd518006ffa6000
1111100000000000000002087a42084a6ffc18006ff960006fd51c806ffa6000
1100100000000000000002087a42084a6ffc18006ff970006fd521006ffa6000
1111100000000000000002087a42084a6ffc18006ff980006fd525806ffa6000
1100100000000000000002087a42084a6ffc18006ff990006fd52a006ffa6000
1111100000000000000002087a42084a6ffc18006ff9a0006fd52e806ffa6000
1100100000000000000002087a42084a6ffc18006ff9b0006fd533006ffa6000
1111100000000000000002087a42084a6ffc18006ff9c0006fd537806ffa6000
1100100000000000000002087a42084a6ffc18006ff9d0006fd53c006ffa6000
1111100000000000000002087a42084a6ffc18006ff9e0006fd540806ffa6000
1100100000000000000002087e52084b6ffc18006ff9f0006fd545006ffa6000
1111100000000000000002087a4208486ffc1c006ff900006fd549a06ffa7000
1100100000000000000002087a42084a6ffc1c006ff910006fd54e206ffa7000
1111100000000000000002087a42084a6ffc1c006ff920006fd552a06ffa7000
1100100000000000000002087a42084a6ffc1c006ff930006fd557206ffa7000
1111100000000000000002087a42084a6ffc1c006ff940006fd55ba06ffa7000
1100100000000000000002087a42084a6ffc1c006ff950006fd560206ffa7000
1111100000000000000002087a42084a6ffc1c006ff960006fd564a06ffa7000
1100100000000000000002087a42084a6ffc1c006ff970006fd569206ffa7000
1111100000000000000002087a42084a6ffc1c006ff980006fd56da06ffa7000
1100100000000000000002087a42084a6ffc1c006ff990006fd572206ffa7000
1111100000000000000002087a42084a6ffc1c006ff9a0006fd576a06ffa7000
1100100000000000000002087a42084a6ffc1c006ff9b0006fd57b206ffa7000
1111100000000000000002087a42084a6ffc1c006ff9c0006fd57fa06ffa7000
1100100000000000000002087a42084a6ffc1c006ff9d0006fd584206ffa7000
1111100000000000000002087a42084a6ffc1c006ff9e0006fd588a06ffa7000
1100100000000000000002087e52084b6ffc1c006ff9f0006fd58d206ffa7000
1111100000000000000002087a4208486ffc20006ff900006fd591c06ffa8000
1100100000000000000002087a42084a6ffc20006ff910006fd596406ffa8000
1111100000000000000002087a42084a6ffc20006ff920006fd59ac06ffa8000
1100100000000000000002087a42084a6ffc20006ff930006fd59f406ffa8000
1111100000000000000002087a42084a6ffc20006ff940006fd5a3c06ffa8000
1100100000000000000002087a42084a6ffc20006ff950006fd5a8406ffa8000
1111100000000000000002087a42084a6ffc20006ff960006fd5acc06ffa8000
1100100000000000000002087a42084a6ffc20006ff970006fd5b1406ffa8000
1111100000000000000002087a42084a6ffc20006ff980006fd5b5c06ffa8000
1100100000000000000002087a42084a6ffc20006ff990006fd5ba406ffa8000
1111100000000000000002087a42084a6ffc20006ff9a0006fd5bec06ffa8000
1100100000000000000002087a42084a6ffc20006ff9b0006fd5c3406ffa8000
1111100000000000000002087a42084a6ffc20006ff9c0006fd5c7c06ffa8000
1100100000000000000002087a42084a6ffc20006ff9d0006fd5cc406ffa8000
1111100000000000000002087a42084a6ffc20006ff9e0006fd5d0c06ffa8000
1100100000000000000002087e52084b6ffc20006ff9f0006fd5d5406ffa8000
1111100000000000000002087a4208486ffc24006ff900006fd5d9e06ffa9000
1100100000000000000002087a42084a6ffc24006ff910006fd5de606ffa9000
1111100000000000000002087a42084a6ffc24006ff920006fd5e2e06ffa9000
1100100000000000000002087a42084a6ffc24006ff930006fd5e7606ffa9000
1111100000000000000002087a42084a6ffc24006ff940006fd5ebe06ffa9000
1100100000000000000002087a42084a6ffc24006ff950006fd5f0606ffa9000
1111100000000000000002087a42084a6ffc24006ff960006fd5f4e06ffa9000
1100100000000000000002087a42084a6ffc24006ff970006fd5f9606ffa9000
1111100000000000000002087a42084a6ffc24006ff980006fd5fde06ffa9000
1100100000000000000002087a42084a6ffc24006ff990006fd602606ffa9000
1111100000000000000002087a42084a6ffc24006ff9a0006fd606e06ffa9000
1100100000000000000002087a42084a6ffc24006ff9b0006fd60b606ffa9000
1111100000000000000002087a42084a6ffc24006ff9c0006fd60fe06ffa9000
1100100000000000000002087a42084a6ffc24006ff9d0006fd614606ffa9000
1111100000000000000002087a42084a6ffc24006ff9e0006fd618e06ffa9000
1100100000000000000002087e52084b6ffc24006ff9f0006fd61d606ffa9000
1111100000000000000002087a4208486ffc28006ff900006fd622006ffaa000
1100100000000000000002087a42084a6ffc28006ff910006fd626806ffaa000
1111100000000000000002087a42084a6ffc28006ff920006fd62b006ffaa000
1100100000000000000002087a42084a6ffc28006ff930006fd62f806ffaa000
1111100000000000000002087a42084a6ffc28006ff940006fd634006ffaa000
1100100000000000000002087a42084a6ffc28006ff950006fd638806ffaa000
1111100000000000000002087a42084a6ffc28006ff960006fd63d006ffaa000
1100100000000000000002087a42084a6ffc28006ff970006fd641806ffaa000
1111100000000000000002087a42084a6ffc28006ff980006fd646006ffaa000
1100100000000000000002087a42084a6ffc28006ff990006fd64a806ffaa000
1111100000000000000002087a42084a6ffc28006ff9a0006fd64f006ffaa000
1100100000000000000002087a42084a6ffc28006ff9b0006fd653806ffaa000
1111100000000000000002087a42084a6ffc28006ff9c0006fd658006ffaa000
1100100000000000000002087a42084a6ffc28006ff9d0006fd65c806ffaa000
1111100000000000000002087a42084a6ffc28006ff9e0006fd661006ffaa000
1100100000000000000002087e52084b6ffc28006ff9f0006fd665806ffaa000
1111100000000000000002087a4208486ffc2c006ff900006fd66a206ffab000
1100100000000000000002087a42084a6ffc2c006ff910006fd66ea06ffab000
1111100000000000000002087a42084a6ffc2c006ff920006fd673206ffab000
1100100000000000000002087a42084a6ffc2c006ff930006fd677a06ffab000
1111100000000000000002087a42084a6ffc2c006ff940006fd67c206ffab000
1100100000000000000002087a42084a6ffc2c006ff950006fd680a06ffab000
1111100000000000000002087a42084a6ffc2c006ff960006fd685206ffab000
1100100000000000000002087a42084a6ffc2c006ff970006fd689a06ffab000
1111100000000000000002087a42084a6ffc2c006ff980006fd68e206ffab000
1100100000000000000002087a42084a6ffc2c006ff990006fd692a06ffab000
1111100000000000000002087a42084a6ffc2c006ff9a0006fd697206ffab000
1100100000000000000002087a42084a6ffc2c006ff9b0006fd69ba06ffab000
1111100000000000000002087a42084a6ffc2c006ff9c0006fd6a0206ffab000
1100100000000000000002087a42084a6ffc2c006ff9d0006fd6a4a06ffab000
1111100000000000000002087a42084a6ffc2c006ff9e0006fd6a9206ffab000
1100100000000000000002087e52084b6ffc2c006ff9f0006fd6ada06ffab000
1111100000000000000002087a4208486ffc30006ff900006fd6b2406ffac000
1100100000000000000002087a42084a6ffc30006ff910006fd6b6c06ffac000
1111100000000000000002087a42084a6ffc30006ff920006fd6bb406ffac000
1100100000000000000002087a42084a6ffc30006ff930006fd6bfc06ffac000
1111100000000000000002087a42084a6ffc30006ff940006fd6c4406ffac000
1100100000000000000002087a42084a6ffc30006ff950006fd6c8c06ffac000
1111100000000000000002087a42084a6ffc30006ff960006fd6cd406ffac000
1100100000000000000002087a42084a6ffc30006ff970006fd6d1c06ffac000
1111100000000000000002087a42084a6ffc30006ff980006fd6d6406ffac000
1100100000000000000002087a42084a6ffc30006ff990006fd6dac06ffac000
1111100000000000000002087a42084a6ffc30006ff9a0006fd6df406ffac000
1100100000000000000002087a42084a6ffc30006ff9b0006fd6e3c06ffac000
1111100000000000000002087a42084a6ffc30006ff9c0006fd6e8406ffac000
1100100000000000000002087a42084a6ffc30006ff9d0006fd6ecc06ffac000
1111100000000000000002087a42084a6ffc30006ff9e0006fd6f1406ffac000
1100100000000000000002087e52084b6ffc30006ff9f0006fd6f5c06ffac000
1111100000000000000002087a4208486ffc34006ff900006fd6fa606ffad000
1100100000000000000002087a42084a6ffc34006ff910006fd6fee06ffad000
1111100000000000000002087a42084a6ffc34006ff920006fd703606ffad000
1100100000000000000002087a42084a6ffc34006ff930006fd707e06ffad000
1111100000000000000002087a42084a6ffc34006ff940006fd70c606ffad000
1100100000000000000002087a42084a6ffc34006ff950006fd710e06ffad000
1111100000000000000002087a42084a6ffc34006ff960006fd715606ffad000
1100100000000000000002087a42084a6ffc34006ff970006fd719e06ffad000
1111100000000000000002087a42084a6ffc34006ff980006fd71e606ffad000
1100100000000000000002087a42084a6ffc34006ff990006fd722e06ffad000
1111100000000000000002087a42084a6ffc34006ff9a0006fd727606ffad000
1100100000000000000002087a42084a6ffc34006ff9b0006fd72be06ffad000
1111100000000000000002087a42084a6ffc34006ff9c0006fd730606ffad000
1100100000000000000002087a42084a6ffc34006ff9d0006fd734e06ffad000
1111100000000000000002087a42084a6ffc34006ff9e0006fd739606ffad000
1100100000000000000002087e52084b6ffc34006ff9f0006fd73de06ffad000
1111100000000000000002087a4208486ffc38006ff900006fd742806ffae000
1100100000000000000002087a42084a6ffc38006ff910006fd747006ffae000
1111100000000000000002087a42084a6ffc38006ff920006fd74b806ffae000
1100100000000000000002087a42084a6ffc38006ff930006fd750006ffae000
1111100000000000000002087a42084a6ffc38006ff940006fd754806ffae000
1100100000000000000002087a42084a6ffc38006ff950006fd759006ffae000
1111100000000000000002087a42084a6ffc38006ff960006fd75d806ffae000
1100100000000000000002087a42084a6ffc38006ff970006fd762006ffae000
1111100000000000000002087a42084a6ffc38006ff980006fd766806ffae000
1100100000000000000002087a42084a6ffc38006ff990006fd76b006ffae000
1111100000000000000002087a42084a6ffc38006ff9a0006fd76f806ffae000
1100100000000000000002087a42084a6ffc38006ff9b0006fd774006ffae000
1111100000000000000002087a42084a6ffc38006ff9c0006fd778806ffae000
1100100000000000000002087a42084a6ffc38006ff9d0006fd77d006ffae000
1111100000000000000002087a42084a6ffc38006ff9e0006fd781806ffae000
1100100000000000000002087e52084b6ffc38006ff9f0006fd786006ffae000
1111100000000000000002087a4208486ffc3c006ff900006fd78aa06ffaf000
1100100000000000000002087a42084a6ffc3c006ff910006fd78f206ffaf000
1111100000000000000002087a42084a6ffc3c006ff920006fd793a06ffaf000
1100100000000000000002087a42084a6ffc3c006ff930006fd798206ffaf000
1111100000000000000002087a42084a6ffc3c006ff940006fd79ca06ffaf000
1100100000000000000002087a42084a6ffc3c006ff950006fd7a1206ffaf000
1111100000000000000002087a42084a6ffc3c006ff960006fd7a5a06ffaf000
1100100000000000000002087a42084a6ffc3c006ff970006fd7aa206ffaf000
1111100000000000000002087a42084a6ffc3c006ff980006fd7aea06ffaf000
1100100000000000000002087a42084a6ffc3c006ff990006fd7b3206ffaf000
1111100000000000000002087a42084a6ffc3c006ff9a0006fd7b7a06ffaf000
1100100000000000000002087a42084a6ffc3c006ff9b0006fd7bc206ffaf000
1111100000000000000002087a42084a6ffc3c006ff9c0006fd7c0a06ffaf000
1100100000000000000002087a42084a6ffc3c006ff9d0006fd7c5206ffaf000
1111100000000000000002087a42084a6ffc3c006ff9e0006fd7c9a06ffaf000
1100100000000000000002087e52084b6ffc3c006ff9f0006fd7ce206ffaf000
1111100000000000000002087a4208486ffc40006ff900006fd7d2c06ffb0000
1100100000000000000002087a42084a6ffc40006ff910006fd7d7406ffb0000
1111100000000000000002087a42084a6ffc40006ff920006fd7dbc06ffb0000
1100100000000000000002087a42084a6ffc40006ff930006fd7e0406ffb0000
1111100000000000000002087a42084a6ffc40006ff940006fd7e4c06ffb0000
1100100000000000000002087a42084a6ffc40006ff950006fd7e9406ffb0000
1111100000000000000002087a42084a6ffc40006ff960006fd7edc06ffb0000
1100100000000000000002087a42084a6ffc40006ff970006fd7f2406ffb0000
1111100000000000000002087a42084a6ffc40006ff980006fd7f6c06ffb0000
1100100000000000000002087a42084a6ffc40006ff990006fd7fb406ffb0000
1111100000000000000002087a42084a6ffc40006ff9a0006fd7ffc06ffb0000
1100100000000000000002087a42084a6ffc40006ff9b0006fd804406ffb0000
1111100000000000000002087a42084a6ffc40006ff9c0006fd808c06ffb0000
1100100000000000000002087a42084a6ffc40006ff9d0006fd80d406ffb0000
1111100000000000000002087a42084a6ffc40006ff9e0006fd811c06ffb0000
1100100000000000000002087e52084b6ffc40006ff9f0006fd816406ffb0000
1111100000000000000002087a4208486ffc44006ff900006fd81ae06ffb1000
1100100000000000000002087a42084a6ffc44006ff910006fd81f606ffb1000
1111100000000000000002087a42084a6ffc44006ff920006fd823e06ffb1000
1100100000000000000002087a42084a6ffc44006ff930006fd828606ffb1000
1111100000000000000002087a42084a6ffc44006ff940006fd82ce06ffb1000
1100100000000000000002087a42084a6ffc44006ff950006fd831606ffb1000
1111100000000000000002087a42084a6ffc44006ff960006fd835e06ffb1000
1100100000000000000002087a42084a6ffc44006ff970006fd83a606ffb1000
1111100000000000000002087a42084a6ffc44006ff980006fd83ee06ffb1000
1100100000000000000002087a42084a6ffc44006ff990006fd843606ffb1000
1111100000000000000002087a42084a6ffc44006ff9a0006fd847e06ffb1000
1100100000000000000002087a42084a6ffc44006ff9b0006fd84c606ffb1000
1111100000000000000002087a42084a6ffc44006ff9c0006fd850e06ffb1000
1100100000000000000002087a42084a6ffc44006ff9d0006fd855606ffb1000
1111100000000000000002087a42084a6ffc44006ff9e0006fd859e06ffb1000
1100100000000000000002087e52084b6ffc44006ff9f0006fd85e606ffb1000
1111100000000000000002087a4208486ffc48006ff900006fd863006ffb2000
1100100000000000000002087a42084a6ffc48006ff910006fd867806ffb2000
1111100000000000000002087a42084a6ffc48006ff920006fd86c006ffb2000
1100100000000000000002087a42084a6ffc48006ff930006fd870806ffb2000
1111100000000000000002087a42084a6ffc48006ff940006fd875006ffb2000
1100100000000000000002087a42084a6ffc48006ff950006fd879806ffb2000
1111100000000000000002087a42084a6ffc48006ff960006fd87e006ffb2000
1100100000000000000002087a42084a6ffc48006ff970006fd882806ffb2000
1111100000000000000002087a42084a6ffc48006ff980006fd887006ffb2000
1100100000000000000002087a42084a6ffc48006ff990006fd88b806ffb2000
1111100000000000000002087a42084a6ffc48006ff9a0006fd890006ffb2000
1100100000000000000002087a42084a6ffc48006ff9b0006fd894806ffb2000
1111100000000000000002087a42084a6ffc48006ff9c0006fd899006ffb2000
1100100000000000000002087a42084a6ffc48006ff9d0006fd89d806ffb2000
1111100000000000000002087a42084a6ffc48006ff9e0006fd8a2006ffb2000
1100100000000000000002087e52084b6ffc48006ff9f0006fd8a6806ffb2000
1111100000000000000002087a4208486ffc4c006ff900006fd8ab206ffb3000
1100100000000000000002087a42084a6ffc4c006ff910006fd8afa06ffb3000
1111100000000000000002087a42084a6ffc4c006ff920006fd8b4206ffb3000
1100100000000000000002087a42084a6ffc4c006ff930006fd8b8a06ffb3000
1111100000000000000002087a42084a6ffc4c006ff940006fd8bd206ffb3000
1100100000000000000002087a42084a6ffc4c006ff950006fd8c1a06ffb3000
1111100000000000000002087a42084a6ffc4c006ff960006fd8c6206ffb3000
1100100000000000000002087a42084a6ffc4c006ff970006fd8caa06ffb3000
1111100000000000000002087a42084a6ffc4c006ff980006fd8cf206ffb3000
1100100000000000000002087a42084a6ffc4c006ff990006fd8d3a06ffb3000
1111100000000000000002087a42084a6ffc4c006ff9a0006fd8d8206ffb3000
1100100000000000000002087a42084a6ffc4c006ff9b0006fd8dca06ffb3000
1111100000000000000002087a42084a6ffc4c006ff9c0006fd8e1206ffb3000
1100100000000000000002087a42084a6ffc4c006ff9d0006fd8e5a06ffb3000
1111100000000000000002087a42084a6ffc4c006ff9e0006fd8ea206ffb3000
1100100000000000000002087e52084b6ffc4c006ff9f0006fd8eea06ffb3000
1111100000000000000002087a4208486ffc50006ff900006fd8f3406ffb4000
1100100000000000000002087a42084a6ffc50006ff910006fd8f7c06ffb4000
1111100000000000000002087a42084a6ffc50006ff920006fd8fc406ffb4000
1100100000000000000002087a42084a6ffc50006ff930006fd900c06ffb4000
1111100000000000000002087a42084a6ffc50006ff940006fd905406ffb4000
1100100000000000000002087a42084a6ffc50006ff950006fd909c06ffb4000
1111100000000000000002087a42084a6ffc50006ff960006fd90e406ffb4000
1100100000000000000002087a42084a6ffc50006ff970006fd912c06ffb4000
1111100000000000000002087a42084a6ffc50006ff980006fd917406ffb4000
1100100000000000000002087a42084a6ffc50006ff990006fd91bc06ffb4000
1111100000000000000002087a42084a6ffc50006ff9a0006fd920406ffb4000
1100100000000000000002087a42084a6ffc50006ff9b0006fd924c06ffb4000
1111100000000000000002087a42084a6ffc50006ff9c0006fd929406ffb4000
1100100000000000000002087a42084a6ffc50006ff9d0006fd92dc06ffb4000
1111100000000000000002087a42084a6ffc50006ff9e0006fd932406ffb4000
1100100000000000000002087e52084b6ffc50006ff9f0006fd936c06ffb4000
1111100000000000000002087a4208486ffc54006ff900006fd93b606ffb5000
1100100000000000000002087a42084a6ffc54006ff910006fd93fe06ffb5000
1111100000000000000002087a42084a6ffc54006ff920006fd944606ffb5000
1100100000000000000002087a42084a6ffc54006ff930006fd948e06ffb5000
1111100000000000000002087a42084a6ffc54006ff940006fd94d606ffb5000
1100100000000000000002087a42084a6ffc54006ff950006fd951e06ffb5000
1111100000000000000002087a42084a6ffc54006ff960006fd956606ffb5000
1100100000000000000002087a42084a6ffc54006ff970006fd95ae06ffb5000
1111100000000000000002087a42084a6ffc54006ff980006fd95f606ffb5000
1100100000000000000002087a42084a6ffc54006ff990006fd963e06ffb5000
1111100000000000000002087a42084a6ffc54006ff9a0006fd968606ffb5000
1100100000000000000002087a42084a6ffc54006ff9b0006fd96ce06ffb5000
1111100000000000000002087a42084a6ffc54006ff9c0006fd971606ffb5000
1100100000000000000002087a42084a6ffc54006ff9d0006fd975e06ffb5000
1111100000000000000002087a42084a6ffc54006ff9e0006fd97a606ffb5000
1100100000000000000002087e52084b6ffc54006ff9f0006fd97ee06ffb5000
1111100000000000000002087a4208486ffc58006ff900006fd983806ffb6000
1100100000000000000002087a42084a6ffc58006ff910006fd988006ffb6000
1111100000000000000002087a42084a6ffc58006ff920006fd98c806ffb6000
1100100000000000000002087a42084a6ffc58006ff930006fd991006ffb6000
1111100000000000000002087a42084a6ffc58006ff940006fd995806ffb6000
1100100000000000000002087a42084a6ffc58006ff950006fd99a006ffb6000
1111100000000000000002087a42084a6ffc58006ff960006fd99e806ffb6000
1100100000000000000002087a42084a6ffc58006ff970006fd9a3006ffb6000
1111100000000000000002087a42084a6ffc58006ff980006fd9a7806ffb6000
1100100000000000000002087a42084a6ffc58006ff990006fd9ac006ffb6000
1111100000000000000002087a42084a6ffc58006ff9a0006fd9b0806ffb6000
1100100000000000000002087a42084a6ffc58006ff9b0006fd9b5006ffb6000
1111100000000000000002087a42084a6ffc58006ff9c0006fd9b9806ffb6000
1100100000000000000002087a42084a6ffc58006ff9d0006fd9be006ffb6000
1111100000000000000002087a42084a6ffc58006ff9e0006fd9c2806ffb6000
1100100000000000000002087e52084b6ffc58006ff9f0006fd9c7006ffb6000
1111100000000000000002087a4208486ffc5c006ff900006fd9cba06ffb7000
1100100000000000000002087a42084a6ffc5c006ff910006fd9d0206ffb7000
1111100000000000000002087a42084a6ffc5c006ff920006fd9d4a06ffb7000
1100100000000000000002087a42084a6ffc5c006ff930006fd9d9206ffb7000
1111100000000000000002087a42084a6ffc5c006ff940006fd9dda06ffb7000
1100100000000000000002087a42084a6ffc5c006ff950006fd9e2206ffb7000
1111100000000000000002087a42084a6ffc5c006ff960006fd9e6a06ffb7000
1100100000000000000002087a42084a6ffc5c006ff970006fd9eb206ffb7000
1111100000000000000002087a42084a6ffc5c006ff980006fd9efa06ffb7000
1100100000000000000002087a42084a6ffc5c006ff990006fd9f4206ffb7000
1111100000000000000002087a42084a6ffc5c006ff9a0006fd9f8a06ffb7000
1100100000000000000002087a42084a6ffc5c006ff9b0006fd9fd206ffb7000
1111100000000000000002087a42084a6ffc5c006ff9c0006fda01a06ffb7000
1100100000000000000002087a42084a6ffc5c006ff9d0006fda06206ffb7000
1111100000000000000002087a42084a6ffc5c006ff9e0006fda0aa06ffb7000
1100100000000000000002087e52084b6ffc5c006ff9f0006fda0f206ffb7000
1111100000000000000002087a4208486ffc60006ff900006fda13c06ffb8000
1100100000000000000002087a42084a6ffc60006ff910006fda18406ffb8000
1111100000000000000002087a42084a6ffc60006ff920006fda1cc06ffb8000
1100100000000000000002087a42084a6ffc60006ff930006fda21406ffb8000
1111100000000000000002087a42084a6ffc60006ff940006fda25c06ffb8000
1100100000000000000002087a42084a6ffc60006ff950006fda2a406ffb8000
1111100000000000000002087a42084a6ffc60006ff960006fda2ec06ffb8000
1100100000000000000002087a42084a6ffc60006ff970006fda33406ffb8000
1111100000000000000002087a42084a6ffc60006ff980006fda37c06ffb8000
1100100000000000000002087a42084a6ffc60006ff990006fda3c406ffb8000
1111100000000000000002087a42084a6ffc60006ff9a0006fda40c06ffb8000
1100100000000000000002087a42084a6ffc60006ff9b0006fda45406ffb8000
1111100000000000000002087a42084a6ffc60006ff9c0006fda49c06ffb8000
1100100000000000000002087a42084a6ffc60006ff9d0006fda4e406ffb8000
1111100000000000000002087a42084a6ffc60006ff9e0006fda52c06ffb8000
1100100000000000000002087e52084b6ffc60006ff9f0006fda57406ffb8000
1111100000000000000002087a4208486ffc64006ff900006fda5be06ffb9000
1100100000000000000002087a42084a6ffc64006ff910006fda60606ffb9000
1111100000000000000002087a42084a6ffc64006ff920006fda64e06ffb9000
1100100000000000000002087a42084a6ffc64006ff930006fda69606ffb9000
1111100000000000000002087a42084a6ffc64006ff940006fda6de06ffb9000
1100100000000000000002087a42084a6ffc64006ff950006fda72606ffb9000
1111100000000000000002087a42084a6ffc64006ff960006fda76e06ffb9000
1100100000000000000002087a42084a6ffc64006ff970006fda7b606ffb9000
1111100000000000000002087a42084a6ffc64006ff980006fda7fe06ffb9000
1100100000000000000002087a42084a6ffc64006ff990006fda84606ffb9000
1111100000000000000002087a42084a6ffc64006ff9a0006fda88e06ffb9000
1100100000000000000002087a42084a6ffc64006ff9b0006fda8d606ffb9000
1111100000000000000002087a42084a6ffc64006ff9c0006fda91e06ffb9000
1100100000000000000002087a42084a6ffc64006ff9d0006fda96606ffb9000
1111100000000000000002087a42084a6ffc64006ff9e0006fda9ae06ffb9000
1100100000000000000002087e52084b6ffc64006ff9f0006fda9f606ffb9000
1111100000000000000002087a4208486ffc68006ff900006fdaa4006ffba000
1100100000000000000002087a42084a6ffc68006ff910006fdaa8806ffba000
1111100000000000000002087a42084a6ffc68006ff920006fdaad006ffba000
1100100000000000000002087a42084a6ffc68006ff930006fdab1806ffba000
1111100000000000000002087a42084a6ffc68006ff940006fdab6006ffba000
1100100000000000000002087a42084a6ffc68006ff950006fdaba806ffba000
1111100000000000000002087a42084a6ffc68006ff960006fdabf006ffba000
1100100000000000000002087a42084a6ffc68006ff970006fdac3806ffba000
1111100000000000000002087a42084a6ffc68006ff980006fdac8006ffba000
1100100000000000000002087a42084a6ffc68006ff990006fdacc806ffba000
1111100000000000000002087a42084a6ffc68006ff9a0006fdad1006ffba000
1100100000000000000002087a42084a6ffc68006ff9b0006fdad5806ffba000
1111100000000000000002087a42084a6ffc68006ff9c0006fdada006ffba000
1100100000000000000002087a42084a6ffc68006ff9d0006fdade806ffba000
1111100000000000000002087a42084a6ffc68006ff9e0006fdae3006ffba000
1100100000000000000002087e52084b6ffc68006ff9f0006fdae7806ffba000
1111100000000000000002087a4208486ffc6c006ff900006fdaec206ffbb000
1100100000000000000002087a42084a6ffc6c006ff910006fdaf0a06ffbb000
1111100000000000000002087a42084a6ffc6c006ff920006fdaf5206ffbb000
1100100000000000000002087a42084a6ffc6c006ff930006fdaf9a06ffbb000
1111100000000000000002087a42084a6ffc6c006ff940006fdafe206ffbb000
1100100000000000000002087a42084a6ffc6c006ff950006fdb02a06ffbb000
1111100000000000000002087a42084a6ffc6c006ff960006fdb07206ffbb000
1100100000000000000002087a42084a6ffc6c006ff970006fdb0ba06ffbb000
1111100000000000000002087a42084a6ffc6c006ff980006fdb10206ffbb000
1100100000000000000002087a42084a6ffc6c006ff990006fdb14a06ffbb000
1111100000000000000002087a42084a6ffc6c006ff9a0006fdb19206ffbb000
1100100000000000000002087a42084a6ffc6c006ff9b0006fdb1da06ffbb000
1111100000000000000002087a42084a6ffc6c006ff9c0006fdb22206ffbb000
1100100000000000000002087a42084a6ffc6c006ff9d0006fdb26a06ffbb000
1111100000000000000002087a42084a6ffc6c006ff9e0006fdb2b206ffbb000
1100100000000000000002087e52084b6ffc6c006ff9f0006fdb2fa06ffbb000
1111100000000000000002087a4208486ffc70006ff900006fdb34406ffbc000
1100100000000000000002087a42084a6ffc70006ff910006fdb38c06ffbc000
1111100000000000000002087a42084a6ffc70006ff920006fdb3d406ffbc000
1100100000000000000002087a42084a6ffc70006ff930006fdb41c06ffbc000
1111100000000000000002087a42084a6ffc70006ff940006fdb46406ffbc000
1100100000000000000002087a42084a6ffc70006ff950006fdb4ac06ffbc000
1111100000000000000002087a42084a6ffc70006ff960006fdb4f406ffbc000
1100100000000000000002087a42084a6ffc70006ff970006fdb53c06ffbc000
1111100000000000000002087a42084a6ffc70006ff980006fdb58406ffbc000
1100100000000000000002087a42084a6ffc70006ff990006fdb5cc06ffbc000
1111100000000000000002087a42084a6ffc70006ff9a0006fdb61406ffbc000
1100100000000000000002087a42084a6ffc70006ff9b0006fdb65c06ffbc000
1111100000000000000002087a42084a6ffc70006ff9c0006fdb6a406ffbc000
1100100000000000000002087a42084a6ffc70006ff9d0006fdb6ec06ffbc000
1111100000000000000002087a42084a6ffc70006ff9e0006fdb73406ffbc000
1100100000000000000002087e52084b6ffc70006ff9f0006fdb77c06ffbc000
1111100000000000000002087a4208486ffc74006ff900006fdb7c606ffbd000
1100100000000000000002087a42084a6ffc74006ff910006fdb80e06ffbd000
1111100000000000000002087a42084a6ffc74006ff920006fdb85606ffbd000
1100100000000000000002087a42084a6ffc74006ff930006fdb89e06ffbd000
1111100000000000000002087a42084a6ffc74006ff940006fdb8e606ffbd000
1100100000000000000002087a42084a6ffc74006ff950006fdb92e06ffbd000
1111100000000000000002087a42084a6ffc74006ff960006fdb97606ffbd000
1100100000000000000002087a42084a6ffc74006ff970006fdb9be06ffbd000
1111100000000000000002087a42084a6ffc74006ff980006fdba0606ffbd000
1100100000000000000002087a42084a6ffc74006ff990006fdba4e06ffbd000
1111100000000000000002087a42084a6ffc74006ff9a0006fdba9606ffbd000
1100100000000000000002087a42084a6ffc74006ff9b0006fdbade06ffbd000
1111100000000000000002087a42084a6ffc74006ff9c0006fdbb2606ffbd000
1100100000000000000002087a42084a6ffc74006ff9d0006fdbb6e06ffbd000
1111100000000000000002087a42084a6ffc74006ff9e0006fdbbb606ffbd000
1100100000000000000002087e52084b6ffc74006ff9f0006fdbbfe06ffbd000
1111100000000000000002087a4208486ffc78006ff900006fdbc4806ffbe000
1100100000000000000002087a42084a6ffc78006ff910006fdbc9006ffbe000
1111100000000000000002087a42084a6ffc78006ff920006fdbcd806ffbe000
1100100000000000000002087a42084a6ffc78006ff930006fdbd2006ffbe000
1111100000000000000002087a42084a6ffc78006ff940006fdbd6806ffbe000
1100100000000000000002087a42084a6ffc78006ff950006fdbdb006ffbe000
1111100000000000000002087a42084a6ffc78006ff960006fdbdf806ffbe000
1100100000000000000002087a42084a6ffc78006ff970006fdbe4006ffbe000
1111100000000000000002087a42084a6ffc78006ff980006fdbe8806ffbe000
1100100000000000000002087a42084a6ffc78006ff990006fdbed006ffbe000
1111100000000000000002087a42084a6ffc78006ff9a0006fdbf1806ffbe000
1100100000000000000002087a42084a6ffc78006ff9b0006fdbf6006ffbe000
1111100000000000000002087a42084a6ffc78006ff9c0006fdbfa806ffbe000
1100100000000000000002087a42084a6ffc78006ff9d0006fdbff006ffbe000
1111100000000000000002087a42084a6ffc78006ff9e0006fdc03806ffbe000
1100100000000000000002087e52084b6ffc78006ff9f0006fdc08006ffbe000
1111100000000000000002087a4208486ffc7c006ff900006fdc0ca06ffbf000
1100100000000000000002087a42084a6ffc7c006ff910006fdc11206ffbf000
1111100000000000000002087a42084a6ffc7c006ff920006fdc15a06ffbf000
1100100000000000000002087a42084a6ffc7c006ff930006fdc1a206ffbf000
1111100000000000000002087a42084a6ffc7c006ff940006fdc1ea06ffbf000
1100100000000000000002087a42084a6ffc7c006ff950006fdc23206ffbf000
1111100000000000000002087a42084a6ffc7c006ff960006fdc27a06ffbf000
1100100000000000000002087a42084a6ffc7c006ff970006fdc2c206ffbf000
1111100000000000000002087a42084a6ffc7c006ff980006fdc30a06ffbf000
1100100000000000000002087a42084a6ffc7c006ff990006fdc35206ffbf000
1111100000000000000002087a42084a6ffc7c006ff9a0006fdc39a06ffbf000
1100100000000000000002087a42084a6ffc7c006ff9b0006fdc3e206ffbf000
1111100000000000000002087a42084a6ffc7c006ff9c0006fdc42a06ffbf000
1100100000000000000002087a42084a6ffc7c006ff9d0006fdc47206ffbf000
1111100000000000000002087a42084a6ffc7c006ff9e0006fdc4ba06ffbf000
1100100000000000000002087e52084f6ffc7c006ff9f0006fdc50206ffbf000
