1111100000000000000001047a410448000000006ffc00006fdc54c06ffc8000
1100100000000000000001047a41044a000000006ffc04006fdc59406ffc8000
1111100000000000000001047a41044a000000006ffc08006fdc5dc06ffc8000
1100100000000000000001047a41044a000000006ffc0c006fdc62406ffc8000
1111100000000000000001047a41044a000000006ffc10006fdc66c06ffc8000
1100100000000000000001047a41044a000000006ffc14006fdc6b406ffc8000
1111100000000000000001047a41044a000000006ffc18006fdc6fc06ffc8000
1100100000000000000001047a41044a000000006ffc1c006fdc74406ffc8000
1111100000000000000001047a41044a000000006ffc20006fdc78c06ffc8000
1100100000000000000001047a41044a000000006ffc24006fdc7d406ffc8000
1111100000000000000001047a41044a000000006ffc28006fdc81c06ffc8000
1100100000000000000001047a41044a000000006ffc2c006fdc86406ffc8000
1111100000000000000001047a41044a000000006ffc30006fdc8ac06ffc8000
1100100000000000000001047a41044a000000006ffc34006fdc8f406ffc8000
1111100000000000000001047a41044a000000006ffc38006fdc93c06ffc8000
1100100000000000000001047a41044a000000006ffc3c006fdc98406ffc8000
1111100000000000000001047a41044a000000006ffc40006fdc9cc06ffc8000
1100100000000000000001047a41044a000000006ffc44006fdca1406ffc8000
1111100000000000000001047a41044a000000006ffc48006fdca5c06ffc8000
1100100000000000000001047a41044a000000006ffc4c006fdcaa406ffc8000
1111100000000000000001047a41044a000000006ffc50006fdcaec06ffc8000
1100100000000000000001047a41044a000000006ffc54006fdcb3406ffc8000
1111100000000000000001047a41044a000000006ffc58006fdcb7c06ffc8000
1100100000000000000001047a41044a000000006ffc5c006fdcbc406ffc8000
1111100000000000000001047a41044a000000006ffc60006fdcc0c06ffc8000
1100100000000000000001047a41044a000000006ffc64006fdcc5406ffc8000
1111100000000000000001047a41044a000000006ffc68006fdcc9c06ffc8000
1100100000000000000001047a41044a000000006ffc6c006fdcce406ffc8000
1111100000000000000001047a41044a000000006ffc70006fdcd2c06ffc8000
1100100000000000000001047a41044a000000006ffc74006fdcd7406ffc8000
1111100000000000000001047a41044a000000006ffc78006fdcdbc06ffc8000
1100100000000000000001047a51044b000000006ffc7c006fdce0406ffc8000
1111100000000000000001047a410448000000006ffc00006fdce4e06ffc8400
1100100000000000000001047a41044a000000006ffc04006fdce9606ffc8400
1111100000000000000001047a41044a000000006ffc08006fdcede06ffc8400
1100100000000000000001047a41044a000000006ffc0c006fdcf2606ffc8400
1111100000000000000001047a41044a000000006ffc10006fdcf6e06ffc8400
1100100000000000000001047a41044a000000006ffc14006fdcfb606ffc8400
1111100000000000000001047a41044a000000006ffc18006fdcffe06ffc8400
1100100000000000000001047a41044a000000006ffc1c006fdd04606ffc8400
1111100000000000000001047a41044a000000006ffc20006fdd08e06ffc8400
1100100000000000000001047a41044a000000006ffc24006fdd0d606ffc8400
1111100000000000000001047a41044a000000006ffc28006fdd11e06ffc8400
1100100000000000000001047a41044a000000006ffc2c006fdd16606ffc8400
1111100000000000000001047a41044a000000006ffc30006fdd1ae06ffc8400
1100100000000000000001047a41044a000000006ffc34006fdd1f606ffc8400
1111100000000000000001047a41044a000000006ffc38006fdd23e06ffc8400
1100100000000000000001047a41044a000000006ffc3c006fdd28606ffc8400
1111100000000000000001047a41044a000000006ffc40006fdd2ce06ffc8400
1100100000000000000001047a41044a000000006ffc44006fdd31606ffc8400
1111100000000000000001047a41044a000000006ffc48006fdd35e06ffc8400
1100100000000000000001047a41044a000000006ffc4c006fdd3a606ffc8400
1111100000000000000001047a41044a000000006ffc50006fdd3ee06ffc8400
1100100000000000000001047a41044a000000006ffc54006fdd43606ffc8400
1111100000000000000001047a41044a000000006ffc58006fdd47e06ffc8400
1100100000000000000001047a41044a000000006ffc5c006fdd4c606ffc8400
1111100000000000000001047a41044a000000006ffc60006fdd50e06ffc8400
1100100000000000000001047a41044a000000006ffc64006fdd55606ffc8400
1111100000000000000001047a41044a000000006ffc68006fdd59e06ffc8400
1100100000000000000001047a41044a000000006ffc6c006fdd5e606ffc8400
1111100000000000000001047a41044a000000006ffc70006fdd62e06ffc8400
1100100000000000000001047a41044a000000006ffc74006fdd67606ffc8400
1111100000000000000001047a41044a000000006ffc78006fdd6be06ffc8400
1100100000000000000001047a51044b000000006ffc7c006fdd70606ffc8400
1111100000000000000001047a410448000000006ffc00006fdd75006ffc8800
1100100000000000000001047a41044a000000006ffc04006fdd79806ffc8800
1111100000000000000001047a41044a000000006ffc08006fdd7e006ffc8800
1100100000000000000001047a41044a000000006ffc0c006fdd82806ffc8800
1111100000000000000001047a41044a000000006ffc10006fdd87006ffc8800
1100100000000000000001047a41044a000000006ffc14006fdd8b806ffc8800
1111100000000000000001047a41044a000000006ffc18006fdd90006ffc8800
1100100000000000000001047a41044a000000006ffc1c006fdd94806ffc8800
1111100000000000000001047a41044a000000006ffc20006fdd99006ffc8800
1100100000000000000001047a41044a000000006ffc24006fdd9d806ffc8800
1111100000000000000001047a41044a000000006ffc28006fdda2006ffc8800
1100100000000000000001047a41044a000000006ffc2c006fdda6806ffc8800
1111100000000000000001047a41044a000000006ffc30006fddab006ffc8800
1100100000000000000001047a41044a000000006ffc34006fddaf806ffc8800
1111100000000000000001047a41044a000000006ffc38006fddb4006ffc8800
1100100000000000000001047a41044a000000006ffc3c006fddb8806ffc8800
1111100000000000000001047a41044a000000006ffc40006fddbd006ffc8800
1100100000000000000001047a41044a000000006ffc44006fddc1806ffc8800
1111100000000000000001047a41044a000000006ffc48006fddc6006ffc8800
1100100000000000000001047a41044a000000006ffc4c006fddca806ffc8800
1111100000000000000001047a41044a000000006ffc50006fddcf006ffc8800
1100100000000000000001047a41044a000000006ffc54006fddd3806ffc8800
1111100000000000000001047a41044a000000006ffc58006fddd8006ffc8800
1100100000000000000001047a41044a000000006ffc5c006fdddc806ffc8800
1111100000000000000001047a41044a000000006ffc60006fdde1006ffc8800
1100100000000000000001047a41044a000000006ffc64006fdde5806ffc8800
1111100000000000000001047a41044a000000006ffc68006fddea006ffc8800
1100100000000000000001047a41044a000000006ffc6c006fddee806ffc8800
1111100000000000000001047a41044a000000006ffc70006fddf3006ffc8800
1100100000000000000001047a41044a000000006ffc74006fddf7806ffc8800
1111100000000000000001047a41044a000000006ffc78006fddfc006ffc8800
1100100000000000000001047a51044b000000006ffc7c006fde00806ffc8800
1111100000000000000001047a410448000000006ffc00006fde05206ffc8c00
1100100000000000000001047a41044a000000006ffc04006fde09a06ffc8c00
1111100000000000000001047a41044a000000006ffc08006fde0e206ffc8c00
1100100000000000000001047a41044a000000006ffc0c006fde12a06ffc8c00
1111100000000000000001047a41044a000000006ffc10006fde17206ffc8c00
1100100000000000000001047a41044a000000006ffc14006fde1ba06ffc8c00
1111100000000000000001047a41044a000000006ffc18006fde20206ffc8c00
1100100000000000000001047a41044a000000006ffc1c006fde24a06ffc8c00
1111100000000000000001047a41044a000000006ffc20006fde29206ffc8c00
1100100000000000000001047a41044a000000006ffc24006fde2da06ffc8c00
1111100000000000000001047a41044a000000006ffc28006fde32206ffc8c00
1100100000000000000001047a41044a000000006ffc2c006fde36a06ffc8c00
1111100000000000000001047a41044a000000006ffc30006fde3b206ffc8c00
1100100000000000000001047a41044a000000006ffc34006fde3fa06ffc8c00
1111100000000000000001047a41044a000000006ffc38006fde44206ffc8c00
1100100000000000000001047a41044a000000006ffc3c006fde48a06ffc8c00
1111100000000000000001047a41044a000000006ffc40006fde4d206ffc8c00
1100100000000000000001047a41044a000000006ffc44006fde51a06ffc8c00
1111100000000000000001047a41044a000000006ffc48006fde56206ffc8c00
1100100000000000000001047a41044a000000006ffc4c006fde5aa06ffc8c00
1111100000000000000001047a41044a000000006ffc50006fde5f206ffc8c00
1100100000000000000001047a41044a000000006ffc54006fde63a06ffc8c00
1111100000000000000001047a41044a000000006ffc58006fde68206ffc8c00
1100100000000000000001047a41044a000000006ffc5c006fde6ca06ffc8c00
1111100000000000000001047a41044a000000006ffc60006fde71206ffc8c00
1100100000000000000001047a41044a000000006ffc64006fde75a06ffc8c00
1111100000000000000001047a41044a000000006ffc68006fde7a206ffc8c00
1100100000000000000001047a41044a000000006ffc6c006fde7ea06ffc8c00
1111100000000000000001047a41044a000000006ffc70006fde83206ffc8c00
1100100000000000000001047a41044a000000006ffc74006fde87a06ffc8c00
1111100000000000000001047a41044a000000006ffc78006fde8c206ffc8c00
1100100000000000000001047a51044b000000006ffc7c006fde90a06ffc8c00
1111100000000000000001047a410448000000006ffc00006fde95406ffc9000
1100100000000000000001047a41044a000000006ffc04006fde99c06ffc9000
1111100000000000000001047a41044a000000006ffc08006fde9e406ffc9000
1100100000000000000001047a41044a000000006ffc0c006fdea2c06ffc9000
1111100000000000000001047a41044a000000006ffc10006fdea7406ffc9000
1100100000000000000001047a41044a000000006ffc14006fdeabc06ffc9000
1111100000000000000001047a41044a000000006ffc18006fdeb0406ffc9000
1100100000000000000001047a41044a000000006ffc1c006fdeb4c06ffc9000
1111100000000000000001047a41044a000000006ffc20006fdeb9406ffc9000
1100100000000000000001047a41044a000000006ffc24006fdebdc06ffc9000
1111100000000000000001047a41044a000000006ffc28006fdec2406ffc9000
1100100000000000000001047a41044a000000006ffc2c006fdec6c06ffc9000
1111100000000000000001047a41044a000000006ffc30006fdecb406ffc9000
1100100000000000000001047a41044a000000006ffc34006fdecfc06ffc9000
1111100000000000000001047a41044a000000006ffc38006fded4406ffc9000
1100100000000000000001047a41044a000000006ffc3c006fded8c06ffc9000
1111100000000000000001047a41044a000000006ffc40006fdedd406ffc9000
1100100000000000000001047a41044a000000006ffc44006fdee1c06ffc9000
1111100000000000000001047a41044a000000006ffc48006fdee6406ffc9000
1100100000000000000001047a41044a000000006ffc4c006fdeeac06ffc9000
1111100000000000000001047a41044a000000006ffc50006fdeef406ffc9000
1100100000000000000001047a41044a000000006ffc54006fdef3c06ffc9000
1111100000000000000001047a41044a000000006ffc58006fdef8406ffc9000
1100100000000000000001047a41044a000000006ffc5c006fdefcc06ffc9000
1111100000000000000001047a41044a000000006ffc60006fdf01406ffc9000
1100100000000000000001047a41044a000000006ffc64006fdf05c06ffc9000
1111100000000000000001047a41044a000000006ffc68006fdf0a406ffc9000
1100100000000000000001047a41044a000000006ffc6c006fdf0ec06ffc9000
1111100000000000000001047a41044a000000006ffc70006fdf13406ffc9000
1100100000000000000001047a41044a000000006ffc74006fdf17c06ffc9000
1111100000000000000001047a41044a000000006ffc78006fdf1c406ffc9000
1100100000000000000001047a51044b000000006ffc7c006fdf20c06ffc9000
1111100000000000000001047a410448000000006ffc00006fdf25606ffc9400
1100100000000000000001047a41044a000000006ffc04006fdf29e06ffc9400
1111100000000000000001047a41044a000000006ffc08006fdf2e606ffc9400
1100100000000000000001047a41044a000000006ffc0c006fdf32e06ffc9400
1111100000000000000001047a41044a000000006ffc10006fdf37606ffc9400
1100100000000000000001047a41044a000000006ffc14006fdf3be06ffc9400
1111100000000000000001047a41044a000000006ffc18006fdf40606ffc9400
1100100000000000000001047a41044a000000006ffc1c006fdf44e06ffc9400
1111100000000000000001047a41044a000000006ffc20006fdf49606ffc9400
1100100000000000000001047a41044a000000006ffc24006fdf4de06ffc9400
1111100000000000000001047a41044a000000006ffc28006fdf52606ffc9400
1100100000000000000001047a41044a000000006ffc2c006fdf56e06ffc9400
1111100000000000000001047a41044a000000006ffc30006fdf5b606ffc9400
1100100000000000000001047a41044a000000006ffc34006fdf5fe06ffc9400
1111100000000000000001047a41044a000000006ffc38006fdf64606ffc9400
1100100000000000000001047a41044a000000006ffc3c006fdf68e06ffc9400
1111100000000000000001047a41044a000000006ffc40006fdf6d606ffc9400
1100100000000000000001047a41044a000000006ffc44006fdf71e06ffc9400
1111100000000000000001047a41044a000000006ffc48006fdf76606ffc9400
1100100000000000000001047a41044a000000006ffc4c006fdf7ae06ffc9400
1111100000000000000001047a41044a000000006ffc50006fdf7f606ffc9400
1100100000000000000001047a41044a000000006ffc54006fdf83e06ffc9400
1111100000000000000001047a41044a000000006ffc58006fdf88606ffc9400
1100100000000000000001047a41044a000000006ffc5c006fdf8ce06ffc9400
1111100000000000000001047a41044a000000006ffc60006fdf91606ffc9400
1100100000000000000001047a41044a000000006ffc64006fdf95e06ffc9400
1111100000000000000001047a41044a000000006ffc68006fdf9a606ffc9400
1100100000000000000001047a41044a000000006ffc6c006fdf9ee06ffc9400
1111100000000000000001047a41044a000000006ffc70006fdfa3606ffc9400
1100100000000000000001047a41044a000000006ffc74006fdfa7e06ffc9400
1111100000000000000001047a41044a000000006ffc78006fdfac606ffc9400
1100100000000000000001047a51044b000000006ffc7c006fdfb0e06ffc9400
1111100000000000000001047a410448000000006ffc00006fdfb5806ffc9800
1100100000000000000001047a41044a000000006ffc04006fdfba006ffc9800
1111100000000000000001047a41044a000000006ffc08006fdfbe806ffc9800
1100100000000000000001047a41044a000000006ffc0c006fdfc3006ffc9800
1111100000000000000001047a41044a000000006ffc10006fdfc7806ffc9800
1100100000000000000001047a41044a000000006ffc14006fdfcc006ffc9800
1111100000000000000001047a41044a000000006ffc18006fdfd0806ffc9800
1100100000000000000001047a41044a000000006ffc1c006fdfd5006ffc9800
1111100000000000000001047a41044a000000006ffc20006fdfd9806ffc9800
1100100000000000000001047a41044a000000006ffc24006fdfde006ffc9800
1111100000000000000001047a41044a000000006ffc28006fdfe2806ffc9800
1100100000000000000001047a41044a000000006ffc2c006fdfe7006ffc9800
1111100000000000000001047a41044a000000006ffc30006fdfeb806ffc9800
1100100000000000000001047a41044a000000006ffc34006fdff0006ffc9800
1111100000000000000001047a41044a000000006ffc38006fdff4806ffc9800
1100100000000000000001047a41044a000000006ffc3c006fdff9006ffc9800
1111100000000000000001047a41044a000000006ffc40006fdffd806ffc9800
1100100000000000000001047a41044a000000006ffc44006fe002006ffc9800
1111100000000000000001047a41044a000000006ffc48006fe006806ffc9800
1100100000000000000001047a41044a000000006ffc4c006fe00b006ffc9800
1111100000000000000001047a41044a000000006ffc50006fe00f806ffc9800
1100100000000000000001047a41044a000000006ffc54006fe014006ffc9800
1111100000000000000001047a41044a000000006ffc58006fe018806ffc9800
1100100000000000000001047a41044a000000006ffc5c006fe01d006ffc9800
1111100000000000000001047a41044a000000006ffc60006fe021806ffc9800
1100100000000000000001047a41044a000000006ffc64006fe026006ffc9800
1111100000000000000001047a41044a000000006ffc68006fe02a806ffc9800
1100100000000000000001047a41044a000000006ffc6c006fe02f006ffc9800
1111100000000000000001047a41044a000000006ffc70006fe033806ffc9800
1100100000000000000001047a41044a000000006ffc74006fe038006ffc9800
1111100000000000000001047a41044a000000006ffc78006fe03c806ffc9800
1100100000000000000001047a51044b000000006ffc7c006fe041006ffc9800
1111100000000000000001047a410448000000006ffc00006fe045a06ffc9c00
1100100000000000000001047a41044a000000006ffc04006fe04a206ffc9c00
1111100000000000000001047a41044a000000006ffc08006fe04ea06ffc9c00
1100100000000000000001047a41044a000000006ffc0c006fe053206ffc9c00
1111100000000000000001047a41044a000000006ffc10006fe057a06ffc9c00
1100100000000000000001047a41044a000000006ffc14006fe05c206ffc9c00
1111100000000000000001047a41044a000000006ffc18006fe060a06ffc9c00
1100100000000000000001047a41044a000000006ffc1c006fe065206ffc9c00
1111100000000000000001047a41044a000000006ffc20006fe069a06ffc9c00
1100100000000000000001047a41044a000000006ffc24006fe06e206ffc9c00
1111100000000000000001047a41044a000000006ffc28006fe072a06ffc9c00
1100100000000000000001047a41044a000000006ffc2c006fe077206ffc9c00
1111100000000000000001047a41044a000000006ffc30006fe07ba06ffc9c00
1100100000000000000001047a41044a000000006ffc34006fe080206ffc9c00
1111100000000000000001047a41044a000000006ffc38006fe084a06ffc9c00
1100100000000000000001047a41044a000000006ffc3c006fe089206ffc9c00
1111100000000000000001047a41044a000000006ffc40006fe08da06ffc9c00
1100100000000000000001047a41044a000000006ffc44006fe092206ffc9c00
1111100000000000000001047a41044a000000006ffc48006fe096a06ffc9c00
1100100000000000000001047a41044a000000006ffc4c006fe09b206ffc9c00
1111100000000000000001047a41044a000000006ffc50006fe09fa06ffc9c00
1100100000000000000001047a41044a000000006ffc54006fe0a4206ffc9c00
1111100000000000000001047a41044a000000006ffc58006fe0a8a06ffc9c00
1100100000000000000001047a41044a000000006ffc5c006fe0ad206ffc9c00
1111100000000000000001047a41044a000000006ffc60006fe0b1a06ffc9c00
1100100000000000000001047a41044a000000006ffc64006fe0b6206ffc9c00
1111100000000000000001047a41044a000000006ffc68006fe0baa06ffc9c00
1100100000000000000001047a41044a000000006ffc6c006fe0bf206ffc9c00
1111100000000000000001047a41044a000000006ffc70006fe0c3a06ffc9c00
1100100000000000000001047a41044a000000006ffc74006fe0c8206ffc9c00
1111100000000000000001047a41044a000000006ffc78006fe0cca06ffc9c00
1100100000000000000001047a51044b000000006ffc7c006fe0d1206ffc9c00
1111100000000000000001047a410448000000006ffc00006fe0d5c06ffca000
1100100000000000000001047a41044a000000006ffc04006fe0da406ffca000
1111100000000000000001047a41044a000000006ffc08006fe0dec06ffca000
1100100000000000000001047a41044a000000006ffc0c006fe0e3406ffca000
1111100000000000000001047a41044a000000006ffc10006fe0e7c06ffca000
1100100000000000000001047a41044a000000006ffc14006fe0ec406ffca000
1111100000000000000001047a41044a000000006ffc18006fe0f0c06ffca000
1100100000000000000001047a41044a000000006ffc1c006fe0f5406ffca000
1111100000000000000001047a41044a000000006ffc20006fe0f9c06ffca000
1100100000000000000001047a41044a000000006ffc24006fe0fe406ffca000
1111100000000000000001047a41044a000000006ffc28006fe102c06ffca000
1100100000000000000001047a41044a000000006ffc2c006fe107406ffca000
1111100000000000000001047a41044a000000006ffc30006fe10bc06ffca000
1100100000000000000001047a41044a000000006ffc34006fe110406ffca000
1111100000000000000001047a41044a000000006ffc38006fe114c06ffca000
1100100000000000000001047a41044a000000006ffc3c006fe119406ffca000
1111100000000000000001047a41044a000000006ffc40006fe11dc06ffca000
1100100000000000000001047a41044a000000006ffc44006fe122406ffca000
1111100000000000000001047a41044a000000006ffc48006fe126c06ffca000
1100100000000000000001047a41044a000000006ffc4c006fe12b406ffca000
1111100000000000000001047a41044a000000006ffc50006fe12fc06ffca000
1100100000000000000001047a41044a000000006ffc54006fe134406ffca000
1111100000000000000001047a41044a000000006ffc58006fe138c06ffca000
1100100000000000000001047a41044a000000006ffc5c006fe13d406ffca000
1111100000000000000001047a41044a000000006ffc60006fe141c06ffca000
1100100000000000000001047a41044a000000006ffc64006fe146406ffca000
1111100000000000000001047a41044a000000006ffc68006fe14ac06ffca000
1100100000000000000001047a41044a000000006ffc6c006fe14f406ffca000
1111100000000000000001047a41044a000000006ffc70006fe153c06ffca000
1100100000000000000001047a41044a000000006ffc74006fe158406ffca000
1111100000000000000001047a41044a000000006ffc78006fe15cc06ffca000
1100100000000000000001047a51044b000000006ffc7c006fe161406ffca000
1111100000000000000001047a410448000000006ffc00006fe165e06ffca400
1100100000000000000001047a41044a000000006ffc04006fe16a606ffca400
1111100000000000000001047a41044a000000006ffc08006fe16ee06ffca400
1100100000000000000001047a41044a000000006ffc0c006fe173606ffca400
1111100000000000000001047a41044a000000006ffc10006fe177e06ffca400
1100100000000000000001047a41044a000000006ffc14006fe17c606ffca400
1111100000000000000001047a41044a000000006ffc18006fe180e06ffca400
1100100000000000000001047a41044a000000006ffc1c006fe185606ffca400
1111100000000000000001047a41044a000000006ffc20006fe189e06ffca400
1100100000000000000001047a41044a000000006ffc24006fe18e606ffca400
1111100000000000000001047a41044a000000006ffc28006fe192e06ffca400
1100100000000000000001047a41044a000000006ffc2c006fe197606ffca400
1111100000000000000001047a41044a000000006ffc30006fe19be06ffca400
1100100000000000000001047a41044a000000006ffc34006fe1a0606ffca400
1111100000000000000001047a41044a000000006ffc38006fe1a4e06ffca400
1100100000000000000001047a41044a000000006ffc3c006fe1a9606ffca400
1111100000000000000001047a41044a000000006ffc40006fe1ade06ffca400
1100100000000000000001047a41044a000000006ffc44006fe1b2606ffca400
1111100000000000000001047a41044a000000006ffc48006fe1b6e06ffca400
1100100000000000000001047a41044a000000006ffc4c006fe1bb606ffca400
1111100000000000000001047a41044a000000006ffc50006fe1bfe06ffca400
1100100000000000000001047a41044a000000006ffc54006fe1c4606ffca400
1111100000000000000001047a41044a000000006ffc58006fe1c8e06ffca400
1100100000000000000001047a41044a000000006ffc5c006fe1cd606ffca400
1111100000000000000001047a41044a000000006ffc60006fe1d1e06ffca400
1100100000000000000001047a41044a000000006ffc64006fe1d6606ffca400
1111100000000000000001047a41044a000000006ffc68006fe1dae06ffca400
1100100000000000000001047a41044a000000006ffc6c006fe1df606ffca400
1111100000000000000001047a41044a000000006ffc70006fe1e3e06ffca400
1100100000000000000001047a41044a000000006ffc74006fe1e8606ffca400
1111100000000000000001047a41044a000000006ffc78006fe1ece06ffca400
1100100000000000000001047a51044b000000006ffc7c006fe1f1606ffca400
1111100000000000000001047a410448000000006ffc00006fe1f6006ffca800
1100100000000000000001047a41044a000000006ffc04006fe1fa806ffca800
1111100000000000000001047a41044a000000006ffc08006fe1ff006ffca800
1100100000000000000001047a41044a000000006ffc0c006fe203806ffca800
1111100000000000000001047a41044a000000006ffc10006fe208006ffca800
1100100000000000000001047a41044a000000006ffc14006fe20c806ffca800
1111100000000000000001047a41044a000000006ffc18006fe211006ffca800
1100100000000000000001047a41044a000000006ffc1c006fe215806ffca800
1111100000000000000001047a41044a000000006ffc20006fe21a006ffca800
1100100000000000000001047a41044a000000006ffc24006fe21e806ffca800
1111100000000000000001047a41044a000000006ffc28006fe223006ffca800
1100100000000000000001047a41044a000000006ffc2c006fe227806ffca800
1111100000000000000001047a41044a000000006ffc30006fe22c006ffca800
1100100000000000000001047a41044a000000006ffc34006fe230806ffca800
1111100000000000000001047a41044a000000006ffc38006fe235006ffca800
1100100000000000000001047a41044a000000006ffc3c006fe239806ffca800
1111100000000000000001047a41044a000000006ffc40006fe23e006ffca800
1100100000000000000001047a41044a000000006ffc44006fe242806ffca800
1111100000000000000001047a41044a000000006ffc48006fe247006ffca800
1100100000000000000001047a41044a000000006ffc4c006fe24b806ffca800
1111100000000000000001047a41044a000000006ffc50006fe250006ffca800
1100100000000000000001047a41044a000000006ffc54006fe254806ffca800
1111100000000000000001047a41044a000000006ffc58006fe259006ffca800
1100100000000000000001047a41044a000000006ffc5c006fe25d806ffca800
1111100000000000000001047a41044a000000006ffc60006fe262006ffca800
1100100000000000000001047a41044a000000006ffc64006fe266806ffca800
1111100000000000000001047a41044a000000006ffc68006fe26b006ffca800
1100100000000000000001047a41044a000000006ffc6c006fe26f806ffca800
1111100000000000000001047a41044a000000006ffc70006fe274006ffca800
1100100000000000000001047a41044a000000006ffc74006fe278806ffca800
1111100000000000000001047a41044a000000006ffc78006fe27d006ffca800
1100100000000000000001047a51044b000000006ffc7c006fe281806ffca800
1111100000000000000001047a410448000000006ffc00006fe286206ffcac00
1100100000000000000001047a41044a000000006ffc04006fe28aa06ffcac00
1111100000000000000001047a41044a000000006ffc08006fe28f206ffcac00
1100100000000000000001047a41044a000000006ffc0c006fe293a06ffcac00
1111100000000000000001047a41044a000000006ffc10006fe298206ffcac00
1100100000000000000001047a41044a000000006ffc14006fe29ca06ffcac00
1111100000000000000001047a41044a000000006ffc18006fe2a1206ffcac00
1100100000000000000001047a41044a000000006ffc1c006fe2a5a06ffcac00
1111100000000000000001047a41044a000000006ffc20006fe2aa206ffcac00
1100100000000000000001047a41044a000000006ffc24006fe2aea06ffcac00
1111100000000000000001047a41044a000000006ffc28006fe2b3206ffcac00
1100100000000000000001047a41044a000000006ffc2c006fe2b7a06ffcac00
1111100000000000000001047a41044a000000006ffc30006fe2bc206ffcac00
1100100000000000000001047a41044a000000006ffc34006fe2c0a06ffcac00
1111100000000000000001047a41044a000000006ffc38006fe2c5206ffcac00
1100100000000000000001047a41044a000000006ffc3c006fe2c9a06ffcac00
1111100000000000000001047a41044a000000006ffc40006fe2ce206ffcac00
1100100000000000000001047a41044a000000006ffc44006fe2d2a06ffcac00
1111100000000000000001047a41044a000000006ffc48006fe2d7206ffcac00
1100100000000000000001047a41044a000000006ffc4c006fe2dba06ffcac00
1111100000000000000001047a41044a000000006ffc50006fe2e0206ffcac00
1100100000000000000001047a41044a000000006ffc54006fe2e4a06ffcac00
1111100000000000000001047a41044a000000006ffc58006fe2e9206ffcac00
1100100000000000000001047a41044a000000006ffc5c006fe2eda06ffcac00
1111100000000000000001047a41044a000000006ffc60006fe2f2206ffcac00
1100100000000000000001047a41044a000000006ffc64006fe2f6a06ffcac00
1111100000000000000001047a41044a000000006ffc68006fe2fb206ffcac00
1100100000000000000001047a41044a000000006ffc6c006fe2ffa06ffcac00
1111100000000000000001047a41044a000000006ffc70006fe304206ffcac00
1100100000000000000001047a41044a000000006ffc74006fe308a06ffcac00
1111100000000000000001047a41044a000000006ffc78006fe30d206ffcac00
1100100000000000000001047a51044b000000006ffc7c006fe311a06ffcac00
1111100000000000000001047a410448000000006ffc00006fe316406ffcb000
1100100000000000000001047a41044a000000006ffc04006fe31ac06ffcb000
1111100000000000000001047a41044a000000006ffc08006fe31f406ffcb000
1100100000000000000001047a41044a000000006ffc0c006fe323c06ffcb000
1111100000000000000001047a41044a000000006ffc10006fe328406ffcb000
1100100000000000000001047a41044a000000006ffc14006fe32cc06ffcb000
1111100000000000000001047a41044a000000006ffc18006fe331406ffcb000
1100100000000000000001047a41044a000000006ffc1c006fe335c06ffcb000
1111100000000000000001047a41044a000000006ffc20006fe33a406ffcb000
1100100000000000000001047a41044a000000006ffc24006fe33ec06ffcb000
1111100000000000000001047a41044a000000006ffc28006fe343406ffcb000
1100100000000000000001047a41044a000000006ffc2c006fe347c06ffcb000
1111100000000000000001047a41044a000000006ffc30006fe34c406ffcb000
1100100000000000000001047a41044a000000006ffc34006fe350c06ffcb000
1111100000000000000001047a41044a000000006ffc38006fe355406ffcb000
1100100000000000000001047a41044a000000006ffc3c006fe359c06ffcb000
1111100000000000000001047a41044a000000006ffc40006fe35e406ffcb000
1100100000000000000001047a41044a000000006ffc44006fe362c06ffcb000
1111100000000000000001047a41044a000000006ffc48006fe367406ffcb000
1100100000000000000001047a41044a000000006ffc4c006fe36bc06ffcb000
1111100000000000000001047a41044a000000006ffc50006fe370406ffcb000
1100100000000000000001047a41044a000000006ffc54006fe374c06ffcb000
1111100000000000000001047a41044a000000006ffc58006fe379406ffcb000
1100100000000000000001047a41044a000000006ffc5c006fe37dc06ffcb000
1111100000000000000001047a41044a000000006ffc60006fe382406ffcb000
1100100000000000000001047a41044a000000006ffc64006fe386c06ffcb000
1111100000000000000001047a41044a000000006ffc68006fe38b406ffcb000
1100100000000000000001047a41044a000000006ffc6c006fe38fc06ffcb000
1111100000000000000001047a41044a000000006ffc70006fe394406ffcb000
1100100000000000000001047a41044a000000006ffc74006fe398c06ffcb000
1111100000000000000001047a41044a000000006ffc78006fe39d406ffcb000
1100100000000000000001047a51044b000000006ffc7c006fe3a1c06ffcb000
1111100000000000000001047a410448000000006ffc00006fe3a6606ffcb400
1100100000000000000001047a41044a000000006ffc04006fe3aae06ffcb400
1111100000000000000001047a41044a000000006ffc08006fe3af606ffcb400
1100100000000000000001047a41044a000000006ffc0c006fe3b3e06ffcb400
1111100000000000000001047a41044a000000006ffc10006fe3b8606ffcb400
1100100000000000000001047a41044a000000006ffc14006fe3bce06ffcb400
1111100000000000000001047a41044a000000006ffc18006fe3c1606ffcb400
1100100000000000000001047a41044a000000006ffc1c006fe3c5e06ffcb400
1111100000000000000001047a41044a000000006ffc20006fe3ca606ffcb400
1100100000000000000001047a41044a000000006ffc24006fe3cee06ffcb400
1111100000000000000001047a41044a000000006ffc28006fe3d3606ffcb400
1100100000000000000001047a41044a000000006ffc2c006fe3d7e06ffcb400
1111100000000000000001047a41044a000000006ffc30006fe3dc606ffcb400
1100100000000000000001047a41044a000000006ffc34006fe3e0e06ffcb400
1111100000000000000001047a41044a000000006ffc38006fe3e5606ffcb400
1100100000000000000001047a41044a000000006ffc3c006fe3e9e06ffcb400
1111100000000000000001047a41044a000000006ffc40006fe3ee606ffcb400
1100100000000000000001047a41044a000000006ffc44006fe3f2e06ffcb400
1111100000000000000001047a41044a000000006ffc48006fe3f7606ffcb400
1100100000000000000001047a41044a000000006ffc4c006fe3fbe06ffcb400
1111100000000000000001047a41044a000000006ffc50006fe400606ffcb400
1100100000000000000001047a41044a000000006ffc54006fe404e06ffcb400
1111100000000000000001047a41044a000000006ffc58006fe409606ffcb400
1100100000000000000001047a41044a000000006ffc5c006fe40de06ffcb400
1111100000000000000001047a41044a000000006ffc60006fe412606ffcb400
1100100000000000000001047a41044a000000006ffc64006fe416e06ffcb400
1111100000000000000001047a41044a000000006ffc68006fe41b606ffcb400
1100100000000000000001047a41044a000000006ffc6c006fe41fe06ffcb400
1111100000000000000001047a41044a000000006ffc70006fe424606ffcb400
1100100000000000000001047a41044a000000006ffc74006fe428e06ffcb400
1111100000000000000001047a41044a000000006ffc78006fe42d606ffcb400
1100100000000000000001047a51044b000000006ffc7c006fe431e06ffcb400
1111100000000000000001047a410448000000006ffc00006fe436806ffcb800
1100100000000000000001047a41044a000000006ffc04006fe43b006ffcb800
1111100000000000000001047a41044a000000006ffc08006fe43f806ffcb800
1100100000000000000001047a41044a000000006ffc0c006fe444006ffcb800
1111100000000000000001047a41044a000000006ffc10006fe448806ffcb800
1100100000000000000001047a41044a000000006ffc14006fe44d006ffcb800
1111100000000000000001047a41044a000000006ffc18006fe451806ffcb800
1100100000000000000001047a41044a000000006ffc1c006fe456006ffcb800
1111100000000000000001047a41044a000000006ffc20006fe45a806ffcb800
1100100000000000000001047a41044a000000006ffc24006fe45f006ffcb800
1111100000000000000001047a41044a000000006ffc28006fe463806ffcb800
1100100000000000000001047a41044a000000006ffc2c006fe468006ffcb800
1111100000000000000001047a41044a000000006ffc30006fe46c806ffcb800
1100100000000000000001047a41044a000000006ffc34006fe471006ffcb800
1111100000000000000001047a41044a000000006ffc38006fe475806ffcb800
1100100000000000000001047a41044a000000006ffc3c006fe47a006ffcb800
1111100000000000000001047a41044a000000006ffc40006fe47e806ffcb800
1100100000000000000001047a41044a000000006ffc44006fe483006ffcb800
1111100000000000000001047a41044a000000006ffc48006fe487806ffcb800
1100100000000000000001047a41044a000000006ffc4c006fe48c006ffcb800
1111100000000000000001047a41044a000000006ffc50006fe490806ffcb800
1100100000000000000001047a41044a000000006ffc54006fe495006ffcb800
1111100000000000000001047a41044a000000006ffc58006fe499806ffcb800
1100100000000000000001047a41044a000000006ffc5c006fe49e006ffcb800
1111100000000000000001047a41044a000000006ffc60006fe4a2806ffcb800
1100100000000000000001047a41044a000000006ffc64006fe4a7006ffcb800
1111100000000000000001047a41044a000000006ffc68006fe4ab806ffcb800
1100100000000000000001047a41044a000000006ffc6c006fe4b0006ffcb800
1111100000000000000001047a41044a000000006ffc70006fe4b4806ffcb800
1100100000000000000001047a41044a000000006ffc74006fe4b9006ffcb800
1111100000000000000001047a41044a000000006ffc78006fe4bd806ffcb800
1100100000000000000001047a51044b000000006ffc7c006fe4c2006ffcb800
1111100000000000000001047a410448000000006ffc00006fe4c6a06ffcbc00
1100100000000000000001047a41044a000000006ffc04006fe4cb206ffcbc00
1111100000000000000001047a41044a000000006ffc08006fe4cfa06ffcbc00
1100100000000000000001047a41044a000000006ffc0c006fe4d4206ffcbc00
1111100000000000000001047a41044a000000006ffc10006fe4d8a06ffcbc00
1100100000000000000001047a41044a000000006ffc14006fe4dd206ffcbc00
1111100000000000000001047a41044a000000006ffc18006fe4e1a06ffcbc00
1100100000000000000001047a41044a000000006ffc1c006fe4e6206ffcbc00
1111100000000000000001047a41044a000000006ffc20006fe4eaa06ffcbc00
1100100000000000000001047a41044a000000006ffc24006fe4ef206ffcbc00
1111100000000000000001047a41044a000000006ffc28006fe4f3a06ffcbc00
1100100000000000000001047a41044a000000006ffc2c006fe4f8206ffcbc00
1111100000000000000001047a41044a000000006ffc30006fe4fca06ffcbc00
1100100000000000000001047a41044a000000006ffc34006fe501206ffcbc00
1111100000000000000001047a41044a000000006ffc38006fe505a06ffcbc00
1100100000000000000001047a41044a000000006ffc3c006fe50a206ffcbc00
1111100000000000000001047a41044a000000006ffc40006fe50ea06ffcbc00
1100100000000000000001047a41044a000000006ffc44006fe513206ffcbc00
1111100000000000000001047a41044a000000006ffc48006fe517a06ffcbc00
1100100000000000000001047a41044a000000006ffc4c006fe51c206ffcbc00
1111100000000000000001047a41044a000000006ffc50006fe520a06ffcbc00
1100100000000000000001047a41044a000000006ffc54006fe525206ffcbc00
1111100000000000000001047a41044a000000006ffc58006fe529a06ffcbc00
1100100000000000000001047a41044a000000006ffc5c006fe52e206ffcbc00
1111100000000000000001047a41044a000000006ffc60006fe532a06ffcbc00
1100100000000000000001047a41044a000000006ffc64006fe537206ffcbc00
1111100000000000000001047a41044a000000006ffc68006fe53ba06ffcbc00
1100100000000000000001047a41044a000000006ffc6c006fe540206ffcbc00
1111100000000000000001047a41044a000000006ffc70006fe544a06ffcbc00
1100100000000000000001047a41044a000000006ffc74006fe549206ffcbc00
1111100000000000000001047a41044a000000006ffc78006fe54da06ffcbc00
1100100000000000000001047a51044b000000006ffc7c006fe552206ffcbc00
1111100000000000000001047a410448000000006ffc00006fe556c06ffcc000
1100100000000000000001047a41044a000000006ffc04006fe55b406ffcc000
1111100000000000000001047a41044a000000006ffc08006fe55fc06ffcc000
1100100000000000000001047a41044a000000006ffc0c006fe564406ffcc000
1111100000000000000001047a41044a000000006ffc10006fe568c06ffcc000
1100100000000000000001047a41044a000000006ffc14006fe56d406ffcc000
1111100000000000000001047a41044a000000006ffc18006fe571c06ffcc000
1100100000000000000001047a41044a000000006ffc1c006fe576406ffcc000
1111100000000000000001047a41044a000000006ffc20006fe57ac06ffcc000
1100100000000000000001047a41044a000000006ffc24006fe57f406ffcc000
1111100000000000000001047a41044a000000006ffc28006fe583c06ffcc000
1100100000000000000001047a41044a000000006ffc2c006fe588406ffcc000
1111100000000000000001047a41044a000000006ffc30006fe58cc06ffcc000
1100100000000000000001047a41044a000000006ffc34006fe591406ffcc000
1111100000000000000001047a41044a000000006ffc38006fe595c06ffcc000
1100100000000000000001047a41044a000000006ffc3c006fe59a406ffcc000
1111100000000000000001047a41044a000000006ffc40006fe59ec06ffcc000
1100100000000000000001047a41044a000000006ffc44006fe5a3406ffcc000
1111100000000000000001047a41044a000000006ffc48006fe5a7c06ffcc000
1100100000000000000001047a41044a000000006ffc4c006fe5ac406ffcc000
1111100000000000000001047a41044a000000006ffc50006fe5b0c06ffcc000
1100100000000000000001047a41044a000000006ffc54006fe5b5406ffcc000
1111100000000000000001047a41044a000000006ffc58006fe5b9c06ffcc000
1100100000000000000001047a41044a000000006ffc5c006fe5be406ffcc000
1111100000000000000001047a41044a000000006ffc60006fe5c2c06ffcc000
1100100000000000000001047a41044a000000006ffc64006fe5c7406ffcc000
1111100000000000000001047a41044a000000006ffc68006fe5cbc06ffcc000
1100100000000000000001047a41044a000000006ffc6c006fe5d0406ffcc000
1111100000000000000001047a41044a000000006ffc70006fe5d4c06ffcc000
1100100000000000000001047a41044a000000006ffc74006fe5d9406ffcc000
1111100000000000000001047a41044a000000006ffc78006fe5ddc06ffcc000
1100100000000000000001047a51044b000000006ffc7c006fe5e2406ffcc000
1111100000000000000001047a410448000000006ffc00006fe5e6e06ffcc400
1100100000000000000001047a41044a000000006ffc04006fe5eb606ffcc400
1111100000000000000001047a41044a000000006ffc08006fe5efe06ffcc400
1100100000000000000001047a41044a000000006ffc0c006fe5f4606ffcc400
1111100000000000000001047a41044a000000006ffc10006fe5f8e06ffcc400
1100100000000000000001047a41044a000000006ffc14006fe5fd606ffcc400
1111100000000000000001047a41044a000000006ffc18006fe601e06ffcc400
1100100000000000000001047a41044a000000006ffc1c006fe606606ffcc400
1111100000000000000001047a41044a000000006ffc20006fe60ae06ffcc400
1100100000000000000001047a41044a000000006ffc24006fe60f606ffcc400
1111100000000000000001047a41044a000000006ffc28006fe613e06ffcc400
1100100000000000000001047a41044a000000006ffc2c006fe618606ffcc400
1111100000000000000001047a41044a000000006ffc30006fe61ce06ffcc400
1100100000000000000001047a41044a000000006ffc34006fe621606ffcc400
1111100000000000000001047a41044a000000006ffc38006fe625e06ffcc400
1100100000000000000001047a41044a000000006ffc3c006fe62a606ffcc400
1111100000000000000001047a41044a000000006ffc40006fe62ee06ffcc400
1100100000000000000001047a41044a000000006ffc44006fe633606ffcc400
1111100000000000000001047a41044a000000006ffc48006fe637e06ffcc400
1100100000000000000001047a41044a000000006ffc4c006fe63c606ffcc400
1111100000000000000001047a41044a000000006ffc50006fe640e06ffcc400
1100100000000000000001047a41044a000000006ffc54006fe645606ffcc400
1111100000000000000001047a41044a000000006ffc58006fe649e06ffcc400
1100100000000000000001047a41044a000000006ffc5c006fe64e606ffcc400
1111100000000000000001047a41044a000000006ffc60006fe652e06ffcc400
1100100000000000000001047a41044a000000006ffc64006fe657606ffcc400
1111100000000000000001047a41044a000000006ffc68006fe65be06ffcc400
1100100000000000000001047a41044a000000006ffc6c006fe660606ffcc400
1111100000000000000001047a41044a000000006ffc70006fe664e06ffcc400
1100100000000000000001047a41044a000000006ffc74006fe669606ffcc400
1111100000000000000001047a41044a000000006ffc78006fe66de06ffcc400
1100100000000000000001047a51044b000000006ffc7c006fe672606ffcc400
1111100000000000000001047a410448000000006ffc00006fe677006ffcc800
1100100000000000000001047a41044a000000006ffc04006fe67b806ffcc800
1111100000000000000001047a41044a000000006ffc08006fe680006ffcc800
1100100000000000000001047a41044a000000006ffc0c006fe684806ffcc800
1111100000000000000001047a41044a000000006ffc10006fe689006ffcc800
1100100000000000000001047a41044a000000006ffc14006fe68d806ffcc800
1111100000000000000001047a41044a000000006ffc18006fe692006ffcc800
1100100000000000000001047a41044a000000006ffc1c006fe696806ffcc800
1111100000000000000001047a41044a000000006ffc20006fe69b006ffcc800
1100100000000000000001047a41044a000000006ffc24006fe69f806ffcc800
1111100000000000000001047a41044a000000006ffc28006fe6a4006ffcc800
1100100000000000000001047a41044a000000006ffc2c006fe6a8806ffcc800
1111100000000000000001047a41044a000000006ffc30006fe6ad006ffcc800
1100100000000000000001047a41044a000000006ffc34006fe6b1806ffcc800
1111100000000000000001047a41044a000000006ffc38006fe6b6006ffcc800
1100100000000000000001047a41044a000000006ffc3c006fe6ba806ffcc800
1111100000000000000001047a41044a000000006ffc40006fe6bf006ffcc800
1100100000000000000001047a41044a000000006ffc44006fe6c3806ffcc800
1111100000000000000001047a41044a000000006ffc48006fe6c8006ffcc800
1100100000000000000001047a41044a000000006ffc4c006fe6cc806ffcc800
1111100000000000000001047a41044a000000006ffc50006fe6d1006ffcc800
1100100000000000000001047a41044a000000006ffc54006fe6d5806ffcc800
1111100000000000000001047a41044a000000006ffc58006fe6da006ffcc800
1100100000000000000001047a41044a000000006ffc5c006fe6de806ffcc800
1111100000000000000001047a41044a000000006ffc60006fe6e3006ffcc800
1100100000000000000001047a41044a000000006ffc64006fe6e7806ffcc800
1111100000000000000001047a41044a000000006ffc68006fe6ec006ffcc800
1100100000000000000001047a41044a000000006ffc6c006fe6f0806ffcc800
1111100000000000000001047a41044a000000006ffc70006fe6f5006ffcc800
1100100000000000000001047a41044a000000006ffc74006fe6f9806ffcc800
1111100000000000000001047a41044a000000006ffc78006fe6fe006ffcc800
1100100000000000000001047a51044b000000006ffc7c006fe702806ffcc800
1111100000000000000001047a410448000000006ffc00006fe707206ffccc00
1100100000000000000001047a41044a000000006ffc04006fe70ba06ffccc00
1111100000000000000001047a41044a000000006ffc08006fe710206ffccc00
1100100000000000000001047a41044a000000006ffc0c006fe714a06ffccc00
1111100000000000000001047a41044a000000006ffc10006fe719206ffccc00
1100100000000000000001047a41044a000000006ffc14006fe71da06ffccc00
1111100000000000000001047a41044a000000006ffc18006fe722206ffccc00
1100100000000000000001047a41044a000000006ffc1c006fe726a06ffccc00
1111100000000000000001047a41044a000000006ffc20006fe72b206ffccc00
1100100000000000000001047a41044a000000006ffc24006fe72fa06ffccc00
1111100000000000000001047a41044a000000006ffc28006fe734206ffccc00
1100100000000000000001047a41044a000000006ffc2c006fe738a06ffccc00
1111100000000000000001047a41044a000000006ffc30006fe73d206ffccc00
1100100000000000000001047a41044a000000006ffc34006fe741a06ffccc00
1111100000000000000001047a41044a000000006ffc38006fe746206ffccc00
1100100000000000000001047a41044a000000006ffc3c006fe74aa06ffccc00
1111100000000000000001047a41044a000000006ffc40006fe74f206ffccc00
1100100000000000000001047a41044a000000006ffc44006fe753a06ffccc00
1111100000000000000001047a41044a000000006ffc48006fe758206ffccc00
1100100000000000000001047a41044a000000006ffc4c006fe75ca06ffccc00
1111100000000000000001047a41044a000000006ffc50006fe761206ffccc00
1100100000000000000001047a41044a000000006ffc54006fe765a06ffccc00
1111100000000000000001047a41044a000000006ffc58006fe76a206ffccc00
1100100000000000000001047a41044a000000006ffc5c006fe76ea06ffccc00
1111100000000000000001047a41044a000000006ffc60006fe773206ffccc00
1100100000000000000001047a41044a000000006ffc64006fe777a06ffccc00
1111100000000000000001047a41044a000000006ffc68006fe77c206ffccc00
1100100000000000000001047a41044a000000006ffc6c006fe780a06ffccc00
1111100000000000000001047a41044a000000006ffc70006fe785206ffccc00
1100100000000000000001047a41044a000000006ffc74006fe789a06ffccc00
1111100000000000000001047a41044a000000006ffc78006fe78e206ffccc00
1100100000000000000001047a51044b000000006ffc7c006fe792a06ffccc00
1111100000000000000001047a410448000000006ffc00006fe797406ffcd000
1100100000000000000001047a41044a000000006ffc04006fe79bc06ffcd000
1111100000000000000001047a41044a000000006ffc08006fe7a0406ffcd000
1100100000000000000001047a41044a000000006ffc0c006fe7a4c06ffcd000
1111100000000000000001047a41044a000000006ffc10006fe7a9406ffcd000
1100100000000000000001047a41044a000000006ffc14006fe7adc06ffcd000
1111100000000000000001047a41044a000000006ffc18006fe7b2406ffcd000
1100100000000000000001047a41044a000000006ffc1c006fe7b6c06ffcd000
1111100000000000000001047a41044a000000006ffc20006fe7bb406ffcd000
1100100000000000000001047a41044a000000006ffc24006fe7bfc06ffcd000
1111100000000000000001047a41044a000000006ffc28006fe7c4406ffcd000
1100100000000000000001047a41044a000000006ffc2c006fe7c8c06ffcd000
1111100000000000000001047a41044a000000006ffc30006fe7cd406ffcd000
1100100000000000000001047a41044a000000006ffc34006fe7d1c06ffcd000
1111100000000000000001047a41044a000000006ffc38006fe7d6406ffcd000
1100100000000000000001047a41044a000000006ffc3c006fe7dac06ffcd000
1111100000000000000001047a41044a000000006ffc40006fe7df406ffcd000
1100100000000000000001047a41044a000000006ffc44006fe7e3c06ffcd000
1111100000000000000001047a41044a000000006ffc48006fe7e8406ffcd000
1100100000000000000001047a41044a000000006ffc4c006fe7ecc06ffcd000
1111100000000000000001047a41044a000000006ffc50006fe7f1406ffcd000
1100100000000000000001047a41044a000000006ffc54006fe7f5c06ffcd000
1111100000000000000001047a41044a000000006ffc58006fe7fa406ffcd000
1100100000000000000001047a41044a000000006ffc5c006fe7fec06ffcd000
1111100000000000000001047a41044a000000006ffc60006fe803406ffcd000
1100100000000000000001047a41044a000000006ffc64006fe807c06ffcd000
1111100000000000000001047a41044a000000006ffc68006fe80c406ffcd000
1100100000000000000001047a41044a000000006ffc6c006fe810c06ffcd000
1111100000000000000001047a41044a000000006ffc70006fe815406ffcd000
1100100000000000000001047a41044a000000006ffc74006fe819c06ffcd000
1111100000000000000001047a41044a000000006ffc78006fe81e406ffcd000
1100100000000000000001047a51044b000000006ffc7c006fe822c06ffcd000
1111100000000000000001047a410448000000006ffc00006fe827606ffcd400
1100100000000000000001047a41044a000000006ffc04006fe82be06ffcd400
1111100000000000000001047a41044a000000006ffc08006fe830606ffcd400
1100100000000000000001047a41044a000000006ffc0c006fe834e06ffcd400
1111100000000000000001047a41044a000000006ffc10006fe839606ffcd400
1100100000000000000001047a41044a000000006ffc14006fe83de06ffcd400
1111100000000000000001047a41044a000000006ffc18006fe842606ffcd400
1100100000000000000001047a41044a000000006ffc1c006fe846e06ffcd400
1111100000000000000001047a41044a000000006ffc20006fe84b606ffcd400
1100100000000000000001047a41044a000000006ffc24006fe84fe06ffcd400
1111100000000000000001047a41044a000000006ffc28006fe854606ffcd400
1100100000000000000001047a41044a000000006ffc2c006fe858e06ffcd400
1111100000000000000001047a41044a000000006ffc30006fe85d606ffcd400
1100100000000000000001047a41044a000000006ffc34006fe861e06ffcd400
1111100000000000000001047a41044a000000006ffc38006fe866606ffcd400
1100100000000000000001047a41044a000000006ffc3c006fe86ae06ffcd400
1111100000000000000001047a41044a000000006ffc40006fe86f606ffcd400
1100100000000000000001047a41044a000000006ffc44006fe873e06ffcd400
1111100000000000000001047a41044a000000006ffc48006fe878606ffcd400
1100100000000000000001047a41044a000000006ffc4c006fe87ce06ffcd400
1111100000000000000001047a41044a000000006ffc50006fe881606ffcd400
1100100000000000000001047a41044a000000006ffc54006fe885e06ffcd400
1111100000000000000001047a41044a000000006ffc58006fe88a606ffcd400
1100100000000000000001047a41044a000000006ffc5c006fe88ee06ffcd400
1111100000000000000001047a41044a000000006ffc60006fe893606ffcd400
1100100000000000000001047a41044a000000006ffc64006fe897e06ffcd400
1111100000000000000001047a41044a000000006ffc68006fe89c606ffcd400
1100100000000000000001047a41044a000000006ffc6c006fe8a0e06ffcd400
1111100000000000000001047a41044a000000006ffc70006fe8a5606ffcd400
1100100000000000000001047a41044a000000006ffc74006fe8a9e06ffcd400
1111100000000000000001047a41044a000000006ffc78006fe8ae606ffcd400
1100100000000000000001047a51044b000000006ffc7c006fe8b2e06ffcd400
1111100000000000000001047a410448000000006ffc00006fe8b7806ffcd800
1100100000000000000001047a41044a000000006ffc04006fe8bc006ffcd800
1111100000000000000001047a41044a000000006ffc08006fe8c0806ffcd800
1100100000000000000001047a41044a000000006ffc0c006fe8c5006ffcd800
1111100000000000000001047a41044a000000006ffc10006fe8c9806ffcd800
1100100000000000000001047a41044a000000006ffc14006fe8ce006ffcd800
1111100000000000000001047a41044a000000006ffc18006fe8d2806ffcd800
1100100000000000000001047a41044a000000006ffc1c006fe8d7006ffcd800
1111100000000000000001047a41044a000000006ffc20006fe8db806ffcd800
1100100000000000000001047a41044a000000006ffc24006fe8e0006ffcd800
1111100000000000000001047a41044a000000006ffc28006fe8e4806ffcd800
1100100000000000000001047a41044a000000006ffc2c006fe8e9006ffcd800
1111100000000000000001047a41044a000000006ffc30006fe8ed806ffcd800
1100100000000000000001047a41044a000000006ffc34006fe8f2006ffcd800
1111100000000000000001047a41044a000000006ffc38006fe8f6806ffcd800
1100100000000000000001047a41044a000000006ffc3c006fe8fb006ffcd800
1111100000000000000001047a41044a000000006ffc40006fe8ff806ffcd800
1100100000000000000001047a41044a000000006ffc44006fe904006ffcd800
1111100000000000000001047a41044a000000006ffc48006fe908806ffcd800
1100100000000000000001047a41044a000000006ffc4c006fe90d006ffcd800
1111100000000000000001047a41044a000000006ffc50006fe911806ffcd800
1100100000000000000001047a41044a000000006ffc54006fe916006ffcd800
1111100000000000000001047a41044a000000006ffc58006fe91a806ffcd800
1100100000000000000001047a41044a000000006ffc5c006fe91f006ffcd800
1111100000000000000001047a41044a000000006ffc60006fe923806ffcd800
1100100000000000000001047a41044a000000006ffc64006fe928006ffcd800
1111100000000000000001047a41044a000000006ffc68006fe92c806ffcd800
1100100000000000000001047a41044a000000006ffc6c006fe931006ffcd800
1111100000000000000001047a41044a000000006ffc70006fe935806ffcd800
1100100000000000000001047a41044a000000006ffc74006fe93a006ffcd800
1111100000000000000001047a41044a000000006ffc78006fe93e806ffcd800
1100100000000000000001047a51044b000000006ffc7c006fe943006ffcd800
1111100000000000000001047a410448000000006ffc00006fe947a06ffcdc00
1100100000000000000001047a41044a000000006ffc04006fe94c206ffcdc00
1111100000000000000001047a41044a000000006ffc08006fe950a06ffcdc00
1100100000000000000001047a41044a000000006ffc0c006fe955206ffcdc00
1111100000000000000001047a41044a000000006ffc10006fe959a06ffcdc00
1100100000000000000001047a41044a000000006ffc14006fe95e206ffcdc00
1111100000000000000001047a41044a000000006ffc18006fe962a06ffcdc00
1100100000000000000001047a41044a000000006ffc1c006fe967206ffcdc00
1111100000000000000001047a41044a000000006ffc20006fe96ba06ffcdc00
1100100000000000000001047a41044a000000006ffc24006fe970206ffcdc00
1111100000000000000001047a41044a000000006ffc28006fe974a06ffcdc00
1100100000000000000001047a41044a000000006ffc2c006fe979206ffcdc00
1111100000000000000001047a41044a000000006ffc30006fe97da06ffcdc00
1100100000000000000001047a41044a000000006ffc34006fe982206ffcdc00
1111100000000000000001047a41044a000000006ffc38006fe986a06ffcdc00
1100100000000000000001047a41044a000000006ffc3c006fe98b206ffcdc00
1111100000000000000001047a41044a000000006ffc40006fe98fa06ffcdc00
1100100000000000000001047a41044a000000006ffc44006fe994206ffcdc00
1111100000000000000001047a41044a000000006ffc48006fe998a06ffcdc00
1100100000000000000001047a41044a000000006ffc4c006fe99d206ffcdc00
1111100000000000000001047a41044a000000006ffc50006fe9a1a06ffcdc00
1100100000000000000001047a41044a000000006ffc54006fe9a6206ffcdc00
1111100000000000000001047a41044a000000006ffc58006fe9aaa06ffcdc00
1100100000000000000001047a41044a000000006ffc5c006fe9af206ffcdc00
1111100000000000000001047a41044a000000006ffc60006fe9b3a06ffcdc00
1100100000000000000001047a41044a000000006ffc64006fe9b8206ffcdc00
1111100000000000000001047a41044a000000006ffc68006fe9bca06ffcdc00
1100100000000000000001047a41044a000000006ffc6c006fe9c1206ffcdc00
1111100000000000000001047a41044a000000006ffc70006fe9c5a06ffcdc00
1100100000000000000001047a41044a000000006ffc74006fe9ca206ffcdc00
1111100000000000000001047a41044a000000006ffc78006fe9cea06ffcdc00
1100100000000000000001047a51044b000000006ffc7c006fe9d3206ffcdc00
1111100000000000000001047a410448000000006ffc00006fe9d7c06ffce000
1100100000000000000001047a41044a000000006ffc04006fe9dc406ffce000
1111100000000000000001047a41044a000000006ffc08006fe9e0c06ffce000
1100100000000000000001047a41044a000000006ffc0c006fe9e5406ffce000
1111100000000000000001047a41044a000000006ffc10006fe9e9c06ffce000
1100100000000000000001047a41044a000000006ffc14006fe9ee406ffce000
1111100000000000000001047a41044a000000006ffc18006fe9f2c06ffce000
1100100000000000000001047a41044a000000006ffc1c006fe9f7406ffce000
1111100000000000000001047a41044a000000006ffc20006fe9fbc06ffce000
1100100000000000000001047a41044a000000006ffc24006fea00406ffce000
1111100000000000000001047a41044a000000006ffc28006fea04c06ffce000
1100100000000000000001047a41044a000000006ffc2c006fea09406ffce000
1111100000000000000001047a41044a000000006ffc30006fea0dc06ffce000
1100100000000000000001047a41044a000000006ffc34006fea12406ffce000
1111100000000000000001047a41044a000000006ffc38006fea16c06ffce000
1100100000000000000001047a41044a000000006ffc3c006fea1b406ffce000
1111100000000000000001047a41044a000000006ffc40006fea1fc06ffce000
1100100000000000000001047a41044a000000006ffc44006fea24406ffce000
1111100000000000000001047a41044a000000006ffc48006fea28c06ffce000
1100100000000000000001047a41044a000000006ffc4c006fea2d406ffce000
1111100000000000000001047a41044a000000006ffc50006fea31c06ffce000
1100100000000000000001047a41044a000000006ffc54006fea36406ffce000
1111100000000000000001047a41044a000000006ffc58006fea3ac06ffce000
1100100000000000000001047a41044a000000006ffc5c006fea3f406ffce000
1111100000000000000001047a41044a000000006ffc60006fea43c06ffce000
1100100000000000000001047a41044a000000006ffc64006fea48406ffce000
1111100000000000000001047a41044a000000006ffc68006fea4cc06ffce000
1100100000000000000001047a41044a000000006ffc6c006fea51406ffce000
1111100000000000000001047a41044a000000006ffc70006fea55c06ffce000
1100100000000000000001047a41044a000000006ffc74006fea5a406ffce000
1111100000000000000001047a41044a000000006ffc78006fea5ec06ffce000
1100100000000000000001047a51044b000000006ffc7c006fea63406ffce000
1111100000000000000001047a410448000000006ffc00006fea67e06ffce400
1100100000000000000001047a41044a000000006ffc04006fea6c606ffce400
1111100000000000000001047a41044a000000006ffc08006fea70e06ffce400
1100100000000000000001047a41044a000000006ffc0c006fea75606ffce400
1111100000000000000001047a41044a000000006ffc10006fea79e06ffce400
1100100000000000000001047a41044a000000006ffc14006fea7e606ffce400
1111100000000000000001047a41044a000000006ffc18006fea82e06ffce400
1100100000000000000001047a41044a000000006ffc1c006fea87606ffce400
1111100000000000000001047a41044a000000006ffc20006fea8be06ffce400
1100100000000000000001047a41044a000000006ffc24006fea90606ffce400
1111100000000000000001047a41044a000000006ffc28006fea94e06ffce400
1100100000000000000001047a41044a000000006ffc2c006fea99606ffce400
1111100000000000000001047a41044a000000006ffc30006fea9de06ffce400
1100100000000000000001047a41044a000000006ffc34006feaa2606ffce400
1111100000000000000001047a41044a000000006ffc38006feaa6e06ffce400
1100100000000000000001047a41044a000000006ffc3c006feaab606ffce400
1111100000000000000001047a41044a000000006ffc40006feaafe06ffce400
1100100000000000000001047a41044a000000006ffc44006feab4606ffce400
1111100000000000000001047a41044a000000006ffc48006feab8e06ffce400
1100100000000000000001047a41044a000000006ffc4c006feabd606ffce400
1111100000000000000001047a41044a000000006ffc50006feac1e06ffce400
1100100000000000000001047a41044a000000006ffc54006feac6606ffce400
1111100000000000000001047a41044a000000006ffc58006feacae06ffce400
1100100000000000000001047a41044a000000006ffc5c006feacf606ffce400
1111100000000000000001047a41044a000000006ffc60006fead3e06ffce400
1100100000000000000001047a41044a000000006ffc64006fead8606ffce400
1111100000000000000001047a41044a000000006ffc68006feadce06ffce400
1100100000000000000001047a41044a000000006ffc6c006feae1606ffce400
1111100000000000000001047a41044a000000006ffc70006feae5e06ffce400
1100100000000000000001047a41044a000000006ffc74006feaea606ffce400
1111100000000000000001047a41044a000000006ffc78006feaeee06ffce400
1100100000000000000001047a51044b000000006ffc7c006feaf3606ffce400
1111100000000000000001047a410448000000006ffc00006feaf8006ffce800
1100100000000000000001047a41044a000000006ffc04006feafc806ffce800
1111100000000000000001047a41044a000000006ffc08006feb01006ffce800
1100100000000000000001047a41044a000000006ffc0c006feb05806ffce800
1111100000000000000001047a41044a000000006ffc10006feb0a006ffce800
1100100000000000000001047a41044a000000006ffc14006feb0e806ffce800
1111100000000000000001047a41044a000000006ffc18006feb13006ffce800
1100100000000000000001047a41044a000000006ffc1c006feb17806ffce800
1111100000000000000001047a41044a000000006ffc20006feb1c006ffce800
1100100000000000000001047a41044a000000006ffc24006feb20806ffce800
1111100000000000000001047a41044a000000006ffc28006feb25006ffce800
1100100000000000000001047a41044a000000006ffc2c006feb29806ffce800
1111100000000000000001047a41044a000000006ffc30006feb2e006ffce800
1100100000000000000001047a41044a000000006ffc34006feb32806ffce800
1111100000000000000001047a41044a000000006ffc38006feb37006ffce800
1100100000000000000001047a41044a000000006ffc3c006feb3b806ffce800
1111100000000000000001047a41044a000000006ffc40006feb40006ffce800
1100100000000000000001047a41044a000000006ffc44006feb44806ffce800
1111100000000000000001047a41044a000000006ffc48006feb49006ffce800
1100100000000000000001047a41044a000000006ffc4c006feb4d806ffce800
1111100000000000000001047a41044a000000006ffc50006feb52006ffce800
1100100000000000000001047a41044a000000006ffc54006feb56806ffce800
1111100000000000000001047a41044a000000006ffc58006feb5b006ffce800
1100100000000000000001047a41044a000000006ffc5c006feb5f806ffce800
1111100000000000000001047a41044a000000006ffc60006feb64006ffce800
1100100000000000000001047a41044a000000006ffc64006feb68806ffce800
1111100000000000000001047a41044a000000006ffc68006feb6d006ffce800
1100100000000000000001047a41044a000000006ffc6c006feb71806ffce800
1111100000000000000001047a41044a000000006ffc70006feb76006ffce800
1100100000000000000001047a41044a000000006ffc74006feb7a806ffce800
1111100000000000000001047a41044a000000006ffc78006feb7f006ffce800
1100100000000000000001047a51044b000000006ffc7c006feb83806ffce800
1111100000000000000001047a410448000000006ffc00006feb88206ffcec00
1100100000000000000001047a41044a000000006ffc04006feb8ca06ffcec00
1111100000000000000001047a41044a000000006ffc08006feb91206ffcec00
1100100000000000000001047a41044a000000006ffc0c006feb95a06ffcec00
1111100000000000000001047a41044a000000006ffc10006feb9a206ffcec00
1100100000000000000001047a41044a000000006ffc14006feb9ea06ffcec00
1111100000000000000001047a41044a000000006ffc18006feba3206ffcec00
1100100000000000000001047a41044a000000006ffc1c006feba7a06ffcec00
1111100000000000000001047a41044a000000006ffc20006febac206ffcec00
1100100000000000000001047a41044a000000006ffc24006febb0a06ffcec00
1111100000000000000001047a41044a000000006ffc28006febb5206ffcec00
1100100000000000000001047a41044a000000006ffc2c006febb9a06ffcec00
1111100000000000000001047a41044a000000006ffc30006febbe206ffcec00
1100100000000000000001047a41044a000000006ffc34006febc2a06ffcec00
1111100000000000000001047a41044a000000006ffc38006febc7206ffcec00
1100100000000000000001047a41044a000000006ffc3c006febcba06ffcec00
1111100000000000000001047a41044a000000006ffc40006febd0206ffcec00
1100100000000000000001047a41044a000000006ffc44006febd4a06ffcec00
1111100000000000000001047a41044a000000006ffc48006febd9206ffcec00
1100100000000000000001047a41044a000000006ffc4c006febdda06ffcec00
1111100000000000000001047a41044a000000006ffc50006febe2206ffcec00
1100100000000000000001047a41044a000000006ffc54006febe6a06ffcec00
1111100000000000000001047a41044a000000006ffc58006febeb206ffcec00
1100100000000000000001047a41044a000000006ffc5c006febefa06ffcec00
1111100000000000000001047a41044a000000006ffc60006febf4206ffcec00
1100100000000000000001047a41044a000000006ffc64006febf8a06ffcec00
1111100000000000000001047a41044a000000006ffc68006febfd206ffcec00
1100100000000000000001047a41044a000000006ffc6c006fec01a06ffcec00
1111100000000000000001047a41044a000000006ffc70006fec06206ffcec00
1100100000000000000001047a41044a000000006ffc74006fec0aa06ffcec00
1111100000000000000001047a41044a000000006ffc78006fec0f206ffcec00
1100100000000000000001047a51044b000000006ffc7c006fec13a06ffcec00
1111100000000000000001047a410448000000006ffc00006fec18406ffcf000
1100100000000000000001047a41044a000000006ffc04006fec1cc06ffcf000
1111100000000000000001047a41044a000000006ffc08006fec21406ffcf000
1100100000000000000001047a41044a000000006ffc0c006fec25c06ffcf000
1111100000000000000001047a41044a000000006ffc10006fec2a406ffcf000
1100100000000000000001047a41044a000000006ffc14006fec2ec06ffcf000
1111100000000000000001047a41044a000000006ffc18006fec33406ffcf000
1100100000000000000001047a41044a000000006ffc1c006fec37c06ffcf000
1111100000000000000001047a41044a000000006ffc20006fec3c406ffcf000
1100100000000000000001047a41044a000000006ffc24006fec40c06ffcf000
1111100000000000000001047a41044a000000006ffc28006fec45406ffcf000
1100100000000000000001047a41044a000000006ffc2c006fec49c06ffcf000
1111100000000000000001047a41044a000000006ffc30006fec4e406ffcf000
1100100000000000000001047a41044a000000006ffc34006fec52c06ffcf000
1111100000000000000001047a41044a000000006ffc38006fec57406ffcf000
1100100000000000000001047a41044a000000006ffc3c006fec5bc06ffcf000
1111100000000000000001047a41044a000000006ffc40006fec60406ffcf000
1100100000000000000001047a41044a000000006ffc44006fec64c06ffcf000
1111100000000000000001047a41044a000000006ffc48006fec69406ffcf000
1100100000000000000001047a41044a000000006ffc4c006fec6dc06ffcf000
1111100000000000000001047a41044a000000006ffc50006fec72406ffcf000
1100100000000000000001047a41044a000000006ffc54006fec76c06ffcf000
1111100000000000000001047a41044a000000006ffc58006fec7b406ffcf000
1100100000000000000001047a41044a000000006ffc5c006fec7fc06ffcf000
1111100000000000000001047a41044a000000006ffc60006fec84406ffcf000
1100100000000000000001047a41044a000000006ffc64006fec88c06ffcf000
1111100000000000000001047a41044a000000006ffc68006fec8d406ffcf000
1100100000000000000001047a41044a000000006ffc6c006fec91c06ffcf000
1111100000000000000001047a41044a000000006ffc70006fec96406ffcf000
1100100000000000000001047a41044a000000006ffc74006fec9ac06ffcf000
1111100000000000000001047a41044a000000006ffc78006fec9f406ffcf000
1100100000000000000001047a51044b000000006ffc7c006feca3c06ffcf000
1111100000000000000001047a410448000000006ffc00006feca8606ffcf400
1100100000000000000001047a41044a000000006ffc04006fecace06ffcf400
1111100000000000000001047a41044a000000006ffc08006fecb1606ffcf400
1100100000000000000001047a41044a000000006ffc0c006fecb5e06ffcf400
1111100000000000000001047a41044a000000006ffc10006fecba606ffcf400
1100100000000000000001047a41044a000000006ffc14006fecbee06ffcf400
1111100000000000000001047a41044a000000006ffc18006fecc3606ffcf400
1100100000000000000001047a41044a000000006ffc1c006fecc7e06ffcf400
1111100000000000000001047a41044a000000006ffc20006feccc606ffcf400
1100100000000000000001047a41044a000000006ffc24006fecd0e06ffcf400
1111100000000000000001047a41044a000000006ffc28006fecd5606ffcf400
1100100000000000000001047a41044a000000006ffc2c006fecd9e06ffcf400
1111100000000000000001047a41044a000000006ffc30006fecde606ffcf400
1100100000000000000001047a41044a000000006ffc34006fece2e06ffcf400
1111100000000000000001047a41044a000000006ffc38006fece7606ffcf400
1100100000000000000001047a41044a000000006ffc3c006fecebe06ffcf400
1111100000000000000001047a41044a000000006ffc40006fecf0606ffcf400
1100100000000000000001047a41044a000000006ffc44006fecf4e06ffcf400
1111100000000000000001047a41044a000000006ffc48006fecf9606ffcf400
1100100000000000000001047a41044a000000006ffc4c006fecfde06ffcf400
1111100000000000000001047a41044a000000006ffc50006fed02606ffcf400
1100100000000000000001047a41044a000000006ffc54006fed06e06ffcf400
1111100000000000000001047a41044a000000006ffc58006fed0b606ffcf400
1100100000000000000001047a41044a000000006ffc5c006fed0fe06ffcf400
1111100000000000000001047a41044a000000006ffc60006fed14606ffcf400
1100100000000000000001047a41044a000000006ffc64006fed18e06ffcf400
1111100000000000000001047a41044a000000006ffc68006fed1d606ffcf400
1100100000000000000001047a41044a000000006ffc6c006fed21e06ffcf400
1111100000000000000001047a41044a000000006ffc70006fed26606ffcf400
1100100000000000000001047a41044a000000006ffc74006fed2ae06ffcf400
1111100000000000000001047a41044a000000006ffc78006fed2f606ffcf400
1100100000000000000001047a51044b000000006ffc7c006fed33e06ffcf400
1111100000000000000001047a410448000000006ffc00006fed38806ffcf800
1100100000000000000001047a41044a000000006ffc04006fed3d006ffcf800
1111100000000000000001047a41044a000000006ffc08006fed41806ffcf800
1100100000000000000001047a41044a000000006ffc0c006fed46006ffcf800
1111100000000000000001047a41044a000000006ffc10006fed4a806ffcf800
1100100000000000000001047a41044a000000006ffc14006fed4f006ffcf800
1111100000000000000001047a41044a000000006ffc18006fed53806ffcf800
1100100000000000000001047a41044a000000006ffc1c006fed58006ffcf800
1111100000000000000001047a41044a000000006ffc20006fed5c806ffcf800
1100100000000000000001047a41044a000000006ffc24006fed61006ffcf800
1111100000000000000001047a41044a000000006ffc28006fed65806ffcf800
1100100000000000000001047a41044a000000006ffc2c006fed6a006ffcf800
1111100000000000000001047a41044a000000006ffc30006fed6e806ffcf800
1100100000000000000001047a41044a000000006ffc34006fed73006ffcf800
1111100000000000000001047a41044a000000006ffc38006fed77806ffcf800
1100100000000000000001047a41044a000000006ffc3c006fed7c006ffcf800
1111100000000000000001047a41044a000000006ffc40006fed80806ffcf800
1100100000000000000001047a41044a000000006ffc44006fed85006ffcf800
1111100000000000000001047a41044a000000006ffc48006fed89806ffcf800
1100100000000000000001047a41044a000000006ffc4c006fed8e006ffcf800
1111100000000000000001047a41044a000000006ffc50006fed92806ffcf800
1100100000000000000001047a41044a000000006ffc54006fed97006ffcf800
1111100000000000000001047a41044a000000006ffc58006fed9b806ffcf800
1100100000000000000001047a41044a000000006ffc5c006feda0006ffcf800
1111100000000000000001047a41044a000000006ffc60006feda4806ffcf800
1100100000000000000001047a41044a000000006ffc64006feda9006ffcf800
1111100000000000000001047a41044a000000006ffc68006fedad806ffcf800
1100100000000000000001047a41044a000000006ffc6c006fedb2006ffcf800
1111100000000000000001047a41044a000000006ffc70006fedb6806ffcf800
1100100000000000000001047a41044a000000006ffc74006fedbb006ffcf800
1111100000000000000001047a41044a000000006ffc78006fedbf806ffcf800
1100100000000000000001047a51044b000000006ffc7c006fedc4006ffcf800
1111100000000000000001047a410448000000006ffc00006fedc8a06ffcfc00
1100100000000000000001047a41044a000000006ffc04006fedcd206ffcfc00
1111100000000000000001047a41044a000000006ffc08006fedd1a06ffcfc00
1100100000000000000001047a41044a000000006ffc0c006fedd6206ffcfc00
1111100000000000000001047a41044a000000006ffc10006feddaa06ffcfc00
1100100000000000000001047a41044a000000006ffc14006feddf206ffcfc00
1111100000000000000001047a41044a000000006ffc18006fede3a06ffcfc00
1100100000000000000001047a41044a000000006ffc1c006fede8206ffcfc00
1111100000000000000001047a41044a000000006ffc20006fedeca06ffcfc00
1100100000000000000001047a41044a000000006ffc24006fedf1206ffcfc00
1111100000000000000001047a41044a000000006ffc28006fedf5a06ffcfc00
1100100000000000000001047a41044a000000006ffc2c006fedfa206ffcfc00
1111100000000000000001047a41044a000000006ffc30006fedfea06ffcfc00
1100100000000000000001047a41044a000000006ffc34006fee03206ffcfc00
1111100000000000000001047a41044a000000006ffc38006fee07a06ffcfc00
1100100000000000000001047a41044a000000006ffc3c006fee0c206ffcfc00
1111100000000000000001047a41044a000000006ffc40006fee10a06ffcfc00
1100100000000000000001047a41044a000000006ffc44006fee15206ffcfc00
1111100000000000000001047a41044a000000006ffc48006fee19a06ffcfc00
1100100000000000000001047a41044a000000006ffc4c006fee1e206ffcfc00
1111100000000000000001047a41044a000000006ffc50006fee22a06ffcfc00
1100100000000000000001047a41044a000000006ffc54006fee27206ffcfc00
1111100000000000000001047a41044a000000006ffc58006fee2ba06ffcfc00
1100100000000000000001047a41044a000000006ffc5c006fee30206ffcfc00
1111100000000000000001047a41044a000000006ffc60006fee34a06ffcfc00
1100100000000000000001047a41044a000000006ffc64006fee39206ffcfc00
1111100000000000000001047a41044a000000006ffc68006fee3da06ffcfc00
1100100000000000000001047a41044a000000006ffc6c006fee42206ffcfc00
1111100000000000000001047a41044a000000006ffc70006fee46a06ffcfc00
1100100000000000000001047a41044a000000006ffc74006fee4b206ffcfc00
1111100000000000000001047a41044a000000006ffc78006fee4fa06ffcfc00
1100100000000000000001047a51044f000000006ffc7c006fee54206ffcfc00
