1111100000000000000001047a410448000000006ffd84007000f2606ffda400
1100100000000000000001047a41044a000000006ffd88007000f6e06ffda400
1111100000000000000001047a41044a000000006ffd8c007000fb606ffda400
1100100000000000000001047a41044a000000006ffd90007000ffe06ffda400
1111100000000000000001047a41044a000000006ffd9400700104606ffda400
1100100000000000000001047a41044a000000006ffd9800700108e06ffda400
1111100000000000000001047a41044a000000006ffd9c0070010d606ffda400
1100100000000000000001047a51044b000000006ffda000700111e06ffda400
1111100000000000000001047a410448000000006ffd8400700116806ffda800
1100100000000000000001047a41044a000000006ffd880070011b006ffda800
1111100000000000000001047a41044a000000006ffd8c0070011f806ffda800
1100100000000000000001047a41044a000000006ffd9000700124006ffda800
1111100000000000000001047a41044a000000006ffd9400700128806ffda800
1100100000000000000001047a41044a000000006ffd980070012d006ffda800
1111100000000000000001047a41044a000000006ffd9c00700131806ffda800
1100100000000000000001047a51044b000000006ffda000700136006ffda800
1111100000000000000001047a410448000000006ffd840070013aa06ffdac00
1100100000000000000001047a41044a000000006ffd880070013f206ffdac00
1111100000000000000001047a41044a000000006ffd8c00700143a06ffdac00
1100100000000000000001047a41044a000000006ffd9000700148206ffdac00
1111100000000000000001047a41044a000000006ffd940070014ca06ffdac00
1100100000000000000001047a41044a000000006ffd9800700151206ffdac00
1111100000000000000001047a41044a000000006ffd9c00700155a06ffdac00
1100100000000000000001047a51044b000000006ffda00070015a206ffdac00
1111100000000000000001047a410448000000006ffd840070015ec06ffdb000
1100100000000000000001047a41044a000000006ffd8800700163406ffdb000
1111100000000000000001047a41044a000000006ffd8c00700167c06ffdb000
1100100000000000000001047a41044a000000006ffd900070016c406ffdb000
1111100000000000000001047a41044a000000006ffd9400700170c06ffdb000
1100100000000000000001047a41044a000000006ffd9800700175406ffdb000
1111100000000000000001047a41044a000000006ffd9c00700179c06ffdb000
1100100000000000000001047a51044b000000006ffda00070017e406ffdb000
1111100000000000000001047a410448000000006ffd8400700182e06ffdb400
1100100000000000000001047a41044a000000006ffd8800700187606ffdb400
1111100000000000000001047a41044a000000006ffd8c0070018be06ffdb400
1100100000000000000001047a41044a000000006ffd9000700190606ffdb400
1111100000000000000001047a41044a000000006ffd9400700194e06ffdb400
1100100000000000000001047a41044a000000006ffd9800700199606ffdb400
1111100000000000000001047a41044a000000006ffd9c0070019de06ffdb400
1100100000000000000001047a51044b000000006ffda0007001a2606ffdb400
1111100000000000000001047a410448000000006ffd84007001a7006ffdb800
1100100000000000000001047a41044a000000006ffd88007001ab806ffdb800
1111100000000000000001047a41044a000000006ffd8c007001b0006ffdb800
1100100000000000000001047a41044a000000006ffd90007001b4806ffdb800
1111100000000000000001047a41044a000000006ffd94007001b9006ffdb800
1100100000000000000001047a41044a000000006ffd98007001bd806ffdb800
1111100000000000000001047a41044a000000006ffd9c007001c2006ffdb800
1100100000000000000001047a51044b000000006ffda0007001c6806ffdb800
1111100000000000000001047a410448000000006ffd84007001cb206ffdbc00
1100100000000000000001047a41044a000000006ffd88007001cfa06ffdbc00
1111100000000000000001047a41044a000000006ffd8c007001d4206ffdbc00
1100100000000000000001047a41044a000000006ffd90007001d8a06ffdbc00
1111100000000000000001047a41044a000000006ffd94007001dd206ffdbc00
1100100000000000000001047a41044a000000006ffd98007001e1a06ffdbc00
1111100000000000000001047a41044a000000006ffd9c007001e6206ffdbc00
1100100000000000000001047a51044b000000006ffda0007001eaa06ffdbc00
1111100000000000000001047a410448000000006ffd84007001ef406ffdc000
1100100000000000000001047a41044a000000006ffd88007001f3c06ffdc000
1111100000000000000001047a41044a000000006ffd8c007001f8406ffdc000
1100100000000000000001047a41044a000000006ffd90007001fcc06ffdc000
1111100000000000000001047a41044a000000006ffd9400700201406ffdc000
1100100000000000000001047a41044a000000006ffd9800700205c06ffdc000
1111100000000000000001047a41044a000000006ffd9c0070020a406ffdc000
1100100000000000000001047a51044b000000006ffda00070020ec06ffdc000
1111100000000000000001047a410448000000006ffd8400700213606ffdc400
1100100000000000000001047a41044a000000006ffd8800700217e06ffdc400
1111100000000000000001047a41044a000000006ffd8c0070021c606ffdc400
1100100000000000000001047a41044a000000006ffd9000700220e06ffdc400
1111100000000000000001047a41044a000000006ffd9400700225606ffdc400
1100100000000000000001047a41044a000000006ffd9800700229e06ffdc400
1111100000000000000001047a41044a000000006ffd9c0070022e606ffdc400
1100100000000000000001047a51044b000000006ffda000700232e06ffdc400
1111100000000000000001047a410448000000006ffd8400700237806ffdc800
1100100000000000000001047a41044a000000006ffd880070023c006ffdc800
1111100000000000000001047a41044a000000006ffd8c00700240806ffdc800
1100100000000000000001047a41044a000000006ffd9000700245006ffdc800
1111100000000000000001047a41044a000000006ffd9400700249806ffdc800
1100100000000000000001047a41044a000000006ffd980070024e006ffdc800
1111100000000000000001047a41044a000000006ffd9c00700252806ffdc800
1100100000000000000001047a51044b000000006ffda000700257006ffdc800
1111100000000000000001047a410448000000006ffd840070025ba06ffdcc00
1100100000000000000001047a41044a000000006ffd8800700260206ffdcc00
1111100000000000000001047a41044a000000006ffd8c00700264a06ffdcc00
1100100000000000000001047a41044a000000006ffd9000700269206ffdcc00
1111100000000000000001047a41044a000000006ffd940070026da06ffdcc00
1100100000000000000001047a41044a000000006ffd9800700272206ffdcc00
1111100000000000000001047a41044a000000006ffd9c00700276a06ffdcc00
1100100000000000000001047a51044b000000006ffda00070027b206ffdcc00
1111100000000000000001047a410448000000006ffd840070027fc06ffdd000
1100100000000000000001047a41044a000000006ffd8800700284406ffdd000
1111100000000000000001047a41044a000000006ffd8c00700288c06ffdd000
1100100000000000000001047a41044a000000006ffd900070028d406ffdd000
1111100000000000000001047a41044a000000006ffd9400700291c06ffdd000
1100100000000000000001047a41044a000000006ffd9800700296406ffdd000
1111100000000000000001047a41044a000000006ffd9c0070029ac06ffdd000
1100100000000000000001047a51044b000000006ffda00070029f406ffdd000
1111100000000000000001047a410448000000006ffd84007002a3e06ffdd400
1100100000000000000001047a41044a000000006ffd88007002a8606ffdd400
1111100000000000000001047a41044a000000006ffd8c007002ace06ffdd400
1100100000000000000001047a41044a000000006ffd90007002b1606ffdd400
1111100000000000000001047a41044a000000006ffd94007002b5e06ffdd400
1100100000000000000001047a41044a000000006ffd98007002ba606ffdd400
1111100000000000000001047a41044a000000006ffd9c007002bee06ffdd400
1100100000000000000001047a51044b000000006ffda0007002c3606ffdd400
1111100000000000000001047a410448000000006ffd84007002c8006ffdd800
1100100000000000000001047a41044a000000006ffd88007002cc806ffdd800
1111100000000000000001047a41044a000000006ffd8c007002d1006ffdd800
1100100000000000000001047a41044a000000006ffd90007002d5806ffdd800
1111100000000000000001047a41044a000000006ffd94007002da006ffdd800
1100100000000000000001047a41044a000000006ffd98007002de806ffdd800
1111100000000000000001047a41044a000000006ffd9c007002e3006ffdd800
1100100000000000000001047a51044b000000006ffda0007002e7806ffdd800
1111100000000000000001047a410448000000006ffd84007002ec206ffddc00
1100100000000000000001047a41044a000000006ffd88007002f0a06ffddc00
1111100000000000000001047a41044a000000006ffd8c007002f5206ffddc00
1100100000000000000001047a41044a000000006ffd90007002f9a06ffddc00
1111100000000000000001047a41044a000000006ffd94007002fe206ffddc00
1100100000000000000001047a41044a000000006ffd9800700302a06ffddc00
1111100000000000000001047a41044a000000006ffd9c00700307206ffddc00
1100100000000000000001047a51044b000000006ffda00070030ba06ffddc00
1111100000000000000001047a410448000000006ffd8400700310406ffde000
1100100000000000000001047a41044a000000006ffd8800700314c06ffde000
1111100000000000000001047a41044a000000006ffd8c00700319406ffde000
1100100000000000000001047a41044a000000006ffd900070031dc06ffde000
1111100000000000000001047a41044a000000006ffd9400700322406ffde000
1100100000000000000001047a41044a000000006ffd9800700326c06ffde000
1111100000000000000001047a41044a000000006ffd9c0070032b406ffde000
1100100000000000000001047a51044f000000006ffda00070032fc06ffde000
