1111100000000000000004107a4410006ff300006feb00006fd0594000000000
1100100000000000000004107e5410036ff300006fef00006fd05dc000000000
1111100000000000000004107a4410006ff400006feb00006fd0626000000000
1100100000000000000004107e5410036ff400006fef00006fd066e000000000
1111100000000000000004107a4410006ff500006feb00006fd06b8000000000
1100100000000000000004107e5410036ff500006fef00006fd0700000000000
1111100000000000000004107a4410006ff600006feb00006fd074a000000000
1100100000000000000004107e5410036ff600006fef00006fd0792000000000
1111100000000000000004107a4410086ff301006feb01f06fd0594000000000
1100100000000000000004107e54100b6ff301006fef01f06fd05dc000000000
1111100000000000000004107a4410086ff401006feb01f06fd0626000000000
1100100000000000000004107e54100b6ff401006fef01f06fd066e000000000
1111100000000000000004107a4410086ff501006feb01f06fd06b8000000000
1100100000000000000004107e54100b6ff501006fef01f06fd0700000000000
1111100000000000000004107a4410086ff601006feb01f06fd074a000000000
1100100000000000000004107e54100b6ff601006fef01f06fd0792000000000
1111100000000000000004107a4410086ff302006feb03f06fd0594000000000
1100100000000000000004107e54100b6ff302006fef03f06fd05dc000000000
1111100000000000000004107a4410086ff402006feb03f06fd0626000000000
1100100000000000000004107e54100b6ff402006fef03f06fd066e000000000
1111100000000000000004107a4410086ff502006feb03f06fd06b8000000000
1100100000000000000004107e54100b6ff502006fef03f06fd0700000000000
1111100000000000000004107a4410086ff602006feb03f06fd074a000000000
1100100000000000000004107e54100b6ff602006fef03f06fd0792000000000
1111100000000000000004107a4410106ff303006feb05f06fd0594000000000
1100100000000000000004107e5410136ff303006fef05f06fd05dc000000000
1111100000000000000004107a4410106ff403006feb05f06fd0626000000000
1100100000000000000004107e5410136ff403006fef05f06fd066e000000000
1111100000000000000004107a4410106ff503006feb05f06fd06b8000000000
1100100000000000000004107e5410136ff503006fef05f06fd0700000000000
1111100000000000000004107a4410106ff603006feb05f06fd074a000000000
1100100000000000000004107e5410136ff603006fef05f06fd0792000000000
1111100000000000000004107a4410186ff340006febf8006fd0594000000000
1100100000000000000004107e54101b6ff340006feff8006fd05dc000000000
1111100000000000000004107a4410186ff440006febf8006fd0626000000000
1100100000000000000004107e54101b6ff440006feff8006fd066e000000000
1111100000000000000004107a4410186ff540006febf8006fd06b8000000000
1100100000000000000004107e54101b6ff540006feff8006fd0700000000000
1111100000000000000004107a4410186ff640006febf8006fd074a000000000
1100100000000000000004107e54101b6ff640006feff8006fd0792000000000
1111100000000000000004107a4410206ff341006febf9f06fd0594000000000
1100100000000000000004107e5410236ff341006feff9f06fd05dc000000000
1111100000000000000004107a4410206ff441006febf9f06fd0626000000000
1100100000000000000004107e5410236ff441006feff9f06fd066e000000000
1111100000000000000004107a4410206ff541006febf9f06fd06b8000000000
1100100000000000000004107e5410236ff541006feff9f06fd0700000000000
1111100000000000000004107a4410206ff641006febf9f06fd074a000000000
1100100000000000000004107e5410236ff641006feff9f06fd0792000000000
1111100000000000000004107a4410206ff342006febfbf06fd0594000000000
1100100000000000000004107e5410236ff342006feffbf06fd05dc000000000
1111100000000000000004107a4410206ff442006febfbf06fd0626000000000
1100100000000000000004107e5410236ff442006feffbf06fd066e000000000
1111100000000000000004107a4410206ff542006febfbf06fd06b8000000000
1100100000000000000004107e5410236ff542006feffbf06fd0700000000000
1111100000000000000004107a4410206ff642006febfbf06fd074a000000000
1100100000000000000004107e5410236ff642006feffbf06fd0792000000000
1111100000000000000004107a4410286ff343006febfdf06fd0594000000000
1100100000000000000004107e54102b6ff343006feffdf06fd05dc000000000
1111100000000000000004107a4410286ff443006febfdf06fd0626000000000
1100100000000000000004107e54102b6ff443006feffdf06fd066e000000000
1111100000000000000004107a4410286ff543006febfdf06fd06b8000000000
1100100000000000000004107e54102b6ff543006feffdf06fd0700000000000
1111100000000000000004107a4410286ff643006febfdf06fd074a000000000
1100100000000000000004107e54102b6ff643006feffdf06fd0792000000000
1111100000000000000004107a4410186ff380006fecf8006fd0594000000000
1100100000000000000004107e54101b6ff380006ff0f8006fd05dc000000000
1111100000000000000004107a4410186ff480006fecf8006fd0626000000000
1100100000000000000004107e54101b6ff480006ff0f8006fd066e000000000
1111100000000000000004107a4410186ff580006fecf8006fd06b8000000000
1100100000000000000004107e54101b6ff580006ff0f8006fd0700000000000
1111100000000000000004107a4410186ff680006fecf8006fd074a000000000
1100100000000000000004107e54101b6ff680006ff0f8006fd0792000000000
1111100000000000000004107a4410206ff381006fecf9f06fd0594000000000
1100100000000000000004107e5410236ff381006ff0f9f06fd05dc000000000
1111100000000000000004107a4410206ff481006fecf9f06fd0626000000000
1100100000000000000004107e5410236ff481006ff0f9f06fd066e000000000
1111100000000000000004107a4410206ff581006fecf9f06fd06b8000000000
1100100000000000000004107e5410236ff581006ff0f9f06fd0700000000000
1111100000000000000004107a4410206ff681006fecf9f06fd074a000000000
1100100000000000000004107e5410236ff681006ff0f9f06fd0792000000000
1111100000000000000004107a4410206ff382006fecfbf06fd0594000000000
1100100000000000000004107e5410236ff382006ff0fbf06fd05dc000000000
1111100000000000000004107a4410206ff482006fecfbf06fd0626000000000
1100100000000000000004107e5410236ff482006ff0fbf06fd066e000000000
1111100000000000000004107a4410206ff582006fecfbf06fd06b8000000000
1100100000000000000004107e5410236ff582006ff0fbf06fd0700000000000
1111100000000000000004107a4410206ff682006fecfbf06fd074a000000000
1100100000000000000004107e5410236ff682006ff0fbf06fd0792000000000
1111100000000000000004107a4410286ff383006fecfdf06fd0594000000000
1100100000000000000004107e54102b6ff383006ff0fdf06fd05dc000000000
1111100000000000000004107a4410286ff483006fecfdf06fd0626000000000
1100100000000000000004107e54102b6ff483006ff0fdf06fd066e000000000
1111100000000000000004107a4410286ff583006fecfdf06fd06b8000000000
1100100000000000000004107e54102b6ff583006ff0fdf06fd0700000000000
1111100000000000000004107a4410286ff683006fecfdf06fd074a000000000
1100100000000000000004107e54102b6ff683006ff0fdf06fd0792000000000
1111100000000000000004107a4410306ff3c0006fedf8006fd0594000000000
1100100000000000000004107e5410336ff3c0006ff1f8006fd05dc000000000
1111100000000000000004107a4410306ff4c0006fedf8006fd0626000000000
1100100000000000000004107e5410336ff4c0006ff1f8006fd066e000000000
1111100000000000000004107a4410306ff5c0006fedf8006fd06b8000000000
1100100000000000000004107e5410336ff5c0006ff1f8006fd0700000000000
1111100000000000000004107a4410306ff6c0006fedf8006fd074a000000000
1100100000000000000004107e5410336ff6c0006ff1f8006fd0792000000000
1111100000000000000004107a4410386ff3c1006fedf9f06fd0594000000000
1100100000000000000004107e54103b6ff3c1006ff1f9f06fd05dc000000000
1111100000000000000004107a4410386ff4c1006fedf9f06fd0626000000000
1100100000000000000004107e54103b6ff4c1006ff1f9f06fd066e000000000
1111100000000000000004107a4410386ff5c1006fedf9f06fd06b8000000000
1100100000000000000004107e54103b6ff5c1006ff1f9f06fd0700000000000
1111100000000000000004107a4410386ff6c1006fedf9f06fd074a000000000
1100100000000000000004107e54103b6ff6c1006ff1f9f06fd0792000000000
1111100000000000000004107a4410386ff3c2006fedfbf06fd0594000000000
1100100000000000000004107e54103b6ff3c2006ff1fbf06fd05dc000000000
1111100000000000000004107a4410386ff4c2006fedfbf06fd0626000000000
1100100000000000000004107e54103b6ff4c2006ff1fbf06fd066e000000000
1111100000000000000004107a4410386ff5c2006fedfbf06fd06b8000000000
1100100000000000000004107e54103b6ff5c2006ff1fbf06fd0700000000000
1111100000000000000004107a4410386ff6c2006fedfbf06fd074a000000000
1100100000000000000004107e54103b6ff6c2006ff1fbf06fd0792000000000
1111100000000000000004107a4410406ff3c3006fedfdf06fd0594000000000
1100100000000000000004107e5410436ff3c3006ff1fdf06fd05dc000000000
1111100000000000000004107a4410406ff4c3006fedfdf06fd0626000000000
1100100000000000000004107e5410436ff4c3006ff1fdf06fd066e000000000
1111100000000000000004107a4410406ff5c3006fedfdf06fd06b8000000000
1100100000000000000004107e5410436ff5c3006ff1fdf06fd0700000000000
1111100000000000000004107a4410406ff6c3006fedfdf06fd074a000000000
1100100000000000000004107e5410476ff6c3006ff1fdf06fd0792000000000
