0031
ffe0
ffa6
0030
ffa1
0139
000f
ffbe
ffd4
ffcc
ffe3
fff4
ffd0
00c6
00f8
ffbf
0020
00f3
ffc3
ffac
ffd9
0042
0035
fff9
ff9d
ffcf
0082
fffb
0010
013a
00ed
ff82
003a
ff19
00b1
0054
ff7d
ffc9
00a9
ffaf
0038
013e
00e5
ff9f
ff8c
00dd
ffb9
007b
ffdf
ff97
009f
001f
ffd0
0134
0075
ffa3
ffbc
ffad
0096
ffd2
0066
00d1
0126
ffbc
008c
00a6
00b6
ff9c
00d8
ff6e
ffef
0074
0017
0006
ff8a
009d
ff7c
010f
ffbd
ff58
00d1
ffeb
002a
0212
ff41
007d
00b4
ffdd
00ad
ffbb
ffa1
0158
ff76
ff36
001a
ff42
ff8d
004e
0046
ff45
0088
ffed
fff1
0001
012c
ff95
fe95
feef
ff90
0030
fe63
016e
0015
0090
ffbe
ff9c
ff71
ff90
0012
ffa8
0004
006e
ffd1
003d
ffd2
0034
ffed
ff94
0089
ffb7
0015
0105
000a
0071
0005
ffaa
0092
00b5
ffec
009f
0069
ff69
0007
ffa7
fffb
fff2
ff96
fff9
0062
0046
000d
ffe8
006d
ff72
ffe5
00df
ffda
0034
004f
000e
0031
0020
ffd7
0017
ff97
ff9f
ff6f
005b
0027
0061
0054
00a6
0015
0100
008c
ff50
0077
0048
00b6
0198
ffe6
0022
01ab
fff0
ffdf
001a
ffa5
0006
ff94
ff43
005d
0008
ff32
ff5d
ff78
007b
00e7
ff91
ffea
fffe
ff44
ff82
ffca
ffca
0078
ff1e
ff23
002e
0072
ffe4
ffc2
ff8d
ffbb
ffc5
ff3f
ff9d
0001
fffd
fff5
0000
fff4
0011
fff8
fffa
0004
000e
fff7
0000
0008
fffd
fff0
fff5
0007
fffe
0002
fff9
0004
0008
0004
ffff
fffd
fff8
001a
fffd
fffd
0016
0000
0000
ffeb
ffe9
0010
ffe7
fffc
0002
0020
0017
ffee
ffeb
fff1
000c
fffa
0003
000f
0000
0009
0003
fffe
fffa
ffe9
ffe0
fffd
fff8
ffe4
001a
fff4
ffd4
fff4
ffe6
ffe7
fff9
fff1
0000
fffa
fffb
0005
fffe
0001
ffff
fff4
ffce
0038
ff7f
0013
fff9
ffcd
0033
001a
005b
fff3
000f
ffbc
0081
ff67
000a
0001
ffb5
ffdd
0081
000b
ffc4
00d3
0023
008f
ff29
ff95
fff2
0046
0000
ffce
ffb1
006d
0108
0065
0060
ffeb
0027
ffa2
fff6
003a
0064
003c
004a
0022
ffcd
007d
000f
ffcf
0011
0008
ffc9
0006
ffb5
ff78
ffea
0008
009f
005d
ffe2
ffc2
006d
ffae
ffe6
0043
fff6
0010
0018
0041
ffe0
00c4
ffe2
fffc
0005
0003
0002
0000
0000
fffe
fffb
fff0
fff8
fffe
ffff
fffe
0005
fffb
fffa
0006
fffe
ffff
0007
fffd
fffa
fffd
0003
fffa
ffff
ffff
0000
fff9
0003
0000
fffa
000a
fffc
fffe
fffb
0000
fffe
fffd
fff9
0006
0006
ffff
ffff
0000
000a
0017
fffc
fffd
fffd
fffd
fffd
0002
fff6
0000
0009
0000
fff6
fffd
fff2
fffd
fff8
0000
ffff
ffff
0000
fffc
fff8
000b
fffb
0000
0003
0005
0077
ffb9
0087
002b
ffef
003f
002d
0058
fefd
ffdb
ffe8
ffef
ffe0
008c
fff9
0080
ff66
0025
fffb
ffb8
0031
ffd3
ffd1
00d4
0177
006c
0093
007d
0014
00a9
004e
0065
ff9f
fed3
008f
ffdd
ff07
ff9d
0001
ff3b
fff9
ff84
ffff
ffe8
ffa3
002d
ffd1
012d
00b7
014c
0024
00c4
00aa
0094
ffc1
00ce
00b6
0007
0114
ffd3
ffc7
00b7
fed8
ff27
ffa9
ffc8
0000
fffa
ffa0
0018
ff63
ff63
001a
003e
ffa5
0011
ff30
ff24
feca
ffd1
ffd9
002d
feec
0060
ff23
fe34
0080
ffaf
004d
0034
fffe
fff0
0020
ff52
fde7
ff73
ff88
ffc8
ffc4
0035
fe4f
ff27
fed9
ffe5
fefb
ffaf
ff66
ffca
fe94
fe61
fe51
ffae
0098
0005
0000
ffc1
fee8
ff22
fedf
ff55
ffdf
ff6f
0039
0008
fd60
fe91
fec9
ff32
ff50
ff4b
ffc8
ffc0
fde9
fe45
ffbf
ff43
0067
ffea
002f
fff7
fe56
fede
ff33
ffaa
0014
000f
0022
002e
ffe3
ffbf
0001
001a
fffa
fff6
000c
0059
0033
ffe4
005d
0135
009e
008b
0021
ff8b
000c
00a8
002f
ffeb
00e9
001d
0039
ff70
003c
fffc
ffe5
ffd6
ffbb
ffda
004f
004f
0000
00d2
004d
00e4
000a
0122
ffdf
fff4
ffe8
001f
ffdb
ffac
0000
ffa2
000b
0027
ffbc
001d
0023
ffd1
ffe0
fffa
004e
0040
ffcc
0030
003a
015c
0065
007f
ffd0
ffba
fff3
002f
ffef
ff43
ffd1
ffd1
015f
ff70
003c
ffb3
ff70
fcfe
000f
004d
01bf
ff95
00a4
0228
002f
ffa6
fff2
ff96
005d
ffca
0056
0116
ffb8
009a
0011
fff1
0111
ff11
0100
ffbd
fff0
ff10
fee0
ff9b
ff87
0058
009d
ff95
0121
00e1
ffcb
fff6
007c
00b2
00dd
ffb4
fff5
005f
0027
ffa0
fff4
ffa4
ff8b
ffc7
ff88
ffa5
003f
000b
ffe2
ffab
ff5d
0110
fffa
0149
ff65
ff8b
0005
0006
ffdd
0028
ff6a
ff6d
0022
ffe7
009a
003e
001a
001a
ffd4
ff34
0097
0051
00d0
002d
004f
00c9
0062
006d
0023
ff9b
fff9
0054
fff7
0108
00c6
ffe3
007d
ff9f
00d7
ffea
000b
0013
ffb8
ffab
0170
00c9
0048
ff76
0051
0146
ffa9
00c2
ff4e
ffd3
0008
0004
0013
003c
ffd4
0047
0028
0004
ffe2
004e
fff1
0001
ff48
0067
0025
005f
ff47
ff4a
ffa4
ff53
ff4e
011e
ff3b
0030
0004
ffd9
ff63
ff0b
ff7e
0003
ffff
0003
fff0
0002
0004
0004
fffc
0014
000e
0006
0008
0004
ffe9
0010
fff2
0009
fffa
0009
fffb
fffa
0005
ffee
fff6
0001
0006
000d
0002
fffe
fffd
fffd
0000
0005
000c
fffc
fffd
0006
ffe4
000c
ffe9
0002
fff9
0009
fffa
0009
fff7
ffdf
fff2
fff6
ffe8
fffa
0003
0003
0006
000c
000b
fffb
ffee
fff5
0006
0002
000c
ffec
fff1
fff3
ffef
fffd
000f
fffb
0001
0004
ffff
00ad
ffd8
fff7
ffd7
001a
000f
ffe4
004b
ffe4
002c
005e
ff88
003d
ffdd
ffe1
0027
ffe3
0042
ffd5
fff1
ffeb
002c
003a
0008
006b
ffef
ffcc
ffff
008c
001a
ffb1
fff0
ffcb
0007
0034
0000
006c
0009
0075
ffb7
ff7d
003e
0017
0002
ffe8
ffe6
0095
0072
00a8
fff0
0005
ffe5
ffdd
0024
ffed
0010
ffd3
0020
001b
000e
001b
ffa3
ffec
fff1
ffa8
ffb2
ffe7
fff3
0027
0031
0073
0011
0003
fffd
fff7
fff9
0000
0002
ffff
0002
0000
fffa
0000
fffb
fffb
0001
fffa
0005
0000
ffff
0005
ffff
0003
0002
0004
fffb
ffff
0000
000e
0000
0007
ffff
0000
fffd
0006
fffd
fffd
0000
fffe
fffd
0000
fffc
ffff
ffff
0000
0001
0000
ffff
0007
0009
0001
0000
ffff
0001
0008
0000
ffff
fff9
0000
0003
fffe
0000
fff9
fffa
0006
fff5
fffc
fffc
0005
0000
fffe
fffe
0003
000c
00dc
0057
00c0
fff8
ff6f
0073
0041
ff35
ffda
ff9f
0006
ffb3
fed1
0063
ffe4
003e
ff34
ffba
ff9a
fff5
ffe8
0006
0070
0019
ffbe
0071
00ee
004a
0025
ff9b
0135
ff89
ffcc
ff5b
fffe
ffd8
001e
000f
0011
0016
ffa8
ffa5
ff71
0052
0082
0045
004e
fff3
011a
0065
0000
fff6
ffac
ff98
00a5
ff8d
008f
00ce
0076
002b
ff56
004f
0158
0087
ffbe
0019
ff7e
0035
ffd4
fff5
004d
000c
fe03
fe30
fe48
fe90
fe81
ff5a
feed
ff5d
fef1
feeb
fdbb
fe8d
ff1b
ffb9
fd99
ff16
fe3c
feaf
fea7
feb7
fe6e
fec5
fe5e
fe57
fee8
feb1
fed2
feef
ff85
ff29
fd9d
ff16
0027
fdd8
fd9a
ff98
feb2
ffaf
fcda
ff3e
fee9
fe10
fe21
fecf
feae
ff1b
fe18
ff26
ffaf
fea2
00c7
fedb
ff53
fea9
fefc
ff10
ffb8
fcbf
fdfe
fe11
ff06
fedd
fedd
ff6b
fe4b
fe44
fe75
fe3e
fe93
ff1c
fd5e
feac
ffd8
0000
000f
004d
0128
0085
ffb0
fffd
ffcd
fffd
006b
ffec
ffc4
ffa4
ffaf
0008
fff6
fff5
007a
ffe3
0076
ff88
ffdf
ffcd
003d
0007
0034
00ac
0066
0124
ffff
000a
ff42
001f
012b
ff48
ff04
ffad
ff83
004e
ffd7
fffd
0048
ffd2
0095
ff9d
ffbe
ff4c
0060
fffc
ff78
00a5
ffcb
0084
0032
ffbf
0008
0001
ffdf
ff8c
0004
ff9f
0013
000a
ffcb
fffa
0060
fff2
ffe6
ff1f
000d
ffea
ff8a
fffa
005a
019c
005d
003b
01c0
0014
0009
fffe
0066
00c0
fff3
0058
0132
0086
ffa2
ffff
003d
007c
0020
ff25
0132
00a8
ffb7
fff6
ffe4
fef5
00cd
0040
010b
ff46
fea7
ffff
ffb6
ff01
0160
0062
ff6b
feed
0034
0000
ff1b
ffcc
008e
fefb
002b
ff22
0067
0000
ffd9
ffc8
ffc1
ff92
0000
002e
00e7
fffd
006d
ff32
ffab
ff2c
001e
fff5
0033
0001
0056
ff35
ff9d
ff14
005e
0044
0006
ffe7
0066
013c
0079
fffd
006c
0030
ffcd
fff5
00d3
0080
0033
fff8
00d5
0068
0034
fff4
001d
ffd0
ff75
ff91
0087
ffa0
0093
fffb
0001
00d7
ff63
ffcb
0054
001c
0115
fffd
0050
002f
fef7
ffb9
00bd
0013
ffa3
0002
ffc0
feb9
ff6c
000a
001d
000d
000d
ffff
001f
ff2a
ffe1
ffe9
0028
0036
00d1
0008
005a
ffc3
ffb0
ffe2
0059
ff1a
0023
0004
ffc0
ff5f
001f
ff7c
0081
ff54
0006
0000
fffc
000a
fff9
0009
0006
0000
fff8
0007
0001
fffc
0000
fffa
fff8
0004
000a
fff8
0002
fff4
0000
fff8
0006
0012
fff2
0006
0005
0000
fffc
0000
ffec
0008
fffb
fffd
0000
0002
fff8
0008
0008
0021
fff1
fff7
0008
fff5
0002
fffe
0006
0005
0004
fffe
fff5
000e
0005
fff7
0002
0001
0002
0000
fffe
0005
0007
0006
000c
fffa
ffe6
0005
fff5
fffe
000c
0008
fff0
0000
000c
0002
ffd2
ff53
003b
0007
0013
002a
ffe6
fffe
ffd5
0026
ffe1
004b
ff80
0021
ffc1
fff4
004a
0014
0014
002b
0050
004e
ffad
fffb
ffc2
ffff
fffe
0027
002d
fff7
ff8b
fffa
001f
001d
ff78
008b
ff93
ffa5
003b
0006
0045
0093
0022
002e
fff7
ffd6
ff92
0000
0043
ffe2
0015
ffd0
ffe9
fff3
fff3
0002
ffdd
0000
001b
0045
ffdb
fffb
004c
fffd
ffeb
0013
fff2
0034
0099
fffd
0000
fffc
fffd
fffe
0000
0002
fffd
0004
0000
ffff
fffe
000b
0000
fffb
0005
fff7
0002
0003
fff9
0000
0003
fff3
0005
fffd
000a
fffc
0005
fffc
ffee
0001
0001
0004
001a
0000
0014
0003
fffb
0000
000a
fffe
0002
fffb
0000
0000
0004
fffe
fff7
fffb
0003
fffe
0003
ffff
ffff
ffe3
0000
0017
fffa
0008
fff9
ffee
0004
0001
ffec
ffff
fffe
0001
fffe
0012
000a
0003
fffe
0004
fff2
fffa
006f
0018
002a
0007
00a7
fff4
ff66
0002
ffc0
ff09
009e
00a6
000d
ffaf
ffc0
0006
ffae
ff7c
ffdd
007f
ffee
0000
0044
0006
0046
004b
ff9b
0095
0055
00d0
ff63
fff4
0099
ffc7
0026
0121
ffdb
ff8d
ff66
0001
0004
ff94
ffd6
000b
0024
ffb2
00ba
0004
00b6
00ef
0010
ffeb
00da
0060
ff19
fffb
0054
ff8e
0002
0007
ffa6
0030
ffd6
fffb
000c
ff90
001b
001d
fffb
0078
ff48
feef
fdf0
fd6b
fede
fdbc
ffff
fec6
fe9d
fea9
fe3d
fcfc
fed2
feb9
ff1e
fedc
ff17
fe99
fe74
fe5c
fe0a
ffc3
ff24
fea3
febf
fecb
fda2
fe6c
fe9e
ff49
ff1f
fdba
fe4b
ff66
fda0
fdf8
ff15
fe95
fec2
fee3
fe6b
ffd7
fe47
fe2d
fecb
ff07
feaf
fd52
ff25
fe96
feb0
fe2b
fec8
fe69
ff55
ff16
fe04
fe6e
fe1d
fe2e
fed9
febc
fe9e
fef1
fede
fe9d
fef6
ff0a
fedf
fea4
fdd7
fe9b
004a
001b
ffea
0031
ff9a
0100
ff14
ffed
0000
ffd3
0036
0057
fff0
ff1e
fffb
ffb4
000b
fffd
ffff
00ab
ffcd
002e
fffb
0010
fff5
0035
ffec
ffe5
002e
ffe5
ff8c
ff01
0011
000e
ff8b
000c
ffd8
ff7d
005e
fff9
0030
0006
ffbe
00ba
ffa4
ffcc
0001
ff93
000b
ffea
ff9d
fff2
0014
0044
ff74
ff2e
0061
ff83
000d
0065
ffbf
0008
ffd8
ff77
0079
ffb6
0052
0042
004c
0005
001f
0011
0046
ffb6
003d
0079
ffcd
ff1f
ff49
002d
0092
001b
008f
00eb
0048
ff0e
00a6
00da
0088
ffaa
003c
005f
ffbe
000a
0145
ffba
004a
00a5
007b
ffc0
0043
fffb
010b
0056
0041
01b2
0169
008b
ffe4
0110
0002
00d8
ffca
003d
00f4
0070
001f
ff5a
0062
011c
0075
ffd2
0009
ffda
0034
0035
005d
ffa3
014c
00ce
011f
0030
0014
0038
ffdd
ff75
005a
ffda
0037
ffed
00a7
0036
ff7c
ff56
006a
fff0
ffef
006f
fffb
002d
ff89
002b
003b
0033
006d
0053
0037
ffed
ff70
ff33
0038
fff9
fff3
005a
0011
ffe3
ffdd
ffbb
004b
ffcf
00be
fff0
ffb7
ff4f
ff74
ff2d
fff0
ffba
01a3
0076
001b
ff2c
00c4
ffa3
ffc5
ff2e
ffe9
005a
0008
ff68
0033
0044
ffe7
ff4a
ff66
ffd6
ffc6
ff80
ffd7
004b
ff50
fee3
fed4
000a
0082
ff7e
fe85
fff6
ffca
ff6a
ffad
0006
0009
ff82
ffd8
ff6c
0002
ffff
fff9
0000
fffd
000b
0007
fff7
000d
0000
fff6
fff2
fff1
0013
fffc
fffc
0002
0005
0005
fff7
ffff
0006
0006
0009
ffec
fff8
fff7
ffff
000a
0006
0002
000c
0009
fff1
fff8
fff7
0000
fff3
fff8
000e
fffc
fffb
fffb
0001
0003
0000
ffd7
0013
0001
0004
0000
fff4
fffb
0008
ffff
0004
0005
fff4
0000
fff7
ffeb
000a
ffe6
0006
0004
0001
0006
fff8
fffd
000b
0001
0019
ffe2
0024
0010
ffe0
fffc
003b
0030
0037
0028
006a
ffe0
ffe6
0001
0010
0016
0052
0000
0002
fff0
ffbe
003b
0053
009c
ff72
ffe7
002c
0070
ffe1
ffbf
ffd7
ffd3
0005
0042
001f
fff3
ffc4
001d
ffd2
0037
0061
fff4
004a
ff91
0000
0023
0034
0066
ffe3
000a
0047
003b
000b
ffc2
ffcd
fffe
0008
002c
0031
001b
ffe3
0014
002a
0020
0099
0043
000c
ffbf
ffd9
ffe9
0005
0033
ffcc
0002
fffb
0002
fff9
fffe
0000
0000
ffff
0011
fffc
0000
fff6
ffff
0001
fffe
0003
0008
0002
ffff
fffd
fffe
0006
0001
fffd
0002
0010
fffa
fffc
0013
ffff
fffc
0006
0003
0000
0003
fffe
fffb
fff9
fffb
fff1
fff5
0001
fff8
fffe
000d
fffd
fff8
0004
0003
0002
fffd
fffc
0007
ffff
0001
ffff
ffff
0000
0000
fffe
ffff
000a
0008
0000
0006
fffe
fffa
0032
0000
0000
0000
fffa
0035
ff48
001c
0048
fff5
ffd6
0007
000a
ffea
0017
ffe8
ffea
ffad
005e
0026
0027
001a
0009
0021
fffe
ffdf
0012
00a9
fffa
0000
ffe3
003c
0056
0046
ffc9
0024
0159
004a
0041
ff13
0079
ff8d
0000
0002
000d
ffe6
ffcf
0033
fff0
ff4d
004b
0009
002e
004f
001b
0064
0047
00a4
ffd8
0009
016b
006e
ff53
ff9d
0028
0031
ffec
017b
00d2
007d
ff7e
ffe0
0031
ff61
0073
00ca
00e5
fe1f
fe44
fed2
fea5
fed5
fda4
ff0b
ff9b
ff17
fe49
fed0
ff25
ff6b
fe7c
fe15
ff01
fef8
fe48
ff48
fef7
fe98
fe81
ff6a
feed
fee4
fe2e
ff5c
fede
fefd
fd98
ff42
ff6b
ff2e
ff1d
ffee
fde1
fee6
ff49
fd9f
ffd9
fe57
fe19
fefa
fe2c
ff45
feee
fe69
0015
fec6
fecd
feb0
fe75
fe64
fe6f
fe94
0015
ff25
fdf8
fec7
fe9f
fddb
fe3f
fe67
0053
fea5
fe02
fe89
ff2b
0018
ff10
ff92
fef7
0049
0032
ff61
ffbf
0072
0043
006b
fff2
0001
0036
00af
0031
0084
ff6e
0017
ff81
0012
0023
ffe7
0160
004c
ffb0
000f
ffcf
0017
0021
ff3f
ff13
fff9
00c4
0040
0020
ff85
0046
00ae
ffe4
ffc8
ff1b
ffb0
ffb9
0032
ff3d
ffe6
0208
ffe5
ffb2
00b0
ff8e
0106
ffa9
ff80
ff10
001a
0036
fffc
004b
ffac
0010
0055
006a
ffd8
ff78
ffde
001b
0040
0027
0000
0031
000b
0025
009c
0018
0080
00c1
ffb0
015e
0080
fffa
ffab
004c
004e
ffc7
ff23
010b
00aa
0010
007d
0041
00cd
0153
ffd4
ff76
00ac
ffd5
ff9e
0100
fefd
fe8f
0004
0105
0063
fef3
0026
00f8
fefa
ff2d
001c
009d
ffdf
feab
0058
ff61
0107
ff11
004f
ffa9
0026
ffc3
0143
ffe1
002d
ff40
00df
ff7e
00ac
0054
ffe4
ffe7
ffcd
0011
ffa6
ff67
0057
011f
0053
ff79
00ef
ffb4
005b
002d
002e
0088
008b
ffad
0030
0100
00d0
001a
003a
ff84
ff9c
ff20
0003
007b
ffd1
007e
00b6
ffd1
0013
fff8
0053
ff7d
fff4
ff5f
ffe7
0005
0037
00d2
00d6
ff9a
003b
00ed
000a
ffd1
0031
ffad
ff2f
fe3b
ff88
00e8
0014
fff5
00af
0017
ffe2
fff4
003a
ff05
ff58
0086
000b
009e
0038
ffd9
0087
ffaa
ff88
ffb3
007b
ffbe
00e2
ff21
ffe2
ff17
ff37
ffa0
001b
ffeb
003a
ff7c
00c5
000e
ff86
003d
ffe6
ffc5
0002
fffc
0002
0005
0014
0012
fff7
0003
fff9
fffb
fff6
000a
001d
0000
fffe
0004
0001
ffef
0003
fffd
0000
000f
0004
0000
0000
fff9
0009
0017
0011
fffb
0003
fff2
fffb
ffff
0000
ffff
0012
0000
fff2
fff1
fffc
fffc
fff7
0007
0000
0000
fff6
fff9
0009
0002
0006
fff7
fffe
0008
fffd
fff5
001e
ffef
fffc
fffa
fffd
fffa
000d
0004
0000
0002
fff9
000b
0003
0006
0003
0014
ffcd
ff9f
005c
ffda
ff94
ffe8
0001
fff3
0031
ffe1
0002
001d
0003
ffa9
002d
fffc
ffd9
002b
fff4
ff9b
002c
0016
0000
0078
004d
006f
001e
fff0
0009
ffe8
fffa
ffe9
fff8
ffe5
0055
002d
ffcd
ff86
0017
fff7
002a
0000
ffae
ffc4
001e
fff5
000a
0085
0017
0014
ffff
000f
ffba
ff9e
ffde
fffa
0075
ffb2
ffa0
0018
0066
ffbe
ffcf
ffee
0010
fff0
001c
000e
0018
ffdc
0000
000f
fffa
fffe
fffa
0007
0004
fffc
0006
0000
0001
0001
fffe
0002
fff6
0013
0004
ffff
fffd
fffd
0000
fffd
0002
fffd
ffff
0008
0001
0003
fffe
0002
fffa
fff9
0001
0001
0009
ffff
fffc
000b
ffff
0000
ffff
ffff
0005
000d
0000
000b
ffff
0000
0000
0000
fff8
fffb
0000
0000
0000
0001
0000
fffc
fffc
fffd
fffe
ffff
ffff
0000
fff9
fff8
0000
0006
fffb
0000
0000
0001
0000
0008
0042
00c9
001a
0136
0105
ffc1
ff17
0146
ffe5
00ab
000f
0029
00a7
0037
feb2
006c
0002
0013
ffd0
ff16
ff3a
fffb
ff28
fff3
ff8b
007a
ffde
0129
0103
ff4a
0029
0096
ff3e
ffb5
fff3
fff1
0087
ff91
ff9a
006b
0070
0080
ffae
ff5b
ffe0
00af
ffab
0005
0066
002c
0032
009e
00e2
ffda
00c9
005a
ff8c
ffce
ffb2
0077
00d0
ffb5
0041
004c
004b
ffe3
ffa2
ff5a
0030
0079
ff12
ffc7
fe50
fe90
0123
00f5
0123
01e1
0195
019d
0027
fe2e
0226
0068
01ab
02a7
0141
0204
fea9
fd90
014c
0130
0124
00a3
01e3
000b
fee7
fe64
00e5
0052
0040
01e1
0266
01fc
fe8e
fea3
0223
0154
0250
01ec
0183
01b8
ffb2
fe14
01a0
028d
004a
01bd
0185
00ea
fe8f
ff5c
ffd8
011f
0193
0137
012c
00db
ff55
0114
004d
005c
0140
00a5
017d
01a1
fe2c
0006
fff5
0245
0160
005d
0057
0016
0063
ff9d
00a0
ffde
002a
fff6
ffe4
0045
ffc4
ff9e
0069
ffd3
006b
fffb
ff77
0035
ffac
006a
ffe5
003c
008b
000d
ff97
006f
ffea
ffe5
0036
008c
004f
0002
ffa8
003c
004a
ffe6
ffdf
ff5b
0032
0004
001a
0059
003f
006c
ffe8
fff0
0009
0007
ff58
00a3
006f
ffeb
ffb8
ffd6
0023
0006
ffe2
0039
fff9
0074
0021
001b
ff9c
fffa
0003
0012
ffd1
002d
ffab
000c
ff76
0011
ffd2
003e
0085
0006
ff3a
ff13
0037
000d
ffb8
0036
ffeb
ffc3
fecc
0087
005f
fff6
00fe
0080
007b
fff0
feca
0065
ffbd
fffc
010b
ffbf
0047
ffc0
ff75
0027
ffb6
0001
ffdd
ff9a
020f
ffbc
0048
00f5
00cf
fffa
ffc6
ffd0
001d
001d
ffc1
0092
ff1f
fff5
ffa8
ff79
ff7b
0040
ffa3
00cb
0014
000b
0003
0062
ffa7
ffb2
0051
015c
0077
0009
0088
ffa4
ff5c
0032
ffe1
0140
ffaf
0000
003f
ff98
00a0
ffde
0024
fea4
00c1
fffd
ffc2
0070
ffdb
ffae
ff98
ffee
0090
000a
ff90
0041
ffa5
002b
fff3
001c
0082
0011
0004
fff3
005b
ffa6
fef7
0066
0033
fffa
ffe4
00cb
fff8
00c9
ff62
00f6
fff4
0000
002d
00d8
ffbe
0023
003d
0099
002c
fffa
0038
ff66
005e
ff4b
ff11
0128
0013
fffd
000e
0017
ffd7
0055
ffaa
0035
ffa7
fffb
ff84
ff70
0074
ffc5
ff16
0013
0001
fffb
ff71
ff3a
fffd
0005
fffe
000b
0000
fffd
fffd
fff9
fffc
fffa
0006
fffd
0000
0000
fff8
fffe
fff6
0000
0005
fffb
0000
0000
fff9
0007
fff7
0000
0001
0000
fff6
fffc
0006
fffa
0008
000e
0003
ffe8
fffd
0006
001e
fff9
0011
0006
0006
0002
0000
0001
0000
fff5
0001
fff8
0002
fff9
0000
fff9
0001
0004
fffd
000a
ffe5
0015
fff9
0002
fff3
0001
fffa
0004
ffef
000d
fffa
fff4
fff0
fffd
000d
0036
002e
ffb0
ffe0
fffd
002d
ffdc
fffe
ffc0
ffa1
ff84
fff9
0002
ffc3
0028
fffa
ff8b
0007
0020
ffc8
0000
0043
ffdb
fffb
009c
ffd4
ffeb
ffc3
fffd
fffe
0000
001c
ffde
fff2
ffd5
004e
0000
0068
008c
0009
ff4f
ffe1
ffbd
0005
000b
0009
009c
ffe9
fffd
0009
ffd0
fff8
fffc
000b
ffcf
000f
ffc7
0046
ff9c
0015
ffff
001c
0077
fff1
ffcb
00aa
0008
ffe9
000e
0051
0036
0000
0000
0008
0005
0000
0002
0003
fffd
fffe
0006
fffb
fffa
fffc
fff3
0000
ffec
fff3
0000
0000
ffff
0001
fffc
fffa
0000
0000
fff3
fffc
fffe
0001
ffff
fffb
0004
0002
0002
0000
fff9
0004
0004
fffb
0003
0000
0003
ffff
0002
fff7
fffb
ffff
0003
0000
fffa
0004
0000
0000
fffe
fffb
0000
0000
ffff
0001
0000
0004
0004
000c
0005
ffff
0001
0003
0003
0004
0004
fffd
fffd
fff5
ffbb
ff9f
004d
ffc4
0004
ffc8
003b
0029
ff27
ffa7
ffc7
ff49
001a
00a2
ffd1
ffed
ff65
ff5b
ff17
ff04
0005
003a
ffc8
ff73
0032
003b
005b
ffac
ffe6
ffb7
0069
0063
ff90
0020
0043
002e
0005
0077
0066
004a
ff73
ff3f
0000
0010
fff6
ffcf
003b
005f
004a
006f
fff1
fff1
0013
ff6b
00a3
ffd9
005a
0002
0083
0017
ffff
00ff
00dc
fff8
002e
ff8c
0038
fff3
000b
00cc
fffe
00ba
003c
00bb
0024
0155
00bf
0061
00c0
0057
0266
0248
00f4
0147
0002
0164
0062
0092
0158
012f
01c8
ffca
0151
01d5
0068
ffeb
00b5
0078
00a1
00ba
02a2
00a7
0000
0053
0123
0011
01c4
ffc4
0004
0056
01ca
01a4
00d6
0169
002f
000e
0183
0003
019e
00b2
00c6
01c5
01f8
0138
0000
01bb
00ba
ffe7
01cb
019c
00eb
fff8
0162
00c6
007d
0101
ffe7
0293
0025
ffe2
00f1
0078
0288
ffa8
000e
ffb3
fffc
ffe0
0020
ff53
003e
ffa6
0010
0018
fff7
ffd6
fff3
003f
0003
007d
ffe6
0031
ff90
010c
01a2
00c3
ffd6
006a
ffc2
ffb2
0038
fff0
ff5c
ff80
002b
ff86
0045
005f
ffcd
fff7
ff45
ff9e
002f
00a8
0014
ff8e
ffc1
00e5
023c
00b5
0014
004a
ffd5
ffc2
0024
ff93
ff91
ff79
003a
0000
0019
001a
004c
0016
ffab
0059
0033
0047
fff5
ffa4
ffff
0024
01e8
007a
ffee
00ee
00a6
007d
ff7d
01ad
ffdc
0017
00f3
0034
fff6
0020
ff5a
0116
ff5d
0053
00e6
0069
00d2
0042
ff9f
ff74
ffc4
ffe7
01d1
0073
00c2
0019
007e
00f9
ffb3
0144
ffbf
001c
006f
ff7a
ffe1
0007
fe85
ff0b
ffc1
0023
0119
ff7a
ffb0
007c
002e
0072
fff6
ff6e
ffe7
0029
ffd1
ff79
ffc6
008d
0028
ffc9
0027
ffc8
ffde
ffd4
ff90
ffac
0118
ffbd
ffe4
ff8f
ffd7
ff4a
00b1
ffab
0044
fff6
006f
ffe3
ffec
000e
feae
ff74
001a
0066
0069
005f
ffa0
00db
ffa8
ffd5
00bc
ffc9
0012
004b
001e
ffc9
0154
ff5c
0059
0060
005f
000b
0044
0122
ff2e
ffbf
ffee
002c
ffc1
0040
0037
00b2
008f
ffe3
ff95
ff58
ff7f
0027
00ae
fff9
008c
ff59
ffa2
ffda
ffe6
ffdc
ffeb
0089
ff7f
0073
0046
ffa5
ffdf
ff98
fff3
ff52
0064
ff7c
fffd
ff64
ffdc
ff9b
0056
ffef
009c
ff91
0013
fffd
0015
fffa
0004
fffc
fffd
0002
fff9
fffe
0007
0000
ffff
0010
fff5
fff8
fff1
0011
0000
0003
fff7
fffe
0002
000a
fffd
fffe
fffb
fffd
fffa
0007
fffa
fffc
ffed
ffed
fffc
0008
0000
ffee
fff1
ffee
ffde
000a
fffb
ffd9
fffd
0009
0002
0007
0000
000c
0000
0001
fff8
0004
fff9
0004
000b
000f
0007
0002
0000
fffc
fffd
000c
0006
000e
fffe
fff4
fff2
fffc
fff7
0006
0000
ffe1
ffac
ffed
002f
ffd0
0081
000f
fff4
0020
0057
ffc3
ff84
006c
002b
0050
0034
000e
ffec
0001
009f
ff9c
ffb4
ff95
ffc7
ffe0
fff0
002b
fff7
0041
00aa
ffac
fffe
000c
0057
ffa1
002a
0011
0076
0099
000f
0086
0018
0054
003d
ffcc
ff98
0010
ffd1
ffc2
0010
0010
002a
002b
0064
0005
0002
0003
ffdf
ffab
ffcc
0016
005a
0057
ffce
ffe6
0016
00ed
0066
ffdd
ffb9
ff77
0008
fffc
fffd
fffe
0001
0005
fffe
fffd
0001
0003
fffe
0000
0000
fffd
fffe
0000
0002
fff7
fffe
000c
0014
000b
fffd
0003
fffc
fff0
ffff
fff3
fffe
fffd
fff6
0000
fffc
0003
0007
fff6
0003
0003
fff5
fff8
fffb
0000
0005
0011
fff7
000d
0001
0003
fff8
0001
fffa
fffa
fffe
0008
ffee
ffff
ffff
fff6
fffb
0001
fff7
0009
0000
ffef
0005
0002
fffe
0009
0000
000b
fffc
0001
0006
006f
00f8
ff4f
004d
0138
00f9
00b8
0066
ffd7
003c
ffe9
0006
ffea
00c5
0022
00b1
0000
ff8b
0003
0049
fe81
ffb9
0098
00eb
0005
005e
ff71
0039
0105
008e
0026
0003
fff5
00e7
00c4
0013
00b2
0048
ffcc
010f
ffd6
000e
0086
fff2
ff9c
ffea
0089
002e
000c
0017
ff60
004e
00ef
008a
0058
ffe1
0032
007f
0005
0076
00e5
001d
ffb2
004c
000f
fff2
00a5
000f
ff17
ffad
002c
0024
027d
001d
01a9
0228
0080
019a
00d8
006a
0180
ffd8
0234
0256
00b2
00c9
015a
02aa
020f
01b3
004c
00a8
00f4
ffaa
0268
01b3
01a9
0161
014a
0031
ff85
0318
01a0
01bb
0115
01c6
ffb7
0091
ff93
00f5
0178
0095
0092
0111
0094
ffb1
0078
015b
019d
0262
01f9
fff2
ffd5
01ee
0119
004a
01c6
ffee
0176
0092
0072
018d
01c8
fff2
0295
fffa
00ee
0180
0081
ffd8
0062
ffc0
01e8
027a
ffca
ff99
003f
0012
fff9
ffb3
0015
003b
000e
0019
0040
000e
fff1
ff9b
0001
ffd1
0070
ffaa
0042
ffc4
004e
0016
ff93
ffb2
ffba
ffa0
0048
0047
0049
000e
008a
ffc9
fff6
0012
ffd0
0047
fff0
fffa
001c
001e
0099
ffc7
0035
00b4
ffbe
001c
ff24
ffc1
ff70
ff40
002b
001d
007a
ffdc
004a
002c
ffd2
0041
ffa8
0030
0025
001a
0009
ffc8
0055
fff1
005e
000c
ffd5
0012
ff49
ffc9
0158
fff6
00fc
ff85
ffd1
0015
00fd
fecb
012b
00a0
0055
000d
0058
ff76
0078
fecc
0146
ffe6
0064
ff21
fe88
ffe3
006d
fee4
ffbf
0072
0058
003f
0088
001d
0033
00af
ffed
ff7d
0184
0188
00da
00b4
ffec
030b
ffc3
006a
0039
0088
fff4
ffd6
0090
0095
00ae
006b
0049
ff4e
010e
004b
0033
00a1
003c
00f9
006c
00c8
00e3
014f
005a
013c
0033
005a
0053
ff8d
0064
ffe8
004e
011e
00b2
0080
00a4
ffc2
ff2e
003d
003c
ff82
0063
003f
0097
ffcd
ffd3
0014
fff3
ffa5
0046
ff15
001e
003a
ffa9
0041
0030
ff79
005b
0027
0099
ff96
ffac
ffc4
ffe3
ff89
001a
0038
ffe7
ffc4
ff92
ff86
ff81
ffdc
005c
ff6f
ff73
fffd
ff87
ffef
0032
ff0c
0006
00c1
ffba
ffc4
002d
ffee
ffd9
ffd8
ffb8
ff8c
ff59
ff83
ff74
0043
0023
ff72
ffe1
ff66
fef4
0008
0020
0050
0061
0000
000c
0006
0000
000b
fff2
fff4
fff9
fff8
0013
0000
ffe8
fff7
fff5
ffed
fff4
fffc
000b
0000
0007
fff8
0001
0003
fff7
ffff
fff5
fff9
fff3
fffe
ffff
0007
0000
0006
fff9
fffb
fffb
fff6
fff4
fffc
0003
ffef
fff2
000e
fffa
fffa
fff7
0006
000d
000c
0003
fff9
fff6
0007
0000
0001
0014
0004
0004
000b
fff7
0006
ffea
fffe
0002
0011
0000
0005
fff7
fff8
ffe7
fffd
0000
0001
ffe6
fff8
0006
0032
0000
ffe4
ffb1
0017
ff98
fffc
000f
0048
fff9
0039
005f
0008
ffbe
004f
ffe8
000c
fffc
ffeb
ffaf
ffd0
0069
0005
ffe6
001b
ffd0
fff9
ffdc
0019
0008
ffc3
0017
006c
0012
002f
fffe
002b
fff6
0012
0057
0057
ffc6
002f
ffe2
0003
fffb
0038
002b
003f
0005
0026
fff0
004d
ffbb
ff81
fffa
0040
005e
fff8
001d
0079
ffd8
0001
000a
000b
ffce
ffdd
0020
ffee
0007
ffec
0000
0000
0013
fffe
ffff
0003
0003
fff5
0003
0001
fffa
fffa
fffa
fff9
fffc
fffe
0010
fffe
fffc
fffc
fff4
fffd
0002
000f
fffc
fffb
fffb
0000
0000
fffd
fff0
ffff
fffe
0000
0000
0000
000e
0000
0001
0000
fff3
fff1
0000
0000
0006
0000
0000
fff6
0002
0016
fffb
fffc
fffb
fffe
fffd
0000
0002
0010
0002
0005
0003
0008
fffe
0001
000b
fff8
0005
ffff
fffc
fff1
0006
ffc4
0063
ffda
016f
ffd1
00b1
ff30
ffd3
ffba
ffe5
005e
009c
0023
0072
ff9c
0017
ffdb
fff3
0048
ff98
003b
00a3
ffad
006a
ff76
fff7
ffab
0087
0045
0045
ffd8
ffc9
001f
0024
009c
ffe0
0097
0025
ffb4
ffc3
0090
ffba
0095
0019
0013
0054
ffb8
0038
ff04
00eb
ff78
00cd
0028
0011
ff7e
fff8
ffd4
0095
0028
0029
005a
fffc
ffdc
0008
0027
0029
ffc4
001f
ffa0
0035
004c
ffee
02cf
017f
0255
00fa
00aa
0044
ff7b
0118
00a7
0258
01cf
0239
0033
02d4
ffde
0037
022d
00b3
0118
02eb
0185
0072
ff95
014a
0337
00b3
0144
01f1
01ca
0032
ffcf
0151
01d4
012a
00eb
013a
0030
007e
003d
ffbf
0168
01e1
039d
013e
015b
005e
0012
0325
031c
0188
021c
01b7
00d5
003d
ff76
ffc6
0326
0250
0038
00cb
017b
0061
0007
0116
009a
01ce
01b4
0355
0023
001f
ffd7
beba
c255
b7c8
9826
b1f5
067b
c5d9
e37a
07cf
26d4
0140
fe77
07d5
ffb0
1138
2124
ff95
0038
ff99
ffe6
fff3
ff93
ff86
ffe8
0018
0008
ffa0
fffe
ff08
fffa
ffc1
ffed
007e
ff96
ffd5
00e1
007a
ffc3
00ab
0039
ff76
0047
ff68
ffd8
0028
0019
0000
fffe
0078
0019
ff48
0009
ff26
fee5
0002
0087
00f6
ffff
00a6
0080
0076
002f
00d9
007a
ffd0
ffe5
ffa4
ffd3
0000
fff7
ffb3
ffad
fff6
0066
0016
ffcd
ff83
0058
ff8f
ff3c
0065
ffa7
0139
0074
00a0
0006
00ab
ffe7
ffd0
ffe2
ffe5
0047
ff64
ffe8
ffe9
003a
fffd
ff85
ff06
008a
ff93
0031
01cd
ffbf
0025
ff7f
004c
003a
ffc5
0058
003f
0028
0015
ffff
0013
ffed
002a
fff4
ffef
0018
ffe6
ffe2
00a4
ffbb
0071
ffd5
fff8
00cf
ffca
ffd7
ffee
0052
ffe6
ffc3
0063
0025
003f
0046
ffde
ffd9
ffed
003a
ffc9
ffde
0149
000b
ff8c
00e5
ff1e
002f
fe4e
0069
ffee
00c8
0015
000c
ffae
ff7f
ffec
0050
0018
fff4
ffba
0003
ffe6
0027
fffe
0004
ffc2
000a
0051
ffcb
ffea
000a
0039
002f
ffd6
004a
ffd6
ff94
003c
0016
000e
0020
fff8
0006
ffe7
ffe8
000e
ff4e
ffd3
ff96
ffcb
003e
ff4b
ffa3
ffbb
ff5c
ff16
fff6
ffb3
0026
ff79
ffbb
0008
001c
ff4f
fff9
ffc7
ff9e
0078
ffc7
ffde
ffab
ffe7
ffa6
ff85
000f
ffe0
ff54
008f
ffd2
ff80
0004
ffdc
ffc9
ffbe
ffdc
0088
ffb6
0006
fff3
0011
fff0
ffe8
ffc7
000d
ff39
fff2
0018
ffe8
ffd3
002e
ffac
ffe3
ffc0
ffe9
0011
ffe6
0048
ffcf
ffe8
ffc9
ffcc
0066
fff1
ff9a
0022
ffab
fff9
fff6
0007
ffcf
ff94
ff8e
ffdb
ffeb
fff1
0007
ff73
ffb5
ffb2
0013
ffed
0014
fff1
ffca
0004
ffcb
ffe7
ff82
ffe4
ffd3
ff96
006d
0002
ffa4
fffd
ffd0
ffbe
ff93
ff72
0052
ffca
ffdb
fff5
0008
ffe8
ffae
ffe3
ffb8
0005
ffb4
0014
001c
ffdd
ffe5
0047
0014
003e
fff9
ffde
ffae
fffb
0007
0049
fffe
003d
ffc5
ffd7
fffa
ffae
ffcf
ffb5
0095
ffb8
0071
fff0
fff9
ffd7
fff9
0056
002b
ffde
ffef
0004
ffe9
ff70
0034
0017
ffd6
00f1
0058
004e
009d
0021
000a
0004
00bb
fffd
001e
ffa9
ffad
0004
002a
ff97
0047
006d
001c
ff26
ffff
0030
fffa
00a1
0061
00ba
fff4
ffad
0058
ff5b
0067
ffd6
008b
ffd4
0077
fff7
0004
0004
0043
0005
ffb2
000a
ff95
fff9
fffc
ffa2
0010
ffec
ffdd
0030
0069
ffdf
0011
ffe8
fff9
004c
0011
ffda
0037
ffed
0058
ffb4
0018
0002
ff1e
ffc7
ffff
001d
004c
ff49
0075
0014
fffc
0033
01a9
001b
0003
001f
0035
001d
ffc6
0004
00b9
ffdd
0059
0011
000c
ffcc
ff9e
ffc0
ffbd
ffc5
ffec
ffc1
0029
ff81
0037
0017
0051
ffe3
ffe9
000f
0018
fff7
0015
ffdf
0015
ff9c
0007
0000
000e
0012
ffe2
0005
0001
0009
0000
000d
fff1
fffc
005b
ffef
0021
000d
fff9
fffc
fff0
004a
0009
000c
ffe5
0000
0005
ffd9
001d
000c
ffba
0037
0016
0008
ffff
000f
0029
0011
004c
0035
0026
0014
003f
ffb3
0007
0059
0029
000c
ffeb
fffe
0014
fff5
ffec
fffe
ffda
ffd2
002a
0027
fff4
ffdc
0037
ffde
0039
ffdd
0088
ffff
fff2
fffd
0016
fffa
fff4
0014
000e
ffed
fffc
0000
0003
fffc
ffff
fffc
fffb
fffb
0003
fffd
0005
0002
0002
fffe
0003
0000
fffd
0000
fffe
0007
0000
fffc
0003
0000
0000
0002
0002
0003
fffc
fffb
fffa
0002
0002
fffc
0000
0002
0002
ffff
ffff
0000
fffb
0002
fff6
0006
0009
fff8
fffb
0000
0001
0000
0001
ffff
0000
fffd
fffa
0000
fffd
fffe
fffd
0000
0000
ffff
0000
0000
fffd
0000
fffb
0001
0002
fff8
0000
ffff
00f8
ff41
ff6c
00f7
ff7e
ff8a
ffed
ffbd
001c
ffdd
000a
ffbd
ff69
fff7
0033
0043
ff95
00e6
00a3
0000
ff77
0050
00bc
ffca
0034
ff55
ff59
0037
ff4e
ffaa
0004
ffba
ff84
feee
ff84
ff5f
fffa
ff89
0019
002c
fef2
0161
00dc
ff9e
005f
fffd
00e7
0048
0109
ff9a
ff4f
ffe0
ff6e
ffe8
ffc1
fff6
0027
000d
0054
ff97
ffa8
0008
0027
ffda
003c
013c
0033
ffa0
003d
000e
00c3
0024
0062
ffbb
ff85
ffef
ffbd
0050
fff5
ffc6
0024
ff8e
0022
003f
ff81
002f
ff4a
ff95
005c
ff72
ff4e
005f
ff9d
0066
ff6b
ffd8
ffec
0032
ff95
00bb
ff66
0045
0027
0000
fff7
003e
ffb2
00fd
ffdd
0155
00d2
0072
0015
003b
ffdd
00ee
ffdb
005a
0034
0014
0066
0090
0053
0077
ffb6
ffd1
ffe5
ff5d
006a
ffd5
0025
ffca
0044
0016
ff5f
ffc1
0033
0018
ffeb
0000
0033
ffd7
0022
ff75
002f
0006
0063
ff86
ff82
004d
ffd2
ffc9
ffbc
0075
002f
001c
005a
ffa6
00a6
0046
00ad
ffe1
002a
0045
007a
003d
0071
ffac
0000
0015
002e
0001
001c
fff9
0030
ffb3
ffd3
ffa3
fff9
fede
005f
ff53
ff30
ff7f
00f1
0028
ffee
ffc6
ffee
ffe1
ff61
ff27
0070
fff5
001e
ff4d
ff6a
ffca
0060
007f
0026
003b
fff1
ff54
ffa8
fffe
001e
0017
00c1
ffa7
ffc7
ffef
ffcd
0004
002f
0007
0014
ffc8
ffeb
ffce
ffd0
ffe5
000b
ffc3
0007
ffff
ffa0
ffd8
fff3
0000
ffec
0010
003c
fffb
ffe1
002c
000d
0002
000f
0008
0050
ffea
fffb
ffe3
fffd
0000
ffce
ffd9
004f
fffa
0054
ffc6
fff8
ffc8
ffd5
fffa
0054
ffd1
ffe7
001d
0001
0020
ffd7
000e
0044
ffb7
ffce
ffef
ffbb
001c
0006
fff1
0040
000f
ffbf
003f
ffe1
001b
0029
ffc9
005f
ffb2
fff7
0019
0003
0010
002d
fff8
ffa3
0004
0058
ff72
00ca
007f
ffe9
ffd8
fff6
00a1
00c1
ffa3
0010
004c
00b7
0028
00b6
0072
00eb
ffec
ff6f
00e6
007d
0040
ff5e
006f
ffc4
ffe2
0017
ffec
00ab
ffb2
feff
0039
001d
ff27
005c
ff42
009a
002c
0034
017f
00fd
ff8b
ff8c
ffd9
0105
ff6d
000e
ffe6
ffbe
0068
0077
00ff
ffe8
ff68
fffc
0097
00b9
ffa5
ffcd
017c
006a
ffd6
00f4
00a3
0055
ffb8
ff82
014b
00f9
ff7d
007b
0016
002e
fff2
ffe9
ffe6
000f
0018
ff72
000b
ffc1
ffee
ffe1
ffec
0005
ffc3
ff94
002a
ffd9
ffe3
002c
0012
0043
005a
0094
0000
0019
ffad
ff98
ffa9
002e
0000
ffb3
fff0
fff3
0026
0007
000a
0028
0008
ffd1
ffce
0025
0016
0077
0040
003a
005a
0074
002e
004b
ff83
ffcd
0000
0005
ffea
ff96
fffe
002c
001e
001b
ffe9
ffe6
ffef
ff98
ffe7
0023
004f
fffc
0010
0060
0031
0017
ffff
0001
0006
0023
0018
0025
ffe6
0001
fff8
0011
0026
fff4
0017
001b
ffe6
fff3
ffee
0019
0020
002d
fffd
ffbb
0013
ffe8
ffea
ffee
ffe7
002f
fffa
002c
fffb
ffce
003f
0022
ffe5
0012
ffb3
0033
000b
0013
0017
001a
000e
0000
ffeb
0005
0021
006d
0016
0022
ffe3
ffe1
002c
002d
ffee
0005
fff4
ffdd
fff6
0003
0014
0049
0016
ffd1
ffe3
0010
0010
0004
0007
ffe5
0010
0001
0003
fffe
fffc
0000
ffff
0000
0000
0000
0000
0004
fffd
0003
ffff
0000
0002
ffff
000f
ffff
fffd
0003
0001
ffff
0002
0005
fffa
0000
0000
0000
0001
fffe
0001
0000
fffa
0002
ffff
0004
0001
0000
0000
fffc
0013
0003
0000
0000
0007
fffe
fffb
0004
fffe
fffd
0001
0003
fffe
0002
0003
0001
0002
0002
ffff
fffc
fffe
0002
0000
fffd
0004
0003
ffff
fffd
0001
0001
0000
ffb1
0006
ff97
ffc6
0081
fff4
0050
0036
fff1
ffd4
ff9e
ffbc
ff94
0004
ff98
ffaa
ffad
0038
004c
005c
0093
0058
ffd5
0151
0087
0000
0019
003e
0099
0044
00af
ffbd
002b
0013
ffc8
fe7d
ff5e
0041
ffcf
004d
0068
0003
00a1
009f
0048
005a
ffd1
006a
ffb4
0000
ffe0
0019
ff97
ff81
00a5
fffe
ff59
ffe3
0001
ff6e
ff6b
ff87
ffac
ff75
00cb
fff8
006d
005c
fff5
fff1
ffca
00ad
002e
0000
fff8
002a
00df
ff8e
005d
ffbe
fede
0000
ffac
ffe8
011d
ff76
001c
ffce
fff1
fffd
ffde
ffaa
ff96
ffe6
0001
ffdf
0017
0000
ffbf
00b3
ff66
0033
ffdf
0017
00cd
0000
ffc0
0132
fef4
fffe
0145
ffac
fff9
fffd
001e
0020
ffb2
0005
001d
0016
fffb
0000
ffd2
fefd
0015
fff3
00cf
003a
ff45
ffff
0091
ff58
00f6
fff4
ffe9
ff75
ffea
ffff
ffa1
0051
ff8d
ff79
007f
0013
ff99
0000
003d
0092
ffba
000a
ffb6
ffea
003a
0002
0022
0050
fecc
0024
0038
0016
ffa0
0000
007a
0015
ffe5
ffcb
0035
003b
0066
0001
ffcf
fedd
ff8a
ffd3
ffe8
fff9
ffec
0001
0031
ff72
0046
ffd1
fe9f
ff92
fff4
0000
fffb
ff6f
0088
0032
ffb6
ffb6
0007
0000
001c
ffcc
ffe5
ffe3
ffe4
ffff
00a4
0000
ffbf
0043
ffc4
ffa5
ffe0
fff9
0023
fffe
0026
ffe4
ffa6
0029
002b
001c
001e
ffff
005e
ff5d
ff9c
ffe6
001f
ffc4
003a
ffff
0043
ffc1
ff8e
fffe
0000
0002
ffec
ffff
ffd1
ff86
ffd6
ff9a
0014
ffc7
0043
0001
fff5
0010
004b
ffb6
ffef
ffea
ffec
0000
008c
ff6f
ffe0
000a
ffe5
0001
0013
0000
ffc9
ff89
ffda
ffd3
0012
ffd6
0012
0001
ff8b
003a
000a
ff9b
ffe4
0012
005c
0000
ff7a
ffcc
000f
0000
000f
0049
fff4
0000
ff96
ffd2
0000
ffcc
ffcd
ffdf
004d
0001
0060
0038
ffd8
ffd4
ff91
007c
003b
0000
007d
ffdd
0076
ffcb
ffc0
0033
0000
0000
0113
0055
003d
00ad
00fd
0003
0029
0000
0109
ff7a
fffd
ffbb
001b
0099
ffdc
0000
009b
ffda
0055
ff65
ff8c
003a
00d3
0000
0123
00b7
ffc7
009f
0095
00e5
ffdf
0000
000a
0029
0004
ffae
0041
ff94
ff97
0000
0098
004d
0001
ff67
0020
ffb1
0099
0000
001a
0005
fff1
005e
00bc
006a
000d
0000
0038
ffb8
0021
fffd
fff5
ffd2
ffe9
ffff
002e
ffe1
0046
0004
ffd3
002f
0004
ffff
0054
0042
0035
ffdd
004e
0067
ffd8
0000
004d
ffd3
0047
ffe4
000b
ff59
001a
0000
0070
fff4
ffe4
0064
0048
0048
ffc3
ffff
000f
0012
ffd8
ffa7
ffe4
0033
003b
0000
0056
0013
ffc5
ffdb
000a
ffa8
0028
0000
ffcf
0018
ffd8
ffde
0048
ffeb
ffe6
fffb
ffba
ffff
fff3
ffb1
0037
0042
fff5
0001
ffbf
ffe4
ffe2
000d
ffef
ffe9
ffd4
0000
ffd0
0036
ffde
0004
0035
0019
ffe5
0003
ffdb
0016
0025
fff8
0013
0003
ffd3
ffff
ffdb
ffd3
0040
ffea
0006
fff8
ff8f
0001
0016
fffb
0016
0012
ffd4
fff3
ffd7
0001
fff5
0023
0019
fff7
fffa
0003
fff7
fffc
0015
ffe9
fff1
fff1
0010
ffe9
0036
0002
0017
ffd9
0010
0008
001e
000c
ffe8
0001
fff4
0004
fffc
0012
0006
0010
0006
0000
fffe
0002
fff4
fffd
fffd
fffe
0000
0001
0005
0001
fffb
0000
0001
0003
0002
fffe
0000
000a
0000
0002
0002
0003
0000
0000
0006
fffe
0000
fffe
fffc
fffc
0004
0004
0004
0000
fffc
0007
0000
0000
0000
0006
ffff
0018
0009
fffe
0002
fffd
0002
fffb
0006
fffc
fffa
0000
fffc
0000
0004
fffb
0000
0000
fffd
0001
0000
0003
0000
0000
0000
0004
0000
fffc
0001
fffe
0074
0022
ffd7
000d
0036
0105
ff93
ff2b
ffc9
ffbf
0025
000e
0018
ff6c
ff68
00c9
0037
ff74
ffc3
0028
0000
fff6
018c
012c
ffef
001f
ffc4
0008
003e
0076
ff59
ff4d
0045
002d
0147
0068
003a
ff60
ff14
002b
001c
ffbb
ff2d
0011
001f
ffc2
014f
00d0
0066
0042
ffac
ffab
00a0
ffd4
ffef
ff82
0068
002a
0057
002e
00c5
fff4
fff3
006f
0008
ff5b
0010
ffd6
0000
fffe
010e
00fa
0061
002f
ffa7
fffc
fffb
0100
ffe7
00a9
0077
ffe6
ffa1
0010
ffc8
00c1
ff23
ff8b
0053
ffc4
ff53
000f
fffd
0045
ff8f
0011
ffbc
004c
0067
0029
0032
ff80
fff3
ffa2
ff47
0037
0084
0091
002e
ff84
009d
00a3
ffb1
0072
0084
0033
ffcf
0024
00ae
0035
004c
0079
0029
ffe8
fff3
fff3
007d
001e
00bb
0131
ffd6
0039
0000
0055
00a4
0097
005e
0047
0001
ffd8
ffdc
ffd2
0082
0037
ffcf
ffe2
0067
0006
ffba
ff37
ffff
fff2
0047
0019
00b1
ff84
ffda
ff34
006a
ff27
fffb
0039
002b
002b
ffec
ffb9
000b
ff3e
0032
ffc4
0021
0010
ffb7
0044
00a3
0066
0055
fff5
ffdd
ffa7
ff59
016e
ffa2
ffed
0040
ffbd
ff90
ffaa
0008
00cc
ff3d
ff15
0011
002f
0026
ffc3
003b
0019
0027
008b
0055
ffa6
00bb
ffc3
ffc0
ffcd
ff7e
ffe6
002d
001c
0068
ffc2
0089
0017
0009
ffe0
ffef
fffa
0010
ffaa
0016
fffc
0028
0005
fff1
ffd1
004a
ff9f
000b
ffce
0000
ffd4
001b
ffbb
0098
ffc4
0014
001b
ffcd
ffb1
0008
ff72
ffe0
ffb8
0008
0060
ff82
0012
000e
fff4
ffb6
ffbf
ffa5
ffdb
ffe6
ffe8
fff4
fff0
ffaa
ffb6
ffe8
0032
ffca
ff91
ffc3
ffac
ffdf
ff91
0006
ffe9
ff31
fff4
fffc
ffbd
0037
ffa1
0008
0000
ffd5
ffcd
fff7
ffca
ffed
ffc7
001f
ffd7
ffc3
ff71
ffe0
003f
ffc8
0026
003c
0021
001f
fff2
ffe4
ffc4
ffb2
0000
fff4
006c
0054
002a
ff70
0036
ffc3
ffe9
fff3
0046
00ad
ffb4
000e
0002
ff7c
003d
00bf
ffd1
003d
0027
fff8
ff51
ffdb
002e
00b1
0066
ffbb
ff5a
ff9e
0075
000b
0013
fffd
0019
00d4
ff4f
0015
0043
0015
0030
0043
0002
ff89
ffb3
ffdc
ffa2
0003
ffec
0089
0003
ffdb
0028
ffd8
003c
ffff
ffd9
ffd2
ffb1
00e7
ff65
000b
ffda
0011
0000
ffa6
0005
0025
003f
003f
0009
fff3
0031
ffdc
0028
0059
005b
0025
0013
fff4
004b
ffdf
0003
007e
0013
000a
0059
000a
fffe
ffb3
ffea
000b
0047
004d
0020
ffe5
ffe2
0018
001d
008b
ffe1
fff2
00a3
0040
001a
001a
ffd0
002f
0059
0000
ffed
0011
001d
ffe9
ffd1
0011
002f
0011
ffc5
ffea
fff6
ffe6
0010
ffe9
ffd2
fff0
0014
ffff
ffed
000c
ffff
0031
0065
000c
ffe2
0010
ffd7
fff1
fffb
000a
ffec
0006
0014
ffec
ffde
ffe1
ffc6
001f
000d
fff8
ffe8
000d
ffc1
ffeb
fff5
000f
0007
fffc
ffe9
ffea
0001
0002
0015
0011
0012
0002
0029
0003
ffec
ffc6
ffeb
002f
0017
fff6
0008
0002
ffc5
0002
fff1
000e
0019
0004
fff1
ffd9
fffe
000a
fffb
fff6
0023
fff6
000f
ffe4
ffe6
ff99
0016
ffff
001e
fffc
0029
fff7
ffd5
ffc9
fff3
ffda
ffff
0000
0002
0000
ffff
fffd
ffff
0002
fffb
0000
0001
000c
0000
fffd
0005
fffe
ffff
ffff
0003
0015
0000
fffa
fffe
0000
0000
0002
0001
0004
fffc
0002
0008
0001
0002
0001
fffd
000c
0000
0000
0006
0000
fffc
0000
fffc
000b
fffb
0003
0005
0006
0000
0001
0000
0002
fffe
0001
0006
fff8
0001
0000
ffff
0003
0000
fffb
0003
0001
0001
0000
0000
0007
ffff
ffff
0004
0000
0000
002a
ff95
0007
ffd0
0008
008c
00d2
006e
0007
ffa2
0017
0045
008b
ffae
fff4
ffd8
ffef
004f
ff2a
0099
00c6
0004
ff22
000b
0000
ffe2
0035
ff94
007e
0118
0002
0097
ffc0
00b8
005a
ffd2
ffe8
ff64
ffed
fff1
002b
ffe9
ffba
0160
00d6
ff7c
ff0b
004f
ffd9
ffc5
0034
ffb5
0048
00a8
0025
0064
ffe6
fffd
001f
00c1
0041
fff3
ffc5
ffbf
005b
0003
ff95
0042
009b
0016
ffe9
ffe6
ffb5
ff73
0012
ff95
ffce
0011
0019
ff3c
ffe4
015c
ffec
ff69
0084
00e7
ff6c
ff8e
0006
ffdc
0050
ff77
fff6
ffb1
ffc0
ff56
0067
0079
0027
0033
005d
0034
009a
ffda
007f
ff94
0017
0044
ff7f
ff83
009f
ff6f
0059
00f2
0004
ff97
0094
001b
ffbc
fff0
ff55
ff70
0060
00bb
0028
ffee
00eb
0008
ffb9
fff7
ffe6
00d6
ff69
fe6a
00d2
ff55
009a
ff80
0002
ffe7
0015
0019
ffb5
ffad
0044
0017
ff4a
00b7
0003
0119
ff8f
0063
ffdf
ffe4
0009
007d
ff82
003d
ffcb
0042
00aa
ffe2
0057
0075
ff8e
0061
0028
ffef
ffd1
ffe6
fffd
0025
ff3e
0048
ffe5
000a
ffc8
ffc4
0070
fff0
0033
ffce
0024
0004
002a
002d
0028
002e
ffb1
002a
0079
ffa1
0008
ffde
ffae
0014
0026
ffed
000a
0045
004a
0038
0008
fff6
008a
004a
ffc5
0017
ffdc
0032
006c
ffc8
001a
ffd0
0072
ffe6
003f
ffae
fffc
0010
0028
0012
ffe8
0023
fffb
ff8b
fff3
0024
ffde
0008
0015
0005
ffe7
ffc6
0050
0043
fffb
fff8
001a
0008
0006
0015
002f
fff2
0014
0082
ffcc
fff3
ffff
009e
ffe6
fff3
005d
005c
fffe
ffe9
ffff
0027
0038
ffc1
005f
0056
fff1
001b
0045
ffbb
002d
ff9c
0053
002b
ffc8
fff6
ffe5
ffe0
002e
ff7d
000f
001a
fff4
0022
ffd7
fff0
003f
fff3
004f
0029
002a
000f
0060
003e
ffa9
000c
ffec
0018
fffd
002e
0007
ffda
000b
ffce
ffe4
0013
000c
ff71
ff62
0116
ffba
006a
ffe7
007e
ff81
ff32
fff0
fffb
ffcc
ff91
ff8a
008b
ff7a
00ec
005a
ffbf
006b
ffd9
ffa8
007a
ff6d
ff45
0064
00ca
ffa9
0040
0045
fffd
ffd1
0001
0096
001b
004a
ffe2
fff6
002a
ff16
0014
0053
ff8f
0067
0032
ffde
ffe5
ff55
003c
009e
001b
ff9f
ffd2
ffe8
ffd6
ffad
ffbd
ffef
000d
ffe7
002f
0037
001a
ffc8
009c
0012
ffe0
ff8f
ffd9
0046
ffce
0012
ff75
0009
fffd
ffe7
ffc6
ffda
ffaf
ffe2
0033
ff4e
ffc7
ff85
0046
ffe3
fffe
ffba
0097
0008
009b
ffbd
0020
000a
fff3
ffc8
ffa0
ffd3
fffd
0072
0011
fffb
ff33
000b
0016
fff7
ffc3
0014
0006
0018
003f
ffc0
fffb
003f
0010
fff9
ffc5
ffeb
0015
0077
ffcf
000b
0016
0006
ffc2
0020
ffd0
ffdc
ffd9
ffdf
0026
0004
fff0
0020
0008
0009
000e
0000
0026
fff0
fff1
004d
fffd
0007
0000
fff7
ffde
000b
000c
0026
0000
ffef
0018
ffeb
ffe5
0002
0015
0022
ffeb
ffaa
000b
fff1
0000
ffd4
0011
0019
ffec
002b
000c
ffea
ffeb
0032
0029
001a
ffd8
ffd3
fffa
ffcd
fff7
0010
ffe2
0007
ffff
ffca
0025
0014
ffe9
ffca
ffe4
fff5
003b
ffa0
0006
0006
0000
0007
0016
0020
ffff
ffd8
001e
0002
0002
0000
ffff
fffe
0002
fffb
fffe
0002
0002
ffff
0000
000a
0000
fffd
fffb
0004
0000
ffff
fffe
0005
fffe
fffd
fffa
0005
0003
0000
0000
0004
fffe
fffc
0000
000e
0002
fffd
0001
0002
ffff
0000
fffe
0005
0000
0000
fffd
fffe
0000
fffc
ffff
0005
ffff
fffd
fffc
0004
fffa
fffe
0000
0001
0001
ffff
0000
0001
fffc
fffc
0000
0005
0002
fffe
ffff
0000
0000
fffd
0001
ffd9
ff34
ffb8
00dd
007a
000d
ffac
000c
ff62
0009
ffef
0011
0001
0008
008e
003e
0016
00ae
ffd6
ff97
ff43
0009
0190
ffe5
0000
ff34
0023
0024
005e
fffe
ff64
0053
0069
fffe
0015
ff4f
0007
fffc
00ff
0057
0020
00cb
0007
ff98
ff9b
000f
fff1
00af
fff7
ffa3
ff5e
0026
0009
001f
ff83
fff4
0015
003c
ffda
ffc3
ffd1
0000
0072
ffd0
ffc6
00a6
0016
005d
ff65
0012
00a2
0050
0046
003f
001e
fff0
ffd5
000c
0027
fff0
ff98
ffb3
0059
ff0a
fffc
fffc
ffb3
ffcb
ffe8
0008
0087
fff6
ffb0
fffc
ff42
ffd1
0051
ffd3
0037
fff3
000c
0000
001c
0045
006a
ff27
001c
00d6
0094
fffe
0105
009b
0014
0022
ffc0
0014
001a
0002
0075
001f
ffbe
ffc5
0061
ffe9
ffd1
0001
ffae
000b
003e
ff23
ffea
0093
0084
ffff
ff3d
0043
ffd3
001b
009a
ffdd
ffbd
0000
0017
001b
ffdf
ffb1
0011
ffcf
008c
fffe
ffc2
ffe8
ffb7
0018
000e
ff96
0068
fffd
fff6
ffa1
001d
fff8
002d
ffec
0070
0000
0037
003e
0033
0024
ffef
ffed
0025
0000
0050
ff8b
ffff
00e0
ffaa
ff6d
ffc6
fffb
fec2
ffda
002a
007a
ffc2
ffc7
fffd
fffd
ff70
ffb3
ff8f
ffb2
001e
0017
006e
fffd
ffd1
0023
000b
fffa
ffa7
ffc1
ffff
fffe
ffa9
002b
ffd2
ffe9
ffa5
ffff
007d
0000
004f
fff9
002b
0041
ffff
ffbe
0062
fffd
fff0
fffa
0035
006c
0016
0031
0040
fff9
ffcd
ffcf
ffec
001a
ffea
0005
0026
fffc
0045
fffe
ffc3
0049
ffa7
fff7
fff6
fffc
ff9d
0008
ff97
000a
fff3
ffea
0029
fff9
ff68
ffaa
ffde
0046
fff2
002a
ffed
fffb
ffe9
fff6
ffe4
0030
ffda
ffdd
0019
fffe
ff9a
ffea
ffb0
0000
ffd6
ffc0
fffc
fffa
ffac
ffc5
ffcb
fff7
fff8
000d
ffc8
fff9
ffff
0009
ffcf
0070
ffe2
0161
003c
0002
fff9
0067
fff5
fff5
ffc3
00c5
0034
0004
00b1
0002
0059
ffc3
0073
0118
006a
0005
ffb3
007d
0033
0042
0003
ffce
008e
0005
ffe4
006d
006f
ffef
ffe3
ff9e
0076
0004
0100
003a
0043
fff5
ff6c
002d
004a
0001
ff94
009d
005d
008c
ffdc
00a2
00e6
0003
0020
00c8
0039
ffe7
ff60
0045
0034
0000
0090
0020
fff7
008e
ff44
00a2
fff7
fffb
000c
006c
0001
003a
0000
ffce
0040
0001
001c
0019
ffb1
0034
0012
0008
ffcc
0002
ffe5
0029
0017
0004
000f
0016
003b
0007
006c
0028
008a
001c
0067
ffa5
00a7
0001
004c
0013
008a
00d3
fff2
001b
ffdb
0006
0039
ffc2
0086
ffb2
ffd9
004a
0088
0009
ffef
004c
0015
fff1
003e
ffbf
000d
0001
0069
fff5
002e
0024
ffda
0020
ffad
0008
fff8
ffe1
006d
003b
006f
0022
0013
000a
000f
001d
fff9
ffed
0004
0019
fff8
fffe
0008
000e
fffc
ffd0
ffe9
ffe4
ffda
0001
000d
0028
ffe2
fff2
000a
ffcc
0003
0002
0009
0012
ffea
0000
fff4
002d
0002
ffff
0004
0024
0001
ffca
fff0
ffc9
ffe3
0003
001e
002a
ffe8
0015
0004
001e
0008
0004
0048
0022
ffdb
0024
ffef
0027
0000
0000
fff8
0023
ffe5
0002
ffce
ffc4
fff6
0003
004b
0001
fffb
ffda
fff1
ffdf
0004
0000
002f
0000
0001
0000
fffc
0000
0003
0000
0004
0000
0001
0001
fffe
ffff
ffff
ffff
ffff
fffd
0003
fffd
fffd
0000
fffd
0003
0004
fff9
fffe
fffe
0000
0000
fffe
0003
0000
fffe
0000
0006
fffc
ffff
fffd
0006
0002
fffe
0001
000c
0000
fffc
0000
000b
0000
fffb
ffff
0002
ffff
0001
fffe
0002
fffb
fffe
0002
0005
fffe
0002
fffd
0003
0000
0001
0001
0008
0000
fffe
0001
0003
0000
ffff
0024
0030
0075
0130
ffdc
0121
001c
ffbe
ffe9
0010
001c
0002
000c
00ec
00d2
ffed
00d9
0023
0026
ffa1
ff93
ffb8
0045
0053
0015
0011
001e
0157
ffa1
00eb
0019
ffef
004d
002f
ff7d
0092
007f
0083
005a
0074
0119
0061
0044
ff98
ff93
ff7f
003b
ffdc
0051
ffcb
fff0
014a
ffe0
00e5
ffb7
ffcb
006b
0056
ffdc
0083
0096
003b
008e
0023
0078
0073
009d
0015
0022
0018
0007
ffac
ffe1
0000
0031
0031
ff90
ff98
ffde
0060
ffab
006b
ffcb
0022
ff50
004b
fff2
01f5
ffd8
ffe4
ff56
0062
ffad
ffae
0044
0080
0093
0064
0032
fff1
ffeb
fffe
fff7
0008
0041
0051
ffec
ffbf
0082
0062
0003
ff7f
0019
00b9
ffb7
001b
ff7c
000c
0008
ffb6
0008
ffbe
ffaf
0005
ffd5
fffa
0067
0053
ffcd
ffe8
ff90
005b
003e
ffdf
0063
00f5
0015
ffd1
ffc2
0000
0016
001c
004a
0029
001a
003a
0030
ff9b
ffb2
009c
fffd
0025
002d
ff97
ffe7
ff42
002a
fff8
ff68
ffb9
001c
0032
002a
ffe9
004b
008c
ff89
ffc9
0016
ffe5
ff95
0004
ff62
ffb7
003d
ffc1
0004
ffda
ffed
ffd4
ffc9
ff91
ffe5
fff2
000c
002e
ff73
0075
00c2
002f
ffc7
ff89
0021
ffe5
ffd7
0000
ffad
fff5
ffed
ffed
0002
0004
0024
ff8d
ffe3
fff8
ffa3
fff4
0034
ffde
0017
0062
ffe8
0037
ffaf
ff95
005d
000c
0014
0009
ffab
fff9
0036
0019
0019
ffe5
001a
ffc5
fff8
ff82
ffd2
ffa2
0009
0000
fff9
ffd2
ffe5
0000
0002
0018
ffb5
0046
fffc
004b
ffb9
0034
0015
ffe5
002b
002c
fff4
0036
ffb3
ffbd
0049
0012
000a
ffd7
ffe1
ffff
ffc6
0027
0005
0019
ffd8
0010
ffe3
0033
ffaf
0011
0018
ff8b
ffdb
001a
0037
ffdb
ffbd
ffd8
0005
fff2
0000
0012
ffbd
ffdc
ffdf
0023
fff3
ffec
ffd0
ffcf
ff8a
ff03
ffe5
0135
fff0
ffc2
0027
ff62
ffa4
ffc6
0030
0089
ffd2
ff48
0082
ff82
0001
0078
ffea
fffd
fed3
fe9b
ff9e
0011
ffa0
ff7f
0090
014d
ffb3
001a
ff73
ffd6
ffb1
0012
ff76
002e
ffbc
002f
0074
ffd7
fff2
00b0
ffc7
ff21
ff00
ffa1
ff6e
ff94
fff9
ff7f
0064
00a8
ffa5
ffa4
fff9
0000
ffbd
ffd3
0093
001f
ff8c
ffc2
ff7b
0000
009f
009a
ffcc
ffcf
ff1f
0017
000f
0010
ffbd
0037
008f
0102
009a
fffb
0036
000e
0020
0060
0009
ffc8
0031
ffad
ffae
0007
000a
002b
fff9
006d
ffcd
0006
0048
0052
001e
003f
006f
00fb
0102
003e
0020
ffd8
002d
005b
ffc4
ffd7
ffad
ffe2
0000
0003
ffe2
000a
005d
0075
002d
001f
0028
004f
0033
0089
0049
009b
004d
0002
004c
ffd0
002b
0089
0031
ff9b
0024
ffe5
001d
0020
0021
001f
ffc7
0019
ffa1
000b
0017
fffd
ffd9
0031
fffa
0072
fff2
fffa
001d
0012
ffe5
002d
0002
fff5
fff5
fff3
ffff
0006
ffe6
000d
fff2
0027
0002
0034
0005
000a
0012
ffec
0002
0086
ffe7
fffb
003a
0000
0021
ffd6
ffbb
ffb6
001e
ffe2
ffff
fff8
000e
0000
000e
0002
ffe5
0009
000c
0010
fffa
001f
003e
00ad
0018
fffe
fffd
001a
0028
0012
ffc0
ffd0
000b
0006
0005
ffeb
0004
0014
ffd4
ffef
fff2
0001
fffe
0001
fffd
fffd
0002
0000
0000
fffe
0000
0000
0007
fffb
0001
fffd
0002
0001
000a
0002
0002
fffe
0003
ffff
0001
fff8
0005
fffe
fffd
fffa
0003
fffd
0003
0002
0000
0000
0002
fffc
fffb
fffa
0000
000b
0014
0000
fffc
0003
fff5
0008
0015
000f
0002
fffd
ffff
fff8
0000
fffe
fffe
0000
fffb
0000
0002
fffd
fffd
fffb
fffd
0000
0003
0001
ffff
0000
fffc
fffe
fffb
0009
0052
ff47
0022
0027
0032
ffdb
0044
0037
fff9
ff7b
ffea
005e
00a3
0000
ffd6
002f
006f
0033
0058
ff68
0073
0013
000d
ffc9
002f
ff7e
ffdd
0030
0032
fffd
0040
ffc8
ffeb
ff88
0005
011e
0056
005b
ffa9
ffe0
00a2
0025
001d
fff0
ffd3
ffa9
fffa
0019
006e
ffd7
002a
ffe7
ffc9
ffe5
004e
ff7e
ffed
ffbf
0026
0087
00b9
0073
ffce
0000
0075
0016
0034
ffc3
0071
0009
fffc
0087
0033
005a
001b
ffe3
0025
ffcb
ffed
ffc9
ffed
ff6f
ff8c
ff3b
ff96
ffe2
fff9
fedd
ffef
ffbc
ffd3
ffe0
ffd7
0000
fffe
ffb2
008d
0009
0031
ffe6
fff3
ff49
0043
fff5
0004
ffde
0017
ffc8
0020
ff79
0068
0001
009b
001e
0006
ffad
0043
ff35
005c
ffb4
000d
0052
ffa9
0020
0045
0064
0016
00af
ff47
007c
00ec
014d
0021
00ae
0036
01ed
ffb8
002f
ffdb
fffa
007f
ffec
0026
0053
007d
ff77
001b
ff1e
0028
0011
005e
0013
0073
ff8a
ffaa
fffd
ffe9
0023
ffc1
0048
00c5
0006
0004
0021
fff8
ffed
ffde
002b
0027
ffe0
ffb3
0043
fffc
0000
ffe0
0041
0003
ffd0
ffe3
0081
ffca
fff0
ffc3
fff9
0049
ffd3
ff66
0007
ffbc
ffe7
ff81
ffd3
ffec
ffc8
0016
0000
002e
0015
0005
ffea
ffa1
ffd4
ff7c
ffc1
ffc8
0025
0015
ff32
ffca
ffb3
ffa2
ff8d
001a
ffdb
ffbb
ffd1
003d
ffdb
0013
002c
001e
0031
0049
0021
ffce
ffe5
ffea
000f
004b
005a
ffec
006e
ffc5
ffeb
ffe0
ffe9
0024
001b
0017
ff97
00bd
ffc7
ffb0
ffc3
ffe6
000f
0043
ff78
0008
ffb8
ffdc
0029
ffeb
0027
0044
ff9a
0000
ffe2
fff4
ffee
0009
fff9
fff8
ffef
005b
ffe5
ffe5
ff9f
000e
ffe2
fff4
ffc3
ffe6
ffc1
ffca
000c
ff8d
ffee
0030
ffb8
ffd0
0000
0014
ffdc
0007
ffdb
ffd8
0024
00a4
ff7d
ff96
ffcf
0062
0004
ff89
00e1
004c
ffac
ffe8
ffaf
0064
0014
ffac
0048
007a
0016
ff89
ffa4
0111
000e
ff5b
009b
0082
ffb4
ffda
0037
005f
ffcd
ffe0
0013
0000
ffbb
fff7
ffb6
00c0
fff6
0027
ffab
00c1
ffe5
ffeb
ff66
ffcf
ffd9
fff7
ffce
0045
ffea
ff85
001e
0069
000e
0039
0033
000a
ff68
ff91
ff8a
0045
0057
0059
ffa4
0060
0055
ff9b
ffe5
ff68
00aa
0089
0045
001e
ffd0
0065
ffe6
ffdb
0005
ffdf
ffdd
003b
005e
0017
fff9
001c
fff7
ffbe
0051
ffe0
0003
fff3
0009
002d
000a
002d
ffdc
ff90
ffa4
0036
002c
0018
000a
ffc0
ffff
ffe2
0082
ffd7
fff9
002a
0013
0015
007e
ff39
000d
0020
0098
004d
001a
0046
ffbe
ffff
ffaf
0014
005f
fff3
0014
fff7
ffe2
002f
0038
fff5
0038
0011
0002
002b
0000
ffbe
ffed
ffe2
ffee
005b
0017
0053
ffaf
ffbd
ffdf
0003
0016
fffe
0012
fff8
ffce
fff6
0028
fffa
fff8
fff2
fffc
ffe7
0006
ffba
0014
ffe4
0020
ffde
ffdc
005d
ffcb
fff7
ffc1
000a
fffc
000f
0013
fff2
000f
0012
0029
0003
0000
ffe8
fff0
ffef
002b
ffc0
0005
ffdd
0021
002e
ffd5
003d
0014
0008
ffe0
000d
0027
0032
ffed
fff2
ffe6
0009
0016
fffd
000c
001d
ffdc
0000
0009
ffb5
0018
fff8
003b
0023
ffd5
000d
0013
fffd
0000
0001
fffd
fffb
fffe
0002
0002
fffc
fffc
0007
0001
fffd
fffe
0000
fffe
fff8
0004
0005
0000
ffff
ffff
0001
ffff
0000
ffff
0001
0001
fffb
0000
0000
0004
fffe
fffd
0005
fffe
0000
0001
ffff
0004
0004
ffff
fffc
fff7
0000
fff8
0008
0004
0006
0001
ffff
ffff
fffc
0000
fffd
0001
0000
0000
0000
ffff
ffff
0004
0003
ffff
0002
ffff
0002
fffc
ffff
0000
0004
0002
beda
b46d
5f6e
5700
bf9a
b9bf
a741
1504
135b
064c
08d1
079d
0981
061f
fdf1
ffc8
0038
001f
fff1
ffc7
0033
0007
ffe2
0009
002b
ffe5
000f
0005
0009
0000
0018
fffd
0007
0002
0043
fff0
ffdb
0027
ffab
0011
000a
002a
ffe2
ffc9
0022
0005
000e
000e
008c
ff6f
ffff
fff5
ffee
ffd2
006c
0010
001a
ffe9
fff9
0054
ffc7
00aa
ff9e
004e
002e
000e
000c
ffd6
ffde
ffcd
fffb
000f
ffd8
fff5
0042
ffb8
0005
0016
0017
ffde
fff5
fffc
0028
0055
ffe1
ffff
ffba
ffe9
ffc9
ffff
000b
fffb
fff9
0008
ffc5
0017
fff6
ffe1
ffb9
000a
0022
0010
0073
ffe9
000c
ff9e
fffd
001d
005b
ffbb
002b
ffe2
ffe1
001a
fffa
000a
fff3
ff58
ffdf
000b
ffb6
0037
fffc
ff95
0036
ffb7
ffcd
0035
ffbe
ffed
000e
0010
0051
000a
0051
fffd
ffc9
ffd4
002a
ffed
ffb5
ffe0
fffe
001f
0036
0023
0001
001d
0006
0036
0017
0010
ffd6
ff60
002f
fff4
0068
000d
0010
ffc2
fff7
0011
fff6
fffb
fff7
0000
ffc9
0008
005b
001b
fffb
0017
fff1
ffd5
ffc8
fff7
fff6
fffa
0002
001a
000f
0000
ffed
0005
002b
002d
0015
fff7
ffdc
0007
ffe2
fffb
0033
0000
0007
001f
ffc6
fffe
ffe3
0007
001b
0010
000f
0029
fff3
0009
000a
ffed
0017
0031
ffe7
fffd
fffd
ffda
fffa
0001
ffff
ffdd
fff0
ffcc
ffe6
ffe4
0015
0002
fff6
0003
000a
ffdf
0001
ffea
0014
0005
ff87
0050
0071
ff83
00c5
ff2d
fffe
ffcb
ff60
0124
ffb8
ff5c
ff6e
ffad
fd65
004f
ffa8
0030
ffa8
011b
0069
ff8a
ffaa
0028
0050
ffe5
0034
ff67
00fd
ff0f
00a6
ffaa
ffe6
ffd7
01ac
ff41
ff58
0050
00de
ffd6
ffc9
01a6
0031
00b0
00f1
ffda
0104
ffbd
ffc3
ff4a
fece
00a6
0065
ff54
0012
ffa7
ff86
0001
fef3
ffdd
ff95
fef9
fdb1
00bb
fff5
0055
ff95
00c4
0068
ffdf
005a
002e
ffa1
fff1
ffd5
ffd4
001a
ff52
ffb5
ffd5
007f
ff70
ffa7
ffcf
ff7f
0022
0287
ffc4
006e
0042
0020
ffe6
fef0
0063
ff51
ff9c
0043
ff6f
0075
000a
003e
0054
001b
ffea
019b
0021
ff49
ffc8
0038
0024
0263
ff23
00e3
ff66
004e
ffe7
002a
0017
003b
fffc
ffd0
fffd
ffc9
004e
0043
ffe3
ff9a
002d
00d3
ff71
ffd3
009f
fff3
0076
01fb
ffb7
0038
006b
ffdc
00a0
ffcb
0052
ff8a
00b4
fede
ff97
ff7e
ff6e
0020
0162
0010
ffed
ffe4
005c
fffc
00ab
ffd8
00d2
01b4
0066
000a
0072
ffc7
00b6
0003
0005
0092
007f
ff3b
0026
0027
002a
0094
00c7
ffdb
ffca
0062
0006
00de
00b6
fff0
000b
ff1b
0104
005d
0000
0075
00c4
0023
ffbc
0019
00a8
ffd4
001b
007a
0043
0064
0146
007c
ffbf
00f0
00aa
008e
00df
0046
0096
00a7
ffe8
0038
ff7f
fffe
0047
0033
ff9f
0099
000a
ff6d
0007
0070
00ca
007f
0062
001c
0014
ff0c
ffa5
005e
ff69
0092
ff44
fefe
0064
003c
00d7
ffdc
00e9
ff9f
0011
ff8b
ffec
0029
fffa
ff55
0070
0092
ff94
003e
00a7
ffc4
fed5
ff55
ff5c
ffce
ff5b
0010
0064
0031
0166
002b
0049
ffbb
001d
000d
0091
ffe1
0087
002a
00e3
009a
fff9
009b
0033
ff92
ff55
ff64
ff84
003d
fecb
fefb
ffc9
00a3
0164
0007
005d
0031
ffcc
ff77
003c
fffe
0001
fffd
fffe
0000
0000
fffc
0000
ffff
0002
ffff
fffd
0001
0000
0001
ffff
0005
fffe
fffb
fffe
0000
0000
0000
0000
0000
0001
0000
0001
0001
0000
ffff
ffff
fff6
fffe
fffd
fffd
fffe
0003
0000
fffe
0016
fffe
ffff
ffff
fffd
0002
fffc
0001
000d
0000
0000
0001
0000
fffc
0000
0001
0000
0000
fff7
ffff
fffd
0001
ffff
ffff
0003
0000
fffc
ffff
0000
0001
0000
0003
0066
0024
fffb
0029
0029
fff9
ffdb
0017
fff1
ffda
0075
0050
0003
0020
ffba
001f
ffd7
0017
ffeb
0017
0014
002e
0005
0052
000f
000f
000a
001d
0000
ffd9
ffce
0002
ffb9
004c
0077
0040
ffd9
000f
ffea
0006
ffc3
ffcf
0004
ffcb
0071
0000
ffcc
0015
0032
ffd7
ffe1
ffe6
0038
ffed
ffe9
000d
ffd8
ffff
0000
000c
0004
ffe9
ffc9
000b
ffd8
0029
0018
ffe1
0012
fff6
0003
001a
ff6f
ffee
ffdb
0018
0041
0033
fff1
ffe2
ffda
ffe5
ffdb
000a
ffc8
0009
0011
ffe5
ffc3
ffd1
fffb
ffe3
fffc
ffef
fff4
ffc4
fecf
ffe0
0024
0030
fffe
0031
0003
000a
ff7e
ff86
ff6b
ffc2
0031
003f
ffff
ffdb
ff64
0027
ffff
fffa
0041
ffec
000a
ffd7
ff59
fff3
0034
002c
0020
002f
0019
0014
ffe9
ffee
ffd5
003a
0033
fffd
ffee
0026
ff70
0016
0003
ffe2
ffd8
0013
0000
0007
0058
0016
0007
ffda
ffec
0008
ffe5
0034
0039
004a
000a
0006
0009
0010
ffd8
0014
0026
001c
fff3
ffef
0038
0024
0017
001c
0054
0023
0002
fff6
ffe9
ffcf
ffff
0008
000d
0064
002c
0032
ffe7
ffbf
0032
ffd4
0014
fffe
fffe
0016
0000
ffd3
0007
0007
006a
0036
0000
0025
fff1
ffd1
0002
fff0
0018
0006
0010
0024
ffe0
fffa
ffc7
ffca
0038
fff1
fff0
0009
0012
ffd8
fff1
fff0
00eb
003e
0027
0089
0038
0006
ffd9
0020
0076
ff81
ffe5
fefa
ff70
ffd3
fe53
0054
fec2
00e3
ffc6
ff58
007b
ff8a
0128
fffc
009b
ffe4
ffcc
ffb9
0094
fff0
ff71
00a9
fff7
ff3e
fe8e
0030
ff68
ff76
ff3d
fffa
fe75
0076
ff82
0000
0056
ff6a
0124
ffcb
00c7
ff99
005f
005d
ff60
0064
ffdf
009b
008d
fe67
005c
ffd7
ff4a
001f
fef9
0011
feb1
00b7
ffb0
0066
ffab
0012
0113
fffe
0105
ffc0
ffea
00a0
ff23
ff51
ffa4
ff87
012f
fede
004b
ff1f
004b
ff3f
ffc7
ff77
0095
ff9b
004a
0068
fffe
ff79
ff8d
ffbf
0252
0035
0055
ff1c
ffd0
ff7d
fff8
ff81
0155
ff7c
0070
fe9b
006c
fea4
ffae
0007
0207
ffe5
007c
0018
ffeb
ff8c
fed5
ffa1
0160
fff5
fff3
ff7d
ff61
ffc4
ffec
ff9a
0147
ff5c
ffd7
ff5f
00a6
0044
005a
0036
00dc
ffae
003b
ffe6
0030
ffb9
ff49
ff9d
ff3c
ffa1
ff81
ffd8
0088
fffe
ffef
002a
0154
009f
007c
000c
ff68
003e
00bc
0011
00dd
fff8
ff85
0074
0036
ffc7
0081
ffef
ff6e
0000
001a
0079
0013
fff9
005f
fff1
0102
ff83
009d
ffe8
ff2f
ffa7
0025
ffbe
fff8
ffbd
ffcc
0040
0056
ff9f
0061
ffd9
0097
0017
ffb3
0052
ffec
0007
ff9c
0004
0172
00eb
00aa
0058
fee1
ffa0
008d
ff90
ffcb
ffed
ffc2
0035
004f
ffa1
0052
ff8d
fe6b
000f
ffc0
0208
0040
0064
006a
ffd8
ff9f
feb3
fe48
0051
0020
ffe0
ff49
006e
014e
ff87
ffc6
ff30
0054
ffd0
000d
0026
fd69
ff9b
ffad
007c
ffdb
0023
fff1
001f
ff39
fed8
fe61
002d
fff3
ff6a
ff8c
006d
00a5
ff14
ff76
ff74
000e
ffd1
fed0
009a
fe9d
0021
0002
ffa9
000a
0024
ffe7
ffdd
ff89
fe55
ff59
003a
002c
fffd
fe76
ffb2
01aa
0018
ffe1
ffb5
fffe
002d
0014
00a0
0001
0000
fff6
0000
0000
0000
0004
0003
0000
fffa
0000
0000
0000
0000
0000
fffc
fffe
fffb
0004
0000
0003
0003
ffff
ffff
fffa
0000
fffd
0002
fffc
fffe
0000
fffe
fffd
0000
0001
0001
0004
fffc
0004
fffb
0000
0015
0000
ffff
0002
fffd
0007
0002
fffe
0000
ffff
fffe
0001
fffe
0005
fffc
fffd
0000
0001
0000
0000
fffb
0000
fffb
0001
0001
0000
fffe
0004
0002
0001
fffa
fff7
0001
001d
005f
0045
ffcc
0013
000f
0016
0000
001c
ffe8
001d
fff3
0003
0018
fff1
ffff
fff3
0030
fffe
ffb6
0024
0027
fffe
fffe
fffd
0016
002e
ffe4
001d
0029
003d
fffd
0033
ffda
ffe0
0042
004d
002b
ff49
ffff
ffec
ff97
ffe1
001b
0019
ffbb
0015
0000
0004
002f
fff9
ffe0
0018
0020
0027
ffff
fff5
0033
ffe4
fffe
0013
0019
ffa8
0001
fff9
fffe
ffdc
ffe1
0007
0002
fff8
fffe
ffcc
0048
ffde
000c
ffd3
0012
ff99
fffc
0021
ffed
004e
ffd6
fff7
0020
0000
fffe
001e
fff3
000b
005b
ffbe
0033
000f
fffe
ffd5
000e
ffc4
0020
ff95
001b
fff1
ffff
0012
ffd0
ff75
0023
fffd
fffd
001b
0005
fff3
0058
0004
0037
fff6
0000
0031
0000
ffa8
0001
ffea
ffd1
ffd7
0068
ff7e
0000
ffd0
ffdf
0011
fff3
ffc2
003e
0014
fffd
ffb0
003f
0014
005a
ffe9
0047
ffd2
0002
0002
002c
002f
fff8
0017
ffe5
ffbe
0000
ffe6
0035
004c
000e
0002
ffc7
ffea
fffd
ffda
0018
ffe6
000f
0013
ffc8
ffc7
0000
0041
0035
001f
fffb
fff8
001d
0015
fffe
003a
007a
0064
0001
fff6
0013
fff1
fffc
001f
002f
fff1
0000
ffb2
0018
0006
ffff
0009
fff5
fffa
001c
fffc
fff4
001d
0000
ffca
fffd
ffea
0010
0003
ffe9
0001
ffff
ffcf
ffdb
ffed
fffb
0005
0005
0034
0000
009a
ffb0
0041
ffe9
0070
000c
fff0
0002
0032
ffc2
0029
001e
ffde
ff56
000e
0000
0057
0088
fff2
005e
ff1b
0064
01ba
0001
ffe8
ffeb
002c
ffff
0026
ff27
00e7
0000
fedc
ffd0
0013
0051
0034
0000
0154
ffff
000e
00ed
003b
0026
ff53
001e
ff99
0000
0029
0021
0050
000e
009b
ff75
fef7
0000
ffdf
008a
000a
0007
009f
ff23
0048
0000
0091
00af
0022
0079
ff9d
ff73
ffd3
ffff
006f
fecd
00c9
ff75
00c9
0001
fff3
0000
00a4
fec4
0043
0049
0034
ff4e
0059
0000
001f
ff0d
ff77
ff80
ffdb
ff4b
00d8
0000
008a
003a
013e
ffbf
fff6
ff9b
ff14
ffff
0089
0009
017c
004b
0087
006d
0042
0000
002f
ff0e
008c
ffd1
0053
fff9
004a
0000
0009
0044
ffa9
fffb
ffa8
ffaa
0035
ffff
0056
004f
ffc4
000c
005c
ff73
001d
0000
005d
ffc2
ffa6
ff55
0024
ff75
0030
0001
ff83
0139
fff9
fff1
ffaf
0084
0023
0000
0033
0074
ff32
fed5
008d
0011
0055
ffff
0015
ffd6
ffeb
ff46
ffd0
006d
0005
fffc
ffda
0088
ff6f
008a
0001
00c8
ff57
fffd
0130
ffc4
ffaa
ff65
0074
ff9f
0021
0000
0055
005d
fffc
ffad
ffa1
ffed
0022
ffff
0056
00cb
ffe9
ffe0
0041
fff0
ff28
0002
003e
ff79
ffc1
ffd8
ffdf
ff00
00da
0000
0004
002c
ffca
004a
002e
0006
ffb8
fffe
ff73
ff5a
ff5b
ff84
0035
0081
0064
ffff
fe7f
feaf
004d
fe7e
0016
fff9
ffe6
fffc
fefe
0010
fff9
ff1d
ff84
0084
ffa1
0000
fed9
fe70
002c
ffb9
000a
ff33
ff8e
fffb
fdfc
ffd2
002d
fec5
003a
ff40
ff7b
fffe
fed4
ffa2
0031
fecf
000a
ffc6
ffa7
0000
003b
ff8e
fff8
ffcb
ffb6
008e
ff6d
fffc
ff37
0045
ffe0
ff0d
ff93
ffef
ff4e
ffff
004b
0021
0023
fe6e
ff42
fff0
fff8
0000
fffc
fffe
0006
fffd
fffd
0002
0000
0002
fffe
0006
fff9
fffa
0000
fffe
0001
ffff
ffff
0001
fffa
0004
0000
fffb
0001
0001
fff9
0005
ffff
ffff
0002
fffb
0002
0000
fffb
0001
fffc
0002
fffe
fffe
0000
0001
fffd
fff1
fff3
0006
0000
fffe
ffff
0002
0000
fffe
0000
0001
0001
fffd
fffe
0002
fffa
0003
0000
0000
0000
0000
0002
0006
0000
fffe
ffff
ffff
0001
ffff
0016
002e
fff9
0008
ffeb
001e
0008
0003
ffe9
0031
0020
ffe0
ffe7
ffc6
0051
ffe7
001d
001d
0009
0024
0008
ffda
0035
0054
fffc
000f
002f
ffeb
0015
fff5
fffa
ffe4
fff5
003b
003a
fff9
0008
ffdd
0071
0056
002e
004d
0044
fffc
fffc
000b
0031
0043
0009
fff1
0009
fff9
000e
0006
000f
ffe3
000e
fffb
0023
000a
0035
0002
0008
0078
002b
0043
0036
ffef
fff0
0017
0027
004a
002f
0010
fffe
0021
fffe
0020
ffd5
007b
000e
ffc7
0031
0017
0000
0025
ffda
ffa4
ffdf
fffb
000b
0024
0023
003c
0078
003c
0010
ffdb
003f
ffef
0023
ffda
001f
fffb
ffe5
ff9f
ff8d
ffec
001d
ffa9
fff4
ffd9
ffeb
0021
ffe0
ffe8
0049
0016
0086
0097
001c
0022
0015
ffc9
ffc9
fffe
fff6
0031
0003
ffd7
0017
ff9d
001f
fff3
0021
0000
0002
0022
0038
ffd2
ffe5
ffc9
0019
0063
fff5
001d
0004
0012
000f
0034
0011
ffe0
fff8
006d
0007
ffeb
0009
001b
003d
0022
000a
fffa
0027
000e
0003
ffe5
0008
ffee
fff6
ffe1
ffef
0018
0025
000d
ffd1
fffe
0017
0043
0048
ffe7
002f
001e
0000
000f
0015
ffcd
0025
fff1
0015
ffe0
0000
ffdd
ffed
ffce
0003
000f
0020
0011
002a
0007
0001
0044
0035
fff7
ffee
ffdd
002f
ffe2
fffd
ffe8
0008
0002
fff9
0011
001e
fff3
fff5
0012
ffce
0015
00b6
0056
ffeb
ffeb
fff2
ff10
ff73
ffaa
0022
010a
fe77
0149
ff91
ff21
0021
0079
0007
0025
0140
00ac
fffc
00a4
0120
ffe1
0090
ff1a
00c1
00e9
ffad
ffc6
0088
ffa6
0093
ff6e
ff80
feba
ffc8
ff53
0071
0054
007e
0086
ffe4
0187
0045
ffa7
fffe
ffe5
0070
ff89
ffe3
0130
0013
ff90
0034
ffcc
0015
ff7d
ff56
ffb4
0025
ff66
0068
ffec
0058
ffcb
005e
01a6
ffcf
ffc7
0003
0002
0056
0016
ffd8
ff76
ff0b
ffb9
0072
fffb
003e
0096
ffe7
0061
ffc7
0008
0016
000b
0009
ff8f
ffc8
01e4
ffd5
006e
00fb
007f
002e
0026
005c
0084
ff0b
0145
00db
0013
ffde
0016
006e
ff7e
ffb5
0096
0161
0058
0019
000a
00c3
ffef
ffc1
0000
0006
0058
ffd8
ff2b
0023
0056
ff1f
00ed
0104
0018
000d
ffce
00fc
fff9
ffbd
003e
00a9
0035
0054
ffbe
0017
006a
008f
ff2b
ffc6
0035
ffc2
ffdb
ff3d
ffb4
ffe1
ffb8
ff83
0071
0089
fecd
0028
ffb7
0000
ff29
ffc2
006f
003f
ff7c
00bd
0025
007b
ff6c
fef9
0037
ff1f
0004
ffe9
fe9a
ffee
0053
fdc4
00a4
0025
ffb4
ffb1
fff7
003d
ffcc
fea4
0079
001d
ffeb
009e
ffc4
00aa
ff88
ffa4
0049
ff64
002a
ff96
fee5
0072
0006
fea8
0032
00b0
0000
007a
006c
009c
ffe8
ffba
ffbe
0007
ff9f
010a
003d
006c
ffcb
ff85
008b
0046
ff9e
ffb2
ff1a
ffd7
fffd
003f
ffe2
0063
00e2
ff8e
0110
0008
0062
ff83
003f
fff0
0032
ffee
003a
005c
002c
ffd3
0057
0015
ffc3
003b
ff3a
0075
00ad
00ba
ffb4
ffc5
ff91
0089
0029
007a
0056
ffa5
003a
0082
ff8a
ffa3
ffd1
001b
ffc5
ffbb
001e
ffae
ff84
ff8e
ff33
0000
fff6
002e
ffa7
ff76
ffbe
000c
ffd3
004a
004c
ffc1
0007
0099
ffe3
006b
00ae
fffe
0000
0003
0000
ffff
0000
0002
0008
0001
0000
0000
fffe
0001
0006
0006
0002
0002
0000
fff8
fffd
0001
0000
0006
0001
0000
ffff
0003
fffd
0002
0002
0003
0000
fffa
fffd
fffb
ffff
0001
0006
0007
000c
fff3
fffb
fffb
0000
fff7
fffc
0001
000d
fffb
0001
ffff
0002
fffd
0002
0007
0001
fffc
fffe
fffe
fffe
0002
0007
0005
0005
ffff
0001
fffb
0000
0001
0000
0006
0006
000e
0012
fffd
000b
000e
0009
ffed
ffd2
fff4
0032
000c
fff2
ffe8
000f
0005
001f
002b
ffcc
ffdd
0024
ffba
ffea
001f
0000
ffe9
fffa
0009
fff7
ffc7
0018
001a
001c
ffbb
0059
001a
001d
0013
ffd5
ffcb
003d
ffe8
ff84
002e
0000
ffa4
ffba
0036
ff99
0035
0026
0032
ffdc
ffea
0000
0010
ffc4
ffe4
ffed
002d
ffed
ffe3
fffc
0016
0009
fff1
ffd7
fff3
0023
ffdd
000c
0010
ffdc
0003
fffa
000f
ffd1
0046
000b
ffe6
ff6a
fffe
fff5
0065
000c
0071
0054
fff3
ffdd
ffec
0052
ffb5
ffaa
001d
0001
ffa7
002c
0019
000a
0023
0018
009c
ffe3
000c
ffb8
ffa5
ff13
0078
ffd8
ffc5
ffde
0021
ffcf
0026
ffe1
ffd9
ffff
0057
0015
ffa5
0052
000d
ffeb
000c
003b
0024
ffd8
ff96
ffb2
ffab
0004
000c
0067
006c
ffe6
0072
ffd1
fffd
0028
ff8c
002f
0043
ffc1
ffa2
0001
fff8
fff8
004d
001c
000a
ffe0
ffe3
0006
000c
0055
fff3
002d
0007
ffcd
ffd0
fff3
0035
0067
0002
fff2
0007
0011
ffec
ffe7
ffe5
ffdf
0035
000f
fff8
ffe7
000d
fff2
0003
00b6
ffc0
0023
ffb0
000a
ffdc
ffff
002f
0042
ffe4
ffe8
ffe6
0010
fffa
0019
ffe3
000b
004b
001f
0000
ffd7
ffd7
fffd
0053
fff6
ffd0
001f
fffe
ffed
ffb1
fff2
0012
0001
0011
ffe7
fffb
fff1
0003
0028
007a
ffeb
ffc4
ffe7
ffb1
ff7c
0097
0071
0098
ff0a
ff7c
ffd5
0012
fea7
00ae
ff6e
004a
ffa3
fef9
ff37
ffdb
ff7c
fef1
00a8
00f4
007e
0020
ffcc
ffe8
008a
ff02
00f8
0085
ff70
00ad
ffe3
ffe1
0083
013f
fe18
0040
ff93
ff57
0049
0000
0063
ff77
009d
ffa3
0047
ff50
ffd8
0004
ffed
ffc6
005c
0006
0020
00aa
0034
003e
fec6
ffe1
0050
0052
ffca
ffa6
ff5b
00b3
ffe3
ff8d
004a
004e
fee1
0001
00e3
ffe6
ff8b
0056
0124
0020
fee0
0076
ff87
ff89
0019
ffca
ff7b
00f4
fe0d
ffdf
0086
ffe2
ff2a
00c9
ffc9
00e5
005c
0075
01bd
00cf
ff9b
0014
ffc0
ffd8
0112
011d
ff86
ffdd
0007
ff0f
fe9f
ffe2
00f1
010f
011f
0069
ffdd
0113
fe79
ff8b
ffa4
ff8d
002d
002d
0007
00eb
00d2
ff7e
0047
004e
003c
ffed
003e
fef2
ffd1
ff8a
ffb5
ffba
0080
ffee
ffb6
00e1
000b
0057
00d5
0061
006c
001a
ff7c
001e
ff09
0089
00a1
ffc3
0080
012e
0019
010b
ffde
0071
003b
ff94
ffbd
00fc
ffb8
006c
003d
ffe1
004e
0064
ffda
004a
ffb7
ffc5
0027
ff40
ffec
0034
001a
00cf
0041
00c1
fff5
0062
003b
00cc
ffa9
0014
003d
ffb6
ffeb
0036
000c
0089
ffc2
009f
ff90
0026
0062
ffe1
ff6e
ff39
000f
00e7
0037
002e
ffcb
005a
0020
002d
ff6d
0098
0065
ff34
008e
fee4
ff97
00ab
005d
00c8
0025
0128
ffd3
ff82
ff96
003f
ff73
0000
0022
0152
ffa1
0033
ff3c
0058
003b
002b
ffad
ffdb
00d0
ff6d
ff74
0098
004d
00f0
0078
009a
005c
00ad
0026
006b
005b
001e
0023
00b2
ff90
0002
ff94
0072
0029
0016
ffc8
0075
fffc
ff79
ffba
0059
ffe9
0073
00a1
0127
ff6d
0079
ffd1
fff6
00a7
0019
ffa7
002e
fff0
006a
ff90
0062
0003
0043
0038
0047
0084
0000
ffff
0002
0000
0000
0002
0000
0000
fffe
ffff
fffe
0000
0001
0002
0001
0007
0000
0000
0000
0000
0006
0002
0000
0008
0002
0001
0001
0000
0003
ffff
0002
0001
fffe
0003
0000
fffb
ffff
ffff
0001
0002
fffd
0004
fffd
fffa
0007
fffe
0001
0002
0000
0004
fffd
0000
fffe
0000
0000
0000
fffd
0001
0000
fffd
0004
0000
0002
0001
fffe
0001
0000
0000
0004
0000
0004
0001
0014
ffec
fff3
0014
0013
0007
0012
ffcb
000b
ffb8
001f
0026
001a
fffe
0000
fff7
fff5
ffdc
ffcf
001f
0043
ffff
001c
fffe
fffa
0013
fffe
003d
ffe9
0002
ffe8
0009
005a
0064
0036
0044
0023
0003
0039
fff3
0027
ff85
001b
001b
004a
0007
000d
ffe2
002f
0026
fff8
0008
0006
0003
0017
ffc5
0028
fffb
0013
0029
fff9
0002
003a
001c
0005
0005
003c
0034
0019
0004
001f
fff0
fff6
fffd
0040
0056
ffd5
0000
ffe6
002b
002e
ffad
ffe4
0000
ffc4
0004
0018
000f
ffed
ffd4
0019
ffde
ffad
0004
0021
ffd7
ffdd
0065
ffeb
0039
ffd6
0007
0000
0011
0007
003c
0033
0045
ffac
0000
005c
0060
001e
001b
005d
fff5
0003
fffe
001a
0005
ffc5
005c
ff81
fff5
0028
0004
0022
ffea
ffa8
ffe7
003f
ffd8
0039
0002
0049
0036
ffd3
0035
fff6
fff2
0040
0000
001e
0002
fff1
0013
ffde
0000
ffe8
0000
0021
0010
fff4
ff8c
000e
ffdf
fff7
fff7
ffd4
0031
ffd8
ffbc
0012
0004
0021
fffb
0001
0016
fffd
0016
000a
ffde
0006
0003
0037
0031
ffe8
ffb9
ffeb
0005
ffe3
fff6
fff1
ffe2
ffeb
ffbc
ffee
0026
0008
fff9
fff2
0000
ffff
fff6
001a
fffa
0001
0000
001c
0003
0056
ffc3
fff4
000f
000b
0001
fff8
0010
0015
ffc3
0000
001a
001f
fffd
fff9
001b
ff31
007a
fff0
013b
fffa
fffd
ff7f
ffcf
ff19
ffe0
fff8
0089
ffa4
0000
ff97
ff5d
fff2
ff80
ff04
ffbd
ffd9
0001
007d
ffcc
008b
004b
002b
ffd3
0079
0000
ffa1
ffbd
ff61
0005
ffe1
ffc7
ffcf
0001
fff8
ffcd
0091
ff8a
ffd7
ffb5
001a
0002
00aa
0072
00a4
ffce
0061
002b
ffb0
0001
ffde
ffde
018d
ff22
fee2
ff9a
ff9b
0002
ffe6
ffaa
0169
ff53
002b
ff9f
ff5b
000d
0005
0062
ff80
001b
ff59
00ab
0014
fffa
ffd4
0009
008d
0049
001b
01a5
006d
0001
0070
fff7
ffa6
0045
ff51
004d
ff8a
0003
0060
fff6
0027
0002
0009
0019
ffe9
0000
fff3
0007
00c3
ffb6
002a
fe7c
0072
0001
ffe7
00a6
ffea
000c
0031
ffaf
ffb0
0003
ff1a
ffd3
0053
000b
009c
0094
ffff
0000
ffde
0035
0090
fff8
ff9a
ff6e
00a9
0003
00ae
ffbc
0064
003e
ffb7
ffeb
ffaa
0006
0016
ff52
002d
ff8d
ffbe
ff91
0068
fffc
ffe7
0093
ffa6
002b
ff70
0076
0091
fffb
feb9
016e
fffb
0096
fff1
005b
0046
0000
0097
0094
ffe6
0018
ff6e
0029
0001
0006
ffcf
ffec
0053
ff8b
ffb6
ffd7
0069
ffff
ffae
0069
fff7
000e
0035
0031
ffcd
0006
0023
fff6
0026
0094
feb7
009a
0017
0001
ffdb
0008
0016
0083
ff9c
fffd
ffe0
fffd
0061
0048
ffaf
0067
fffe
ff7b
ff5e
ffff
00c9
fff0
ffd6
ffbf
ffad
009e
002f
ffff
000f
00da
ff53
ffa9
0036
0037
ffda
fffd
003d
000c
ff35
0038
0059
fff0
002a
0009
003d
ffe4
003d
ffc4
0009
ffc5
006f
fffe
0030
008d
fff8
ff85
003e
ff92
ffda
0003
ffd0
ffca
000d
fffc
0020
ffd3
002d
0000
ffe1
ff3e
0011
ffea
ffcc
0094
fff5
0000
0062
ffcb
0077
0029
ffbd
0078
ff52
fffb
ffa0
ffa8
0053
0009
ff2e
001b
ff90
0005
fffa
fff1
0001
fffc
fffb
0002
0002
0001
0002
0000
fffe
fffa
0009
fffe
fffe
fffd
0000
0003
0005
fffc
0008
0000
fffe
0000
0000
0002
ffff
ffff
0003
0001
0001
ffff
0001
0002
0000
fffc
0008
0000
fffc
0000
0000
0004
0004
fff9
0000
0000
fffc
0001
fffd
fffd
0000
ffff
0006
ffff
fffe
0001
fffd
0001
0000
fff9
0007
0002
fffe
0002
0000
0001
fffe
fff4
0003
0002
ffff
0002
ffff
0002
ffe5
fff5
002e
0003
000f
0014
ffcd
ffdf
fffb
fffc
0009
fff2
002f
ffd0
008b
004e
ffcc
ffe5
0017
0013
0036
0004
ffdb
003a
0056
ffe4
ffe9
fffb
fffe
ffd2
0015
ffcc
001b
ffe4
0004
0000
0013
001e
0056
fffb
fff1
ffd1
fffe
fff0
0020
0011
ffa2
002e
000b
000f
0020
fff6
000d
ffb9
ffbb
ffec
001c
fffd
ffef
ffcf
0004
ffe3
0015
ffcd
fff5
fff3
0007
ffee
000f
ffe3
ffc7
0018
0049
003a
001a
ffc1
ffd3
ffd9
ffc0
0015
ffc6
0017
0007
000a
0072
ff80
0023
0057
0033
0052
ffbe
fff8
ff5e
fee5
0080
ffd7
004f
000c
fffa
fff5
0019
ffa4
ff84
002f
ff7e
fff0
0033
0012
00a7
ffac
ffe6
000c
0052
fff6
ff91
ffc1
ff50
ff34
0087
ffda
003e
002c
ffe5
ffbf
fffd
ffdb
ffc3
0028
001a
fff8
ffea
ffe8
003d
ffaf
0032
0020
0068
001d
002a
fff8
ffaf
ff07
0049
001f
0022
000b
0012
fff3
0003
000e
0062
fffa
000d
fff4
0009
0009
ffdd
0078
fff2
fffc
fffa
fff6
001c
0035
0008
002b
0014
fff8
0002
001f
0010
fff4
fff9
0026
003d
ffff
fff8
002f
0005
fff4
ffb9
0046
ff87
ffdf
fff4
ffe5
ffee
001b
0003
002e
0008
fff8
fff3
0004
0004
fff2
002b
000c
0021
0009
ffe1
fff5
0007
0018
ffe1
005e
ffda
0009
ffef
ffe3
000f
0012
ffdf
0022
fff5
0008
00be
ffdb
ffeb
0078
ffb3
0081
0066
ffab
00c1
ffb6
ffba
0061
00e8
0071
009c
004a
00da
009c
ff94
ffe7
fee2
ff8d
ffff
0089
0143
006c
00bb
0064
fe9e
0095
017a
0041
0061
ffb3
0055
00bd
ffd2
00d6
ff98
0087
00c1
004c
0025
ffd3
0082
008b
017b
0037
0083
005a
003d
0021
0104
006b
0092
ffb9
00a8
005d
feee
0060
019e
0036
00b9
fffe
0016
009b
ff21
ffb5
ff54
ffd2
00a1
ff80
002b
0022
008a
00a9
0100
ffe6
006b
002f
0152
ff5e
003e
ffed
0014
0008
ff93
ff5b
009f
ffa3
ffea
ff9d
0176
ffe1
0197
013f
fff8
003a
0094
002e
0034
00f4
0058
0047
00fd
004f
005a
ffc5
ffa3
ff25
ffac
0014
ffde
0056
002d
00d7
0178
00ab
ffdc
00d3
ffff
0050
0011
0048
0077
0066
0045
001d
0069
0051
0037
fff9
00e8
000d
ffc5
0064
0045
0017
ff5e
0057
01aa
0043
0137
005c
0013
0032
005b
ffe2
ff2e
fed0
fee7
0005
004c
0052
ff57
ffb8
01a8
01a9
0076
0023
0003
0022
ffc2
0001
ff44
0032
0030
ff75
0048
00e6
0026
003f
000a
ff90
ffa0
0067
ff84
0074
ff9d
0041
00ab
01a4
ffe0
00f5
fffd
fffb
ff6e
ffe4
fde7
008e
ffb5
ff4a
ffa0
0078
ffb7
0049
003c
ffd1
ff78
0045
fff3
0021
ff71
0061
0034
0129
002d
000c
005c
ffef
fffd
ffd8
ff4c
ffe8
ff83
ffe9
009d
ff9d
0043
0040
010b
ff5a
ff81
002a
0077
ff9d
0059
0063
ff6e
01a3
0054
ffbc
ffdd
fff1
0004
fff5
013c
017a
0065
003c
00d0
0047
008f
005b
0076
ff58
0078
00b7
00a4
ffcb
00b8
0080
ff0b
0105
ffa7
00b4
0017
ffd1
ff59
ffd3
0119
00c7
018c
00be
008a
00ad
0044
001e
00dd
ff95
ffb1
0015
00e0
0040
0063
009f
0069
00fe
0035
0008
0056
003a
ff08
ffdb
005d
0116
008a
fff0
0002
fff6
fffd
fffd
0006
fffe
0006
0000
fffe
fffe
ffff
0003
fffe
000b
fffc
fff9
fff9
fffe
ffff
0000
0000
000d
fffa
0000
fffa
fffe
0001
0002
0000
0000
fffa
ffff
fffd
fffd
fffd
fffc
0007
0005
fffb
fff7
000a
ffff
0000
fff8
000e
0006
fff8
fffb
0000
0000
0001
0002
0001
0003
0000
fffa
fffe
0002
0000
0003
fffb
0008
0002
fffe
fffd
0001
ffff
0003
fffd
000b
fffc
0002
002f
fff3
0019
ffe4
0014
ffe0
0012
fffa
fff5
0009
0000
ffe9
000d
ffe8
0027
0013
001f
fff0
000e
ffef
002c
0011
001e
003f
003a
002d
0008
ffec
ffdc
fffe
fff3
ffbe
fff6
0073
fffa
fffb
fff8
0013
fff2
0053
ffb4
0012
0044
008c
0044
0053
001e
0076
0014
fff1
ffd5
ffe6
0012
fff3
fffe
000d
ffe3
ffec
0013
0006
0019
fff7
ffb2
0007
fff1
0010
ffd0
fff3
002e
000c
0007
ffe7
0009
0004
ffff
001c
000f
ffef
ffec
001e
fffd
0046
0012
001e
0003
ffe3
ffe5
ffba
fff0
0072
fff1
0004
0020
0000
003a
ffef
002f
ffc9
002e
0024
000c
0033
0018
003f
ffe4
000a
ffc8
000d
fffc
0010
fffb
ffbc
ffdf
0074
0000
ffd4
0008
0020
0058
0060
0018
ffb5
ffee
0026
0019
0058
0015
0007
ffdb
000f
fff7
0025
006c
002b
ffc1
fff5
ffb1
002f
0034
ffec
001d
0014
0026
004e
fff3
0010
0003
fff3
ffed
0025
fff4
ffea
ffb3
ffeb
fff3
0018
ffd8
002b
000e
0036
ffe4
0015
fff3
0005
ffda
ffff
ffe1
0003
0057
000e
0013
0026
fff0
0032
ffd6
ffc2
0019
ffe2
0012
0018
0017
002b
000b
ffc0
0027
0013
0029
fff9
ffe7
0013
ffcd
ffe1
0010
003c
002c
0004
0008
001a
ffff
ffc4
ffb0
0000
0028
0000
fff5
ffe3
ffe2
000e
ffdb
fffa
002d
fffc
ffe9
fffe
0002
ffe6
000f
ff6c
005b
ffce
005c
001a
0093
0053
ff33
ffe4
0099
0065
006d
ffde
00f0
0008
0046
00e7
0030
ffbc
0075
009d
010c
ff8f
00a0
ff7e
009e
ff84
ffc0
ffdc
007d
0000
0046
ffd6
0001
ffa1
0023
ff8c
0057
ff31
00f4
0013
0050
0017
00ed
0077
0032
ffac
ffdf
00aa
004b
0036
ff9c
ff69
007e
ff7f
ff29
ffc3
0045
0038
00ab
ffc8
0066
ff0e
000f
ffc1
ffd0
005f
01cf
0013
fff7
ff90
ff84
008d
0076
005b
0068
ffa2
0070
ffff
ffb9
ff12
0027
ffbe
00c1
0050
ff8b
005e
ff72
ffbf
005b
0065
00fc
ffa0
0057
006f
ffb2
006a
001c
0044
0019
ff81
ffee
0108
0020
fe92
003d
ff66
ff7e
ff5e
ffae
00f4
ff80
ff5e
ffc8
00a6
0083
ff40
ff9b
00e9
ffcf
0150
ffd7
0024
fff9
ffa5
fffa
0025
ffed
ff75
0019
ffd9
ffbb
0002
002f
0019
ffb7
006b
ff8d
008f
0141
ffaf
ffd2
009d
0012
fff6
00ff
fffe
fef7
ffe1
ffe5
ff4b
0005
ff6e
0124
0028
ffa0
ffeb
ffd9
000c
ffb4
0034
00e0
ffdf
006d
ffe7
ffe4
fff7
003d
ffb4
0028
0062
ff86
008e
0041
ffb7
ffbf
ff13
ffc2
00ec
001e
0078
ff57
ff4f
ffdb
ffe4
ffde
00b5
0060
000c
ffb3
0069
fff5
0089
0087
0017
ff9c
ffd7
0012
ff94
ffbb
ffb1
fff5
006b
000e
0019
ffec
ff15
ffb7
001b
004a
ffc9
005d
ffd7
00a1
0008
ffeb
00b4
006c
ffde
ffc8
ff7f
ff8d
ffa6
ff86
00d1
0047
00ac
008c
ff93
ff80
0051
ffeb
fe6e
0073
005a
006b
004b
ffff
ffdc
ffcf
0060
0027
ffa1
0022
0043
0086
0043
ffc2
00ad
ffc1
009c
00e7
0082
00bd
ffe8
ffd9
fee9
0018
fff7
006d
008b
000a
ff86
0027
008a
0077
ffd9
ffbf
ff9c
fff0
0062
fffc
01c4
0022
0085
0083
ff8c
0030
ff8b
0027
ff54
007d
ffd3
00e8
ffdb
ff8b
ff6e
0002
0001
fffd
fffe
0000
0000
fffd
0004
ffff
0003
0001
0000
0000
fffe
0001
fffe
0004
fffc
0000
0000
0000
fffc
0002
0008
0002
0001
fffe
0000
0001
fffe
0002
0004
0001
0007
0004
fffd
0001
0002
0006
0004
0002
0004
0003
ffff
0003
ffff
0007
000a
fffc
0000
0001
fffe
0001
0000
0009
fffd
ffff
0000
fffc
fffe
0000
0000
0006
fffc
0002
0001
fffa
ffff
0000
fffd
0008
ffff
a4af
b1b2
bee7
ca17
c8f0
b474
c146
f86f
07ed
fc04
023f
0195
0ff4
0efe
0391
ffe6
fff7
001a
0017
0000
000b
fff9
0007
0000
001d
fff4
0014
fffa
fffd
ffe0
ffea
000e
ffea
0007
0003
0002
ffe8
fff6
0013
fff5
001a
0057
0009
001c
0013
ffe9
000b
0006
0058
002f
ffdb
003d
0010
ffe3
ffdf
000e
0018
001b
ffff
fff5
0006
fff9
0003
0000
0018
0014
004b
ffe7
001c
002a
001f
0011
0031
001f
004b
0055
0013
0045
007b
ffe4
0017
0004
0017
000e
002b
fff6
002a
000e
0038
ffd9
003b
fff5
0016
ffe5
0022
fff9
0008
0003
0047
ffc4
ffe9
000a
ffeb
0002
ffff
001c
0005
fff2
000f
0003
001d
ffe8
ffc9
0002
ffb6
002d
000e
0000
ffff
ffab
ff74
ffd8
ffd0
000b
fff4
ffe6
ffff
ffd6
0007
fff4
0011
ffed
0001
001a
0017
0004
ffa4
003c
000e
ffcb
0056
0038
003f
ffcf
ffee
ffdd
003f
ffe4
0062
001c
002f
ffd7
000f
ffec
0014
000e
005f
ffe8
0013
ffe5
0000
0000
0028
004b
fff5
0002
ff8a
0014
003c
ffc0
001a
00d9
ffe3
ffab
ffd7
fff3
0047
0058
fffe
0065
ffcf
fffb
ffd3
ffee
0018
ff88
ff4e
0021
000b
000d
ffbc
ffc8
ff65
ff2d
feaf
007b
0074
ffe7
ff63
ffdf
ffda
ffc4
ffa7
004c
ffe4
004b
ffcd
003a
ffab
000e
ffd5
ffe8
ff7e
004c
0019
0018
fec6
fff0
ff6f
00ad
0030
0093
0085
0008
ffe4
ffa3
ffa4
0024
001c
0015
0006
0049
000a
ffd5
fff3
0051
fffe
001d
ffee
ffe1
0024
fff5
0003
003c
0031
ff98
ffcd
ffe1
ffef
ffde
0005
002d
0025
ffde
ffe9
0017
001c
ffd1
fff2
0054
0024
000a
ffa3
ffe2
007f
fffa
0046
000d
0040
fff0
0006
fff5
0003
002a
0012
000e
0038
fff4
0011
ffed
001f
0007
0031
001e
001e
001f
ffdf
ffc0
005b
ffbf
0070
ffbd
000e
ffa0
ff7e
fffe
0003
001d
fff3
002c
0009
0013
ffe9
ffef
ffd3
ff00
0001
ffdd
0043
ffed
ffc5
ffe4
ff99
ff83
0007
ffb8
00c6
ffdd
ff5e
002d
ff96
ffbc
0023
0018
00c0
ffee
ff9a
ffe7
005b
ff68
002e
ffcd
002d
0035
0000
0030
003f
0080
005b
ff42
0033
ffae
ff5e
0020
0044
ff5c
ffa9
0007
0058
ffd3
ffcc
fff7
fff0
ff9b
000c
0046
0050
0031
003f
0027
0079
ffd2
0086
00bc
ffe7
002d
00b6
0020
ffd2
fff8
ffd7
002f
fff3
ffd3
0051
0049
00a9
003b
fffa
001a
fff8
ffe7
005b
ff8a
0073
ffd5
00ac
ff8f
ff8e
ffd4
ff74
0000
006e
008c
004c
ff3f
ffad
ffd5
ffe6
0027
fe45
01df
ff07
fff2
0035
ffee
0021
ff80
ffbf
ff21
ff55
0010
ff4c
fef6
ffdd
ff7c
0114
00cd
011b
0023
ffb3
012b
ff78
007c
ffaa
00b2
0091
ff6c
0027
0077
ffcf
0089
ff04
ffb6
ff6a
ff9b
ffe0
fffa
ffd7
ff41
00a6
0035
00af
ffc6
0031
003e
ff9b
00b4
ffba
ffa6
ffc9
ffaf
ffe8
ffc6
000c
0000
ff88
ff42
ffc1
ffdb
ffe6
001b
0037
fff6
ff9a
ffcc
fff1
fff9
0007
002d
ffe9
0016
ffdc
ffa3
ff86
ffe6
0000
ff8a
fff4
ffd6
ffae
ff69
ffd3
ffd7
fff7
ffdf
006f
fffe
ffc2
fff0
ffe5
fff7
ffd1
0043
ffc3
ffe6
ffe1
0009
ff8a
0016
ffc2
0009
ffd6
002d
ff98
0027
ff3e
0024
0000
0033
ffba
0047
ffe7
000b
ffbc
0026
fffb
ffe9
ffa8
0007
fffd
0002
0002
fffd
fffc
0000
0000
0003
fffd
0004
0000
fff1
fff9
0002
fffd
0000
0001
0000
0006
fffa
fffe
0000
0000
ffff
0003
0006
0001
fffb
0001
ffff
0000
0000
fffc
0011
fffe
0005
fffb
0002
fffe
0000
0000
fffd
0003
fff8
ffff
fffe
0006
fffe
0001
ffff
fffb
fffc
0000
0008
0000
0000
ffff
0000
0000
fffa
fff7
000a
000a
ffff
fffe
0001
0002
fffc
fffe
0004
0002
0002
fffd
fff8
0013
0013
fffe
fffd
0016
ffff
ffc2
ffd5
0029
0043
000e
0017
0015
000d
ffda
0007
002b
000f
000b
0006
001c
0009
000b
fffb
fff5
0009
0005
0003
fffd
fffb
fff2
ffd6
ffe3
0007
001d
000f
ffc9
0026
ffdf
0028
0000
ffea
0000
0017
0004
000c
000f
000d
0019
fffe
fffe
0006
0007
ffd1
ffdb
0048
fffa
fffc
0002
ffe7
000c
0031
0023
0017
0018
0001
ffeb
000a
001a
0004
000e
0001
ffd2
0003
ffeb
ffce
0004
ffe5
ffe6
001e
ffdc
ffb2
0000
0035
0024
ffe4
0024
0007
000e
fffa
0002
0036
0035
ffb9
0012
002e
001a
ffc4
ffff
0005
000a
ffe0
ffe7
0006
fff6
ffe8
0026
ffac
ff95
ffce
0037
0037
002c
ffc5
ffe8
ffb3
ffd0
fff6
001b
0022
ffe4
ffec
fffa
0025
ffec
ff89
0017
0030
ffed
0045
ffec
000b
005a
ff73
0037
002b
0017
fff7
ffd5
0013
0027
ff86
002b
000f
fff1
fffa
ffe3
0033
0045
ffb5
ffe3
0045
ffef
0088
0010
ffb2
0065
ffd4
ffef
fffb
001b
0033
ffe6
004b
0004
ffd0
ffc4
ffea
000a
fff0
0015
ff8f
0042
0052
ff9d
0000
0043
0016
0019
ff8e
fff8
ff97
ff3e
ffb3
ffd2
0007
fff6
ffab
0059
0004
ff99
0019
ffee
ffc0
ffdb
fffc
0014
000d
ff6f
0023
0007
006a
ffdb
00da
0038
000a
ff19
0021
ffec
0040
ffd8
fffc
006a
0039
000d
0018
0002
fff8
0001
0008
ffe8
0024
0095
0037
ffdb
0024
003f
ffcc
003d
fff0
ffda
0006
ffe3
ffc1
ffad
0009
0021
001a
fffa
0013
fffc
fff1
fffb
ffe5
0013
ffc5
0045
002c
fff7
003c
001e
ffe5
0087
fff1
ffc8
ffeb
0010
0018
ffd3
fff8
004c
0002
ffe9
0020
0003
ffff
ffe3
ffb8
fffa
ffd7
0089
0075
0010
001d
ffef
ffc9
0054
ffd2
ffd4
ffed
0001
ffe4
ffd0
ffef
004c
000f
fff6
003c
ffca
0002
fff1
0015
008a
0047
ffd6
fffc
ffc5
ff78
ffcd
00ba
00f3
ffcd
fffd
ffaa
001d
ff7e
000b
002b
00dc
003b
005c
002b
ffb9
ff0f
ffe7
00d2
ffdf
0051
ffac
005d
ffdb
ffb0
ffad
018a
ffc1
004c
0061
0040
ffd7
fff1
ffbc
00c6
ffd2
0049
000c
0046
005b
001a
006b
fe78
001e
0060
ffe4
0052
0053
fffd
005e
fd8e
0028
00dc
0026
0035
0077
ffc3
0035
febc
002e
0099
fe9d
ffe4
ffca
00b4
ffac
ffc3
ff29
fff7
fef7
0043
ffb3
ff36
fff7
00a7
008f
0031
00a3
0048
015b
005c
ffce
0136
0021
0062
fe3b
00bd
ffaa
0104
fec2
0073
fedb
ff23
fe8e
002e
fff1
000f
ff84
00ac
00d5
005c
ff22
0081
005a
ff11
0061
0074
fedf
00a2
fe55
0013
ffa0
ffaf
ff97
fef5
fef6
ffc2
ff4c
0022
0074
0037
ff73
ffe4
003c
0038
0058
006d
00df
ff4b
fffd
0148
ff80
ffe8
ffb6
0006
ffd0
ffc1
fff8
ffdb
ffe6
0013
ffd7
0031
ff9e
ffa1
ffc8
0009
ffd1
0021
ffc7
ffe0
ffc3
ffcb
0047
0003
ffb3
0033
002b
ffc4
ffcb
fff9
001b
ffb2
ffbf
000b
0041
fff2
ffc9
002a
ffa9
ffe9
002a
ffe6
000e
ffa8
ffea
0016
0018
ffe3
ffc0
ffe2
ff9d
fff1
0013
0030
ffef
ffe6
0025
0016
ff56
ffd8
0021
004d
0012
0026
004a
ffdb
ff81
000a
0026
001c
0011
fffd
000c
ffc7
fffe
0000
fffd
0001
0005
fffc
0000
0000
fffd
fffd
ffff
fff7
ffff
ffff
fff9
fffe
0005
fffd
fffb
fffe
fff5
0000
0000
fffd
0000
0002
0001
0008
fffa
0002
0001
0000
0000
fff9
0000
fffd
ffff
0004
fffa
fffb
0006
ffff
fffc
fffe
0000
0003
fffe
0004
0004
fffd
ffff
0004
fffb
0000
ffff
0001
0008
fffc
0002
fffd
0000
0001
000c
fffe
0007
fffe
fffa
fffe
fff9
ffff
fffe
fffd
0008
fffb
0008
000e
ffef
0029
ffdf
0018
000e
ffff
ffe1
ffe2
fffc
fffd
001f
0025
0004
0000
ffed
0018
0010
0005
000e
002a
0004
0002
001d
fffd
fffc
001f
0009
fff1
ffdf
0000
002d
ffed
000e
0000
fff3
ff92
0012
0000
fff0
0004
000d
0014
fff1
ffcc
0010
0008
0024
ffec
ffec
0022
fff6
0035
ffbb
0000
0042
ffed
fff8
fff7
ffd5
0012
002e
0000
0013
0013
ffe9
ffff
ffed
0035
000a
0000
ffee
ff8e
ffeb
ffea
0035
0011
0003
0000
0005
ffba
ffc6
fff8
ffd2
0006
ffff
0000
fffe
fff9
ffd2
ffdf
fff9
fffd
ffc8
0000
0006
fffb
fffd
ffe9
0006
ffcd
ff88
0000
004a
ffbd
fffa
0030
ffd4
fff6
ffde
0000
0015
ffb9
fffe
001c
ffd2
0016
0056
0000
0022
0035
fff3
ffd5
ffed
ffef
0009
0000
0010
ffe9
0004
0028
ffe0
ffdd
0000
0000
0037
000b
ffea
0026
0003
000f
000e
0000
0029
0013
0013
ffcc
fff8
ffcd
0048
0000
ffea
001f
ffe1
0025
0036
ff68
0007
0000
fffb
0046
ffea
006b
0026
ffa6
ffcd
0000
ffa0
0006
fffa
0013
0028
ffef
fe54
0000
ff86
006c
ffd3
ffe5
0072
ff65
ff32
0000
ff48
0063
fffb
ffeb
ffa3
ffa8
ff46
0000
007e
ff9f
ffd0
ff74
ffd9
001d
fe5e
0000
00fe
ff95
ffe0
ff80
ff02
003d
feed
0000
003c
ff9f
0011
ffdb
ff7e
0015
0010
0000
0042
0045
ffc4
ffb9
000d
fff9
002c
0000
000f
003c
0071
003a
ffe8
005e
fffa
0000
000b
0034
0022
ffbf
0057
0035
ffe6
0000
0051
000f
ffc5
ffaf
ffe6
0052
004f
0000
ffe3
0040
003d
006b
ffe6
0042
ffe2
0000
002a
003d
ffe4
ffb9
002f
001b
ffe2
0000
0038
fff4
ffe9
ffbd
001c
003d
0089
0000
ffd7
0055
002b
0036
fff7
001d
0001
0000
001b
0016
fff2
ffb7
002d
0023
ff95
0000
ffe2
feab
ffd5
fffc
00a4
ffb5
ffa4
0000
ffcc
fe69
002d
000a
00c8
ff26
ffbc
0000
ffce
ff7d
ffa8
0005
ffe2
ffaa
ffbd
0000
ffc5
006e
0032
ff8a
ff52
0045
0167
0000
ffd0
fff1
fffd
ffaa
ff5e
ffe7
ffa5
0000
ffcd
ffd6
fffb
000e
ff66
0064
fee4
0000
008b
ffc2
0005
0045
ffbb
ffcf
fee5
0000
0108
ff38
000c
0029
ff92
fff3
ff29
0000
006b
ffab
0016
ffdd
ff3f
ffda
0071
0000
ff6b
ff8e
004e
00e8
ffd6
ffdd
00dc
0000
ff3a
ff4c
ff63
00d5
ffb3
00f0
0029
0000
002a
ffe0
0061
0077
ffad
0032
0102
0000
fee2
002f
000b
005b
0066
ff53
ff3b
0000
ffc4
ff2d
ff86
0055
000c
004f
0067
0000
0035
ffdb
0053
0009
ff33
0059
009b
0000
ff2e
ff5a
0034
008f
ffad
ff8e
001c
0000
ffcd
ff58
006f
001e
ffff
0011
ff6c
0000
0048
fffb
0025
0067
ffb9
ff25
ffe1
0000
0017
002f
ffe0
0019
ffff
ffcd
ff8c
0000
ff9e
ffc1
0077
0003
ffcd
ffc5
ffbd
0000
ff9a
0012
ffc6
0014
ffd6
fff3
ffae
0000
ffc2
ffdc
ffc5
ffd3
001f
ffef
fff4
0000
ffc8
001d
ff74
ffb6
002e
0055
ff8f
0000
ffbb
fffc
0024
001c
ffca
0026
fffe
0000
ffbd
ffe9
001c
fffa
0000
0024
ffd9
0000
001c
ff74
003a
ffed
fff9
0064
ff97
0000
0000
ffb9
000a
0018
000a
0035
0002
0000
fffa
fffc
0000
fffd
fffb
0004
0000
ffff
fffc
ffff
0001
fffc
ffff
0002
0004
0000
fffd
fffc
ffff
fffb
0000
0000
0000
0001
fffe
fff9
0000
fffc
fffd
0002
0002
fffe
ffff
fffd
0000
0001
ffff
0007
0003
0001
fffc
fffb
0003
fff9
0000
0000
0002
0003
fffe
fffe
0000
fffb
0000
fff9
0001
0003
0001
ffff
fffe
0000
ffff
fffe
0000
0000
fffd
fffd
0000
fffc
0001
fffc
ffe0
ffe1
0005
ffce
0008
ffdb
fff2
000b
0008
001d
0012
ffec
fffc
ffd8
000c
0016
ffe7
0010
0009
fff9
ffff
0007
001c
ffda
ffee
0001
0033
ffe4
0002
ffff
ffeb
ffec
fffe
001c
004c
0005
ffd8
ffed
0000
fffb
ffed
0012
0037
fff7
ffdd
001e
000d
0015
ffe7
fff4
0001
ffd1
0018
0009
fff9
ffe8
0006
001e
fff3
0004
003b
fff7
0018
000c
0000
fff8
ffe9
fffd
0012
fffe
fff0
0000
0031
002b
fff1
0020
fffa
fff1
0001
fff2
0016
ffd8
fff3
000e
001a
0011
0001
ffea
0016
fffc
fff1
003d
fffa
0004
fffe
002d
0001
ffe0
ffc6
0014
ffce
0001
fff5
0006
0027
ffeb
ff79
fff4
ffc1
fffe
ffa6
ffeb
fffa
0022
ffb4
ffeb
ffe8
003b
ffbb
ffc0
0007
ffa6
ffce
002a
ffea
0009
ff9c
ffc9
0027
ffc3
ffb8
0007
0014
ffd9
0004
000d
001b
0023
ffec
000d
ffef
ffd9
fff1
ffb8
002c
0003
0022
ffe8
ffd5
ff92
0042
0034
000d
002b
fff2
ffbe
ffa3
ff3a
ffce
0014
0041
ffc1
ffeb
ffec
ffcb
ffd8
ffda
ffd5
0007
ffe7
0051
000a
ffc1
ffbe
0011
0013
0019
fffe
ff64
000e
ffb8
ff12
ffdb
ffec
0021
000c
ff77
ffd8
ffca
ffb1
ffed
ffa4
0057
000f
ffba
ffd9
0003
fffd
005f
ffd4
0093
ff90
fee3
0045
fff2
ff76
ffe6
0047
0062
0014
ff85
ffd2
ffbd
ffa0
ffc0
0011
fff7
000b
0007
003b
0007
000f
ffa7
ffde
fff1
fff4
0031
0016
0022
005c
0047
0027
0002
0009
ffef
0017
ffe1
002d
fff8
ffe5
fffa
ffcb
ffb4
0047
0000
fffa
ff92
ffdd
0033
fffb
005e
0042
0039
0031
005a
ffd7
0013
fff2
0016
003d
000f
003d
ffd6
fffb
ffe0
ffc7
ffd5
0033
0007
0004
ffe2
ffbe
002f
ffec
0000
ffc8
0044
ffc9
008d
006a
0005
ffea
ffe7
0029
0001
0020
ffee
ffd6
005d
ffe4
ffc9
0064
ffee
00a1
ffb9
ffb3
005e
fff6
ffdb
008e
ffc2
00bd
ff88
fff7
0025
ffd8
ffb7
008f
ffe7
ffe2
ff49
00c3
ffe0
000a
0034
fffd
ffc3
005b
ffd4
ffc7
0028
002c
01c6
ffd7
0074
ff96
fffd
ff8e
0018
0005
004a
ffd0
0007
002d
ff78
ff78
ffbf
ffcf
000a
ffd7
0026
ffca
002a
0055
ffae
0058
ff93
ff88
002a
ff94
0064
0026
fff5
ffa8
ffeb
ffcb
0045
fffb
0040
0008
fffd
ffae
0087
ffd2
ffd2
004d
feca
fe8f
0017
00c0
00e0
ff79
001b
ff62
0059
0044
0082
ffcb
00b2
0026
0046
0003
ff95
ffaf
0012
feb0
000e
ff94
003a
fff0
fe76
fd81
fff8
ffeb
ffc0
ff56
ffdf
ff43
ff1a
01a4
005b
00b8
0065
fff0
0052
ffc1
ffb3
fe8e
ff75
fff7
ffff
ffbe
00c4
002b
fe31
fe12
0048
ff92
ffe4
0009
008b
ffb7
ff7b
011c
003f
0081
0061
ffd5
ff93
0013
ffb9
ff6d
fffb
0031
0036
ffe5
ffe4
ffe4
fffa
0006
fff4
ffb8
0045
ffe1
ffdd
0069
ff38
ffd9
ffd5
0000
0005
fff2
fffe
ffe8
ff89
ffed
000f
ffd3
0023
0017
fffb
fffa
ff95
ffed
fff7
ff9d
0098
0020
ffea
ffdf
ff61
0000
ffe1
fff0
0011
0026
ffd6
0025
ff7b
003d
ffeb
ffa8
ffd6
0005
ffdf
0012
0031
fffc
ffb7
ffec
ffe4
005c
ffa8
0002
0025
0065
ffe2
fffe
000b
0022
ff97
0011
005f
0052
0000
0000
fffd
0005
fffe
0001
0002
0003
0000
fffd
0000
0002
0001
ffff
fffd
fffd
0000
0000
fffe
0002
0003
0000
fffa
fff8
0000
0002
fffc
0000
0004
fffd
0007
0001
ffff
0002
ffff
fffd
0000
fffe
fffd
0002
0004
ffff
fffc
0002
0001
0000
0013
ffff
0000
0001
fffd
0000
0006
fffc
0002
0001
0000
0000
fffd
fffe
0003
fffe
0000
0000
0001
0000
0000
0005
0009
0000
0004
fffa
ffed
000a
ffd6
ffd3
000f
000b
0005
fffa
001e
ffdd
ffdf
ffc9
ffde
0007
002a
000f
0004
ffdf
fff8
0005
000e
fffc
0002
0022
0011
0013
fff9
ffb3
0005
0015
000f
fff4
001e
fff5
0007
fff2
ffbd
ffee
0038
ffea
0014
ffe1
0007
fffb
fff3
000c
fff0
0027
000a
fffc
001a
fff9
0021
fffd
0013
fff8
0010
fff6
ffe7
0009
000f
000c
0024
000c
0013
fff9
000a
0016
000a
fff3
ffea
ffec
003b
ffe6
fff2
0001
0011
ffeb
000b
0014
001b
ffc1
0025
fffd
000e
0037
000b
0002
002e
ffcb
ffe3
004a
fff2
0006
ffc6
fff0
fff1
0031
0013
fff0
0052
0033
ffab
0024
002f
0062
ffea
ffbc
001b
004c
ffd3
0013
004e
fff4
0037
ffd8
0019
0023
0001
ffe0
0039
ffd2
ffe9
ffac
007e
0016
002a
ffda
ffe0
0006
fff5
0036
002c
0024
ffa1
001b
0000
0014
0014
ffdd
0026
002f
fff8
ffd4
0007
0034
0061
0010
001f
002f
0020
ffbf
004d
0020
0080
ff9c
ffa3
0024
fffa
ffcf
0002
0029
003a
ffe2
fffb
0054
0023
ffb5
ffd5
ff79
0047
ffc5
0014
fff1
ffff
ffbd
ffff
ffd6
004a
002c
ffde
000d
0061
001d
0043
ff6c
ffe8
ffda
ffc1
002c
0022
001d
ffa5
ff85
0040
fff1
00ae
ffd3
005b
ffda
ff4b
ff3b
fedd
ffec
00a5
0008
003b
0056
ffe5
ff8d
ff79
fffb
0087
fff4
ffd4
00bf
0012
0000
003b
0002
0032
0009
ffb7
fff3
0043
0045
fff8
0031
0058
ff63
0019
ffc2
fff8
002b
ffb9
fff7
0011
0050
ffeb
fffc
0002
001e
0014
ffd5
ffed
0051
ffef
0001
0034
ffe4
ffb7
007a
0008
fffe
000a
ffbb
ffe5
0021
ffe8
000a
ffeb
007c
ffd2
fff3
0007
0021
0014
ff9d
0002
004f
001f
0012
0062
001d
0032
ffa8
003a
ff95
0024
0008
ffe6
fffb
fff9
ffec
0009
0034
ffc1
ffee
008d
ff1e
0087
ff77
00af
0085
ffbd
ffe5
0047
fed5
002e
0011
00de
008e
0015
fff3
009c
fedb
ffe6
ffab
fff9
00ce
0012
ff7a
0020
0040
ffc0
ff1e
0037
fffd
002d
ff5b
002e
006f
ffeb
fef2
0064
ffd6
0046
0049
ff83
0070
000e
ffef
0044
003a
fff8
ffa7
ff38
002e
ffab
0074
003e
ffa2
0031
0034
ff73
0052
0020
0023
0050
ff9d
004c
0089
ff77
0068
ffac
0070
0046
ffff
003d
007e
006a
ffc9
ff73
ffa7
ffe5
ffe7
0030
fffe
006e
ff25
0009
0035
ff5b
fef8
ff85
00d8
ff2e
ff89
0092
0167
0079
ffcd
00ee
fe94
0032
0025
0025
ffb3
ff96
01ec
0146
00c5
ffdb
ffa6
ff91
ff96
feea
ff23
fec8
01f5
0022
0046
00b1
0174
007e
ffa2
00d6
ffe5
00f6
ffc0
0057
fea5
003d
0079
019c
ff7e
ffc0
ff4f
ffa4
0000
ff64
ff5f
fec9
0085
0053
001e
0031
0106
ff8e
002f
00c7
ffd1
0022
0033
003d
fffc
ffd8
000e
ffe3
0022
002d
007b
0069
ff8c
0028
006b
ffd4
007b
0018
0030
0028
0002
fff3
ffff
000d
0047
ffab
ffdf
0029
000a
000c
0031
0042
000f
ffff
ff8b
0004
ffad
0070
00bf
ffe2
0013
ffcd
ffd9
ffc5
ffdd
fffd
0038
0008
0055
ffc3
ffe7
ffdd
003b
001f
0043
000d
ffe7
ffa5
ffea
ffc9
0050
001f
001f
001f
fff2
ffda
0005
ffbe
0030
002c
0020
ffe6
002c
fffb
fffc
fffd
0005
fffc
0000
fffd
0001
0000
0007
0005
0001
fffb
0001
fffb
0007
0000
0005
0000
0000
fffc
fffe
0006
0003
ffff
0003
0000
0006
fff5
0003
0001
0002
0002
0002
0000
0000
fffa
0003
fffe
000b
0000
0000
0004
fffe
0000
0000
0007
0008
0000
0002
0009
0001
fffa
0004
fffb
fffd
0000
0001
0004
0003
0000
0000
fff7
0001
0000
0003
0001
0000
ffff
0002
0002
0002
000c
ffe3
0001
000a
0020
0001
ffef
0014
0001
ffb5
0004
002c
001a
0009
003b
0043
0002
fff0
ffeb
fff9
000b
0005
000b
0025
ffde
ffe5
001d
000f
fff3
0000
ffee
0031
fff4
ff92
0013
0006
0020
0009
000f
0052
fffa
fffb
0007
0000
fff0
0002
fff1
0030
0001
ffe5
001f
ffed
fffd
fffe
ffe5
002c
001e
ffd8
0034
ffed
0006
0002
0028
0038
fffc
fffd
0036
ffe5
fff7
0006
0009
0018
0050
0021
fff7
fff2
0023
0000
0021
000d
001e
003b
0024
009e
0003
0001
0044
0038
0020
fff3
ffea
002e
001b
0000
0045
002c
004c
fffd
ff94
0020
0033
0000
fff1
ffc5
ffcb
ffc4
ffad
ffb7
000c
0000
ffc7
ff85
fffb
0012
ffe3
ffd3
0032
ffff
ffbb
ffe7
ff9a
005e
ff96
0080
fffe
fffe
ffda
0015
ff71
002b
ffb1
ffbc
fff6
ffff
0046
002a
ffe5
ffee
ffc1
ffa8
0010
ffff
ffeb
003d
0026
ffcd
0025
fffa
0008
0000
ffea
0081
ffe6
0009
0042
fff4
ffc6
fffe
000f
005c
003c
ffef
0046
ffdf
0026
ffff
0013
0072
000c
ffef
002a
000d
fffd
0000
0039
0032
00a9
000e
ffc2
0035
0027
fffe
ffce
001d
005c
ffdf
ffcc
0030
ffa4
ffff
ffd0
ffc7
ff7a
004c
ffea
0016
0004
fffe
0060
0026
ff13
00c4
ffca
010e
ff7a
fffb
008c
ffc9
ffb2
0032
0008
0034
ffca
fffb
0008
0040
0009
004e
0000
0039
006b
0001
fff5
fff8
ffa5
ffd1
0012
ffca
fff1
fffe
ff66
002f
0015
004a
ffeb
0016
0000
fffc
0000
ffd3
0012
0037
0017
003c
002e
0000
002d
000d
ffa0
fffb
0003
0016
ff84
fffd
ffce
0047
001d
0030
ffe9
0029
001b
fffa
002b
0044
0014
001a
0005
001d
0035
ffff
0008
ffe7
ffec
ffbd
003f
ffea
ff83
0000
ffbf
ffff
000d
002f
0023
0006
0004
0000
0036
ffdc
ffc2
0074
ffa5
ffc3
ffe5
fffe
ffc1
fffa
ffff
008d
0077
007d
0001
0002
0098
ffc3
ffc5
0079
0003
ffef
ffc6
fffe
00b9
002c
ffce
0039
0025
0033
ff80
0002
ffc2
ffc1
0012
0010
00ae
ffce
ff78
0006
ff87
ffb4
0031
ffd6
00bd
ffe7
ffff
0000
ff90
003b
ff8b
001e
ffe8
fe9b
ffdf
0005
ffc1
ffcd
ffca
ffdb
ffef
fe72
fffe
000a
004d
0023
ff3b
ffe3
0014
febb
fff8
000a
007a
002a
ffe9
ff96
002a
fef5
ffed
0004
ffd2
ff8a
ff7e
0043
ffe7
ff94
ff87
0006
00a5
ff9a
ffe7
ffec
00d4
008d
ffba
0004
005f
007e
ff70
ff7a
ffa5
018f
ff78
ffff
ff33
ff8e
0029
001a
0000
ff7b
ff9d
0005
0067
ff9d
00b1
ffc7
007d
ff65
ffef
0005
ffae
0005
ff86
ff93
ffb2
fff6
ffb7
fffd
ff87
ff55
ffd5
0072
0102
ffdd
ff35
0000
004d
ffc9
00f1
0003
ff86
000a
000a
fffc
ff74
fff3
ffce
ffdd
0012
ff88
ffdb
0001
fff4
fffb
ff82
0021
003b
ff35
ff94
fffa
ffbc
ffe4
ffba
fff3
ffd9
ffcb
ffef
fff6
ffa4
ffdb
0030
fff7
0010
ffbd
0002
fffd
002e
ffea
0025
008b
0003
ffc6
ffce
fffa
0001
ff53
001a
ffea
0000
ffd8
ffe5
fff4
0033
0007
ffcf
fff2
0006
0000
ffa4
fffc
0031
002e
ffdc
002c
ff82
006d
ffeb
fff9
0025
fff2
ffda
0008
001c
0008
0007
fff9
fff6
0041
fff9
0004
0000
0005
0002
0000
0004
fffb
0005
0009
0002
0003
ffff
0000
ffff
fff9
0004
0007
0000
000b
0001
0000
ffff
fff9
000d
0001
0005
fff8
0008
0000
ffff
fffe
ffff
0003
0004
fff2
0000
0000
0000
fffb
0009
0001
0000
fffa
0002
fffa
fff0
ffff
0001
0006
0005
0002
0005
0000
fffd
fff9
fffa
0003
0000
ffff
0005
0001
000b
0000
fffc
ffff
fffd
0003
ffff
ffff
fffc
0000
fff7
fffc
0000
fff7
001c
0004
0002
0022
002d
ffe2
ffe7
0024
0025
001d
fff1
0036
fffe
fff6
ffe6
fffe
ffe8
fff7
000a
0004
ffd9
fffd
0001
ffe3
0033
fff1
0013
0005
0022
0028
ffec
000c
0042
0013
004b
0026
fff5
001a
0011
0008
000e
0005
0018
fff7
ffe5
ffd5
0009
ffe5
ffdc
fffb
fffb
ffef
ffee
ffee
0009
0016
fffb
ffe8
000a
ffe9
ffdd
ffe1
002a
000a
fff4
000f
0003
fff8
0059
0007
fff6
001b
fffa
0009
001f
0004
fff6
ffc5
000b
0015
ffeb
fff1
ffe8
ff49
004a
0019
0029
ffe8
0055
fff5
0049
ffc5
0017
004d
0003
001a
002a
0023
0040
0039
0036
0007
ffee
0019
ffdb
fff7
0038
003a
0016
fffe
fff4
0014
0048
ffed
000b
000c
ffc0
fff4
ffa9
ffff
ffe7
001d
ffe9
ffb3
ffec
0008
fff2
0000
ffa6
0022
002a
0000
0009
0016
0029
000d
0025
ffe7
0000
0024
0018
ff54
fff6
fffc
ffcf
ff96
003e
fff3
004a
ff98
ffc5
ffd7
ffb0
0020
001b
0057
ffc1
ff7d
0017
ffe6
fff4
fff4
0008
000b
ffb0
001f
000e
ffa7
0021
ffc9
ffd0
fffb
000a
00c1
ff83
ff94
fff5
ffa8
0000
007c
ff82
002b
ffdf
ffcf
ffd8
ffd6
ffc8
fff6
ffdc
001a
ffac
0006
0043
ff9a
ffac
0039
0008
0009
ffc9
ffc8
ffe4
ff6f
0008
0027
ffcd
ffea
000b
fffd
ffca
ffc6
ffa4
0047
ffdb
0009
0000
ffa2
001d
0029
fffe
ffde
0000
000c
0019
fff5
0063
0004
0028
0045
0022
fff8
ffb4
fffc
ffbd
000e
0006
ffda
ffd7
0019
ffbe
fff8
0005
ffff
ffd1
fff0
0001
ffbb
ffea
0022
005d
0035
ffd7
ffef
0031
000e
ffb3
003a
000f
0029
0030
ffb5
ffcb
0005
ffd2
0013
0004
0017
ffd8
ffd9
0014
0001
ffc8
ffec
0049
0002
ffda
0000
ffe4
0013
fffe
0014
ffef
0021
fffd
ffb5
ffd5
ff6f
ffe0
0064
0096
ff9f
0087
ffc5
ff76
ffe8
ffad
002c
0070
ffde
009e
ff6d
ffc9
ffc7
ffa3
000a
000f
ff7c
004a
ffc6
ffdb
0048
001a
ffea
ff46
0028
ffeb
ffe2
006d
ffb9
ffd6
0011
ff75
00d6
fffb
ff81
ffc1
0022
0043
000a
0002
fffd
ff87
ffc5
001f
002e
0020
00a0
0032
004a
002b
0006
ffe8
ffff
fff8
0001
004a
0005
0012
001a
ffde
0045
0031
fff9
006d
0034
0079
ffeb
ff84
0088
0012
ffe7
0033
ffe2
fed9
009b
ff2c
ff84
ff75
ffef
ff11
0044
0160
0039
005d
ff37
009e
0012
0215
ffe8
0016
ff03
ff93
fff9
ff85
0017
00e6
ff56
ff46
ff39
ff31
009f
0003
ffc3
feb3
0078
01a1
002f
0152
ffd5
000b
ff9e
01d8
ff7d
ffba
0066
ff35
ff7e
ff4c
ff73
feea
ff3f
fe4b
ffcb
0010
ffed
0047
ffc8
fee8
0014
00b9
000e
0064
0052
fff3
ffa2
01a6
ffb3
0051
0084
ffd7
0007
0072
ffc2
0013
002e
ffd2
003a
ffd7
ffe3
0037
0038
fff9
0028
0013
00ab
ffee
ffea
fff1
ffbf
000c
003a
fffe
002f
0001
0021
0036
0006
0024
0014
000a
003f
0008
ffa9
ffd9
ffcf
ffcf
0061
ffc4
005e
fffd
ffef
ffb9
ffbe
fff4
0059
0011
0050
ffe7
ffd7
fff9
ffd8
003c
0012
ffad
fff3
ffce
001c
ffaf
fff2
00a6
ffe7
ffd5
ffd3
ffc7
ffc0
ffe0
ffd1
fff2
fffe
ffec
0006
0004
fffa
fffd
0002
fff7
fff9
0000
fffa
fffd
fffa
0004
0000
fffc
fff3
0000
fff5
0000
fffe
0006
fffd
0009
fff7
fffe
fffe
0007
0000
0000
0004
0000
ffff
0000
0000
0003
0004
0001
0000
0007
fff5
fff8
0001
0000
fffd
0002
0000
0004
ffff
0004
0003
000e
0007
fffe
0005
fffa
0003
ffff
0000
0002
ffff
0000
ffff
fffb
0000
fff7
0000
ffff
0004
fffc
0003
0002
fffc
fffd
0001
ffee
0012
fff0
001a
0011
ffee
0006
fffc
fff9
fff6
0002
0016
002a
0009
ffff
000f
fff4
fff5
000f
0009
fff1
0010
fff2
0004
0009
003b
ffe5
fff0
0003
ffe0
0008
0012
0003
003f
fff4
0015
002b
fffc
fffa
003c
fffb
001d
000c
001a
000d
fff7
000f
0006
fff0
ffe3
0009
fff0
000a
0001
ffe6
0005
fff6
0008
0000
0002
0025
0019
ffea
0014
ffea
0001
0008
0017
001a
0009
ffed
0007
fff5
0018
000b
0021
ffe3
ffdc
0038
000d
0013
0035
fff5
ffdc
0070
0015
ffc0
000f
001e
0026
0037
fff0
0020
ffed
ffe9
ffe2
ffcd
0012
ff98
002f
ffbc
ffd4
003f
ffc5
fff4
ffc7
ff9a
001f
ffda
ffcc
fffa
ff3b
ffc5
fff4
ffa8
ffdb
ffba
ffea
ffdc
ffc9
0016
003e
ffc4
ffc3
000a
ffab
0009
fff9
0057
fff9
ffc5
0011
fff4
ff91
0008
ffd7
0019
0016
ffdc
ffef
ffd9
ffe7
001b
001e
000c
ffde
ff93
0001
ffc2
ffec
002a
0017
00b2
ffdc
ffb8
ffce
fff2
0001
0073
004f
0050
ffc5
ff73
0001
fff1
0015
0028
0030
ff30
004a
ff9e
002f
ffc9
ffc1
001f
0001
ff95
ffef
ffa4
0010
ffd9
fff1
0054
ffb4
ff1a
0024
ff20
ffec
ffd4
ff8b
000f
ffea
0032
003b
0051
ffec
0039
0000
0010
fff7
00d6
0086
ffee
ffce
006b
0035
ffbc
0080
001d
ffec
0020
0004
0042
ffa5
fff7
ffff
0047
0005
0005
ffca
ffc6
fff6
0025
ffe0
ff36
0010
ffc5
0058
003c
ffe9
0060
ffe9
001f
004c
0043
ffc9
003c
fff8
000a
000b
00d8
ffea
0000
fff2
fffc
0008
0001
ffb8
0007
0016
ffe1
004a
0046
ffe6
002c
ff57
00cf
003b
0043
fff4
001f
0027
0003
fffd
0045
ffb3
0008
fffe
ffe4
0004
ffef
fff2
ff59
ffdc
ffd1
001f
0079
0005
001c
ff8b
0039
0014
0004
ffb0
004f
001d
001a
0018
0075
00a3
0025
005f
ffc9
ff6e
ffed
0027
0056
0068
0054
0081
ffc3
ff59
0039
ffe8
0063
00df
001e
fff7
ff38
ff85
0039
ffa4
ffd4
ffc6
ffa1
ffa7
0000
ffdb
ffef
0085
0000
ffe0
fffb
ffc8
0006
0026
004b
00b0
0011
ffaf
ffea
ffda
0031
ffb4
000b
0089
ff8b
000e
008c
0018
0021
ff7d
ffe4
ff92
ff81
005b
0029
ffc3
ffcd
ff36
ffe0
fff8
ffbb
ffd1
0085
0009
ffe8
ff26
0008
ffbb
ffe3
007c
ff91
0074
ff09
00a4
0098
002e
ffc3
0041
ffde
ffe2
ff8e
0084
fff6
003a
005c
ffa2
0097
00b8
00e9
00a2
fe5c
005e
007e
01c8
ff70
ffde
ff78
ffa6
0061
fff7
ffd1
ffde
ff4c
fffb
002e
fff8
0070
ff9a
0090
ffd3
00a1
009d
fe98
007c
ff0a
ffd6
ff92
ffcb
feef
ff7f
fffe
0005
0017
0045
ffb3
0079
ff72
ffd8
00af
0002
ffda
ffb2
0052
0007
003a
0040
fe4e
0066
ff90
ffbd
ffdf
fffa
ffe5
ffd5
ffdc
0010
ffee
0055
fff4
0027
ffab
ff83
ffb8
fff9
fffa
fffd
000a
0013
ffe5
ffc5
ffa2
000e
ffcb
005c
fff9
006c
002d
0074
fffc
ffb0
0005
fff1
0015
0034
007a
ff91
000f
ff8b
003f
ff8e
0016
001f
0058
0033
fff2
ffeb
0005
004b
0022
0010
0063
0030
0006
ffd8
000b
000c
ffff
003c
00a5
ffe9
0022
ffd9
0012
0002
0039
001d
0041
0016
fff0
ffea
fff5
ffd4
0000
fffd
ffff
0000
0001
0008
0003
0004
fffd
fffd
fffe
0002
0004
0006
0005
0007
fffd
fffd
000a
fffa
0009
0004
fffe
0000
fffa
fff9
fffa
ffff
0004
0003
0000
fffd
ffff
0000
fff0
0000
0000
fffd
0009
fff7
fffb
fffb
0015
fffd
0003
0003
fffc
fff6
0001
fffd
fff8
0000
0004
0000
0000
fffa
0009
fff8
fff8
0001
fffb
0000
0004
fff9
0004
fff5
0003
ffff
ffff
0003
0000
fffc
4cf4
6221
3dd1
92cf
3f1d
5856
49aa
991a
fb8a
037b
0e4f
0a98
fe2c
0a7e
03e7
ff2b
0063
00b2
0042
006e
006a
fff6
00a1
ffea
ffad
fee7
ff9f
ff86
ffcd
ff91
ff36
ff9b
0021
00ae
ffd1
ff0b
ffb6
0013
ff88
000e
0102
ffe3
00bf
fffa
005b
ffee
004b
ffc9
feff
ff5e
ff10
ff64
ff4e
0086
fecb
ff62
0021
01ba
0017
ffc7
fe85
001e
008c
fff1
0009
ffad
00de
ff91
fff7
ff9e
006c
ffdc
fe9e
ff54
ff43
ff4b
ff9e
00b4
ff7d
ffd2
009c
0175
008f
fffb
ff5d
ffab
ffe7
0068
fff6
ffdb
ffef
0077
ff66
0173
0119
003e
ffc0
00a7
000a
00a9
0070
005f
00a5
0010
0036
fff2
ffbb
0062
006f
ffc3
fed1
ffd5
009c
ffc3
0011
ffa8
ff91
020c
00f7
fff7
0000
010a
0140
0021
0173
01a2
017f
001c
ffce
0007
ffd0
006b
00a5
ffe2
ff10
0039
fff4
fed0
ffd1
ff9a
ff6d
01ec
0110
000d
0043
006b
00b1
0092
00dd
0133
00eb
0048
fff2
ff14
ffee
0050
005c
ffa6
ff59
0076
002e
0052
0051
0047
ffea
fff4
001a
003e
0010
0064
000d
ff4c
ffca
ff28
ffeb
000e
004e
0035
ffe6
ff81
ffe9
0068
ffb7
000a
ff8c
ffac
006a
fff4
ff99
ff9a
ffad
0082
ff0d
000a
fff4
ffc9
ff64
fff8
ff50
ffd2
ffbc
0001
ffe3
fffb
ff5e
0054
ffe3
000b
005d
0071
000d
ffee
0080
ffc2
0038
0036
ff75
00d8
ffe1
ff98
006d
002d
ffb2
0076
ffe3
003e
ffd4
fff4
0045
ffcb
0048
ffea
ffdc
009e
ffa3
001e
0007
ffd1
0048
fff0
ff6b
ff54
0005
ff8b
ff78
fe33
ff4c
0047
ffcc
000b
004d
000e
ffc8
ffab
ffe1
002f
fe97
01e2
ffe0
ffcb
0088
ffee
0044
0000
ff92
fea6
ff26
ff75
0059
fe14
ff28
ff9d
0049
ff40
007b
0004
ff4c
0012
ffd2
0084
ffa4
0048
002d
ffb1
003b
ffd9
fffd
008d
ffbc
ff15
ff7c
ff82
ff3a
fef8
ff3b
ffa7
ffdd
ffe7
006c
ffe5
ff76
ff91
0028
00c7
ffe5
001d
ffc9
0003
0005
fff6
ffcd
fff0
ffd4
ffec
ffe9
ffed
0021
ffe7
ffcb
fffb
0000
fff8
000a
fffc
000b
ffff
ffdc
001f
ffd9
000c
0023
ffcd
002d
fff0
ffeb
fff2
ffbc
ff94
ffec
ffcf
001d
ff9f
ffe5
ffe5
0000
ffbc
fff1
ffd9
0014
ffde
fff6
ffef
0012
ffcb
ffe1
ffe5
ffec
ffce
fffe
001d
0001
ffe9
ffe8
ffd1
ffdc
ffcd
0004
0019
ffd4
ffd0
ffe9
0003
fff9
0011
0004
0012
00af
008d
ffea
0069
ffde
010f
0005
009a
013d
ffeb
006e
00e4
0069
01de
004c
0070
00ee
007a
ffd6
0090
0022
0001
006b
0056
006f
ff66
ff9a
ffdb
001b
ff50
000f
00ed
0024
ffe3
00a4
fefc
0031
ff68
ff1f
0081
ff51
0050
004e
ffc9
ffda
0162
ff9a
005e
0012
ffb0
ffd5
003b
ffcb
ffdf
0005
ffc3
ff86
0006
00ad
ff7c
001d
ff8d
005e
ff9d
ffb9
0019
ffb6
fff8
007a
0099
ffea
ffaa
0000
0000
0000
ffff
0000
0001
0000
0000
0000
0000
ffff
0000
0000
0000
0000
0000
0000
0000
ffff
0000
0000
0000
0000
0000
0000
0000
ffff
0000
0000
0000
0000
0000
ffff
0000
0000
0000
0000
0000
0000
0000
0000
0000
fffe
0000
0000
0000
0000
0000
0000
0000
0000
0000
0000
0000
0000
0000
0000
0000
ffff
0000
0001
0000
0000
0000
0000
0000
ffff
0000
0001
0000
0000
0000
ff6f
009d
ffae
0041
0061
0080
0049
0000
0040
fffa
ffd5
ffb1
005e
ff8f
011a
fffc
003b
002e
0023
0009
ff80
0099
ff94
0030
ff3c
01bb
0033
00a6
0096
0094
ffb2
004a
013c
ff40
ffa5
0029
007e
feb8
0228
ffff
0109
fffa
0075
ffb3
ffd9
0190
fffb
0063
ff96
0118
0043
0018
009c
00c9
0039
0052
005d
ffa7
ffcd
fff9
004f
ff4c
0131
ffdb
0023
ffe8
0059
0006
ff8d
0136
ff76
001f
fed4
00b0
0128
0030
003f
00dc
0037
ffcd
ff72
ffb5
ff7d
007b
00ed
010b
ffd2
ffa2
ff9b
ffb3
ff89
001c
00c9
ffd3
0067
00f8
fedd
011a
009f
00aa
0031
ffd6
ffb0
005c
ffef
003e
ff51
006f
0152
005c
fed9
0018
003f
ffe0
ffe2
009d
009c
001a
00db
0079
fe72
00d3
0079
006b
00c9
ff4b
0000
ff7c
ffa9
ffed
ffcf
ffcf
00e4
ff58
fe6b
0017
00d4
ffed
ffd4
005b
0007
ffc4
00ad
ffb9
01ed
ffad
ffee
ffc6
00a8
001a
000a
0031
0118
fff7
009a
0149
ffbc
0053
0012
ff6a
ffec
ffb1
ffd2
0030
000f
001b
ff97
ffcf
ffd3
ffd8
ffea
ffb0
0125
ff58
0086
0019
0154
ffa8
0088
0074
ff9f
ffb3
ff75
fff4
ffdd
ff5d
ffda
0045
ff94
0054
ffbb
ffb5
020b
ffe2
ff73
0029
011f
006d
00ad
ffbb
007b
0052
0041
ffe4
ffe9
ffcb
0000
ffe4
001f
ffea
003a
fffa
ffb2
ff31
0011
ffc2
00bb
0003
006f
0010
001c
00c6
002c
0040
fffc
0029
ffe1
ff7b
ff8c
0185
00c1
ffcb
0020
ffb5
fff4
ff92
0050
0095
0037
0028
ff44
ff81
0044
ffb8
ffe6
fee7
ffd8
0069
ff8a
0053
0097
007e
ffb0
febd
ff0a
0071
ff87
0050
007e
0010
0035
ff37
ff87
0080
ff22
0044
fff7
ffb2
ffff
ff55
0008
fffa
ffd9
00af
0015
ff71
ffa6
ff42
0022
ffea
ff0a
0049
ffb6
ffe3
0019
ff1c
00cd
0030
ff7a
ffef
002c
fff3
ff9e
ffbb
ff5d
ff71
fed8
ffd2
ffc7
0000
0007
ffff
ffee
ffd1
0075
ffff
0058
0039
0016
006d
fff1
008a
ff15
00a6
006a
006a
ff5b
000d
ff9b
ff8c
fe8f
001b
ff31
004e
ffe0
ffb0
008a
0040
00c2
0026
0058
ffbc
0025
00c0
ff24
004c
ff43
0013
0000
0053
ff87
ffae
ffa6
000b
feac
ffbd
ff91
0005
000a
0031
ffd3
0030
00eb
0026
00e2
ffd9
ffd8
ffe9
fffc
ffe9
0040
ffe4
001d
ffca
0007
ffd6
fffd
ffcf
0083
0026
fffe
ffd6
ffff
ffb5
0012
ffd7
0040
ffee
0007
ffe5
fff6
fff4
fff9
ffdf
ffe3
0039
005d
0019
fff7
ffd8
0010
fff4
0035
001e
ffc6
ffd5
0004
ffa7
0016
ffe2
fff3
fffb
fffb
ffdf
0005
ffe5
ffc8
ffeb
0027
ffd5
fff2
0030
fffe
0004
000e
fff7
0052
ffec
fff0
ffc3
0003
0028
ffdd
ffdd
0023
fff1
0001
ffeb
ffea
ffe2
fff8
ffd3
00a7
ffb6
fff0
000d
ff9c
00d8
001d
0085
0060
ffef
ff52
0092
ffd2
01ad
01ad
01a1
00a7
ffe3
002c
008b
fff8
00e5
00a7
0108
ff91
ff80
0000
0051
008b
0026
0083
004d
ff96
ff6b
003a
ff13
0140
fed9
ff17
011a
ff73
ffa3
0007
ff81
0097
ffe4
ff27
005e
ffb5
ffa5
0056
0031
0071
ffd0
0023
ffab
ffd8
0013
0056
0001
0039
0032
ffa4
ff7c
ffa5
0017
002b
0032
ffbd
ffc6
ffd0
ff98
0000
0001
ffff
0000
0000
0001
0000
0000
0000
0000
0000
0000
0000
0000
0000
0000
0000
0000
ffff
0000
0000
0000
0000
0000
0000
0000
ffff
0000
0001
0000
0000
0000
0000
ffff
0000
0000
0000
0000
0000
ffff
0000
0000
0000
0000
0000
0000
0000
0000
0000
ffff
0000
0000
0000
ffff
0000
0000
0000
ffff
0000
0000
0001
0000
0000
0000
0000
fffe
0000
0000
0001
0000
0000
0000
fee5
fff9
ff97
0085
00b2
ffb4
ff65
ffd3
0113
0006
0005
0040
ffe6
004c
00bf
ffd0
010a
ffc7
002c
003d
00b3
0012
fff0
00de
ff15
002e
001e
006a
0024
ff94
ff91
ff97
00f8
0014
0071
ff85
ff76
ffe8
00aa
000e
011f
ff1c
ff99
ffea
010c
0026
ffb8
0043
ff0a
005d
ff7e
0061
00c6
001a
ffae
ffd6
015c
ffd4
0090
ffd4
ffd9
ffda
0076
ffd0
0149
ffc5
0097
ffa1
009c
ffee
ffc0
0024
0020
0000
ff96
009c
0077
0068
0001
ff85
0055
ffff
ffe1
ff9a
ff5f
00bd
00b7
ffe5
fffc
fffc
ffc1
00d6
003e
ff95
0008
ff6b
00a9
ffff
ff81
fff5
000d
009f
0065
ff6d
fee8
ffff
0107
ffe8
fef6
0126
0073
ff26
ff49
fffc
0086
0118
0035
ff02
0052
ff36
00b2
fffd
ffc7
ffcc
001f
0024
0039
ffd6
ff3f
fffe
ffe8
ffbc
003a
00bd
005b
ffcd
005d
fffb
0022
00a0
0017
fe9c
ffe0
fed4
ffe8
0000
0060
003d
0019
ff9b
ff5e
0037
ff82
0000
0087
0004
ffed
0019
0091
ffa6
0014
0000
ffd8
ffbc
ff71
ffd1
004b
0031
ffcb
0000
00a1
0072
00b4
fff3
fec9
010f
00e0
0000
0028
0024
fff9
0043
009d
0015
ff9c
0000
ff6f
ffa7
ffcb
ff99
0000
002c
ff2e
0000
0092
0092
0025
0049
002b
ff9b
002c
0000
00c4
00a9
ffab
003a
0015
ffb1
000f
0000
ffb7
fff0
ffd0
ff9b
0019
0013
0022
0000
ff94
fe89
ff49
0009
ff9a
0064
0020
0002
ff82
fee0
fee5
ffad
ff02
ffdb
ffb5
0000
ff52
ff87
003c
0000
ff0f
0031
ff8e
0000
ff6b
ff40
ffbd
0032
ff95
0001
ff53
0001
ff9d
0089
0002
ffc8
ffc0
ff91
ff2f
0001
001f
001c
0075
002b
ff7e
ffb8
ffc7
0000
ffab
0064
ffeb
fff0
fff5
ff9e
0041
0000
ffec
005f
fffd
ffff
ffaa
ff9d
00ea
0001
ffdd
0027
ffab
0039
001f
ffa3
ffe7
0002
006b
000f
0073
ff87
ffce
0012
fff4
fffe
fffb
ff6d
feec
007e
ffd2
0063
0032
fffd
ffee
0021
003f
ffc8
006e
ffbf
00a0
0002
0007
00ac
002f
ff1b
ff92
0018
0022
fff9
0048
fef8
ff26
00c1
fff3
0087
ffc1
fff9
ffd5
002b
fff7
ffd3
0022
0009
002c
0009
008d
0000
ffbf
ff86
0058
0029
ffd0
fffd
fffc
ff80
007a
002e
ffea
0043
0000
0001
0042
ffea
ff8e
ff70
fffa
0017
ffc5
0000
ffcc
0014
002c
ffcc
ff81
ffe3
0011
0000
0041
ffd1
ffbe
000b
ffea
ffef
ffee
fffc
ffce
ff82
fffa
000e
ffe2
0030
0029
0001
ffe5
0009
ff97
ffc9
ffb5
002a
0048
0000
002e
002c
ff73
000e
0006
ffff
fffe
fffd
ffc5
ffe7
0000
ffff
0017
0012
ffd2
0000
0014
ffb5
000c
ffef
001a
0025
ffe9
ffff
0020
fff5
002a
0000
0017
000b
