ff9c
ffaa
ffc9
0000
0000
0000
0000
0000
ff7e
ff96
0006
0000
0000
0000
0000
0000
ffb0
ff9e
ff8c
0000
0000
0000
0000
0000
ffe5
ffe7
fffa
0000
0000
0000
0000
0000
ff8f
ffb9
0000
0000
0000
0000
0000
0000
ffae
ffcf
ffac
0000
0000
0000
0000
0000
002f
0032
0026
0000
0000
0000
0000
0000
ffec
ffc1
0028
0000
0000
0000
0000
0000
0000
ffd5
ffa5
0000
0000
0000
0000
0000
0068
ff84
000e
0000
0000
0000
0000
0000
001b
ff74
ffea
0000
0000
0000
0000
0000
0011
ff9b
0002
0000
0000
0000
0000
0000
0052
ffa5
0030
0000
0000
0000
0000
0000
004f
ff90
000c
0000
0000
0000
0000
0000
0004
ff89
fff3
0000
0000
0000
0000
0000
0054
ff95
002c
0000
0000
0000
0000
0000
003a
ff96
0017
0000
0000
0000
0000
0000
ffeb
ff79
ffe0
0000
0000
0000
0000
0000
0225
01f1
0017
0000
0000
0000
0000
0000
ffee
ff97
ffd5
0000
0000
0000
0000
0000
fe28
fd67
fec7
0000
0000
0000
0000
0000
01c4
021b
0052
0000
0000
0000
0000
0000
007b
0091
00de
0000
0000
0000
0000
0000
fe9a
fe52
ff80
0000
0000
0000
0000
0000
007c
0143
ff9e
0000
0000
0000
0000
0000
ffc3
003d
00a8
0000
0000
0000
0000
0000
feba
fed3
0036
0000
0000
0000
0000
0000
0084
fffd
ff67
0000
0000
0000
0000
0000
0016
ff78
ffab
0000
0000
0000
0000
0000
fe2b
fcd4
fe9e
0000
0000
0000
0000
0000
003a
0041
fff9
0000
0000
0000
0000
0000
feb1
fe2a
ff53
0000
0000
0000
0000
0000
0185
0254
0258
0000
0000
0000
0000
0000
0012
003c
fff3
0000
0000
0000
0000
0000
fffb
ffe6
003f
0000
0000
0000
0000
0000
ffbd
00b2
fff8
0000
0000
0000
0000
0000
0019
ffe3
0061
0000
0000
0000
0000
0000
ffee
ff88
007e
0000
0000
0000
0000
0000
ffe6
ffaa
0092
0000
0000
0000
0000
0000
ffce
ffa6
004a
0000
0000
0000
0000
0000
ffd1
ff52
006b
0000
0000
0000
0000
0000
ffc1
ff5d
0079
0000
0000
0000
0000
0000
ffef
ffcd
0070
0000
0000
0000
0000
0000
0003
ffa6
007a
0000
0000
0000
0000
0000
fff3
ffb3
0080
0000
0000
0000
0000
0000
ffad
ff7f
ffc8
0000
0000
0000
0000
0000
ffde
ffbd
0003
0000
0000
0000
0000
0000
00c9
00c7
0070
0000
0000
0000
0000
0000
007b
0074
0053
0000
0000
0000
0000
0000
009a
00a2
0088
0000
0000
0000
0000
0000
01a9
01d2
0126
0000
0000
0000
0000
0000
feda
fee0
ff56
0000
0000
0000
0000
0000
ff04
ff07
ff8a
0000
0000
0000
0000
0000
ff3d
ff62
ff67
0000
0000
0000
0000
0000
ffa9
ff2f
0028
0000
0000
0000
0000
0000
fe6d
fdda
ffd0
0000
0000
0000
0000
0000
fd59
fcb6
feee
0000
0000
0000
0000
0000
ff54
ff5d
ffb1
0000
0000
0000
0000
0000
ff3d
ff72
0031
0000
0000
0000
0000
0000
fddf
fe22
fee6
0000
0000
0000
0000
0000
0185
014f
ffae
0000
0000
0000
0000
0000
0216
029d
0037
0000
0000
0000
0000
0000
04a1
0594
0232
0000
0000
0000
0000
0000
001a
fff0
007f
0000
0000
0000
0000
0000
0088
ffd9
0057
0000
0000
0000
0000
0000
005c
ff5f
008c
0000
0000
0000
0000
0000
ffc5
ff16
ff72
0000
0000
0000
0000
0000
0040
fefb
ff70
0000
0000
0000
0000
0000
010c
ffb9
00b2
0000
0000
0000
0000
0000
010b
0054
006a
0000
0000
0000
0000
0000
00aa
ff48
ff9b
0000
0000
0000
0000
0000
0088
feee
fff5
0000
0000
0000
0000
0000
42d2
da6a
b8a0
e35b
e83d
91ce
2484
1df3
170a
eeb4
f86b
fd15
fa7f
fedf
0157
0061
00d9
0097
ff3b
0000
0000
0000
0000
0000
0189
012d
0089
0000
0000
0000
0000
0000
0053
0002
ff81
0000
0000
0000
0000
0000
ff96
ff84
ffd3
0000
0000
0000
0000
0000
fdb9
fce8
ff95
0000
0000
0000
0000
0000
ffb8
ffbd
0069
0000
0000
0000
0000
0000
0016
006c
ffbb
0000
0000
0000
0000
0000
ffb5
ff64
0058
0000
0000
0000
0000
0000
0016
0039
ffff
0000
0000
0000
0000
0000
ffc0
ffaa
ffc8
0000
0000
0000
0000
0000
ffd2
ffa6
ffe8
0000
0000
0000
0000
0000
ffd1
ffa7
000d
0000
0000
0000
0000
0000
ff99
ffbe
0046
0000
0000
0000
0000
0000
ff90
ff97
000f
0000
0000
0000
0000
0000
ff88
ff80
002d
0000
0000
0000
0000
0000
ff64
ffb6
0034
0000
0000
0000
0000
0000
ff55
ff8b
ffce
0000
0000
0000
0000
0000
ff5d
ff4c
ffe2
0000
0000
0000
0000
0000
005b
0021
ff7f
0000
0000
0000
0000
0000
fffd
ffd2
ff8d
0000
0000
0000
0000
0000
0006
ffcd
ffa6
0000
0000
0000
0000
0000
0097
003d
ffb2
0000
0000
0000
0000
0000
0014
ffe2
ff9d
0000
0000
0000
0000
0000
000b
ffc8
ffb1
0000
0000
0000
0000
0000
00b0
0054
ff93
0000
0000
0000
0000
0000
0019
fff6
ff8a
0000
0000
0000
0000
0000
0012
ffdc
ffa4
0000
0000
0000
0000
0000
ffcc
ff8e
fe2a
0000
0000
0000
0000
0000
00f1
00c3
ff29
0000
0000
0000
0000
0000
00e3
00ec
ff83
0000
0000
0000
0000
0000
0065
ffef
fe5c
0000
0000
0000
0000
0000
00bf
0075
fecd
0000
0000
0000
0000
0000
0103
00f1
ff6e
0000
0000
0000
0000
0000
00b7
004c
fec5
0000
0000
0000
0000
0000
006e
0030
feb9
0000
0000
0000
0000
0000
00ad
00ac
ff55
0000
0000
0000
0000
0000
02d1
03a4
0075
0000
0000
0000
0000
0000
ffb5
ff80
ffc0
0000
0000
0000
0000
0000
fba6
fb86
ff82
0000
0000
0000
0000
0000
02fe
036e
0026
0000
0000
0000
0000
0000
0111
00bb
fff7
0000
0000
0000
0000
0000
fcf8
fc76
0026
0000
0000
0000
0000
0000
01a0
0226
ffca
0000
0000
0000
0000
0000
0119
00c4
fffc
0000
0000
0000
0000
0000
fe1e
fdbc
005c
0000
0000
0000
0000
0000
fca2
fcbf
fe6d
0000
0000
0000
0000
0000
0162
012e
00b9
0000
0000
0000
0000
0000
ffee
ffcf
0006
0000
0000
0000
0000
0000
fec5
ff06
0014
0000
0000
0000
0000
0000
023a
0220
00d0
0000
0000
0000
0000
0000
00e4
00f3
0042
0000
0000
0000
0000
0000
fed1
ff09
0019
0000
0000
0000
0000
0000
013d
011f
ffd3
0000
0000
0000
0000
0000
0034
0031
ffea
0000
0000
0000
0000
0000
0027
fff9
ffe8
0000
0000
0000
0000
0000
ffdb
ffff
000d
0000
0000
0000
0000
0000
ffeb
0007
000b
0000
0000
0000
0000
0000
000d
0001
ffef
0000
0000
0000
0000
0000
ffed
ffe8
ffd5
0000
0000
0000
0000
0000
0015
0015
0003
0000
0000
0000
0000
0000
0000
0014
0017
0000
0000
0000
0000
0000
0007
000e
fff2
0000
0000
0000
0000
0000
fffa
000c
0001
0000
0000
0000
0000
0000
0031
fff1
ffeb
0000
0000
0000
0000
0000
0078
008e
004a
0000
0000
0000
0000
0000
ff8e
ff9e
ffe3
0000
0000
0000
0000
0000
011e
00e0
0024
0000
0000
0000
0000
0000
00c5
00c9
ffe3
0000
0000
0000
0000
0000
0080
006e
0033
0000
0000
0000
0000
0000
00a4
0090
ffea
0000
0000
0000
0000
0000
0083
009c
ffc4
0000
0000
0000
0000
0000
ffec
0021
0000
0000
0000
0000
0000
0000
23fa
ec62
186c
f817
d326
be89
e71f
dc1c
1803
f074
fffc
1106
03f9
00d5
f197
1b2f
