0004
fffc
ff45
0004
0013
ff8e
ff68
ffcc
feb7
0000
0053
00dc
ffe6
012e
0024
0088
0030
fffe
febd
feaf
ff10
0062
ff88
00c0
0004
0001
ffa9
001a
fff8
ff61
ffc4
00f2
ffcb
0000
ffb5
00c4
ff13
0107
ffbc
ff71
01ca
ff93
ffb8
ff74
ff87
0177
ff5a
001e
0002
0002
fe65
0012
fffe
ff60
fefb
fffb
fe57
0003
0063
003f
002c
0086
002d
ffb0
ff4b
0006
0048
fec6
ffc4
ff24
ff9f
005d
0005
0003
00af
0077
0049
00b6
0015
00af
0056
0002
fe80
0091
00b3
ff1b
0125
fe5f
0311
ff84
0100
0103
0025
ffa7
0145
fffa
fff9
0005
ffd8
0046
00b9
008e
0040
ff16
ffd4
fffd
0074
00ba
0032
0102
ffbd
fff3
ff47
ff91
ffbc
ff41
feb6
008f
ff34
ffdb
0000
fffc
0000
fff0
0000
fffe
0000
0000
fffa
0006
fff8
fffe
fffc
fff8
fff1
0005
0008
0000
0000
0002
0003
0001
fffc
fffe
fff6
0003
fe7f
ffb8
ffc5
00e9
012c
02ae
ffcc
0004
014c
0090
fff7
0108
ffd4
0169
ff6c
ff98
ff3d
006e
fff2
0114
ff9a
0108
fffc
fffd
ffb4
0023
ffb4
ffe4
ff42
ffc8
ff96
ffff
003f
00d4
feb3
00e0
0075
ffbf
febd
ff35
fe8f
ff4d
fe89
0045
ff7a
008b
fffe
fffa
00da
0040
ff9e
ff8a
ffbb
ff09
ff94
fffb
ff8d
004d
ff2c
00a8
fed9
fff7
0097
ff19
ff70
ff58
ff90
ffc6
feae
0007
ffff
fff6
ff3b
0037
0128
fe7c
00dc
ff55
fefc
0001
004d
0163
ff1b
01cc
ff7b
0170
00e3
ffcd
ff79
fe7b
ff68
0026
ffc2
00a2
0001
fffa
ff93
0018
0066
000e
ff07
0012
00ae
0007
ffb4
0041
0018
018c
016f
00e9
ffe3
ffa5
febc
fe96
ff9a
0111
ff60
00c2
ffff
0009
ff96
0020
fde8
ff0e
0118
0045
00f7
0001
0167
019d
000c
00cb
fe36
ff7c
fff7
0020
ff12
ff11
ff5a
0158
ff86
fe61
0002
fffc
ffbc
ff9e
ffad
ffd0
ffcf
ff88
feb7
0002
ff70
0033
00ca
ffca
ff53
ff7e
00a5
fefd
ffec
ff1f
ff89
ff44
fe0f
ffdd
0005
fffc
00f2
0028
ff90
ff88
fff4
00dc
0142
0002
ffe8
ffe1
ff81
ffce
0003
ff41
fff0
0088
0017
ff6e
01dd
0053
ff87
fedb
fffb
ffff
ff9f
0013
ff75
ff9e
008d
0030
ffdb
0002
002e
00db
0000
fffd
0095
fea5
0025
feee
fef5
0281
fe79
ff30
016c
febb
fffa
0001
ff0f
0018
009b
0021
0058
025f
0059
fffb
01ce
024b
ff25
0205
ff7a
fee5
ff9c
00a8
ff1f
ff69
008d
0130
0176
fe3e
0003
fffe
0023
ffde
0331
0164
0085
ff59
003b
0004
ffc4
ffc5
0223
ff97
ff4e
ff4c
ffed
ffb3
00db
0085
ff90
ff98
005f
fff0
fff0
fffc
febd
ffa6
ff77
010a
ffe9
ffaa
ff91
fff6
fec5
fe38
ffd9
ff03
ff05
004a
01e5
fe8d
0043
ff50
feff
ffaf
ffcb
fffd
fff9
fffe
feeb
ffee
ff4e
ff52
0089
0191
ffc1
ffff
0029
01f9
00a0
fffc
010f
00ee
0134
ff69
ff6f
fffc
ff4f
0158
ffe2
008c
fffe
0000
00b8
001d
000e
ff4c
ffdc
0008
0122
fffc
0062
fe8f
0045
fea9
0056
fef3
ff4b
ff85
0111
0116
0063
ffc3
0050
fd8e
ffff
0000
00b3
ffca
0056
006a
01db
00a2
0134
0001
00bf
fff8
ff01
ffd6
fe41
00d3
005c
0061
006a
0158
0047
004a
005e
ffc8
fffd
0000
01c3
fff1
ff08
0160
005a
000e
00a4
0002
ff7d
000a
ff2f
ffe2
fefb
ff7f
feed
ffe7
ff28
ff55
ff8e
000d
ff7b
0071
0000
fff8
ffd9
fffb
fd70
01cb
001a
002e
ff30
fffd
0025
ffa3
ff49
fefe
ff99
ff22
ffcb
003c
007d
ffa6
00a1
0052
00f9
ff54
0004
fffd
fe2e
fff9
ffd2
ffad
0089
0073
ff6a
0001
fff2
ffbc
feab
0010
ffd4
0095
00ab
0066
0035
00b2
003b
0158
ff7e
006e
fe98
008b
006e
0050
fea1
00bc
fffc
fea5
010a
0092
00a6
ff74
016c
0002
ffd8
0038
0006
002b
0057
0000
0172
0004
0018
002b
017a
ff66
fe83
fd7d
fe33
008e
0005
ff86
00a4
0075
00b9
01a6
01c6
fffb
0020
ffa1
fff8
0011
005d
0001
ff61
0006
0021
ffbd
ff12
ffbc
002c
ff78
fe1e
ffd9
0000
fefa
fe00
017d
ff51
027f
0146
0002
ff84
01ec
000c
ffd2
00de
0000
ff07
fff3
0081
ff6f
01ca
fcc9
0170
ff17
00ec
fff1
fff3
ffe9
00e3
fe18
ff6f
005a
fd15
0000
00c4
0064
ffef
0027
0014
0000
fff8
0000
feab
00b1
ff4d
003d
ff70
fe9c
ffde
ff30
0001
feed
005f
01cc
ff1a
ff32
0131
0007
0021
006d
000e
fff2
ffec
0001
004c
0005
ffe0
ff35
fff9
fff2
0001
ffed
0001
fff4
0008
000a
0008
fffe
0003
fff4
fff9
0000
fff5
fff8
0009
ffff
0009
0000
000a
ffff
0006
ffff
fecb
ff5f
fe58
fff6
ff67
00c6
fffb
ff2d
fe71
0229
002f
0154
ff8c
fffd
fda8
006b
0000
ffa2
0007
0000
feb3
fff5
0007
ff9c
fec9
000f
0064
ff20
feb0
ff26
fffb
ffac
0093
0058
0073
ffab
019f
0001
00d9
004c
ffe1
0085
0065
0001
ff34
ffed
ffd1
ff6e
ff5d
ff32
ffe4
fed5
ff80
002a
0000
ffc9
0018
ff14
0011
0072
ffe6
0004
0111
ff9c
fff7
ffc6
0066
0000
00b7
fffe
00b9
0036
ffad
0023
016e
fec7
ff35
0038
fff7
ff47
0189
ffd4
00c2
ff21
feb9
fffb
ffe1
0015
fff1
ffb4
0012
ffff
ffc8
0003
ff1d
0320
ffc4
00d9
ff31
00b6
000a
000e
0006
ffc3
0099
0140
ffc5
ff5c
ff6e
fffb
000a
ffa2
ffea
ffd8
002d
0000
005e
0006
00a3
ffd0
feda
ffb1
0149
ff77
ff32
ffee
0000
fe6e
fed1
008f
023c
000b
0154
0009
ffae
ffc1
0001
ffe8
fed6
0001
fe55
0003
0004
000e
014b
fffc
0047
ffc2
ff51
fe70
0000
0063
ffd6
ffd5
ff73
0024
00d7
fffb
ff8b
ff5e
fffc
ffa9
ff24
0000
0060
0002
ffd0
0067
ffca
0072
0124
00cb
ff2b
ffa5
fff7
ffef
fe04
00f4
fff4
ffc3
006b
ffff
fe48
ff69
0016
003a
fe7c
0000
ffe8
fff7
ffce
ff75
ff6a
ff1b
00bc
ff2f
ff1b
ff5e
0003
fee0
ff12
fea0
0168
ffb2
00ad
0002
012d
0098
fffc
ffe4
fed9
0000
006d
0001
0203
004f
ffaa
ff31
0127
ff16
ffac
0097
0000
ff04
ffdb
0118
0218
0057
00cb
0002
fe17
00ba
ffe6
0023
fd51
0000
007f
000c
ffe2
000e
fffb
ff7d
ffe0
0108
00e2
0005
0001
0066
005f
ffc3
ffd0
ff38
fe53
0002
0001
ff48
ffe6
004d
ff5d
0001
005d
0006
feb8
ff48
ffac
001a
ffff
ff0e
ffd9
0027
fffd
ffe8
fed0
ff60
ff50
ff7c
00cd
0000
ff49
001f
ffd8
ffd4
00a0
ffff
ff5a
0009
0023
00da
ff4c
feff
00c9
ff57
ff2c
01ff
fffd
fec5
ffaf
002b
0025
00b3
fe4b
0000
ff40
00dc
ffb5
ffe6
ff69
0000
ffcf
fff5
0036
0086
ffd5
0095
ff51
00a8
00ed
0071
0000
0220
fecd
ff75
ff58
0167
0084
000d
011e
ffbd
fff8
003a
fd98
0000
ffd1
fffc
00aa
fe0a
ffb8
0095
fee1
ff8f
ff94
0060
fff5
00bd
0071
00fc
0144
fed3
002a
0000
fecb
ff6f
001b
ffee
ffef
0000
fff8
0014
0029
0110
ff40
ff76
0061
0036
ffb3
ff0e
ffe5
ffa2
fefd
0083
ff23
fff8
0018
fffb
feba
ff12
fff7
ffb2
005c
0001
ff9d
fff7
ffbd
ffaa
ffe2
003b
ffda
019f
0091
ffa7
fffa
00bc
ffba
010f
ff3a
ff83
ff40
000c
ff70
ff50
fff5
0052
0145
0000
fe1a
0000
feff
ff85
000b
fe25
fe78
ffa7
fedb
004d
0005
ff0e
fff1
0074
ffa9
002d
ff31
0000
0011
00d9
ffe2
ffef
0081
0000
001b
001d
ff66
0089
0001
0049
00ee
0093
ffc9
ff64
ff1d
ff4d
009a
ffa8
0082
017d
ff51
ff5a
ffff
005a
ff9a
004f
ffb0
ff4d
ff23
015e
ff04
fe5c
0008
00ac
003e
00cc
013f
00b7
ff85
fde2
fe2f
fe03
fdd0
005e
ffb9
ffbc
0001
00e1
0104
ff61
0131
0070
0072
01fe
005b
01b6
fff7
018b
004b
ff25
0047
0001
ff6a
ff72
fe9e
ff01
0060
ffa8
fe7d
feeb
0126
008c
fe38
fe32
fe9f
fe94
ff52
ffbd
fef7
002b
fffc
0095
fe82
fe4d
017e
fede
0104
ff31
0100
00b0
ff2f
ff1b
ff91
ff2f
ff6c
0055
009e
008c
0067
00a3
ff75
fe25
0126
0070
0005
fe98
0104
0025
0041
0019
0040
ffc5
fff3
004d
008d
0125
fed3
fff0
001c
0037
ff2f
ff5f
ff2b
ffe0
fefe
01ff
ff79
ffe2
fff6
0002
0005
fffd
0001
fff9
000c
ffff
0005
fff0
ffff
fffc
fff9
fffd
0000
fff7
000b
0003
0001
fffc
fffa
0006
0001
ffff
fff7
fef9
0163
000e
feb8
00e4
00f4
fff9
fee9
ff6b
fe4c
0136
fe45
0079
0187
ff6e
ff80
ff2d
00a0
ff59
fdfd
014c
0014
0012
fffd
00c1
016a
0203
009a
00f6
ff51
ffd6
0103
00c6
00a5
0130
ff31
ff4a
ff53
0055
ffb5
0029
ff5c
ff9b
017b
0117
ffaf
0046
0005
ff34
001c
0077
00e9
00b8
fe8d
ff7f
ff17
00bc
ff83
00c4
00ce
ffef
ff6e
0005
0026
003f
fff6
0068
ffe1
0145
0076
008a
ffef
ff2c
ff9a
00eb
003e
ff1f
fec0
feb9
fff1
0066
fe68
00b3
001d
ffdd
fef0
005f
0058
0111
ff24
feec
ffd4
fe8a
002f
003c
0002
ff49
00dc
ff49
0046
0041
ff94
000f
002a
009a
0014
008b
ff7e
002f
003e
ff4b
ffff
ffd9
0029
0093
00cd
007d
ff9d
ff3e
000f
00f7
0171
01d3
ff38
ff26
ffe2
fee6
0022
ff86
ff13
00ae
0028
fe37
00c1
ffce
0183
ffe0
0190
ffe8
ffe3
00e6
ff7c
ffa4
fffa
0070
ffbf
ff62
00a5
ff54
ff1a
ffb3
ffc1
ff3a
ff8e
fff4
ff75
ff97
007f
ff3f
ff04
0061
ff6d
0031
ff76
ff64
fffc
0042
0000
00bc
003f
0041
ff2c
ffa0
ff7c
0065
ff2b
006c
ff22
fef0
0105
0116
000f
fff5
0017
ff7f
0119
ffce
0043
ffe4
002c
ff7b
000d
0092
0037
023b
011b
001c
fe43
ff16
ff36
ff93
0012
fe94
015d
ff3b
023d
ffce
0162
ff07
ffc2
feee
fec6
0069
ff1f
fece
fff7
000a
01a7
0102
ff06
fff5
ff83
fe42
0000
fed8
fe61
0162
ffc9
ff97
0165
ffa6
023e
ffce
01ff
ff4b
ffd1
0156
ff80
ff5a
0000
fff5
ff7b
ff0c
ffd0
ffeb
008a
002c
007a
ffbf
0041
ffcd
004c
ffab
ffc9
005f
0022
0103
0085
ffc7
fe4d
fec2
00dc
002b
ffed
ff47
fe7e
ff41
00a2
005e
ff67
0080
00d2
01f7
0034
fec4
ff02
0032
ff77
ff55
feae
ff36
ff76
0031
ff42
004f
00fa
012d
fff8
ff57
ff45
004e
01dd
01c7
007e
fe5b
fea1
fec6
ff4d
011a
ffac
ff23
0153
0041
ffdb
ff02
fff9
fff0
fe78
ff55
ff1d
ff45
fff8
01dc
fed0
006f
0008
0031
ff10
ffcf
ff53
00da
0004
fd9f
0158
0022
ffe2
fe2e
009f
fee4
00e7
0129
001b
feb1
0069
fff6
0007
ff6f
0054
00e8
ffe8
fff5
0078
ffd1
ff28
00b5
ff35
0088
0111
00be
0030
010a
0016
ffd7
00b8
002c
ffe6
00a7
012e
ffb5
fffc
fff8
0001
fedf
ff70
ff77
fe2c
0042
ff3a
00e2
00fa
0079
ffb1
0036
0064
fefc
ff2f
fe0a
0081
004a
fe69
ff79
ffd7
ff16
0005
ff3c
ff3e
ff20
fff4
0026
ffcc
0074
009d
00fc
ff37
003f
fe77
0129
ffb8
0187
ffde
ffcb
ffa6
0110
ff4b
fff0
0042
0000
0006
ffee
0096
ffe4
0069
0079
ff9b
ff3c
fe7c
fda8
feb6
ffbf
ff32
ff55
004e
ff99
0033
fe61
0134
ff09
ff9d
0002
ffb3
004f
00c8
0065
ff00
00f2
00f3
ff40
0004
00f5
00ad
0032
0003
00d7
fe1f
001a
ffc9
ffec
010a
ffa7
0004
ff5f
ff59
fffe
ff3b
fffa
0090
ffb8
feee
01bf
ff03
0152
fff8
fd18
ff87
ff76
0006
0012
fdb6
0154
ffc6
0069
fb3a
0180
fd8c
01e3
fe56
0008
002f
0011
000a
000e
fe06
fea2
ff94
fff6
0000
ff32
0043
fe1a
ffff
021a
0042
fe1d
001c
006e
00e2
fd9b
006c
ff2a
fe29
fffe
ff5a
000e
0075
fe78
0037
016e
ff6f
000d
0000
ffee
fe1a
01de
fff3
feb9
0133
ffe6
0048
fefb
ff45
ff34
fe96
009a
00ad
fffa
0065
fffc
0094
0107
ff73
0139
004e
fe49
fffc
ff9d
0074
fe23
ffff
0048
fdb5
0107
ff69
00ce
0093
0074
ffd4
ff08
0010
fff7
001d
fff6
0001
fffd
ffff
0002
fff7
fffe
0000
0005
0004
0004
0003
0006
0006
000c
ffff
0004
0000
fff9
fffd
0004
ffff
0000
fffe
0008
fff9
00fa
ff58
ff83
007d
fed0
0007
ff67
00e7
ff06
0003
003c
ff60
fee4
0044
ffdb
ffbe
01b5
ffb0
ffde
ff93
0002
00b1
fffa
00a5
00d1
ff11
fff1
00cd
fffa
0002
005a
01b7
ffe9
0001
015b
ff4d
0172
ffed
ffb6
017e
fff3
0070
ff4f
fff5
ffff
0072
0008
ffe9
0056
0009
0137
ffb6
00af
fffe
ff3b
ffbf
0039
0004
001c
fdf2
ffa9
fffc
004a
002e
0082
0000
0076
ff2a
0000
fef5
0014
01e4
ffc6
ffef
ff64
0008
00aa
0000
003b
00ac
ffb0
0006
0013
fea5
00d0
0019
fe4e
007d
0013
ff9c
0055
0007
ffed
fe41
0000
00bb
fff8
ffc2
005e
004d
0095
0009
ffd5
002b
ffb3
0007
0074
ff82
ff9b
0016
0000
0186
feeb
ffe9
ffab
ffb5
ffff
ffc3
fff6
014c
ffd7
0045
ff35
fec6
0011
fffc
ffdd
0103
fde4
0001
0023
008e
01b5
fff3
ff7a
fe93
0072
ffd4
feb7
ff6e
0002
ffe4
ffee
ffda
0050
fee5
01e4
0033
fee9
0000
01a9
ff51
ffc3
0000
0066
0088
fed4
ffc4
ffc3
fe28
fed8
0003
0081
008c
fff5
ff91
ffec
ff3f
ff61
ff80
feb4
ff70
0043
0001
ffc9
ffd0
fe3f
0000
0021
00e6
00ce
ffbf
ffd8
0146
006e
008d
ff0c
0076
fffe
ff65
0008
01b4
ff2d
ff5f
0044
ff9a
0127
0005
ffa0
fecf
fe26
fffd
0148
ff51
007d
0025
fed4
0144
002f
ffa6
fe2e
fe79
fffb
006c
0000
0070
fee6
006f
fe8e
0031
ff57
0007
ff92
012a
ff9b
0005
00ee
ff82
00ae
0023
002a
00f4
ffcd
fe41
fe9b
fe73
fffd
01e5
ffe8
ff7d
ff79
003c
ff5f
0093
fefe
fffc
0131
ff80
0031
000a
ff33
00a4
ff4f
0019
fffc
fe00
fca7
ff4b
007c
0124
fff7
004d
0010
ffc8
0034
0016
ff2d
ff6c
fef6
fff5
00de
ff5b
ff18
fffe
0080
ff92
ff2d
ffed
007b
039f
005b
023e
ffb9
0182
fffa
fef1
0002
01f0
fef2
ff28
ff9f
fea0
0111
ffff
ff6a
ff2c
fecb
fffd
0038
ffc3
ff33
ffd2
ff71
0007
00f6
ff01
fe0e
fefd
000d
0062
fff0
fe95
fdda
0145
fd70
0087
00a9
fffc
ff66
fe53
0195
0008
fe63
01d9
01b9
fff6
fee4
fd21
024f
ff85
ffda
0079
0000
011b
0006
00bf
ffdc
005a
002d
ff7a
00dc
0000
ff2a
ff65
ffa9
fffe
0080
ff05
0023
0010
ffdd
003b
020f
ff86
0054
0096
0000
0031
fffb
ffb2
ffc9
ffc6
ff82
0083
feb2
0001
0060
002e
006b
fff8
ff8d
0065
ff5a
0016
016e
0049
0102
00eb
fe54
0096
0001
0040
fffc
003f
001c
ffd1
00cc
0050
fe98
fffc
006a
ff61
ff89
fffd
ffa4
0068
ffe5
0039
0124
00b7
0184
ffdb
0001
0119
0004
ffda
ffeb
0094
fff3
008f
fe95
fedd
0167
fffe
fe48
ffad
ff44
0004
ff92
ff1b
ffa6
ffef
ffb7
fdf0
ff40
ff62
ff4c
ff7d
0002
00b6
fffd
0014
ffff
ff17
ffae
00fa
009e
ffa1
0048
002e
fe31
0015
0029
fffa
fffd
00ae
ff2a
000e
0069
fed9
ff75
0107
ff8d
007d
ffdc
ffa8
fffc
ffe2
0128
023a
0155
00d9
000f
ff15
00ff
01f4
ff8f
ffef
0006
fddf
00eb
0119
0020
ff9c
010b
004e
ffdf
0141
00e6
ffff
fffe
fdf2
ffe7
ff6e
ff94
ff9f
ffa7
fe0f
ff28
0237
0010
ffff
0000
001e
0350
ffbd
0000
ff94
ff11
ff76
002d
010d
ff47
015b
fffe
0055
fed0
0145
fecf
0074
0070
0138
0085
0053
00a4
fffb
fffe
012c
fffc
0089
0003
0095
0164
0059
fe62
ff97
0065
000b
ffff
ffb1
ffc1
01e8
0050
fffa
ffe5
ff72
fed8
ffca
012b
ffcf
0004
fe50
00a9
ff24
002a
ffeb
fe85
002a
ff3d
004f
ff8f
0009
0000
0000
0004
fff4
0001
ffff
0008
0003
fffc
0000
ffe6
fffd
0007
0006
0017
fffb
0003
000d
0000
0000
0006
0000
0001
ff7b
0000
fd24
ffbb
0146
ff73
ffaa
00bf
ff11
0072
011a
0034
0000
0003
ffad
0127
ff96
ff73
0069
ffa9
fec8
006b
0091
01e7
ff8f
fffa
ff91
00d6
01ba
0094
ffaa
0025
ffd2
ff4d
0019
00c4
fff9
0000
ff5a
0058
ffb7
0113
fffc
ff94
ffc2
fefb
ffca
00fb
ffbb
fffd
0069
ff95
00ef
00f6
ffd4
000e
00a4
ffb0
01ad
0032
0009
fffc
ff2f
ff89
ffe2
fff1
fff9
002a
ffee
ff06
ffde
007a
00dc
0000
ff85
ff82
00b5
0097
0068
0019
ffb5
fea2
008e
004e
0002
0006
ff46
fd8c
ff9b
00c0
005a
000e
fe1d
ff18
ffb6
ff9b
ffac
0000
ff1c
ff9e
00a9
0000
ff8d
008f
0031
feca
0085
0045
000c
ffff
0018
ffc8
fef1
0005
ff5b
001e
ff96
0033
ff55
ff62
ff51
0000
000e
0002
ff93
0046
ff32
ff0d
fe83
0053
ff0d
ffdc
fffb
0002
ffe8
fff6
ffe5
008b
0074
fec7
ffa3
ff48
003d
0059
0143
0000
ff39
00f7
0045
ffca
ff98
ff65
ff96
0074
009f
0012
000d
fffc
002b
0036
002b
0046
006b
001a
ffe1
00df
00ce
fed6
ff1c
0000
ff94
01bd
0141
007b
ff7c
0042
ff5a
ff03
003e
0042
fffa
ffff
00aa
0132
0045
ffc8
ffbc
fffe
00f5
ffbc
0027
0013
ff72
0002
003f
0146
feec
0012
ffbd
002c
0121
ffe5
ff97
0034
fffe
fffd
ffce
007f
ff59
0043
ffa0
ff7f
0056
ff64
ff6b
023f
ff2c
fffd
ff98
fede
02ae
ffe8
ff5e
0067
fec5
ffbe
ffb8
0019
0009
fff9
ffb7
0118
ffa5
0012
0125
fe34
ffe6
009b
009a
0248
ffeb
0001
000d
ff4d
0074
0037
ffe1
0001
0030
ff82
ffd9
00aa
000f
0003
00f4
ff51
ff0c
0051
017c
ff9b
0335
0070
ffe1
feab
00bb
fff0
00c3
0059
feb5
0059
ff85
ffaa
0031
ff4b
ff09
ffdf
fffc
0005
ffa5
0010
ff86
ffdc
ff30
0030
006a
0001
ff7b
ff68
00cf
0000
ff1e
fe50
0157
fe79
ff8d
fffb
ffb0
ffb7
ff20
009b
0001
0008
ffca
ffcf
ff31
003c
ff8d
02dc
0026
fe4c
ffb9
0254
ff69
0000
ffbc
014f
001c
ffd0
ff78
ffa7
005e
0181
00ee
ff45
000b
ffff
00eb
003b
0133
fe3b
003f
ff53
fed6
00ce
0038
ff6b
0027
0006
009e
0072
ff73
0095
fffa
0044
fffb
003f
ff08
ffed
0002
ffff
fed4
ffcc
0007
00ad
fff0
ff13
02eb
002d
000a
015b
ff1b
0001
ff63
00af
01a7
ff9c
ff30
ff80
001c
0119
0078
01ee
0004
fffb
ff47
00ec
ff31
fe9b
0038
feca
ff27
ff12
0088
ffe0
ff49
0004
005a
fffc
00cb
ffe5
003b
ffb7
feac
0013
003b
006f
fff9
0009
00b7
004a
fede
ff76
ff87
0057
fe8c
fe89
0024
ff73
0052
0002
ff53
0138
0060
0082
ffb9
ff9f
fea6
ff2a
0151
00dc
0001
ffff
fecf
00dc
0093
0077
fed9
006d
01de
0068
0105
ff4b
fe68
008c
0005
ffaa
ffbb
00dd
ff19
ff0e
0033
ffbd
ffe8
ff80
fff6
ff3f
0000
fffe
00a0
0079
fffc
0088
0025
0142
ff3d
0000
0081
ff9f
0081
0012
013f
0028
fec5
fff8
fed4
0088
00f9
ff87
005e
00a7
fffb
0007
02a8
ff82
fef1
0018
fef8
00ee
0052
0000
fee8
0170
ffbd
ffd2
039c
0070
fee1
005d
00f8
ffa8
00d9
fe07
005e
0107
0000
0001
000d
0038
fee6
ff2b
fe50
02dd
ff3e
0000
0081
ff88
002a
0018
ff57
010c
019a
0039
0043
0102
ffee
001f
febd
0058
fffb
0000
00ba
ff47
00b9
ff39
01b1
fd83
00df
0001
ff52
fe6a
0072
ff8f
fe39
0086
ff10
fec6
00b5
feac
00fb
ffb9
0116
fe58
0000
0001
01dc
0142
ffd6
ffd0
ff1e
0187
fe78
fffb
fff9
0000
0007
fff4
fff9
fffc
0009
fffe
fffb
fffd
0003
0000
000e
fffd
0003
0000
fffe
ffff
0000
0006
000d
fffa
fffa
0002
ff90
0182
00a5
fe75
0279
0074
ff4c
fe26
ff9b
ff67
0213
ff47
fff7
fe46
ffff
0002
0187
ffaf
fd33
fff4
ff6f
003f
fdc9
fff5
ff77
ff85
0077
ff7f
ffd4
fff4
fe93
ff33
0140
fff6
ff7f
feb2
008e
fffd
fffe
fffd
0026
00c2
0064
0129
fe9e
ff84
ff3f
0000
0089
ff51
ffdf
001a
ff24
0019
ffb2
ff6c
0053
fff0
ff3b
fff3
ff94
ff92
fffa
fff9
0181
0019
005e
ffd4
ff75
ffec
00c0
0007
fe7c
ffc0
ffcc
00c7
fee6
0080
ffa1
ff58
00db
ff27
fd89
ff60
0014
ff17
0009
fffe
0049
0088
ff2d
0098
fed2
ff05
001a
fff8
ff59
003d
0054
00be
0095
0092
ff7b
fef1
0083
ff60
ff97
ffcf
0236
ff16
0000
0006
0037
00fb
ffb4
0086
fdbd
0033
ff85
ffff
fea2
00a6
ffe5
0021
0075
003c
0006
0078
ffdf
feb1
0083
fdcf
ff3a
fe65
fffe
0008
00d3
ffb3
fe4c
0109
ff15
0073
0007
0006
002a
ff52
ffd6
ff9c
00b0
feb4
0020
ff82
0050
ff4a
ff10
ffab
0029
005a
0001
fffd
fe87
002e
0076
ffca
fe41
0080
ff9c
ffff
ff0f
0045
000e
ffa4
ffc9
ff96
ff01
0150
ffe3
ffc7
0000
003e
ff2b
ff5e
0001
000a
0220
ffb0
fe35
0037
ff24
ff9e
ff7d
0009
febf
ff01
0015
0053
fec4
fe23
0098
01e1
ffc4
fefd
0101
fdd2
ffb3
00a1
0002
0000
0056
ffa7
ffe8
ffcd
004b
ff92
0065
0001
fe95
01db
fff9
ff8e
fff8
fef7
ffd8
fff5
001c
fe8b
0012
fe6d
fe9c
ffe8
0000
0002
02a3
ff87
fd63
feae
ffd4
ff84
ffae
fffe
ff05
ffbc
ffc1
ffa0
ffc9
00d0
00f4
ff44
ffdc
0012
feec
0034
fe91
ffea
fffc
fffb
ff43
ff93
ff08
00c7
00e9
ff67
ff74
0001
fff6
001f
ffa8
0011
ff51
ffd0
fdfc
fef6
0066
ff98
0091
0004
ffcf
fefe
0004
ffff
002f
002d
00a8
fff1
ff00
ffa0
0054
0000
fecf
00d9
ff69
00a2
005f
01e7
00b3
0012
ffbf
009d
0103
feb7
ff0b
fe56
0004
fffa
0208
ffbf
feee
fe91
ff64
fd6d
0005
0001
0137
0036
00ac
01b4
0161
ff69
ff8e
014b
0031
ff14
ffc1
012e
ffc4
00dd
ffff
0000
ff59
ff05
0029
ff6a
0172
00fa
0130
0005
0084
febc
0027
ff79
fe2b
fdef
011d
006c
fe69
feea
00c3
0024
ff13
0044
0003
fffc
ffa4
ffd1
feed
00ff
00ba
ffa7
00d8
0005
ff92
0000
01a0
0067
002e
ffc6
ff58
ffab
ffbd
feb5
ff99
0033
003f
ff03
ffff
fffe
fede
ffdb
ffc4
fff6
ffe2
0045
ff52
fffb
00e4
009b
0087
ff7a
ff7d
00c7
ff58
fe90
000f
ff97
0000
ffdc
fff0
ffc4
0005
fffd
ffb7
006e
0041
ff13
ffa2
ff5a
ff0e
fff9
ffe4
00be
006e
008a
0042
0011
ff9f
fead
ffdb
000c
fed7
fec2
ffa6
005c
ffff
0005
ff5e
ff49
fe94
009d
feda
fff9
feb8
fffd
0004
ffd2
ffba
0003
ff3c
00da
ff56
0021
fee3
ff89
fed6
fedc
01b7
0040
fee6
ff3f
0001
fe69
ff0f
ffc9
00c4
004a
0002
fe4c
0004
01ee
ff78
0000
fff0
01c9
02b7
febf
011f
013e
013c
0154
007c
ffdc
fede
fe84
0001
00ba
ffdb
ff64
000a
ffde
fffe
01ea
0000
ff09
0154
0008
00ff
01a4
ff1f
ff6e
ff39
010a
00af
ff21
003d
009d
fe5f
ff2a
0000
0167
fece
ff3a
00bc
ffb3
fffd
ff6d
ffff
017a
ff57
fffe
00bb
ffbb
00ce
fec7
010c
024c
0167
00b1
00a1
0036
0025
026a
fffe
ff3f
023f
ff62
ff07
0053
0001
0202
fffa
ffce
ffdc
0002
fe97
0165
fe4e
0172
ff4a
008e
fec1
0001
00c1
004e
ff5d
fe2e
fffc
fff6
0092
007d
0105
ff0a
fffa
ffa8
fffe
ffe8
0008
fffe
fffe
0000
0007
fffc
ffff
000e
000d
ffff
ffff
0007
ffff
ffff
0005
0006
0001
fff9
0002
fffe
0000
0006
fffc
0003
ff08
0001
ffbb
0083
004e
008f
ff42
0023
fe8d
ff09
0035
00a6
ffea
ffd7
0006
fe62
fee1
00ee
0021
ff72
fff8
ffd5
fffe
fe88
005a
0000
ff57
00e4
fe8d
0132
fff6
ff82
ff8c
0017
0070
00a2
fe1f
fdf0
fff8
0056
ff6d
00c6
0121
ff6e
fffd
ff0d
0000
023c
fef9
ffff
fe59
fff4
ffd3
ffb4
004c
006e
ff30
008f
00c1
ffc0
ff57
fe3f
fffe
ffae
ffb8
ff95
004a
ff7e
0001
fe33
0005
fe83
ffda
0000
fe4e
0029
0079
0068
ff74
ffbd
fffd
ff99
0227
fffa
ff76
ff68
0003
feef
ff38
ff75
00bf
00d5
0006
ff85
ffff
fdfc
fef3
fffe
fed3
0141
0014
005f
fed8
01ae
ff9e
fef7
009d
ff39
ffed
ff9a
0004
ff8b
ff5d
ffb9
008c
ff3b
0002
fd56
0002
feeb
ffa7
0001
00a3
01a8
0082
0007
ff85
ffc2
0070
ff96
0128
fea9
ff8c
ff1c
0003
ffc4
ff95
ffd0
00db
0103
fffe
fff6
0000
fded
005c
ffff
ff8f
fff2
ffc9
ffdd
ff32
008d
0014
ffb5
0000
02b3
fffa
ff67
0007
ffec
ffab
ffbc
ffa1
ff16
fffb
ff69
0002
007e
ffe0
0000
fec7
ffdb
027b
ffab
fefa
ffbb
fe99
fefe
002a
ff95
0062
0016
0005
ff62
febb
ffe5
ffce
0002
0000
fee8
fff9
ff88
ffab
0004
fed4
fda9
ff88
ffac
ffb6
003f
ffea
ffd4
00cf
ff3f
ff6b
ff9f
fffc
feec
ffc8
ff12
014a
003f
0000
004e
0000
0180
ffa4
0001
ff3d
ffaa
0029
ff69
0008
ffa7
ffb7
ff12
0131
fe61
ffb1
ff21
0000
fefb
ff22
ffaa
00e9
025a
fff8
0010
0006
0120
ffb8
fffe
004d
fdd0
ff5f
0013
fdb7
ff41
ff35
ff03
ff43
ffe3
ffa7
0167
fffd
ff11
00c4
01f0
ffe4
00ae
0006
ff58
fffb
ffa7
ff3b
fffe
ffe7
ff0a
ff39
015f
ffb1
0202
ff2b
fe17
ff7e
0092
ff8f
00ef
0007
ff9c
0211
ff74
ff22
ffd3
fff8
00fe
0003
0015
ffab
0003
0025
ff96
01e4
ff3b
ff89
0240
ffe2
ff4e
025f
ff9d
fef1
ffbe
fffd
ffc5
ffc4
00ae
0076
00f9
fffd
fffc
fffb
ff90
ffe2
0002
0158
00a0
ffe9
004b
01b2
ff3e
0139
00a4
ff7c
ff4b
0177
0304
0005
021f
000d
0068
0072
ffe3
fffd
01cd
fffd
002c
fff3
0000
ffb2
0069
0090
fe7b
01a9
fe45
0050
0007
ffff
ffa6
0067
fffd
0005
fee4
0093
00c7
00a4
007b
ffff
0056
fffd
ff10
ffd8
0000
fe82
ff0f
fede
ffb6
ff99
fec4
01f3
fe28
ff0a
fff0
ff55
ff4b
0002
fefa
ffb4
00dc
ff14
ff3c
fffd
ff74
ffff
0096
ff21
fffc
fe8d
fefe
ffeb
006f
0164
0037
ff83
feb1
ff0c
ffbb
ff31
0002
0000
feba
0080
ff40
ff59
003e
0000
fe7c
0001
ff54
ff68
fffe
ff73
004e
0050
fff7
000e
0100
ff20
fe83
008f
00ff
0086
ffa8
0003
0030
0048
0083
ffdb
0035
0000
005b
0002
0011
ffbb
fef2
ff0f
007f
ffd6
ff52
0014
ff89
fe65
ff3f
0075
003f
01b3
0002
ffda
ff80
003d
ff46
fe33
0003
ff45
ffd0
0000
0002
0030
00fa
ffe6
00f7
0059
fe70
ff58
008e
0227
006a
fefc
ffdf
01df
0001
005f
0181
fffa
0102
00f2
fffb
00a3
001e
0000
ffff
ff97
ff3a
ff4b
0191
ff0c
ff2d
00b0
03dc
0057
fee5
0094
ffc6
ff64
0000
ffaa
010f
0030
fefa
ff19
0002
00aa
0026
0000
fff0
000e
004e
0072
ffc2
012d
feca
febc
0009
0058
0054
ff84
006e
ff4d
0001
fe26
ffcd
fe28
003b
fff3
0000
fffd
ff86
fffc
fffe
ff52
fef0
ff28
00a7
013d
fefc
ffd1
febb
002f
ff26
00f5
ff24
0141
0007
0039
0094
00e3
ff48
008c
fffb
fefc
ff1c
0004
0004
fffd
fffe
0003
0000
fffc
0007
000c
0000
000f
fff3
fffb
fff6
0000
0003
0000
000b
ffff
fffc
fffc
0001
0007
0000
0007
fffe
ffd6
ffb9
fe7e
001f
0060
ff82
ff46
00c6
00e1
ff9c
00ab
ff60
ff74
0000
00c5
0160
003b
ffbb
ff69
fffb
ffae
002b
fffd
0010
ffa0
0028
ffec
000b
0028
fef4
008e
0052
ffb5
ff33
00a2
0084
01f2
fff9
ff7c
002b
00b1
0018
ffd1
0000
ff55
00eb
0000
fffe
00bb
00d5
00a1
ff3f
ffda
fed9
ffeb
ff40
0047
fff5
ff48
ff30
01f9
fffe
008c
0048
ff7f
00ac
00bb
fffe
006f
001b
0002
ffff
0096
fee4
fef1
ff55
ff43
ff26
0187
fe86
ff17
ff8f
018d
0008
0190
0003
ff22
ff7a
feb9
ff2e
ff38
fff7
0072
fe62
0009
0004
0010
ffae
0004
00a7
00f1
000c
ff98
ff96
0011
0057
ff5d
ff1b
ff8e
000e
ff9f
0077
ff9e
ff38
ff3b
0001
ffa5
ff7a
0001
fff8
fff8
ffc3
ff12
0029
ff01
fe21
017b
00b5
ff43
fff6
0084
ff95
003e
0001
fed2
ff27
ffbe
001c
0058
ffff
01bc
00d7
fffa
fffc
ffbc
ffee
00e9
004d
000b
fffd
0000
0130
003c
ff92
fffd
ff14
0158
fff9
0079
0001
ffee
ffcb
ffde
fffa
00b7
0069
0002
0008
001d
ff4c
01b8
fefa
006b
002c
016b
001a
ffbd
025c
ffaa
fedf
ff23
0000
000c
ff57
ffb4
003c
00b3
0000
ff86
ffda
0001
fffe
0024
ff6a
ffbd
0056
fe9f
ff7b
0031
feed
00f8
ff48
ff17
016e
ffc0
fffc
ff74
ff2d
ff62
ffb4
ff90
0005
ff56
ff44
0000
fff9
004f
ff1e
fe03
fffc
ff85
fe21
ffa0
fec2
ff3b
0131
0153
00fe
ff70
0000
fe85
fef2
007a
fffc
0030
0002
01eb
ff7e
0003
0005
ff58
ff37
ff6b
ff42
01b5
0008
ffda
ff85
fe72
fffe
009b
ff89
fea8
0006
ff9b
fee9
ff43
ff54
fd45
fff9
ff50
fe76
0000
ffe9
ffb9
ffa8
00f3
0209
0036
002e
004f
ffbb
00e3
fdc3
003f
ff96
fe05
0003
010a
ffa3
ffc8
ffe1
ffb4
fff5
00b8
fed3
fffd
fffc
007f
ff81
fec4
ff0d
ff9b
ff5a
003d
ff04
0106
fef7
ff68
0122
fcc0
0000
ff29
00ec
ff23
ff7c
00a9
fffe
0016
ff0e
0001
0000
ffbb
0133
00b7
0043
fe82
0197
fef1
008e
003e
0092
fec9
00d9
002e
0000
00a4
fedc
0103
0157
01b7
fffc
0033
01b4
fffa
fffa
00db
ffcf
ffea
00d4
ffd7
ff7e
ff18
fee4
ffc8
0020
ff3a
00cb
ffd7
0005
0091
0054
013e
006a
0006
0004
00ae
00f0
0004
ffea
00b8
ffa8
0161
00ab
0147
01a9
ffef
00d0
009e
ff40
fffc
ff7f
006b
0002
01dd
0030
fffa
fe7d
fd73
0004
ff49
ff9c
0001
fffa
000d
ffb4
0047
ffe9
0054
ffa4
ffdb
fec0
ffd2
00bb
ffe6
ffbc
ffc7
fff8
ffbb
ffdb
ffd4
fea2
ff6e
0000
ffdb
ff82
0005
0017
fff5
001b
fe96
0054
ff45
ff0e
001c
ff75
004a
0028
ffa8
005c
00d2
fffe
ff63
00be
fe15
0017
fef3
fffc
ff28
0048
ff92
feef
0000
00ac
0052
0008
fff4
ff81
0000
fe6d
003a
ff04
0000
ff4b
0000
ffc6
0002
0058
0009
011c
0002
00bf
0097
00d3
00d2
0106
0000
ff9c
fe0c
0000
0274
002d
0000
0173
0221
00d6
0001
00d7
fffe
ffa9
0000
fe8e
ff12
ff71
fff7
ffd8
ff62
00b1
013e
010a
0000
fec7
fe58
0002
01a6
fed7
0000
fdd1
fe76
fffd
fffe
fef7
0002
008e
fffb
fe65
010d
0018
0005
007b
0059
0086
00c0
0119
0000
001c
ffdb
fffb
ff82
00c7
0001
0000
0133
00a2
ffff
fff5
0005
01cb
0001
feda
00f7
0039
fff4
0035
fe8d
ff08
ffa6
ff7e
0002
011e
0018
0002
ff95
ff96
0001
ff3e
0060
ff78
0000
ff50
0001
ffb1
fffd
00ef
ff87
000b
ffff
ffb4
0103
ff96
0002
0004
0000
0001
fff8
000d
0007
0001
0000
0002
0003
0006
0003
fff9
fffa
0008
fff3
0000
fffa
0006
0008
0001
fffb
0000
0001
fece
0000
ff18
002a
0003
0225
ffba
0001
0053
ff2e
0022
ffff
0007
ffff
ff6b
0000
00ac
ff54
fe96
fffd
0000
0154
ff8b
ff84
000f
0000
017f
0094
0000
0039
ff6e
fffe
ffd4
008b
fef0
0000
ff52
fff3
ffaa
0009
ff8a
ffc9
009d
fff7
0031
00df
0075
0011
00ed
0000
ffc6
ff25
fffc
fe68
014b
0000
00b7
01b6
ff72
0000
0078
fffe
ff66
0000
fff3
004f
0000
fffd
ffc3
000b
ffbd
fefc
ffac
0000
012a
0054
fff9
ff07
ffb2
0000
feed
003c
fec3
fff9
002d
fff7
ffe9
0008
ffea
fe76
ffc9
0001
005d
ffea
00b6
ff95
ff03
0000
fed7
0015
0001
0030
000b
0006
ff43
0089
fea0
fffe
0052
fffd
ffea
000e
00aa
ff7b
0038
ffff
ff29
015e
0072
ff8d
ff18
0000
008f
ffce
fffd
0107
fe52
0005
feea
01e9
ff45
0003
003b
0007
fe32
fffd
ff16
ff19
01b8
fff1
0046
fef8
ff90
0027
007a
0000
ff88
00b8
fffd
00e0
0124
0000
ff52
00af
0095
0000
ff68
0000
001b
fff3
0057
0076
ff0d
fffd
0135
007b
00c9
ffaf
0176
0000
fee5
00b3
0001
ffe8
0100
0000
ffd9
fe84
ff26
0001
01c8
fff8
fee8
0004
00bf
ff11
ff87
fffc
fec4
ff12
ffea
fe95
00d1
0000
ff8c
ff2b
fffd
ff3a
009a
0001
fefd
000b
00c3
0002
feaf
0012
fec9
fffc
ffb3
007a
fe13
fffa
0122
fef7
ffb0
ffa0
ff75
0000
febc
ff9a
0000
0101
fed8
0003
fea5
fecf
ff5d
fffa
ff3a
0008
fe7b
fffa
ff78
ff48
002b
0002
ffae
feab
ff5e
ffd5
ff33
0001
00f4
01c0
fff6
fef4
0028
0001
ffd6
fec8
ffc8
0000
ffa1
0005
ffd6
0006
003e
013b
ff30
fffe
ff60
0051
fff1
ffe6
0070
fffd
0047
0075
ffff
ffd8
01fc
0000
fee7
00ea
0079
fffc
fe9b
fffb
0196
0000
0042
ffd2
ff6d
ffdb
003c
002d
ffec
fee1
00e1
0002
fec8
ff6e
0000
0010
02c7
ffff
ff3f
01cc
ff96
fffd
ffae
ffff
ff1c
fffe
ff7e
008d
00e4
0004
00fc
ff56
0046
0168
0124
0000
fdd7
00b2
fffe
00b4
000f
ffff
00d4
ff08
0054
0000
0097
0000
0021
fff6
fff7
fee1
ffec
0001
ffb6
fe77
fff2
ff45
007f
0000
0063
0066
0000
ff20
ffaf
0004
00a6
006d
00bc
fffd
0094
0009
009d
fff5
0000
fe19
ffca
0008
ffc8
ff85
ff31
020b
001f
0002
ff28
0061
fffa
001a
0057
0002
ffe0
feb2
ff9a
fffc
01bb
fffd
fed9
fff9
01d0
ff38
ffa1
ffff
ff53
0031
ff3e
0040
ff18
0001
0065
019b
fff7
00d2
0098
ffff
fe9b
ffe9
00ca
0001
00c7
fffe
0012
0005
0002
006c
ffa4
0001
0005
ffe6
ff55
ffbf
ff48
0000
ff68
feca
0009
000f
ffbf
0000
ffa2
0173
fff3
0002
0055
ffff
ffe9
0003
fe4e
fee7
0007
0008
ff60
0012
fff8
00f0
00c5
ff70
ff67
ffad
00a7
0029
0128
ffa8
fecc
fffe
ffff
ffb5
009c
0027
fe80
011d
0045
008f
000d
0072
0122
ffdd
0064
0162
00f4
01b3
ffe4
ffed
00de
fef1
0236
011a
016a
ffed
ffff
008f
00d2
00cf
ff3c
0121
fd5f
012d
0007
fffd
002f
fffd
015d
0099
016e
fed2
feaf
fded
00cd
024c
0041
ff4f
fe72
ffef
fffe
ffc1
ff37
016c
fee7
fefe
ffc9
026a
ffff
fff6
ff7f
fef5
ffdd
0045
febb
0133
005b
fffe
ffc8
009e
fefa
00ec
0195
fff4
0000
0166
00f1
0175
015c
00f8
feed
ff92
ffff
ff62
fec2
ff9e
00b7
00dd
001e
feec
ff6c
ffe5
0056
002d
011d
ffe9
ff38
ffef
ffff
ff59
00b0
ff70
ffc4
01e5
fdf2
00ad
0002
ff98
00cd
00af
00cf
ffff
0002
fff1
fffe
0004
0004
000a
0006
fff9
0003
0003
0003
0002
000a
0004
fffd
fffb
fffb
fffa
0009
0002
0005
000e
0003
ffe1
00e3
ff8d
fecc
ff42
01a2
ffca
fe33
ffdc
ff71
0006
0000
feaf
ff50
ff62
feb3
002b
feaa
01c8
0000
ffd1
ffc4
ffdc
00f7
0107
0062
ff8b
ffff
01d9
00d2
ff8c
0128
ff98
ff2e
ffec
fffe
000a
00d3
fef5
ff53
007c
fdcb
016f
ffff
fff7
0165
005c
016c
0073
ff29
006c
ffc1
0039
ff5d
fec9
010d
0024
0066
fff9
0000
ff6e
00d0
002e
001a
0100
fea8
fe88
fff9
ffda
ffdf
ffcf
ffb3
019b
ffa0
ffb1
00d7
0000
0167
fee1
fe3f
ff78
00df
0013
000c
ff7d
014a
ff7b
fedb
00d4
ffaa
ffca
0005
005d
011e
fe99
00bb
ff76
012c
ff8f
ff7f
0061
0059
0017
ffd2
fefa
fef2
0003
0003
0074
018c
0005
ff17
ff89
ff67
ffec
0006
000a
0117
ffa9
01b7
ffde
0129
0048
fe3b
ffd2
ff3c
ff66
0230
0137
fef3
fff7
fffe
ffcb
0129
ff73
ff55
ffac
fe71
0078
fffb
002c
0146
fe5c
008c
01bc
ffaf
feb2
feff
0097
006e
0134
ffa5
ff91
ffae
fffc
0000
003a
0013
0155
ffa9
0118
0030
0060
fffc
01db
ff89
ff58
00e0
fed4
006c
ff98
ff93
018c
ffcb
fee2
00a0
ff07
ff44
fff7
0002
0083
fff8
ff77
fff4
ff12
fefe
ff38
fffe
0000
0015
ff69
0154
ffd8
ff88
0007
0152
0036
ff68
0075
fee8
039e
ff85
fffc
fffc
ffcc
ff94
ff57
001a
ff5f
fedf
0075
0001
0025
0035
0234
ff6e
ff78
009b
0151
ffdb
00ce
ff06
fea0
ffdf
0207
ffc6
000a
fffb
ffff
ffc1
fe48
ff2c
009f
fef3
005c
fff8
ff23
015d
014a
0219
ffac
fd04
ffbb
ff03
004e
ffbf
007a
fe94
ff7a
fffe
0000
ffff
00cd
ff7d
ff41
0071
01b8
0003
fed7
ffff
fff3
ff84
0038
007b
0000
00b6
ff58
ff29
fea8
ffc3
012b
0022
ffee
ffd5
fffa
0003
fe8b
fef2
006e
ffa9
00d2
fe13
ff9c
fffc
ffc1
ff48
ff29
fe1e
0096
00a6
ff10
00ff
ff11
ff93
0038
ff85
00e2
fec1
fffd
fffe
fec4
ff8d
0271
ff60
0247
00af
0105
0004
ff4a
ffc0
ff7d
0064
fd58
0045
0128
00e4
010d
0109
015f
0081
0131
009b
fff8
fffd
00f1
fede
0029
0134
fd60
0111
00d0
ffff
002d
ff92
00c7
003b
ff99
ff78
00d9
01bf
008e
ff45
fee0
fe09
01e2
011f
000e
0009
ff03
ff95
fe7b
0102
0050
ff49
ff44
fffc
0020
00e5
00d3
002f
ffe4
ffa0
fe58
fecd
002e
ff7b
0053
ffb9
ff81
ffb0
0002
fffc
ff9e
ff97
ff2e
fe04
004c
00a7
ff21
fff4
005a
ff61
0040
006f
ff73
0072
ff03
ff31
ffb2
0011
ff9b
ffee
ff45
ff15
fff5
0002
003c
ff5f
ff48
0018
0099
0017
ff7d
0001
ff92
ff8e
0030
00db
002a
ff5a
feb7
017a
ff7c
016f
ffab
ff72
fef3
006f
ffef
0000
000c
ffe2
0082
fe68
ff6f
fece
0002
0007
0046
ff24
0118
ffa7
0069
ff10
002b
0000
fef9
ff9c
0070
00e5
ff9a
000b
0011
0088
ffce
feef
ff7b
007a
0000
0000
0000
0000
0000
0000
0000
0000
004c
0003
ffff
0199
00dc
fe41
00b9
01a7
ffd2
0000
003b
00fd
000e
ff28
0179
0266
0000
0000
0000
0000
0000
0000
0000
0000
fee8
ff37
0082
020b
ff2f
fdd6
ff52
ff82
0375
0007
ff85
fe78
0127
fee5
0334
fe34
0000
0000
0000
0000
0000
0000
0000
0000
fffa
007e
ffa5
01aa
0100
008d
ff0d
ff7e
ff12
ffff
0029
018d
0039
00b5
ff6e
feda
0000
0000
0000
0000
0000
0000
0000
0000
fe09
006a
ff95
ffd9
00e5
00c0
ffb6
00dc
ffae
fffa
002b
013f
ff94
fe85
fef0
00c9
0000
0000
0000
0000
0000
0000
0000
0000
0002
0001
0001
0004
0008
0007
0008
0001
ffff
0007
0000
0005
0001
fff6
fffc
fff6
0000
0000
0000
0000
0000
0000
0000
0000
ff61
fe0f
001b
00b1
ff49
fea1
ff06
01e5
ff96
fff8
ffb6
0055
00ba
fea3
011a
008b
0000
0000
0000
0000
0000
0000
0000
0000
0076
ffd3
003c
ffc1
005d
ff54
0043
005c
0185
0006
ffda
0060
00e7
fefb
fff9
0168
0000
0000
0000
0000
0000
0000
0000
0000
ffb4
005a
ffef
0051
0081
ff35
01ef
ffee
ff99
0001
ffdf
0068
ff92
ffcd
fecb
0224
0000
0000
0000
0000
0000
0000
0000
0000
00bb
fefe
004a
ffab
ff43
0059
0104
ffe9
ff96
ffff
0055
0182
fe1b
0016
ff67
ff47
0000
0000
0000
0000
0000
0000
0000
0000
0103
ffd2
ff5a
0003
ff59
006e
006b
0234
ff08
0004
ffdf
00be
000d
ff48
ffaa
fe7a
0000
0000
0000
0000
0000
0000
0000
0000
01d0
fe77
ffdb
006d
fed2
ffde
fe7f
ffee
00c4
fffd
fff7
ffc5
fee8
fee3
003d
ff4b
0000
0000
0000
0000
0000
0000
0000
0000
00cd
00be
ffe1
002f
0033
0064
ff8a
ff8a
009f
0000
0015
ff7f
00e7
0080
ffce
0072
0000
0000
0000
0000
0000
0000
0000
0000
ff6b
fe81
ffa6
002a
0083
0064
0092
0005
ff32
0004
ffa8
ff4b
00e4
fef1
0029
ff1b
0000
0000
0000
0000
0000
0000
0000
0000
0061
fef8
0004
0028
0051
0013
ffe9
fe27
ff57
0000
ffcc
ff52
0160
ff53
fee1
0033
0000
0000
0000
0000
0000
0000
0000
0000
ff26
fdc8
ff7f
0042
ff21
ff2a
0034
01c7
fe88
0006
fff3
ffce
fea1
fee6
001b
feca
0000
0000
0000
0000
0000
0000
0000
0000
ff63
ff98
ff67
ff2e
ff66
00a6
ff8e
fd76
000c
fffd
ffdc
fe8e
feed
006b
fffe
fef6
0000
0000
0000
0000
0000
0000
0000
0000
ffd2
00b8
0010
0122
ff88
000b
ffc7
ff77
ffbc
fff5
fff5
00eb
000c
009e
0007
ff2d
0000
0000
0000
0000
0000
0000
0000
0000
ff4f
ff24
ffbb
0207
ff93
0097
ff52
00df
ff01
000d
0020
00a2
ff32
ff30
ffc4
ff5e
0000
0000
0000
0000
0000
0000
0000
0000
00d5
0064
ff75
fec4
009c
0141
ff72
0086
0045
ffff
ffbd
fe93
ff00
0199
01c4
0010
0000
0000
0000
0000
0000
0000
0000
0000
0031
fec5
0048
fe92
011c
0081
001e
0043
feb8
fffc
ffa4
00e4
ffa6
0000
feb8
0115
0000
0000
0000
0000
0000
0000
0000
0000
fefd
febd
ffbc
010c
0241
01e2
0016
0038
00ee
fffe
ffcf
0032
00a4
ff24
0081
ff94
0000
0000
0000
0000
0000
0000
0000
0000
0073
ffeb
ffd4
feef
0063
ffc6
ffee
fe5d
ffc2
fffe
ff26
015b
012d
fec6
fec8
feec
0000
0000
0000
0000
0000
0000
0000
0000
ff8e
ff49
0080
0074
fdd7
ff4f
ff58
ffe2
ffb5
fffd
fff3
ff4f
ff1b
fff0
016c
ff97
0000
0000
0000
0000
0000
0000
0000
0000
da6d
ccbf
34f2
35e2
252d
30db
2788
3570
ceaa
3a18
3432
2dd0
2add
2a1e
c936
2ef4
2f0d
e473
1c2f
2ecc
348c
2a4a
d4f7
1be5
ff37
fdb3
ff02
01e9
03b4
022a
0159
00fc
ffc5
ffeb
fc90
02b8
ff31
fdcb
00e2
ffb9
0192
fff5
014e
02a8
fdaf
ff8c
0159
0399
fffa
0003
fef3
0019
ff46
009d
002d
01d2
ffc9
0003
ffef
ff3e
00b2
00a6
0009
0050
0001
00ec
0016
0039
00bf
00a4
0082
ffd1
0000
0000
0037
000d
fe7b
ffcb
fec7
ff71
ffea
ffff
ff02
ffdd
ffc6
ff83
ff71
00b1
00cc
ffc9
0011
ffef
007d
ff0c
ffad
005e
0004
fff8
ffbe
ffce
fd82
0048
ffb7
0098
fee1
fffd
0125
0031
fec9
005b
ffc6
00c5
00ea
ffa9
ff70
0000
0083
00c1
008d
013a
0000
0006
012b
ff66
ff3f
ffab
0066
0004
0085
fffb
ff5e
fef9
ff01
fec3
ffe0
0001
ff68
ff8f
009c
ff65
001f
feea
014c
ffaa
fffe
0000
004e
ffff
fea3
ff16
ff96
ff73
fec0
0002
ffb4
001f
ffea
001e
0004
ff7a
003b
fefc
fff5
00f8
ff98
ff41
ff34
00c5
0003
fffa
000a
ff16
ffdf
0047
ffb7
ffe6
ff70
0000
ffef
0092
ff18
0032
ff7b
0049
00de
00be
0069
ff14
003a
009c
ff50
0080
fffc
0004
0099
002f
00b3
012c
0002
ff2e
0079
0000
000f
ff5d
feba
ffc2
00c6
00db
000e
ff14
ff9d
ff16
00cb
ffbd
00c8
0155
000c
fffe
007b
003c
0010
ff91
002e
ff09
ffbe
0004
004b
0027
ffcc
0006
ff34
01c8
0237
0082
0024
ffca
ffba
ff51
00db
006f
fffb
0003
feda
ffee
fdb6
015e
ff9f
fffe
fe8f
0000
ff51
ffb0
fdf5
0016
fda0
0161
00ba
ffa1
ffc8
01ab
ffc4
fec3
ff07
0218
fff9
0002
ffa9
0044
0059
ffc9
0033
ff8f
ffe5
fffc
ffa3
004a
004e
ff92
ff9b
0052
005e
ffde
ff83
ffef
ff28
ffe9
ff92
0051
fffd
fff4
00fd
0053
00d2
0113
ff83
ffa3
00da
ffff
fede
fe0e
ff50
fdda
ff6f
ff8c
0124
00f2
014a
ffc0
0149
0058
ffd1
002a
ffff
fffe
001a
ffd3
ff74
fe35
ffd0
00ce
0152
0000
ffbe
ff8c
fe2a
00e8
01ff
0005
ff73
00f0
0094
ffe3
ff92
00f4
ffbb
ff73
fffb
fffd
fff7
ffc2
feae
00b3
fff0
006c
ffee
ffff
0028
ff3b
ff86
fe64
ff99
ffab
00f0
0006
00da
00cc
0081
fff0
0041
ff7a
0000
0002
fe65
ffbb
ff4e
ff46
ff9b
007d
fea6
fffc
01ca
028d
0061
019d
0076
006c
0041
0031
ff2d
ff3a
ff5f
000f
fff3
fffb
fffb
fffc
0074
ff9d
019c
ff9e
fffc
0005
0152
0002
ff49
ff76
014b
ff7b
0025
fff8
0073
004b
ffce
002c
0059
ff7a
00a9
001d
0005
fffe
fe9c
ffce
ff20
ffa8
ffb9
00b9
ffea
0000
0038
0029
ffd6
ffc5
ff1a
ff77
0007
ff39
ffea
00f5
ff09
ffef
01d2
fe51
0010
fffd
ffca
ffda
007c
008c
ff95
0000
001c
fffd
ff5d
ff65
ff11
ff90
fffa
ff10
0020
ffbf
ff53
0086
0052
ffc9
ffb1
00db
fff8
0003
fffe
fffd
ffef
ffe0
0008
0006
fff9
ffff
0008
0002
0009
0002
fffa
ffff
0000
0000
ffe8
0003
fff6
0009
fff1
ffe7
0000
0003
015f
ffee
fedb
00d8
ffe3
00d3
01d1
ffff
ffab
ff22
fea0
ff2b
001a
fe65
fed1
ff14
ff57
0102
014a
0066
0126
fea7
fffc
fffe
0075
006e
010f
febf
ff77
00b8
0091
0000
fdc1
ffa2
0186
feb2
00b8
ff6c
031a
00eb
022e
ff9e
fe50
fff3
00be
0011
fff9
fffe
fea3
ffd6
ff38
ffc2
0018
0007
fee5
0000
fe8e
0034
ff4c
ffa0
0043
00e1
ff97
00a6
0194
ff56
fe9f
0045
ff4f
0184
fffb
0003
008f
ffc7
003f
feb3
0105
012c
00ab
ffff
0036
005a
feaa
ff88
00e3
ff14
ff8a
febe
ffa8
014f
02f0
00e8
ff7a
fd76
fffe
fff8
ff9f
0070
0006
fe83
feb8
ffc1
fed6
0001
0044
ff85
fe47
00eb
005d
013e
ff49
0000
001a
ffd9
ff03
fe2b
ffba
00c0
fffb
fffc
ffff
0013
feec
0015
fff3
ff4a
ff51
ffff
ffc2
011d
fe42
007d
ff35
00c5
ffed
0026
ff97
ff51
ff8f
ff81
0003
009f
00d9
0008
fff9
ffc8
0004
0079
0002
005e
0072
0035
ff51
0120
0078
ffff
ff3c
009e
000b
ffff
ffdf
0002
00ea
fff8
0051
ffa3
fffc
ff28
fee9
ff4f
ffda
008f
000d
018a
0190
feba
001f
005d
ff9a
0000
016a
003d
fff7
0018
00b0
0000
00b2
fff7
ff82
ffc8
feb7
ffd3
0019
ffd3
0083
fefb
0003
ffb0
ff7f
00aa
ff63
008d
0077
0000
ffe9
005d
0012
0024
0090
0002
004d
ffe5
feda
ff34
ffdd
fe82
ff43
ffd6
ffa3
fff9
fffe
0215
ffe6
0060
ffe0
ffec
fefa
0003
ffe1
fffa
000b
002e
ff8d
ffff
ff6e
0005
0090
ff58
ffde
ff90
0058
fea4
fece
0032
fffc
fe6d
ff97
fe92
ff68
ffda
019c
0001
00ab
0201
0005
fff4
fdcb
0000
fec2
ffff
0131
009f
009c
00a3
fffb
ff89
00d1
fe96
0000
0103
008d
ff29
ffda
006d
0178
fffd
feee
ff28
0027
ffd7
ffb7
ffff
ff5b
fffd
ffd2
00ff
0078
0119
fef3
00d8
00c5
0021
0001
0102
0111
0020
0015
ff9e
fdd2
0000
0071
fe12
fff3
fffd
01ca
0000
012e
0005
0077
ffdc
01ac
ffe3
ffc5
fed9
006f
0024
0006
009a
012f
0037
ffc7
ff0b
00b8
0000
00a5
fffc
000a
0006
00bf
0000
000a
0000
00ba
0061
fe86
fe7a
ff0b
00fc
001a
004f
ffff
fe3b
ff9d
ffea
ff6c
ffcf
ff64
fffd
ff0f
0082
fff0
ffcb
0075
0001
fe56
0006
ffba
ff45
ff8b
ff73
0042
ff2f
ff01
0063
0000
00b5
0017
00cb
0053
ff83
00b2
0000
000a
003d
fffb
ffaf
fffd
0000
ff9e
fff9
ffa8
ffd3
007c
ff49
ff4d
ff64
014c
fefb
0005
004c
0086
ff1b
ff48
008e
ffc9
ffef
ffc8
fe5c
fffb
ffcf
0047
0001
ffe9
0004
ffa8
005b
0083
fff9
ff2b
ffd4
fe87
ff94
0004
01c0
ffee
00f9
000d
00bb
0080
0009
ff2a
00d6
0008
0007
fff9
0000
004a
0004
0105
0016
00bc
0014
0042
ffa4
fedc
0034
0000
0077
ffa8
00e6
ffc7
00a1
ff76
fffd
ff63
0011
fffc
0048
ffc1
0000
fe9f
0005
ffee
ffbe
fe87
009a
00ff
ff44
fe54
ffb2
fff9
fc5a
ffb6
ff92
00df
ffcc
00c8
000c
ff9e
0156
0011
ff82
fe63
0001
ff1a
0002
006d
ff35
ff5b
010a
002a
0076
0009
ffb1
ffff
0008
0007
ffd7
00db
ffb2
ffe7
0003
feac
ffa1
fff8
ffe9
00df
ffff
0028
fff6
ffc5
ff3d
ff40
ff88
ffac
fff9
ff1f
fe7d
0003
ff82
fe82
fe80
0135
ffaa
016b
0000
0157
001c
001a
ff97
feff
0000
00c3
fff9
015c
002c
00ac
0041
ffab
ffa2
ff7e
ffd0
0005
0105
0015
ff0f
ffa5
0098
ffe9
fffe
015d
ff1b
fff1
ff8b
00b1
0001
00fa
ffef
0090
ffee
0004
0008
fff4
fffd
fff8
0008
0009
fffd
ffff
0005
fffe
ffef
0000
ffff
0004
0000
0000
fffe
fffe
0001
fff7
fffc
0009
0008
01c5
002e
00dc
0156
0062
0008
0001
0254
ff62
ffd1
0096
0139
fee2
fffd
001c
fe6c
ffd3
000e
ff2e
0001
ff55
0006
0051
ff4e
01aa
ff3d
0014
fffc
0000
005d
0000
0204
0081
fe9c
ffa5
00a4
ff18
fff9
001e
0079
000b
fffe
0190
0001
ff64
fffe
00f7
00aa
0032
ff8d
ff55
ff6a
feba
ff3f
0003
fee2
0015
0028
ff44
ffae
ff90
0004
fef5
0041
0003
ffbe
013b
0001
008e
0002
ff24
0093
020a
0018
0012
ff82
ff8d
fff8
fffe
0198
0022
ffb3
00a5
0108
ff91
0004
ffd9
ffab
ffeb
ffe9
ff43
0002
fea4
fffa
ffd0
0035
fe75
0163
0050
ff28
ff15
ffec
0003
fff5
ffb6
009c
fe8b
ff4e
0101
0008
ff4d
0088
ffd5
ff98
ffda
0001
ff68
fff6
0030
0228
ffbe
fea8
005a
ffa5
0054
00c2
fffd
fe4d
fe29
00b0
ffab
0008
ff82
0000
fe7e
ffe9
ffe2
0057
00a1
0000
008a
0004
ffc5
007b
fff7
0105
0032
fff4
ff9f
00d3
0024
0016
ffd8
00fc
00bb
ffd9
ff43
0075
00a8
ffbb
ffc3
000d
ffc7
ffa6
012e
0010
fe0c
0100
0000
feac
ffdb
ffd2
012e
01df
001c
00a7
ff63
0026
0059
fff0
003a
fff5
fe94
fffd
fff7
ff90
ff38
00b3
00ac
ffcf
000e
01c0
fff8
ffee
005f
001d
008d
0102
013c
00f1
0020
00f0
0061
006e
ffa0
0042
001e
00e4
febe
ff90
ffbf
fe6c
0154
00f0
ffcb
0038
0000
007f
fec5
0092
ffb8
fffd
fdd7
0053
fe6a
02b9
0070
fe5b
0128
ffad
ff09
ff0c
0057
0000
ff70
00b9
fdb6
ff82
017c
002a
fffd
00b6
fff0
0226
02c7
012b
fe93
fe8d
ff79
fe3d
0060
fe49
00d5
fde3
019f
fed1
00be
ff78
ff2e
fef2
ff47
0148
ff7f
fec5
0002
ff54
0085
0020
fff2
feeb
ff07
ff9e
ff91
ffdf
ff5f
0019
ff9d
008c
ff36
0012
0041
002f
00e5
0074
00a1
0026
00e8
00bf
0002
fe3b
ffa3
ff50
fe55
0191
ff98
014b
0052
002d
ff4f
008c
00ea
0220
fda6
005b
0085
014a
007a
0055
0181
ff9f
0192
006c
ffff
ff3a
ffd8
ff61
ffb1
00a6
00fc
00b4
005d
ffe1
ffdf
0078
fff1
ffc8
ff7c
0044
ff41
006b
ffd8
00d3
ffc8
010e
00c4
016d
ffff
fefe
001a
ff7e
0016
018d
fecd
00a4
ff60
ff42
ffc4
0186
fe87
016d
001a
febf
ff09
fe23
fe9d
feca
fd16
019e
0012
ffc0
0000
002c
ffd4
004c
ffc6
005d
ff4c
00c5
ff4e
0065
0070
002b
ff89
00b8
0011
00ac
ffc8
003b
0065
ffb8
002a
0018
00b4
0092
0002
fe42
fe59
fe9c
feea
0042
ffb3
00f8
0027
01eb
ffa6
ff6b
fff3
0148
fe8a
ffeb
fecf
fe3c
0030
00ff
01f3
fede
0128
0167
0001
00a5
ffb6
0140
0015
ffb4
ff68
ff4e
ff18
ff34
0015
005f
00bb
0038
ffc6
ff4d
008c
004a
ffb4
00d7
0176
019b
ff80
0055
fffe
00e6
ffb7
fff5
ffb6
0077
ff91
ff05
ffb9
ffe2
004e
002e
0019
ff60
0096
0011
002f
007d
0042
ffd1
0088
00b1
002f
00a9
fffa
ffd7
0183
019c
0069
0011
ffff
ff88
0087
fdf9
0060
01b1
ff2e
ffcb
0146
001b
ffce
0111
ff1c
fdce
fec9
0166
ff06
feb8
fffd
0027
ff3c
fec4
fffd
ffb9
fe97
0062
fec1
0098
ffdc
feec
ffb6
0030
ff52
ffcf
009c
feae
ff48
0067
fec8
ff87
ff5a
00e2
0007
ffb9
ffe3
0195
ff65
fff6
fe89
ffef
ffdf
ff3d
0041
ffdd
00cd
0038
00d6
ffc9
000e
ff96
000d
fea2
ff03
00dd
ffab
fee0
fffb
0032
ff85
ffb9
ff37
fedd
0025
008c
ffdc
00db
006a
ffac
005a
0108
feb2
0051
feb0
ff7d
008e
0032
00f4
feed
ffcb
005d
ffff
fffe
0003
0000
0006
ffff
fffe
fff5
fff1
ffff
0005
ffed
0003
0000
fff7
0002
0008
fff0
0016
ffe4
fff6
0008
ffff
fff5
0008
ffeb
ff8a
ffe8
fe31
fe27
fe0b
002e
ff3a
02f9
007a
fefa
0016
0177
ffff
0002
00c6
feb4
018e
011f
0019
fe50
001c
ffbf
0007
0186
fda2
fffb
017c
00d9
006c
ff0b
ff27
00c6
ff2f
0002
00b1
fecd
0056
0146
fff5
00bd
ff00
01bd
0008
fe0f
00a6
013d
0002
fe87
feb6
ffe1
00b8
ff5c
ff82
ffc1
ff59
ff03
fee3
ff92
fe1d
ffd8
ff02
0108
fede
ffae
ff02
ff76
ff9b
0095
ff9e
00a1
000a
01f7
ffe8
0048
0052
0098
ffdc
fefc
fe70
00e3
ff57
ff12
00b3
ff97
fffd
007c
00cb
0017
01fa
00ef
ffcf
fec8
00b0
00e1
0000
ffc3
0053
ffe3
ffe6
009e
fe5a
00f6
008b
ff86
0168
0037
0023
fef8
ffdc
0030
ff31
00da
fd7c
ff2b
00b5
0177
fef6
ff13
ffff
febb
ffc7
00ad
0009
ff82
ff3c
0004
002d
ff4b
0020
004d
ff9f
ffe0
ff53
ffc4
ff3c
ff30
ff7a
ff24
ffc3
016a
0049
fffd
ff7e
000e
fed8
ffea
fed7
0018
fff7
003b
0039
01ea
0001
ffe8
00b0
019d
007c
00dd
fd9c
0177
009e
ff0e
fee9
0002
fee1
0008
ffd0
0000
0028
011e
ff51
0058
fffd
0000
ff56
0149
0007
fffa
ffbc
ff5a
0000
ff7e
fff2
00d8
ffcf
00aa
006a
0006
00d4
0012
0058
00d7
0050
004d
00ad
00bb
0000
ff05
0017
006a
0004
00f2
fef8
0020
0007
00cc
ff91
01f3
00ed
0009
fff4
ffff
ff88
fffe
ff10
ff6c
ff4e
ff6e
ff7a
00d9
fffe
ff1c
fe78
ff22
0006
fe89
ff65
006c
0016
ff6f
001d
ff29
fe53
fffa
0028
000b
00b0
000a
020a
ff06
ff53
feeb
ffb9
02ff
0000
fede
fdea
fe56
fff4
01b1
00c4
00ab
ffb9
fe2b
ff3f
0154
ff98
ffd8
fe8f
0000
002c
ffea
001c
0082
0058
0087
ffc1
00a7
fffe
ff11
003c
00ad
0001
ff81
ff8f
015a
ffbf
0068
00be
00e4
002b
0170
ffc7
0000
00b0
0000
fe2f
01d5
0176
012e
0204
ff7b
fffe
0068
01d2
01a9
0004
fde8
ffcd
0001
002d
013a
fe02
00c7
00d8
018a
0141
fffc
ffce
fff9
0104
ff67
ff71
0206
ff51
ffa4
fffc
0038
008e
00a2
fff7
0081
fe17
00b3
004f
fff2
fec4
004b
fed9
007c
005f
0001
0087
0001
005c
01a6
ffa6
0016
0015
ff7d
0000
019f
0097
fe8b
0006
feeb
ff63
fe6a
ffdf
007a
0166
00ba
0284
ff39
ffa6
0002
001b
000a
ffdf
0059
ff80
0029
001c
feed
fffd
ff97
ffcf
0031
0003
ff92
ffb0
ffee
002e
009e
002a
003d
ff47
005a
ff80
fffe
ff9b
0003
fe5c
007e
0174
006d
0081
ffbf
fffe
001b
ff7c
0010
0000
fe62
00a9
ff72
ffbc
005b
0027
0162
0129
02b8
014a
fffa
ff5e
ffea
00d1
ffb9
ff83
0024
ff43
018b
0001
feb9
ffdb
ffdd
0000
012b
fe05
0108
002c
ffca
fbf9
0260
ffb0
0007
ff14
0002
ff6f
fff1
ff0e
00f4
ff0a
007c
003a
00a7
0003
fde6
fefd
004d
0006
0071
fefd
00f1
fffa
0041
004d
ff34
0139
0031
ffb2
ffff
fff3
fff1
0235
ff62
ff4a
ff50
003f
008b
0004
0039
0080
ff61
fffd
027a
0027
fefc
00bc
fe7f
028d
00cd
ff95
ffca
fdee
0003
ff37
ffec
ffd1
ffb6
0082
ff3b
ff67
ff44
fffc
00cf
fefa
ff30
0008
ffa6
ff29
ff89
0089
00e9
0024
ff5c
003d
00bf
00e1
fff8
ffdc
fffc
ff52
ffce
ffaf
ff15
ffc4
0051
fff9
ffcd
ff50
fec7
fffe
0021
fef1
ffbb
ffc2
ffa0
fffd
00a1
ff49
ff48
fee0
fff9
fe6e
0009
fee5
006d
ffe1
005c
00d1
003c
0000
0051
ffdd
0151
0002
fea4
0092
fe9e
003a
0019
ff77
0118
0108
00e1
0027
0004
ff2c
0023
0000
0004
0007
ffd9
0008
0002
fffd
000e
0000
fffe
0002
fff5
0008
fffb
0002
fff8
fff9
0001
fffb
fff7
fff3
0000
0002
0000
fe9b
feed
0064
fec9
ffc5
feca
0000
ffe9
ff83
00a2
fffe
fe0f
00c8
008e
ffa9
007a
0233
006e
ff14
ff6c
0072
fffa
ff83
fff4
005d
fe5f
fe4c
004d
fdfd
0177
ffff
fdab
fd84
0158
0000
ff9d
ff13
00d6
0021
ff0a
fb58
00c4
fe78
0159
006e
000e
0000
fffa
000a
00f5
ff2d
022f
ff16
ff55
fffc
ff19
fe9d
fe9a
0002
ffb3
feb6
fe8e
007b
001a
0191
ff32
0004
00b0
ff44
ffff
fea0
0008
007f
fe05
0157
ff3a
fea7
0153
0000
fd22
fe38
00d6
0000
001c
0199
016b
0015
ff1f
fdae
014a
fdbd
013a
ff96
fff8
0062
ffff
ffa2
0100
fe58
fe68
ffb3
00c6
fffc
0042
00dc
fdfc
0000
00e3
fff7
000a
ffe3
ff56
0362
00df
0203
fea1
004b
0002
ff50
0000
0041
0158
ffee
0042
0107
ffef
fffe
ffac
00fe
fdd1
0002
00f8
0086
002d
fff1
ff5c
ffa3
ffc1
0128
ff73
fef9
0000
002d
fffc
fff1
fffe
ffe4
018d
ff86
fe2f
006d
0039
004d
00a9
006e
ff9d
ffff
0000
ff4d
0105
01d6
001f
ffec
009d
02d4
fe12
ff60
0060
0096
ffff
01e9
00d1
009c
0017
0019
ff47
00ef
ffaa
0123
0054
0002
0000
0010
fef8
0188
ff3d
0042
026a
0040
ff31
fe92
ff60
ff2f
fffa
ffb0
0151
000c
ff86
fff8
ff9f
ffe6
fe81
00ce
0022
0000
0002
0087
ffa3
ffb9
ff73
010e
0013
ffac
0045
0024
0079
ff2c
fffc
ff7b
fff4
fef9
ff7f
ff8b
ff6f
014e
ffba
ff7d
00e4
fffb
0006
feb1
0029
00d9
ff96
ff2e
ffcf
007c
0050
00d0
fef0
00b7
ffff
0087
01d8
feef
fe40
fee8
0089
0127
ff11
ffc8
010d
0000
fffc
ffca
001f
ff38
ff81
00a6
00b1
ffd1
ff90
005a
0066
0049
0000
0012
ffb8
005b
0073
ffe8
ff8e
ffd5
010f
ffdc
ff28
0001
fff9
0067
004c
00de
007d
ff45
ff94
00f9
003d
ff8b
ff32
ff53
0000
0173
0084
fffe
0163
0095
0095
001f
0025
0104
fff8
0000
fff9
0044
fee3
0068
ffc4
ff65
fe61
0174
0062
006c
fe0f
00f1
ffff
010f
ffa5
007a
00be
00ad
007e
ffd9
002b
0081
ff44
fffc
ffff
fef8
fef0
00a1
00ea
0027
ffc5
00b9
ffcf
00c6
004b
009a
ffff
014b
01b3
ffde
ff78
00ed
ffeb
ff52
ff49
0029
0051
fff9
0012
ffa6
011d
00a4
ff82
fef7
fef5
fdff
0179
ffd1
00aa
0067
ffff
ff59
ff73
0122
0137
0020
0000
ffab
ffc9
0012
0012
0000
0016
ff9a
ffa1
ffc2
000c
ffe5
fef8
00c8
ffdb
0074
ffe8
0101
0005
011b
ffce
ffda
ffcc
ff31
0063
006c
00c0
0074
ff5e
0006
fff5
0004
ff8d
ff91
003a
0084
007e
ff61
002c
ff0c
fe8c
ffe8
0002
ffc2
fff0
fe9f
0013
005a
002e
00ac
012c
ff76
fee0
fffd
fff9
fd3f
005e
0118
007c
fee3
003f
fcec
000e
ffbe
018d
ffc8
0000
006c
017b
ffaa
0087
ffa4
fff8
ff4a
00da
00ca
ffe0
fffe
fffe
fff2
ff86
0120
ff61
ff77
ffdf
ff36
002a
fff9
0019
ffec
0001
004c
004b
00a4
001b
ff75
0089
ff8c
fe1e
011b
ff43
0000
0000
00c9
ff74
000f
0146
0001
fed2
ffa5
0003
0054
010c
0001
0002
ffcd
ff63
006a
ff63
ff42
ff73
005b
0024
ff8d
00ba
000b
0005
0162
ff53
feca
ff64
ffc3
0076
016a
ff85
ff7b
0064
ff55
0001
fff3
ffd6
fffb
00d7
ffb6
0006
000d
ff4d
ff77
0024
fff6
fff8
fffe
0197
ffe9
ff87
00e5
000d
ff0b
0045
ffa2
01cd
0045
fffe
ffab
008b
ffb5
0090
ff7d
ffb0
00f1
ff12
0057
ffbb
fff7
fffe
009f
0068
0088
ff2a
00b4
014e
011c
ff80
0045
ff19
0006
0000
ffdd
fff1
0019
fffc
fffa
ffe9
000c
0002
0002
fffa
fffb
fffd
0001
fffb
ffea
fff1
fff9
0008
0003
0013
ffe9
0001
fe9c
0003
ffa4
0044
ffce
ff76
ffad
fff3
ffc2
0161
ff3d
0029
0000
0000
0070
009f
0016
fe2a
0060
ffc7
ff3c
fff6
00ba
0038
0096
0001
02bb
fff6
fdaa
ffdf
0017
ff75
009a
015b
ffb2
0012
fffc
0000
ff22
0059
003e
00c0
ffb9
018e
ff09
007c
ff9c
ff46
01f2
fffd
0194
00b6
ff3c
0050
fef7
ff67
fe69
ff3a
01e3
fef8
0012
0003
ffbe
00df
ff6b
0108
feae
01fd
0109
018a
fee9
ff9f
ff27
fffd
fecb
0278
00ac
ff70
fffd
ff3c
ffa2
0161
00e1
feb6
fffd
0003
ffa9
002f
015f
ff7c
00ce
015f
ffbc
0085
0075
008d
0046
0000
0072
0063
ff49
0010
ffec
feff
fff8
fec6
ff58
0054
fffc
0000
ffb2
ffc2
fed7
0177
0064
fea4
ffbf
fe87
fdad
fed2
005a
0002
003f
ff58
00c7
009f
ff76
0038
0064
ffb2
fec1
ffa9
0000
0001
fef1
007a
0079
001f
0032
ff88
ff47
ff78
001c
00aa
014c
0183
ff87
017e
009d
ff9e
ff30
00d4
ff7f
002e
00d4
0013
00e9
01d7
ffff
ffff
ff44
ff87
00ba
0013
000d
0095
00db
ffff
00ae
ff10
010c
00ab
ffea
ffe2
0030
ffa4
0086
ffa1
fe6b
0059
ff83
0098
ffff
0002
ff8a
0087
021e
ff5b
ff65
0071
00c2
0002
0064
00fc
0072
ff83
0000
fe5b
ff58
ff60
00a4
fe95
003e
00e3
00d5
ffe8
fffc
0002
0083
0100
ffec
00b9
ff66
00ad
fed3
0001
ffe5
ff68
0025
00f0
ffb6
008c
0069
ff2f
ff2f
ffa7
fef8
0132
000c
ff35
0006
0004
0000
fef9
ffd3
ff59
ff6f
005c
00d2
0003
fee0
fe8d
ff1a
0106
feed
ff1c
0088
0048
ffba
ff53
fef5
fe90
fffc
024b
0000
fffa
ff56
fff8
013e
013d
ffd0
ff45
ff60
ffff
0081
ffee
ffa4
000e
ff6f
00e5
0017
ffe6
ffed
fffa
fece
0029
0000
ff9b
0007
0001
ffb3
ff21
0015
ff50
006a
0095
008e
0000
012c
ffcd
0103
ff21
ff08
fe98
ff22
fecf
00c1
fef9
fe6e
015f
0067
fefc
fffe
0002
fe82
0033
0051
00c3
007b
ff1c
ff73
0000
008e
fea8
00ba
ffa3
0026
004e
ff35
ff5b
00e8
0075
0050
006a
0112
0059
fffd
0003
0053
00de
fffa
ffdc
0001
0001
0029
0001
fea7
00aa
0076
ff67
0024
0082
febb
fec7
ff24
fea7
0064
ff0c
ff37
feb4
0000
fffe
ff6c
00be
008d
011d
00b4
010c
fea1
0002
0017
00b1
0038
ffbd
0081
0051
ff23
fff8
00cb
0019
0047
0038
0091
ff82
0001
ffff
00aa
0023
ffad
007b
fff9
ff8f
007d
0001
019a
fffd
ff4e
ffd0
ffdf
ff50
0013
ff66
ffb5
00ba
fea2
0096
ff0d
004a
0006
fff5
ff0e
ff70
01d9
fe24
0057
fff3
00d8
0002
00a7
0031
ffec
01cd
00fa
fffd
ffac
0192
ff11
0176
0169
007a
00dd
00d1
0000
0002
00d1
ffae
fffe
017b
fef6
01a0
0140
0001
00e2
ff3f
ff9f
0095
0078
fef0
ff91
00c2
ffb3
ffee
ff5e
ffbb
ffe2
0018
fffc
ffff
ffc6
ff66
002b
ffb9
ffdb
00e4
0040
0005
fd9f
0134
0002
fffb
00ab
ffdd
ffd9
fe80
004a
fe04
0056
fe3c
0176
0067
fffd
0004
ffbf
00d9
fecc
ff84
0048
00bc
fe4a
0002
0067
ffe4
0022
005a
0073
0060
fff2
0024
ff10
ff77
ffe1
000c
ffa0
009d
0005
0007
ff53
ff6f
0065
ff82
0090
ff9e
ffc6
0001
ff39
ff8c
ff8e
fed7
ff3c
fd39
ff5f
00cb
004c
fe53
0179
feb7
fee3
fef2
fffe
0003
ffef
fe9e
fee7
ffc2
009c
fec4
0083
0000
009f
00bd
fffd
005a
fff9
ff48
ffbe
003a
001c
01b4
fed6
00de
0019
00d7
0000
0005
ffdc
ff3e
00cd
00dc
00fa
000c
00cd
0001
0006
000c
fff9
000a
0007
0003
ffff
0003
000d
ffff
0004
0008
0017
fff7
fffa
0008
fffb
0000
0007
ffff
ffea
0009
0009
fffd
0120
0043
001d
00c1
fee8
ff01
0093
00f2
ffd2
01ae
fe53
0103
ff08
00cc
ffff
fff5
00e5
fe38
ff0f
0074
00ec
fe90
013e
0002
00ec
fe49
ff83
00c4
00bc
0108
0026
0148
fed9
0181
002c
0034
ffac
00ea
fffd
ffff
0056
0030
ff96
00b2
fffc
fe79
016e
0006
fef5
ffad
ffb4
fed1
0177
0209
fffd
fe79
00c6
00d1
0019
ff0c
0171
fe6b
0005
fffd
ff7a
0145
00db
fe8f
fea0
ffca
ff0e
fffe
00e9
ffb6
0024
014b
0140
00ea
ff61
0078
ff71
fffb
ffa5
ffcf
0034
005a
fffe
0002
00f4
feb3
ffe2
ff54
ffb6
00dc
00cc
ffff
000b
ff34
ffa8
00a9
ff4b
fee1
fe9e
feac
015b
feab
0012
ff65
0186
ff64
0000
0000
fe38
01ee
018e
ff87
fe5d
000d
fee0
ffff
ff39
ffeb
ff78
ffc7
ff91
0194
ffd4
fef3
ff72
ff38
0081
ff3e
fee9
ff6a
0000
0001
ffc6
005a
ffcf
0039
fef9
ffba
fef9
0001
0001
0065
00b9
fffd
00cb
ffa2
0059
004e
01d7
0002
feb5
022f
0003
0046
ff71
ff4e
fff8
ff0c
fef4
fff7
0045
ff4a
0002
0045
fffc
0075
ffe8
ffff
ff3a
002b
ff16
ff6e
010a
01fc
0025
ffb7
ffa1
006d
ff63
ff36
0001
0058
fffc
0020
fe99
ff47
0001
ff6a
0000
0020
001c
fffe
fed5
ffb3
008e
007f
011f
fe0f
ff6f
ff30
0033
00b9
005d
0057
fffa
0076
ff34
00a0
00b0
ff58
0000
ffb1
fffe
009e
ff3f
ffff
fff6
ffdb
ffcb
ff67
006c
ffe9
fed8
ffd2
ff1e
ff5e
00d4
009a
0000
ff79
018f
0065
ff1b
fefc
ffff
0024
fff7
fe84
ff2d
fffe
ff9f
fe42
fff4
ff52
ff5f
ff22
ff3a
fdff
0138
0000
ffca
0049
fff8
ff8e
0030
ffed
0152
0039
fff9
ff2b
fffd
0009
ff4d
0001
0070
ff2f
003e
ff72
ff9f
0108
014e
009a
ffe2
ffef
ffdd
ff2d
0010
ffe5
0015
fed7
fec4
fff4
0001
ff2f
001c
0003
ff2b
0001
fee8
0062
ff9f
0087
00c4
fd83
0032
009c
fe71
ff71
005e
0100
0005
0037
00a9
0172
fed0
ff4a
0003
00b0
0000
003f
00e0
0000
ff30
0159
0012
ffcd
00ce
ff62
0081
ffbe
000f
005f
feea
ffb1
0000
ff1f
017f
001a
00f1
0107
fffe
02a6
0002
ff6e
ff4e
fffe
fec6
fda9
ffec
0000
0005
fffd
fefc
ff74
0025
ffc6
fefa
ff2e
0000
ff56
ffc9
00cb
0041
0040
0006
fd55
000a
ffe7
0009
fffe
ffc6
ffa2
0058
ffb1
ff64
0077
ff7e
000a
fffa
ffba
ffa6
fed1
0000
0003
0023
fffb
fffe
ffd5
0000
ffa7
fffa
0194
ff9b
0000
00a0
ff61
00de
ff77
0059
0105
00a9
0183
fe5c
00b5
006f
ff3b
ffff
0077
0054
0059
feca
ff2e
fffc
0079
0005
ffe3
006e
0003
0023
0228
ffdf
0064
01eb
00a6
00b3
0195
ffe8
fff5
00a2
ff9a
0004
026e
0031
00a0
ff88
ff4f
0006
0176
fffc
0014
0001
fffe
ffab
0015
00a1
ff98
00e8
003a
0023
ffd8
fede
0061
ff7f
003e
0001
0063
ffdf
005d
fffd
0010
0002
00d0
0000
ff53
00c5
0001
ff8c
ff27
ffa3
004d
fec5
ff23
ff04
fdef
01d9
004d
ff49
fe9f
0003
ff1d
fe8f
004d
027b
00e5
fffa
fde7
fffb
00bf
ff95
0000
ffbe
ff51
ff19
0009
0010
0039
005f
ff35
ff5b
ffd6
0090
ff6e
000c
feb8
0073
ffcb
ff7d
ff75
fffd
ff25
ffff
007e
ff08
fffe
ffbe
fea6
0063
ff77
ff8e
ff70
ff49
ff60
ffea
ff2e
fff2
ff85
0004
ffbd
ffe9
fed6
0144
0098
0005
ffa3
0000
0019
00c3
ffff
0103
0083
01ea
0006
0137
ffc2
012a
0119
ff3a
00d9
0070
ff7e
ffff
004d
ff42
ffd9
ff31
ff27
fffc
0183
fffd
000d
fff8
fffd
0009
fffc
0007
0006
ffe4
0000
fffb
0003
000a
0004
0009
0000
fffc
ffe8
ffef
ffff
0000
fff6
fffc
ffdb
fff6
0128
004a
0002
0147
fe43
0186
ff98
01c6
ff66
015e
0288
fe19
ff3a
003a
ffeb
fffc
007a
ff35
001b
fe4e
ff0b
fffc
0093
0000
00d7
0095
0003
019c
01e2
002a
fe57
0180
0114
0164
016d
fff9
ff29
ff4e
00dd
0005
0180
01d2
ff5f
fe8e
00d1
0001
016f
0002
ff7e
fffd
fffd
ff71
007f
0049
ff59
fedf
00bc
ffc2
ff59
0095
0045
fe14
ffd6
fffe
fea6
0202
ff66
fee9
017d
fffc
ff0c
fff5
019f
fe8b
fffa
0031
016b
03e8
fe5c
0115
00e0
009d
0045
004b
0189
0143
fe84
fff1
01e7
fefb
ffac
0005
fe0d
ffff
0119
0007
feb0
006c
fffe
fee8
00ca
fd1b
026c
febc
fe45
fea3
ff8d
0045
0057
0085
ff35
fff3
ff2b
007f
fff3
00ad
ff8b
0002
fefe
0009
ff7c
fed9
fffe
fdd1
00e6
ff65
01cd
ff5c
0017
ff79
ff0d
013e
fe99
0040
0084
0002
ff09
008a
00af
000f
007f
0012
ff11
fffd
ffde
ffcd
0133
ff6a
0091
fdcf
0091
0178
0122
0139
00b5
0052
ff50
ffd7
fffe
ff4d
ffe8
ffc3
0055
fe62
0000
ffc5
00fc
fff7
0005
0086
010e
00ce
0026
0062
001b
ff7f
fed6
00b1
006b
fe39
000d
0050
0000
006c
01aa
fece
0084
00d3
0001
ff55
0237
0000
0000
0021
0035
0043
00b0
ff6d
ff70
ff16
ff41
0055
ffda
ffee
00a4
ff59
000b
002f
004b
004d
ffc1
0074
fffa
0003
01c3
0004
0001
005d
0138
ff90
00d6
ff8e
fff7
ff9f
ff61
ff45
012d
fe22
ff68
ff8a
fffe
01b0
0096
ff09
01c0
fe4b
0006
0040
ff27
fffe
fff9
fed7
ffd0
fffe
00fe
fe95
fece
ff69
fee0
00ad
fde2
ff5a
0212
ff9b
fff8
ff41
ffb8
ff56
0106
0099
0003
0017
000d
0000
0002
ff8d
00af
0065
ffef
ff30
000d
ff87
ff97
00b8
00a4
fff9
ff1e
017a
0006
ffda
00a1
00c0
00de
00a5
0000
ff97
009e
0000
0001
ff65
012f
00e4
ff0d
0038
024e
0081
fda6
ff41
015e
0056
ffe6
ff96
0017
0015
ffc1
00ee
01a0
010d
fffe
0044
00e8
0000
0004
0149
ff2d
0005
00c8
0022
fe34
ff91
ff54
0038
0056
ff90
00eb
00e5
0002
0081
ffc4
fff1
ff09
00a1
0004
ff4e
002a
0003
fffe
00b7
ff19
fea7
021e
0051
0079
feeb
ffdf
00f4
feac
00f6
ff66
ffc5
0001
00c7
0209
0174
ffbb
0135
0001
00ac
00b1
fffe
0002
00a9
ff74
0080
ff89
006d
ff43
007f
ff5d
ff59
0078
ff58
0013
ffd6
fff8
ffb4
ffac
001a
ff5a
ff00
fffb
ffd1
0042
fff6
0002
fffe
0172
008c
ffa6
ffbf
febb
0085
000d
0064
ffbb
00ab
ff27
0011
fffb
00ac
00ab
006c
0174
00d6
fffb
ffc3
0091
0004
ffff
0008
0122
ffe2
0114
fe36
00d9
0005
0168
016b
004f
fef7
0012
ff7b
0000
0100
017a
ffdc
018f
018a
0000
0162
0053
fffc
0002
ff68
0129
0015
00df
feae
ff82
ffbd
0097
ffd9
0026
fd5a
ffcd
ff78
0005
ffe8
014d
0003
0111
ff75
fffe
0027
009e
0008
fffa
ffa0
feb2
fe17
002f
ff63
fff9
ff5e
ffcb
ffe1
feba
0171
013c
009c
0005
ff38
0055
007b
fef1
fe11
0000
ff3f
002a
0000
0004
ff9d
ffdc
ffc6
006d
ff1e
ff07
019a
0008
006d
007b
ff26
ff1d
001d
0006
0049
00cd
ff85
ff4a
ff41
0000
fff6
ff08
ffff
0000
006c
fecf
0011
ff7a
000b
feb0
ff84
ff0a
0068
ff96
ff36
ffcb
ff21
fffa
ff3c
ff05
008d
ffa1
0002
fffc
0040
fedc
0001
0000
0028
00f9
00bb
ff1d
ffe4
0078
000d
0147
ffcc
0069
ffd2
ffa0
0164
fff4
007d
003d
ffe1
ffb4
0133
ffff
ffd7
00b4
0005
000e
fffa
0017
fff7
ffe6
fff6
fffa
0007
fff9
0011
0009
0000
fffd
fffa
0002
000b
0006
fff9
fffd
fff5
0000
fff2
fffc
fffe
0000
ff40
01a0
00f7
fefb
0011
ffd7
fffd
ffbf
006d
0169
ffe3
ff78
ff40
fff8
001f
ff8d
ffc0
0060
00eb
fffa
010c
ffc7
ffff
fffc
ff9e
00f9
0112
0174
ff9e
ff31
fee5
0082
0172
ffad
fe02
0175
004d
000a
ff9c
009c
0055
01f2
003d
fffc
006f
fe85
fffd
fff8
0044
ff3c
ff2d
00db
ff49
0173
ff3a
ff55
0004
fe81
ff88
ffd0
ff99
fffb
fede
01b9
fdfd
ff23
ff3a
fffb
00b0
ff75
fffd
fff3
ffad
01ca
005a
ff8a
fe0e
0033
00b1
00d9
005b
020d
fe37
002a
ff57
fffd
ffb3
ffde
fd41
01be
00f3
fff9
ff7d
002a
0002
fffb
fffc
0010
ffd1
015b
fef2
fe71
0085
feed
fe95
fe1b
0082
ff1d
018a
fff7
008b
ff29
006c
0012
ff97
fff9
ff31
ff19
fffb
fffc
ffcc
ff04
feea
ff5e
ffb7
006d
fecf
fea7
007a
ffef
013a
feeb
01c0
0004
ff88
00b0
ffa0
0050
0029
fffd
ff32
ff5b
0118
0088
0002
fef3
fee3
0003
016a
00a9
ffff
00eb
fe7c
01b1
0000
fee9
fffe
0030
0009
fef4
00dc
003e
fff9
0064
ff9f
003c
ffd6
ff0e
0000
ff14
fefd
0002
ff41
0186
ffff
00cb
01d9
0193
ffff
ffd8
fffa
ffbb
ffff
00b7
005c
ffd9
fffe
fff4
ffc8
0000
ff9b
ff1f
0002
ffc6
ff83
fffd
ff5c
000d
0001
0021
0036
0073
0001
ff93
ffe8
012b
fffe
00e6
ffae
ffe6
000a
0027
00a8
00bf
016b
ffd6
0001
ff24
fee7
ffff
000d
0143
0000
0034
ffe5
004a
0006
ff99
0000
ffeb
fffb
0231
ff64
ffe9
0005
ff23
006f
0008
001f
0173
0001
ff74
ff14
0006
ff58
002a
0002
ffde
00be
ff6c
0001
fec2
fffe
011a
0002
004f
ff12
fe10
0005
0179
fed6
02b0
00e8
0056
0000
0035
0060
0006
00ac
ff9c
0000
00c8
00f1
0021
0000
0095
0000
fff3
0000
fe0e
ff43
000c
0007
ff4f
ff49
017a
001f
fe05
0000
01ca
00dc
0005
fef7
febd
0000
0134
ffef
ffa6
0003
012c
0004
fff4
0000
00ad
fe72
ffa1
0002
fe4d
02b1
ffc7
0052
ff0d
0000
010d
0050
ffff
ff8c
ffd9
0001
0040
0141
0050
000c
ff86
0001
0123
0000
0050
ff49
0119
0006
0011
ff87
ffd4
ff4a
ff75
0001
ff22
0044
fffb
0064
0095
0003
ff82
ffce
005a
0000
ff71
0001
0035
ffff
0062
ff7d
fd93
0000
0165
0175
004f
0095
000b
0002
0044
0017
0000
006c
0059
0003
ffa7
007d
0040
fffd
ffcd
000a
ff31
0002
0032
007d
ff48
0004
002e
ff66
ff81
0098
ffd7
0000
0080
0078
0006
ffbd
00a9
0002
01e9
0012
007d
0001
0118
fffe
011a
fffd
00bd
0081
feb4
0002
fea5
ff71
ffb4
0075
00be
0000
ffac
fddb
fffc
00d3
ffc9
0000
0129
0095
00f1
0002
0011
0000
0032
000c
feb2
feed
011c
0001
00c9
ffad
00ad
001b
00c4
0000
ffda
ff20
fffb
00eb
0060
0002
008b
00a5
00b6
0004
0089
fffe
001b
0005
feec
fffb
ffa7
fffe
febb
ff07
0082
feb2
ff4b
0002
0080
009f
fff9
003c
ff84
0003
fda8
005c
fe9c
0005
fe5e
fffe
0053
fff9
fe48
ffd0
ffc8
fff8
00ef
00b5
008a
fff1
ffe3
0000
ff7a
0099
0000
ff8e
00c5
0000
0042
ff7f
ffd4
ffff
0081
0001
0065
fffa
ffa2
0051
ff59
0004
ff28
ff64
ffb6
ff49
fefa
0000
001f
fed5
fffd
ff19
ffc9
0000
ff83
fee7
ffa3
fffb
feaa
fffd
ff85
0001
ffc0
ff05
ff04
fffa
ffa1
0098
ff83
008a
00db
0000
0002
ff27
0000
ffa9
ff03
0000
0067
ffa2
002a
000a
004a
fff7
0042
0000
0039
0079
ff02
0006
ff2a
00ae
ff12
fffe
000b
0001
ffc4
ffec
0002
0003
fffd
0000
000a
0004
fff2
0001
fffd
fff9
000c
0007
fffd
fff7
0002
fff3
ffca
0000
0000
00cc
004f
0002
fea2
0035
0001
004f
ff88
0003
0106
fd63
0173
fffd
012b
0009
fdfd
0008
0182
ffaa
fe7f
fff5
fe42
ff8f
ff23
020d
0205
0000
0087
feb2
fffa
00a8
0100
0006
021f
018f
012e
000d
005d
fffc
01ac
fff6
ff85
0076
ff7a
0002
00c1
fe7e
ff00
ff8b
ff0c
0001
01ab
ff23
0000
0055
00fd
0002
ff11
0095
ffa0
0002
ff52
fff7
0158
0003
ff30
0165
ffdb
fffd
00ae
ffbf
ff91
00d1
00d7
0001
fe59
fe81
fffb
00db
0056
0005
0143
00ac
0102
0003
01c7
0004
fff0
0009
ffdc
ff84
0092
fff9
fe82
feaa
ffca
ffcf
ff6f
0001
006e
ff98
fffa
ff31
ff35
0001
ffdf
001c
fea8
0000
feae
ffec
026d
0004
001a
ff93
01e9
0004
0036
017c
0024
ff39
ff7e
0002
00e7
ffc3
fffe
006e
00b7
0002
ff88
004b
fef0
0000
0012
ffff
0051
fffb
ff93
ffa0
00c2
0005
ff1c
0164
003b
0012
0296
0038
0049
fdef
00f5
0068
ffb9
00f1
0041
fffa
0000
ffcc
009c
007f
012d
0001
ff88
010c
0004
007f
ff24
0109
fe9d
005e
0053
0061
0179
00d9
0016
ff40
fff9
ffc0
fff3
fff2
ffff
0094
fff6
0080
00f2
0062
fee7
ff91
0008
0119
ff1e
0023
003f
fff7
0118
ff0a
ffd6
ff9e
001c
007a
0156
ffd4
fe7f
0009
fffa
fe52
ff6a
ffba
ffbf
fedf
00b9
0173
fff9
00ac
0038
004c
00be
ff76
ff45
00d6
ff8b
ff96
ff8b
0049
ffc5
ff69
0131
fff3
0000
ffa8
fea5
ffba
ff2a
ff45
ffd7
fe8e
fffa
ff11
ffc4
0086
000b
00c6
0083
fea1
0297
fff4
0034
011b
0177
ffce
fff5
0000
ffff
ff7c
ff23
0196
fed3
ff23
ffc2
00d9
000f
00e9
0137
019a
ff60
00f6
0015
0083
0076
ffec
fffe
feb2
00b5
ffaa
0086
000b
0003
007b
0068
ff93
005a
0018
016a
ff20
fffd
00c2
00f1
fffc
0111
ffb7
feef
014b
ffb4
021b
0042
fed1
fe55
fecf
00ad
0000
0002
0012
0129
fd25
008f
ff24
019b
fe37
0001
0012
0048
ffba
0025
00f0
ff98
00a0
ffef
0032
004a
ff22
0075
00d4
00d9
fffa
0002
ff97
0064
0040
0092
fff7
0248
00e3
ffff
005b
009e
ffd9
ffaa
ff8e
012a
feb2
ff3b
ff60
0053
00d9
fde1
ff92
fe5e
fffb
0000
fe3c
feeb
0007
fea8
01a5
00e4
00d6
fffe
0072
ff39
0011
ff38
008b
ff85
ff52
0072
ff40
0035
fff5
0053
0044
ff82
fffd
fffc
000c
ffcf
0061
004c
0082
ff1f
00cf
0000
000f
0112
ffc9
0019
fff8
ff33
0094
fef1
0109
ff22
ff50
fe93
fe07
0077
0005
0002
ffb2
ff5d
fe2a
00b5
0100
fff5
fdfa
0001
ff5e
fef8
febd
ff70
002f
02c8
0093
0117
ffce
00f3
ffdb
01d2
01b4
0121
0000
0000
007a
01ab
0075
ffb9
fdc1
ffe3
00b7
0005
002a
00e4
ffff
ff24
ffcc
fee6
ff80
ffc2
ffd1
ff86
ffc3
00ce
0099
0083
fff8
0000
0040
000d
ffbc
ffb9
fe8a
003b
0010
fffd
00c0
ff14
00be
ff70
00d2
00c0
fea8
ffae
fee6
0136
00e2
ff1f
fffc
fe86
000a
ffff
ff5c
fe6e
ff98
fcf6
ffd8
ff21
01d4
fffd
00a0
0198
ff50
01c0
ffa4
ff04
ffa0
fef0
ff4f
ffb8
ffe3
ff70
ff08
ff82
ffff
0000
0188
ffee
ffde
0075
ffff
00b0
ff38
fffc
ff7b
ff95
feb8
ffee
fff2
ffab
ff45
ffdc
0020
ff26
fec9
fed3
016c
ff9d
fffa
0000
ff00
ff51
ff34
ff63
00f5
ffe7
ffe3
0001
ffc7
ff59
0193
00bd
004e
ffc6
ffdb
0099
009a
0010
ffee
ffd0
ff6a
011e
0002
fffe
00d5
0091
ff90
0138
ffb6
ffc2
fee3
fffe
001f
fec1
ff37
fff1
0008
ffe8
0006
000c
0005
fffb
fffd
ffff
0007
ffdf
fff7
0000
ffff
0011
fff2
0006
ffdc
000f
0000
fff9
0001
fffb
fffe
0008
ff27
ffa9
0156
ff75
013d
ff49
ffcf
ff29
ff9a
00ea
fff3
fffd
0180
002d
fe66
0192
ffde
011b
fda1
0000
ff3f
ff1a
ffd2
0142
ff98
fe70
0193
009d
ff2a
01d3
ffad
020d
0191
0216
fffc
fffa
0120
fff1
00a9
025f
ff47
0042
ff92
fff8
010b
ff34
ff3f
ff67
0236
fffd
ff72
ff8c
ff1a
009c
002d
fe90
fe94
ff67
0005
0001
ff7b
ff36
014a
fee7
0144
ff79
0126
0000
002a
ff97
ff15
fed1
ff91
ffc3
0167
00cf
0105
008e
0144
0233
00bf
0104
ffe8
fffa
01be
ffbd
0144
01f6
fe24
00b8
00c7
0002
ffd2
0046
ff84
0170
00b5
ffb3
febc
0047
ff0e
00dc
0114
00d6
ffc7
ff1d
fff5
fffb
fe6c
011b
ffb2
fe9d
ff17
017a
0069
fffa
0088
0078
ff6e
fdd3
006e
0073
ff3a
ff46
0008
feb4
ffae
ff2b
fe5d
ffb4
fffd
0000
fed6
0083
fffb
fdda
ff94
fda2
0095
0001
ffe5
ffb1
ffbd
ff42
0076
00a5
0040
0135
00aa
febd
ffb3
ffcb
00f4
fff8
ff9e
ffd9
ffca
ffbb
00b6
0056
0000
0000
0000
0000
0000
0000
0000
0000
00ea
01fd
ff8f
fec6
0113
00ca
0018
0014
ff2e
0000
007f
009c
0086
002c
ff1f
00c0
0000
0000
0000
0000
0000
0000
0000
0000
ff08
ffb8
0082
feb1
ff85
ff76
fe9d
000d
ffec
fff9
ffed
00fb
0009
fff1
ff2c
004e
0000
0000
0000
0000
0000
0000
0000
0000
ff20
0082
ffb7
007d
ff9e
020f
ff47
ffda
0080
0000
ffbc
ffa6
00b5
0157
006b
fe16
0000
0000
0000
0000
0000
0000
0000
0000
0019
ff45
ff5b
0118
ff7c
ff9b
fec4
fd19
00e0
fff9
000a
ff65
0083
0101
ffc0
ffdb
0000
0000
0000
0000
0000
0000
0000
0000
00cd
00a9
00a0
0033
ffcc
ff2d
ff73
001f
ffc7
0000
ffb3
fff1
ff33
ffaf
ffba
ff83
0000
0000
0000
0000
0000
0000
0000
0000
00fd
fff1
011c
fd9a
ff1c
0019
0072
0134
ff97
fff8
0020
00d9
ff67
fffe
ff4f
fedb
0000
0000
0000
0000
0000
0000
0000
0000
0096
009b
ff54
fff7
0141
0068
fffc
00b4
ff7a
0002
0088
0160
ff45
ffbc
ff1c
015a
0000
0000
0000
0000
0000
0000
0000
0000
ff2d
fff6
ffaf
0019
ff32
ff1b
0098
ffd2
0088
0003
0021
0084
ff29
ff68
0138
fff7
0000
0000
0000
0000
0000
0000
0000
0000
0116
fea9
0011
fece
ffa3
ff72
0075
ffd9
ffe8
0007
ffbd
ff65
ff8a
ff29
0027
ff31
0000
0000
0000
0000
0000
0000
0000
0000
0097
01db
ffb5
ff90
014a
0047
00c6
0054
0063
ffef
0004
ff51
0059
0127
00e5
fe4e
0000
0000
0000
0000
0000
0000
0000
0000
009b
004c
00c1
0111
00f5
ff1c
ff34
0266
fffd
0001
0017
0189
ffbd
003b
0137
0073
0000
0000
0000
0000
0000
0000
0000
0000
0084
ff84
ffe8
0066
ffca
ff0f
ffad
005d
00cb
fffb
0002
ffc9
000c
0003
00dd
ffa2
0000
0000
0000
0000
0000
0000
0000
0000
011b
fe82
004e
0078
fe12
fdeb
008f
0060
009b
fffc
ffe5
0024
ff51
0023
ffdd
ffb9
0000
0000
0000
0000
0000
0000
0000
0000
fef4
0076
fffa
ffc9
00de
ffe9
fffc
fe74
0011
fff6
ffba
ff9f
ff21
fff9
0083
ff33
0000
0000
0000
0000
0000
0000
0000
0000
fe98
ff48
0037
0082
0073
002f
0097
fe7a
fee8
ffff
ffa0
ff36
02c7
000d
ff10
fe5b
0000
0000
0000
0000
0000
0000
0000
0000
00ed
007b
0012
ffcd
011b
00a4
005a
00b4
01c2
0001
ffcb
ff4a
00d3
0095
0084
02ac
0000
0000
0000
0000
0000
0000
0000
0000
fff9
fffe
0004
fff3
fff7
ffea
001a
fff4
ffef
fffb
fffc
0008
fff5
0008
fff9
0009
0000
0000
0000
0000
0000
0000
0000
0000
fee7
ff73
ff1e
0008
0224
0150
ff92
ffb0
00e5
fffc
ffb1
fdbf
001a
ffa6
0085
0050
0000
0000
0000
0000
0000
0000
0000
0000
ffee
00ac
0034
00aa
013e
0081
ff76
ff6e
ff30
0000
0079
0015
ffa0
016a
0000
0146
0000
0000
0000
0000
0000
0000
0000
0000
ff60
0128
ff8b
00ad
ff39
fea4
ff86
001a
ff2a
fffb
000d
017f
007a
ff50
ffe4
fec8
0000
0000
0000
0000
0000
0000
0000
0000
00b5
0046
0043
0113
0053
ffb2
0001
00a9
fffd
fff7
0049
ff91
ffdd
0081
0081
ffbb
0000
0000
0000
0000
0000
0000
0000
0000
ff28
0022
ff99
ff4c
ff43
ff11
ffe2
ffaa
009f
0003
0072
008f
ff48
0020
ff79
ff5b
0000
0000
0000
0000
0000
0000
0000
0000
00a6
003c
00ff
00f6
ff28
ffcd
ffdf
00b3
ffc7
ffff
ffbd
01ba
ff62
0082
ffee
001b
0000
0000
0000
0000
0000
0000
0000
0000
c9f4
2325
cdfb
3543
c4b2
3aad
ce58
c87e
cb27
28fd
d242
c56c
2a3b
de71
c916
3ca3
db02
e3fd
36cd
cd9e
2f69
aca0
37c2
d9df
00a1
ffcf
f960
0120
fd05
024a
ff0a
ffb1
027a
02b6
0455
fd41
082c
0aae
03f0
0317
0114
05d2
00ef
018a
0150
ff6a
0127
fcf3
0014
fff9
ff6c
0024
fef4
0028
fffb
ff5c
0039
0000
006f
ffd5
ffcc
0087
fffb
0060
ffad
ffa9
0054
ffaa
ffcf
00af
0075
ffe6
0001
0006
005d
fff7
0150
ff86
0016
005a
fff6
0000
ffc7
0027
004f
0041
0065
ff7d
ffa4
ffbd
0016
005b
0006
ffd0
ffbe
0077
0000
0000
0000
0000
0000
0000
0000
0000
0000
0000
0000
0000
0000
0000
0000
0000
0000
0000
0000
0000
0000
0000
0000
0000
0008
fffb
0012
fff7
ff74
feed
004f
ff70
ffbf
fffd
ffcb
ffa8
ff3d
ff7d
0010
0113
ffc8
ff83
ff71
00b8
ff98
fed9
ff4b
fef4
fffe
fffd
0043
fff4
ff02
ffa4
00a4
0148
001d
0000
fee7
fef6
00bf
fff8
feeb
00e5
fed6
0185
00ba
0046
fffe
0094
00af
ff97
0000
0000
0000
0000
0000
0000
0000
0000
0000
0000
0000
0000
0000
0000
0000
0000
0000
0000
0000
0000
0000
0000
0000
0000
ffff
0006
00b2
0035
0063
0095
001d
00ed
0077
fffe
0071
006e
0073
005b
00ac
00c5
ff93
0008
ff0b
fffc
0111
00ee
ff12
ffd1
0000
ffff
0070
0011
ff1d
ff33
00c0
004f
013a
ffff
ffab
ff57
ffc9
ff75
0127
ffc0
0088
ff8c
0040
ff5b
00a5
00eb
ffee
ff32
0000
0000
0000
0000
0000
0000
0000
0000
0000
0000
0000
0000
0000
0000
0000
0000
0000
0000
0000
0000
0000
0000
0000
0000
0000
0002
0047
ffec
0093
ff2c
0034
ffd3
ffce
0002
fff4
ff03
fffe
ffb5
009e
ff0c
0039
fedb
ff9b
0072
0147
feea
fe43
001f
fff6
0005
feab
0048
00f0
0055
013c
003e
fedb
0003
0055
0047
0121
fffb
ffac
016d
0130
ffd1
0161
00ed
00dc
ffaa
ffd7
0036
0000
0000
0000
0000
0000
0000
0000
0000
0000
0000
0000
0000
0000
0000
0000
0000
0000
0000
0000
0000
0000
0000
0000
0000
fff9
ffff
0089
0015
fe3d
003c
0055
00bc
00c6
0001
fe6e
fee8
fec2
fef1
fe95
ffb1
02c3
0019
0209
00ff
0001
ffb9
0016
004d
fffc
0000
ff14
0080
0006
015e
00a4
0185
ff0a
0003
007e
fff2
0042
ffdc
febd
006b
ffe8
ffde
003c
0016
fe25
ffe1
005b
0066
0000
0000
0000
0000
0000
0000
0000
0000
0000
0000
0000
0000
0000
0000
0000
0000
0000
0000
0000
0000
0000
0000
0000
0000
0006
fffc
fffc
0011
fff8
0070
feb3
ff4b
ffb9
ffff
ffb2
ff32
00cd
ff52
fe19
00b7
fd31
0279
ffc3
ff8b
005e
0047
ff80
fef0
ffed
0001
fec5
0029
0219
ff84
ffbe
ff81
ffab
fffe
ffa5
0086
010a
ffac
0026
ff86
ffc7
ff9f
ffa1
ff37
ff14
0051
ff74
002d
0000
0000
0000
0000
0000
0000
0000
0000
0000
0000
0000
0000
0000
0000
0000
0000
0000
0000
0000
0000
0000
0000
0000
0000
fffa
0010
fff9
ffa3
0030
feb9
0180
0016
00b6
0000
ff59
0094
017e
0062
fff7
fef3
011b
fef6
ffeb
007c
004a
0156
ff6b
0013
0002
fffd
000d
ffcf
0160
00c7
004b
ff86
ff8e
0000
ffcc
0002
0083
ffbd
00a6
00b7
0140
0037
ff52
ff3d
ff9a
0048
00d2
ff95
0000
0000
0000
0000
0000
0000
0000
0000
0000
0000
0000
0000
0000
0000
0000
0000
0000
0000
0000
0000
0000
0000
0000
0000
fffb
0000
0144
0027
0182
01e9
0124
013a
0099
0004
0037
fea1
0158
ff54
ffb2
ffe9
002a
ffb6
001c
00dd
011e
ff33
ffc1
fff9
0005
ffff
00b2
0016
fd82
017b
ffdf
ffbe
0075
0004
0050
ffca
ffdd
feb5
fee1
ffec
015d
ff1c
010e
015f
00c2
ffbe
0062
ffb1
0000
0000
0000
0000
0000
0000
0000
0000
0000
0000
0000
0000
0000
0000
0000
0000
0000
0000
0000
0000
0000
0000
0000
0000
ff5e
ff1e
0062
0061
003d
fffd
0004
ffef
00d1
ff34
001f
002a
febd
fffa
0167
fffa
0017
000e
ffce
0001
00a5
ffff
004f
ff85
0033
0094
ffc4
000d
fff8
ffbb
0000
ffc8
0037
005c
0017
0031
ff35
0007
0004
0031
0002
0002
0026
0000
ffdb
fff4
0049
004a
0000
0000
0000
0000
0000
0000
0000
0000
0000
0000
0000
0000
0000
0000
0000
0000
0000
0000
0000
0000
0000
0000
0000
0000
ffea
00aa
009e
ff35
fea7
ff2f
0000
0158
ffb6
ff28
ffd4
ffc9
ff54
fffc
001d
0092
fff9
ffb3
ff01
0001
0071
fffc
032b
02f5
0094
0067
fdfe
ffbd
007f
001f
0015
0080
ff37
00b3
ff5e
0127
01c6
fffe
0064
00a0
0011
004c
00a7
0002
001a
fffc
011e
ffef
0000
0000
0000
0000
0000
0000
0000
0000
0000
0000
0000
0000
0000
0000
0000
0000
0000
0000
0000
0000
0000
0000
0000
0000
001c
0093
00ed
ff9c
00c4
0061
fffe
ffae
007e
0066
ffe6
ff8f
00c1
0001
001c
ffc0
000b
ffef
fef6
0000
005f
fff4
fffb
ffe3
0035
00d1
0084
0096
ff8f
0123
0007
005b
006f
0000
011a
ff3b
002f
fff3
0033
fed2
ffea
ffc1
0086
0001
01fc
fff8
ffb3
ffc9
0000
0000
0000
0000
0000
0000
0000
0000
0000
0000
0000
0000
0000
0000
0000
0000
0000
0000
0000
0000
0000
0000
0000
0000
ff26
001a
00b6
0071
0003
000d
0004
ffa1
ff66
ffd9
ffab
ff90
ffeb
0001
0031
ffbf
ffd5
0046
ff55
0000
fffd
fff5
ffee
ff91
ff12
ff44
ffd7
fff1
0034
0072
ffff
0027
ff1a
000d
fffa
0069
0000
0002
0043
012e
001e
ffcb
0020
0000
ffe3
0005
0036
00ad
0000
0000
0000
0000
0000
0000
0000
0000
0000
0000
0000
0000
0000
0000
0000
0000
0000
0000
0000
0000
0000
0000
0000
0000
011d
fefb
fead
fe0a
ff4f
ff5d
0002
022e
ff3f
002c
0052
0147
ff4d
fffa
ff56
0065
000b
fedb
ff34
0000
feb1
0002
003e
005b
febe
0091
fff5
00a2
004d
ffc7
fffc
fede
0169
00c6
ffee
ff53
fe71
0001
ffaa
0016
0012
ffc8
00b4
0003
00f4
0000
ffa6
003d
0000
0000
0000
0000
0000
0000
0000
0000
0000
0000
0000
0000
0000
0000
0000
0000
0000
0000
0000
0000
0000
0000
0000
0000
febf
0030
017a
017f
01c3
ff2f
0000
ff63
fe42
0024
fff9
ffdf
ff75
0008
ff8b
01b7
fff7
ffcb
ff7e
0000
0022
fffd
00a7
00e1
ffb2
ff5f
0049
ff26
0013
005b
0000
ff99
0093
ff9e
005d
ff6f
0059
fffc
0161
ffd9
001a
fff5
fe8e
0000
ff79
fffe
fff2
0032
0000
0000
0000
0000
0000
0000
0000
0000
0000
0000
0000
0000
0000
0000
0000
0000
0000
0000
0000
0000
0000
0000
0000
0000
008f
fd6c
0153
0045
ffc7
00a3
ffff
001e
fefd
005b
0222
00cd
fe7f
fffd
0028
0108
0008
fff3
ff1d
0001
ff71
0006
ff6c
ff97
ff9d
ffdb
01c5
00b6
0176
006f
fff8
0000
004a
ffcd
fff1
ff36
004d
ffff
ff48
ffaf
0013
002d
0078
0000
ff68
0004
feb4
ff59
0000
0000
0000
0000
0000
0000
0000
0000
0000
0000
0000
0000
0000
0000
0000
0000
0000
0000
0000
0000
0000
0000
0000
0000
00fb
000f
fe11
0039
005c
ffe5
fffe
021d
fff8
005b
ffa9
00d7
012f
0007
febb
fffd
0023
0030
000c
0000
0625
0004
00be
fe85
ffaa
feb3
00db
003f
0120
ff28
0000
007a
0079
ffaa
ff2c
001d
fe9d
fffc
009d
ff10
000c
ffe2
ff1c
0001
fec1
0004
ff90
0031
0000
0000
0000
0000
0000
0000
0000
0000
0000
0000
0000
0000
0000
0000
0000
0000
0000
0000
0000
0000
0000
0000
0000
0000
fffd
004e
0023
0123
00a4
0159
0045
0062
fff3
ff37
00e1
ffa0
ffd7
ff7c
00ae
002b
002e
feec
0088
0065
ffdd
ffff
ffae
ffc8
0005
005e
ff5e
ffbe
008b
0025
ff0f
007d
ff9e
00e5
ff3e
ffdc
003b
008a
ffb3
ffc1
0066
ff62
ffbe
fffe
001f
ff7d
0050
00b3
0000
0000
0000
0000
0000
0000
0000
0000
0000
0000
0000
0000
0000
0000
0000
0000
0000
0000
0000
0000
0000
0000
0000
0000
0000
00be
ffb0
021b
ffab
ff47
ff20
ffe6
fe57
ff6a
fec5
ff86
0230
fede
0106
ffc7
00ff
feb6
0028
fffd
fe9e
ff0e
ff52
0018
fffe
008e
ff38
003f
002e
00ba
011a
0008
ff4a
ffac
fefe
fe8a
00bc
0048
0120
ffc0
0014
ff36
ffc0
0077
0079
00ce
ff1e
0115
0000
0000
0000
0000
0000
0000
0000
0000
0000
0000
0000
0000
0000
0000
0000
0000
0000
0000
0000
0000
0000
0000
0000
0000
fffd
0029
ffef
0060
0110
003c
fe08
0042
00d5
0025
008d
0067
00bc
0085
00ae
002c
007c
00b9
0050
fff0
00e9
ff01
0029
fe54
0001
ff6e
ff8b
ffd2
ff3e
0051
0032
000f
001d
009c
ff48
ff7a
000d
0061
ff7c
ff4a
00f1
ffee
0061
0159
0113
ffab
ffb8
0048
0000
0000
0000
0000
0000
0000
0000
0000
0000
0000
0000
0000
0000
0000
0000
0000
0000
0000
0000
0000
0000
0000
0000
0000
000b
0095
00d1
000f
ffca
ffd8
0043
ffca
0116
0016
0119
ffea
0153
ff61
0031
fff8
0009
00a3
00f8
ffb0
ffd3
0060
ff89
0003
fff5
006d
008d
0002
00cb
ffca
0232
ff74
ff60
ff63
fe70
00f1
ff46
0062
00a1
0011
fe67
ffec
0042
fe83
00b5
004f
ff7e
014a
0000
0000
0000
0000
0000
0000
0000
0000
0000
0000
0000
0000
0000
0000
0000
0000
0000
0000
0000
0000
0000
0000
0000
0000
0001
006b
fe18
ff6d
009a
0011
00db
ff25
fe6d
fffe
fe4d
fd68
0032
0081
ffcf
ff8d
005a
fdf3
ffe0
00a4
fe55
ff5a
021f
01b6
0005
ff07
005f
ffb7
ff71
000c
ff23
0090
00ef
0034
ff3c
000d
ff56
00a2
002e
0004
ff31
fe31
ff72
fea5
ff85
003b
ffd9
ff36
0000
0000
0000
0000
0000
0000
0000
0000
0000
0000
0000
0000
0000
0000
0000
0000
0000
0000
0000
0000
0000
0000
0000
0000
fffe
ffb1
ff60
fefc
0010
005b
001f
0131
00e4
ff84
0237
ffec
007a
ffa0
0137
ffcd
fffa
fed2
fef9
ff06
ff2e
0044
ff64
fedc
0006
ff91
ff16
ffdc
00be
0005
ffc8
00a3
fef7
02a3
0040
ff74
0003
001c
006d
ffcf
0080
fe58
ff58
ffe9
0097
ff5c
0146
ff4a
0000
0000
0000
0000
0000
0000
0000
0000
0000
0000
0000
0000
0000
0000
0000
0000
0000
0000
0000
0000
0000
0000
0000
0000
0005
00fa
ff82
0033
0153
00ee
ffde
fdc2
fda5
ffbc
fec0
ff99
001f
ff61
ff9b
ffa2
0166
ffea
00b9
0005
febd
ffc5
00d1
016b
0003
ff67
0022
ff95
ffc4
005f
0072
0062
015f
ff8c
ffb2
0166
ff75
0016
001d
000c
ff6e
0027
ff51
ffd7
004b
ffde
0017
0006
0000
0000
0000
0000
0000
0000
0000
0000
0000
0000
0000
0000
0000
0000
0000
0000
0000
0000
0000
0000
0000
0000
0000
0000
0001
ff76
0014
febd
ffc5
0087
002f
0071
002c
ff58
ff45
ff15
ff91
0129
0091
ff52
ffba
fdc0
0106
0101
febf
01b7
fff8
0172
fff9
ffb6
ff70
ffe6
0060
00b8
ff0a
0082
014d
008f
ffcc
ff01
00db
0033
ffd1
0072
ffca
ff10
0014
fffd
ff80
fe80
00c3
ffcd
0000
0000
0000
0000
0000
0000
0000
0000
0000
0000
0000
0000
0000
0000
0000
0000
0000
0000
0000
0000
0000
0000
0000
0000
00af
00b7
0063
fffb
0095
002d
ffff
0027
ffba
fdc3
000b
008c
ff7c
ffb8
ffb2
006a
fe5a
ff25
0026
ffcb
ff6b
0003
00d6
0001
ffd4
ff74
ff95
006c
0020
ff55
0002
ffdf
ffa6
ffd9
fff8
000a
fff3
000a
0033
002d
013a
0047
001a
ff9b
005c
0003
ffbf
000a
0000
0000
0000
0000
0000
0000
0000
0000
0000
0000
0000
0000
0000
0000
0000
0000
0000
0000
0000
0000
0000
0000
0000
0000
006c
fefb
ff4f
0043
ff26
014b
0001
007e
ff80
ffd9
fffd
0006
ffcd
00d4
ffb7
fe8c
00c9
015b
ff9e
0008
ff2c
ffff
fed8
fffc
fffe
ff86
feb1
ffce
ffa6
0176
fff9
fe10
ff5c
019b
fffe
0021
ff4a
0097
0038
0099
fe07
0254
fe98
00b4
ff59
ffff
fff6
fffa
0000
0000
0000
0000
0000
0000
0000
0000
0000
0000
0000
0000
0000
0000
0000
0000
0000
0000
0000
0000
0000
0000
0000
0000
003a
fee1
0076
febe
020c
006d
ffff
0052
ffec
00db
0000
fe9a
00e2
ff92
0036
00d5
fed6
ffa2
00b0
00f6
000b
0003
00ed
0009
ff0b
ffcb
0139
00b7
ffa9
ff73
fffd
0009
ff9d
0166
0009
ff23
0044
0005
001e
0001
0066
017a
002a
006a
0150
fffe
ff32
fff3
0000
0000
0000
0000
0000
0000
0000
0000
0000
0000
0000
0000
0000
0000
0000
0000
0000
0000
0000
0000
0000
0000
0000
0000
ffc8
fffe
011e
0036
ff2e
ffaa
0005
0058
00ca
ffcb
0003
0021
0121
0027
0004
ff53
ffe2
0000
00a9
ff03
ffa4
fffb
ffc0
fff9
ffce
00cf
009a
006b
febe
ffc8
0001
010d
ffbe
fff0
0004
008f
0087
ffc9
000e
ffdc
fd20
00f6
018f
00eb
012e
0002
006d
0002
0000
0000
0000
0000
0000
0000
0000
0000
0000
0000
0000
0000
0000
0000
0000
0000
0000
0000
0000
0000
0000
0000
0000
0000
fff2
febc
ffd3
ffd4
fdff
00e8
0004
ffb7
fdcc
00b8
0001
0062
ff86
003e
fff2
ffa2
01f9
025b
fe94
0139
003f
fffb
0003
fffd
fffb
00f8
001e
00a9
009e
fe73
0004
012c
000e
fe80
0003
ffb5
ffe4
feac
005b
0118
03db
ff65
0184
ffc8
008b
0005
002e
ffff
0000
0000
0000
0000
0000
0000
0000
0000
0000
0000
0000
0000
0000
0000
0000
0000
0000
0000
0000
0000
0000
0000
0000
0000
ffb5
ff8b
fff2
fe8c
fee8
ffe0
0009
017d
002d
ffe9
fffe
0028
02bc
0012
ffd2
ffa2
ff1d
004b
00fd
fee9
0086
0000
ff7a
0006
006f
ff56
ffe0
fef2
ff83
000c
0002
ffde
0044
ff65
fffe
ffee
001f
ffe4
ffb7
feea
030c
fed5
fec5
fee8
ffef
0001
ffb6
0000
0000
0000
0000
0000
0000
0000
0000
0000
0000
0000
0000
0000
0000
0000
0000
0000
0000
0000
0000
0000
0000
0000
0000
0000
0083
ff06
010d
ffc7
fdc3
011f
0002
ff71
fec1
00a2
0006
fffb
0013
0042
0030
ff13
fd83
0098
fe2f
0116
fff3
fff8
ffdd
fff6
ffb3
0045
ffd0
ff91
0156
fe91
fff5
018c
0146
fed4
0000
ff8d
00fa
ff22
ffce
0028
019d
0061
01a4
0001
0167
0000
ff6f
fffc
0000
0000
0000
0000
0000
0000
0000
0000
0000
0000
0000
0000
0000
0000
0000
0000
0000
0000
0000
0000
0000
0000
0000
0000
ff13
0039
0084
0105
ff20
ff9e
fffc
ffcf
fef6
00d8
fffd
ff41
0073
fe91
0027
019b
fc4f
00a0
ff96
00ac
006e
0003
00c6
fff8
ffd9
ff0c
0058
00bb
0046
00c6
fffc
0045
ff36
fff6
0002
fe43
ffec
000b
0031
006c
fff1
fe72
00d8
ff93
00f7
fff6
0065
0004
0000
0000
0000
0000
0000
0000
0000
0000
0000
0000
0000
0000
0000
0000
0000
0000
0000
0000
0000
0000
0000
0000
0000
0000
fffb
0000
0000
0010
ff68
002c
fee3
0017
0053
004f
ff07
00b0
fffb
0007
00bd
ffb2
ffc6
0044
0048
0147
005b
feff
0019
00f2
0035
fffd
002e
0053
0066
0036
ffd1
ffdf
0011
00c3
00c8
ffe2
fff6
0000
ff6a
0044
ffc5
0042
ff55
ff6f
0138
0097
fff4
0029
0000
0000
0000
0000
0000
0000
0000
0000
0000
0000
0000
0000
0000
0000
0000
0000
0000
0000
0000
0000
0000
0000
0000
0000
017f
0000
feb7
00b5
ff60
0025
0015
fee6
00a8
fe6e
ffba
0009
0003
fff8
ff1d
0113
fec9
0170
ffc9
ff7c
ff60
fe9f
fffc
ffc2
fffa
0001
0236
fefa
001d
fef4
0028
ffe5
0074
00bb
0043
ff5c
0002
0000
ffe8
0114
0146
fef1
ff8e
0053
0112
00c3
fea0
00d6
0000
0000
0000
0000
0000
0000
0000
0000
0000
0000
0000
0000
0000
0000
0000
0000
0000
0000
0000
0000
0000
0000
0000
0000
fea6
0000
ffef
0056
013c
ff30
ffe7
008c
009b
0055
ff1c
001b
ffff
fffa
001b
ff4c
0006
ff39
00c6
009f
ff89
00f6
000b
fffc
fff8
fffb
0026
004e
0071
004f
000f
ffc9
ffff
005b
010e
ffcd
0003
0003
0101
ff30
ff6b
feae
ffed
ff48
ff1b
012c
0034
0064
0000
0000
0000
0000
0000
0000
0000
0000
0000
0000
0000
0000
0000
0000
0000
0000
0000
0000
0000
0000
0000
0000
0000
0000
ffb5
0002
ff38
0000
ff9f
ffb6
ffaf
ffb5
ffff
ff50
0043
ffa9
0014
0003
ffc6
ffd2
0036
ff9f
01ed
00f7
ffe1
ffe7
ffec
ffab
014c
fffe
00cc
009c
0077
0036
007a
0052
ff89
0074
0051
ff3d
0003
0000
00a2
0089
0012
fff8
0189
00d5
0106
004c
ffc3
ffe9
0000
0000
0000
0000
0000
0000
0000
0000
0000
0000
0000
0000
0000
0000
0000
0000
0000
0000
0000
0000
0000
0000
0000
0000
0084
0001
0066
011b
fe8b
ffe0
001c
00de
0007
0152
ffc3
00d9
ffff
ffff
fde6
024e
0158
ff7a
ff1e
0148
001c
009b
ff35
006e
0036
ffff
0181
ffb5
0091
ffa5
ff7e
008d
fff9
fef1
002d
ffbc
0005
ffff
fee5
ffeb
febe
ff96
ff28
fe8e
01dc
0175
ffa4
0015
0000
0000
0000
0000
0000
0000
0000
0000
0000
0000
0000
0000
0000
0000
0000
0000
0000
0000
0000
0000
0000
0000
0000
0000
fe89
fffa
0004
fe6d
feeb
0018
003b
ff7c
0111
ff43
fe47
0074
fff9
fffe
0131
0085
ff9c
fef4
ff90
ff4c
0002
ff3a
0036
00cc
007b
ffff
0016
ff3b
ffde
009b
ffac
0074
ffda
fe2e
0005
0089
0005
fffd
0061
ff80
fe95
ff88
ffc9
ffc5
0342
ffee
ffdc
ffcb
0000
0000
0000
0000
0000
0000
0000
0000
0000
0000
0000
0000
0000
0000
0000
0000
0000
0000
0000
0000
0000
0000
0000
0000
ff51
0003
ff50
00ef
01a5
ff14
ffe8
0068
00af
0060
00c8
005b
0000
fffa
0084
0032
00be
feb2
ffb1
0214
ff6d
ffcb
008c
0099
011e
0002
006e
feda
0052
00da
ff2f
0003
008a
ff15
fff1
0015
0002
0025
017d
0015
fee5
0019
fff4
ff97
fedd
006b
0006
ff79
0000
0000
0000
0000
0000
0000
0000
0000
0000
0000
0000
0000
0000
0000
0000
0000
0000
0000
0000
0000
0000
0000
0000
0000
ffe5
0003
006f
00e3
ffca
0053
ffab
001c
006c
014d
00ad
ff04
fff8
0006
0037
01ce
001a
fd7d
fff9
0049
0233
0084
00c0
002d
0035
0005
00e2
00e3
ffa9
ffe2
ff94
0043
001a
0078
0077
005e
ffec
0001
0111
000d
002d
fef1
0086
002f
017e
0047
ff6d
006f
0000
0000
0000
0000
0000
0000
0000
0000
0000
0000
0000
0000
0000
0000
0000
0000
0000
0000
0000
0000
0000
0000
0000
0000
ff4b
0078
0041
0088
004f
ff67
0077
003c
004e
fff1
0091
fee8
002e
0059
0001
fffd
005e
0034
ff40
feca
ff63
ff04
ff65
0002
0017
003b
ffed
001b
003b
ffd2
ffde
00ef
002a
0063
ffde
ff9e
006d
0052
0008
0002
0016
ffd2
0040
ffce
ffb2
00aa
013d
fffd
0000
0000
0000
0000
0000
0000
0000
0000
0000
0000
0000
0000
0000
0000
0000
0000
0000
0000
0000
0000
0000
0000
0000
0000
ffa9
ffb5
000f
0200
ff86
ff17
ff9e
0038
00c7
0171
ff01
001e
ffb1
00d4
0001
fffa
ff37
ff80
0081
fffa
004f
ff7a
00d3
fffa
0068
00a4
ffe5
ffac
00c2
00a2
0048
008d
fd52
010d
017a
ff9c
0022
01a2
0004
0003
00c2
ff0d
ff80
ffbb
00aa
004e
011e
0002
0000
0000
0000
0000
0000
0000
0000
0000
0000
0000
0000
0000
0000
0000
0000
0000
0000
0000
0000
0000
0000
0000
0000
0000
014c
0128
ffe2
ffa9
002d
ff08
001f
00d7
ffb0
fe6f
ff5c
0077
ffde
00f9
fffc
fffa
0085
ff7b
ffcf
ff18
003f
fffc
00bf
ffff
00d9
001d
fff8
ff61
ffda
ff15
0023
00ca
0078
0068
001a
0071
00e3
ffb0
fffb
fffa
ff15
ff6b
0153
006c
009a
ff79
009f
0000
0000
0000
0000
0000
0000
0000
0000
0000
0000
0000
0000
0000
0000
0000
0000
0000
0000
0000
0000
0000
0000
0000
0000
0000
ff8e
009f
001e
ffe5
ffe7
ffda
000a
007b
0003
ffa1
ffd4
fff4
ffdb
0144
fffd
ffff
0093
003e
007b
0070
ffd7
0154
ffc7
fffb
ffc2
00b9
ff5c
ff94
00be
0080
017d
ffb0
ffa8
0027
0156
0092
0000
0062
0000
0000
ff70
ffaf
0001
001f
ffaa
00eb
fffc
fffd
0000
0000
0000
0000
0000
0000
0000
0000
0000
0000
0000
0000
0000
0000
0000
0000
0000
0000
0000
0000
0000
0000
0000
0000
0110
ff6b
006c
00df
00d4
00d3
00e4
005a
fefc
007f
0131
001e
0001
0179
0004
ffff
ffc2
fefc
ff39
fff0
ffaa
ff87
0102
0000
ff41
00e9
00ff
ff9c
ff7b
ff05
0045
0008
ff19
ff94
fef5
ff8b
005b
ff51
000b
0005
ff63
0018
ff6d
ffe8
0093
fefb
fefa
fffb
0000
0000
0000
0000
0000
0000
0000
0000
0000
0000
0000
0000
0000
0000
0000
0000
0000
0000
0000
0000
0000
0000
0000
0000
feeb
0144
ff0a
ff1c
ff4f
ffcc
00e7
009b
ffb6
ffcc
0065
ffe7
0001
ff92
0001
fffe
ff15
00cc
0085
0001
ffbb
0010
fec7
fffe
fef3
fe8e
0015
0037
fede
0054
00cb
0035
ffe7
0041
fea0
0026
0123
ffac
ffff
0001
007b
ffad
ffbc
ff98
ff81
fec1
ff7a
0000
0000
0000
0000
0000
0000
0000
0000
0000
0000
0000
0000
0000
0000
0000
0000
0000
0000
0000
0000
0000
0000
0000
0000
0000
0034
000a
ffeb
0089
007d
013f
00dd
00d5
001a
004c
00e4
0041
ffe1
ff7b
fffe
0001
01b8
fed2
fe5d
0000
ff76
ff94
00ed
0001
fff2
ffbf
ff60
ff91
ffb8
0009
00f9
ffad
002c
0018
ffc6
ffeb
00e9
ffc3
0000
0003
000b
0076
ffe0
005f
01ac
feaf
ffe6
0000
0000
0000
0000
0000
0000
0000
0000
0000
0000
0000
0000
0000
0000
0000
0000
0000
0000
0000
0000
0000
0000
0000
0000
0000
0122
00df
0084
fda8
0138
fee5
0018
00a0
fed9
007a
019c
0049
ffd4
0273
fffb
ffff
0023
ffe9
0074
ff96
0161
013e
0121
0003
00a2
0050
0001
0056
ff8d
ff10
0059
002c
0028
004f
ff17
0027
ffdf
ffcc
0000
0005
ffb7
005a
ffc7
ff50
00e2
fe97
ffe4
0002
0000
0000
0000
0000
0000
0000
0000
0000
0000
0000
0000
0000
0000
0000
0000
0000
0000
0000
0000
0000
0000
0000
0000
0000
fff9
0019
ff81
fffb
ff53
fe88
00b9
ffea
fe67
00ea
004f
ffe2
0078
fef9
ffc9
0003
0000
ff22
fffd
ff96
00a5
0009
0008
ff89
0003
00ba
ff46
fffe
0073
fff2
0002
0008
0040
ffda
003d
00f3
001b
0020
ffda
00b5
fffc
0072
003e
0027
0020
001f
0002
ffeb
0000
0000
0000
0000
0000
0000
0000
0000
0000
0000
0000
0000
0000
0000
0000
0000
0000
0000
0000
0000
0000
0000
0000
0000
fffc
ffd3
0230
ffff
00e4
0026
008d
00db
02b1
ff43
0111
006d
013c
ff96
00dd
fed7
0005
ff11
000c
ff92
ff63
0008
fffb
004f
0002
012f
0110
0002
0157
00db
fe45
fefd
0141
0006
0094
00af
ffb5
ff46
ffd8
002e
ffff
01a4
0010
fffe
ff8a
001b
0001
fed4
0000
0000
0000
0000
0000
0000
0000
0000
0000
0000
0000
0000
0000
0000
0000
0000
0000
0000
0000
0000
0000
0000
0000
0000
fffe
ff5f
0090
0002
0081
003b
00b9
ffdb
0014
ff02
0055
00e9
005b
0054
ff80
002a
0005
0117
ff91
004f
ffe9
0068
fffc
0101
000a
010a
00c6
fffc
ffb8
fff9
008a
ffb9
0061
ffa7
0043
00a9
ff98
ffdc
0107
ffd3
0002
00f4
ffbb
ff33
ff93
ff51
000f
00d9
0000
0000
0000
0000
0000
0000
0000
0000
0000
0000
0000
0000
0000
0000
0000
0000
0000
0000
0000
0000
0000
0000
0000
0000
0000
0032
ff67
fffc
fffa
ff80
fd0a
0047
0012
0007
ff97
ffb7
ff73
0019
00b2
ffab
0000
ff7b
ff07
fffd
ffb2
ff53
0000
ff67
ffff
00a8
00c6
0001
00aa
0022
00fb
0015
00c0
ffa4
ffbc
feae
007c
00e6
0023
ffbd
fffe
019f
0093
0029
0099
00de
0000
0077
0000
0000
0000
0000
0000
0000
0000
0000
0000
0000
0000
0000
0000
0000
0000
0000
0000
0000
0000
0000
0000
0000
0000
0000
fffe
ffba
0046
0003
018c
ff96
00c8
fd82
0192
0230
01ea
00ea
ff83
ffc0
ffaf
ff85
fff9
01d0
0140
0002
fe5f
ffbf
0002
0283
fffa
ff84
ffb5
fffe
ffce
fe44
ffa4
0032
ff2f
fe92
ff7e
fee3
ffa4
00f6
ff8c
ff38
0006
fdb0
0005
ffc2
0000
0069
0000
ff28
0000
0000
0000
0000
0000
0000
0000
0000
0000
0000
0000
0000
0000
0000
0000
0000
0000
0000
0000
0000
0000
0000
0000
0000
000b
ff46
00e0
ffff
ffa5
ffab
fd7e
00cd
ffca
ff8c
ff2c
feff
0043
ff0f
0121
013c
0000
0091
ff2f
008d
00b5
0017
0006
fe55
0003
ffdc
ff0f
fffe
fff6
00e0
fef6
ff38
fd62
ff9e
008e
ff2e
0089
ffa4
00a9
00c8
0002
0011
0018
fff6
ff6f
ff61
0003
0036
0000
0000
0000
0000
0000
0000
0000
0000
0000
0000
0000
0000
0000
0000
0000
0000
0000
0000
0000
0000
0000
0000
0000
0000
fff7
0084
ff2d
0001
0001
0098
0185
fe67
ffe6
02c4
007d
0144
006d
ffe7
004e
006a
ffff
ffdd
feff
ffe9
ffad
ffb3
fffa
ff65
0007
0043
ff5f
fffc
ffb6
fe51
ff67
ff77
fefd
fffb
ffa6
feea
000b
ffcf
ffc7
002f
0001
ffeb
0029
0017
00de
00ce
fffe
ff41
0000
0000
0000
0000
0000
0000
0000
0000
0000
0000
0000
0000
0000
0000
0000
0000
0000
0000
0000
0000
0000
0000
0000
0000
fffe
00ce
0065
0003
0176
fe8c
0030
fd75
0226
00d5
00c4
008e
fe44
ffdb
ff1e
fe33
0001
ff1c
ff78
01a6
ff88
001d
ffff
00e5
0000
015d
feea
0000
ff07
fe9a
00c8
ffeb
ff3c
0007
ff92
00d7
ff43
0154
ff7b
011a
0004
ff85
0084
fedf
ffb9
ffae
fffd
00b1
0000
0000
0000
0000
0000
0000
0000
0000
0000
0000
0000
0000
0000
0000
0000
0000
0000
0000
0000
0000
0000
0000
0000
0000
0005
0000
ffea
ffe0
ff0e
ff09
0097
fef8
ff51
0050
003b
0049
ffe8
0060
fe9b
0001
0006
00ba
ff9d
ffb7
ff56
fff8
ffbd
005c
0005
fffc
ffbd
0023
004e
0071
006e
014c
0016
00b0
0010
001d
004c
ff79
ff9c
fffe
0029
ff48
ffd0
0088
002e
fffa
ffd6
ffc1
0000
0000
0000
0000
0000
0000
0000
0000
0000
0000
0000
0000
0000
0000
0000
0000
0000
0000
0000
0000
0000
0000
0000
0000
fffd
fffc
ffe4
00b6
ffd4
ff7b
fecb
000b
00f6
ffa4
ff4b
ffbe
ffd6
0092
0050
fff7
ffad
ffc8
ff55
0151
0061
fffb
fe5e
00f1
fff7
fff4
ff45
00fb
ff7c
011c
ff7b
fe68
ffa1
00e5
0135
ffc2
001a
ff42
00d8
0003
0105
0162
0036
006f
013a
fffb
ffe1
0020
0000
0000
0000
0000
0000
0000
0000
0000
0000
0000
0000
0000
0000
0000
0000
0000
0000
0000
0000
0000
0000
0000
0000
0000
0000
fffc
00b4
001b
01d5
fffe
fff3
ff23
0073
00bd
fea7
0018
0095
00ef
0063
fff8
001c
fe5a
0190
00bb
009d
fffd
0085
0168
fffa
fffb
01bb
00f2
000e
ff7e
ffa1
0035
00b0
ff1b
ff34
007e
0010
ff42
00c4
0009
ffce
ff29
0111
0015
ffe9
fff9
012a
013c
0000
0000
0000
0000
0000
0000
0000
0000
0000
0000
0000
0000
0000
0000
0000
0000
0000
0000
0000
0000
0000
0000
0000
0000
0005
0000
ff60
ffef
0068
ff4f
0025
00e4
ff73
0046
00e2
00e3
ff63
ff1b
ff02
fff9
0038
ff66
fd51
00aa
ff9e
fffb
ffd1
fef1
fffb
000c
0078
001e
ff81
0096
014e
ffe0
fecc
0158
ffba
ff62
00af
fffe
fff2
ffff
00a5
0110
0020
ffde
009c
fffc
002c
008c
0000
0000
0000
0000
0000
0000
0000
0000
0000
0000
0000
0000
0000
0000
0000
0000
0000
0000
0000
0000
0000
0000
0000
0000
0002
fffa
010d
0165
0068
0240
ff63
ff93
ffc9
0168
0252
00c1
fe1d
00d1
fe9a
fffa
00a3
0150
fe60
011a
01d1
0000
fed4
000f
fffd
fff3
fff0
fec7
0062
0033
0000
0054
00a4
001e
fe52
fee3
02e0
0037
00a6
fffb
0004
00a7
00f1
fea1
ff9c
0003
ff6b
005e
0000
0000
0000
0000
0000
0000
0000
0000
0000
0000
0000
0000
0000
0000
0000
0000
0000
0000
0000
0000
0000
0000
0000
0000
000f
0008
00b7
fed7
006e
00a1
ffe8
fe6a
009d
0166
fff2
ff55
ffca
00ca
ffad
0002
006f
ff13
ffde
feee
fff0
0001
ffc8
0033
ffff
0002
ffc1
ff8d
0093
fef5
0006
00fd
ffef
ffdd
ff9b
ff25
ff91
0016
00ac
0001
ff6e
fea2
ff55
00e5
0087
fffd
002e
fe7f
0000
0000
0000
0000
0000
0000
0000
0000
0000
0000
0000
0000
0000
0000
0000
0000
0000
0000
0000
0000
0000
0000
0000
0000
0000
fffa
0094
00ae
ffd8
0013
ff2f
fea3
0035
0059
01bf
008b
fefd
ff68
00de
0018
ff1e
00e4
fd15
00e1
003c
ffff
ff24
ff43
0001
0000
fff3
ff44
0059
ffb3
0075
fef5
01c6
0007
fff3
003a
006b
fec6
ff3c
0018
ff21
fee5
ffd0
ff16
0062
fff9
ff7e
feee
0000
0000
0000
0000
0000
0000
0000
0000
0000
0000
0000
0000
0000
0000
0000
0000
0000
0000
0000
0000
0000
0000
0000
0000
fffc
fffd
0096
0078
019c
0098
011b
ff9d
feb7
0156
0090
00be
fe82
008f
00f3
fffd
0072
0183
ff39
0016
ff2b
ffff
ffd6
014f
0000
0000
0017
0077
006d
ffe6
0007
ff13
ff3b
fede
ff1d
002e
003b
003f
fef8
ffff
ffe5
ffe9
ffac
009f
00be
fffb
ff1d
0117
0000
0000
0000
0000
0000
0000
0000
0000
0000
0000
0000
0000
0000
0000
0000
0000
0000
0000
0000
0000
0000
0000
0000
0000
fffa
0051
0000
ff75
ffe4
0001
00b8
00c4
fffe
ff9e
0022
0013
fffc
ffcd
0001
ff22
0006
ff97
003c
0037
fff6
fefc
ff75
00cf
004e
00a1
0000
000d
0075
0005
00b2
002c
0002
0097
ffe8
005e
fffc
00a7
fff6
0019
0000
0045
0079
ffcd
0008
005d
fffe
ff9d
0000
0000
0000
0000
0000
0000
0000
0000
0000
0000
0000
0000
0000
0000
0000
0000
0000
0000
0000
0000
0000
0000
0000
0000
ffc1
ffff
0000
feb8
fefd
0004
fef6
ff25
ffff
012d
ff00
ffc6
ffff
0009
0002
0005
fff8
ff6f
fe8e
0041
0000
015d
fea4
0118
00d2
010b
0002
fe47
ff33
0005
01c6
ff2b
0002
00d0
fff7
0150
0006
000b
0009
0103
0004
ff88
ffdd
000a
0000
0088
ff12
ffe2
0000
0000
0000
0000
0000
0000
0000
0000
0000
0000
0000
0000
0000
0000
0000
0000
0000
0000
0000
0000
0000
0000
0000
0000
ff8c
ff95
0001
0078
00a0
fffe
0049
fdff
0001
016e
ffc5
ff6b
0001
0088
0001
0002
fff5
00b9
001e
0070
0000
0024
ff39
ffa3
0063
fff9
0000
ffd2
00cb
0001
ffb7
ffc2
0003
ffdd
ffbe
0078
0009
00c6
fff8
00a5
ffff
ffcd
0041
ffb7
fffd
ff42
fed9
fe59
0000
0000
0000
0000
0000
0000
0000
0000
0000
0000
0000
0000
0000
0000
0000
0000
0000
0000
0000
0000
0000
0000
0000
0000
ff41
ff7b
0001
ff55
ff04
0006
000a
0027
0000
ffce
ffe6
00e2
0000
011d
0013
0020
fffe
0090
fffa
001e
fffc
ff75
00b4
ff9f
fe94
ffa4
0000
0078
0119
ffff
0047
ff4a
0000
01c8
0078
fff3
ffff
ff97
fffd
0131
0002
fd93
012a
00ce
0003
0118
ff35
0015
0000
0000
0000
0000
0000
0000
0000
0000
0000
0000
0000
0000
0000
0000
0000
0000
0000
0000
0000
0000
0000
0000
0000
0000
0196
01f3
0000
feed
ff2c
0003
0111
00fb
0001
0177
00c0
016e
0003
00c8
0006
0062
0007
0072
ff31
ff0d
0007
00e5
fe59
00e4
ff1a
ff20
0001
008b
0184
fffd
fed8
fe66
0005
fe55
ff19
ff9e
0000
ff4f
0008
ffd9
fffc
ffce
ff41
fef6
0000
00f7
0013
fecf
0000
0000
0000
0000
0000
0000
0000
0000
0000
0000
0000
0000
0000
0000
0000
0000
0000
0000
0000
0000
0000
0000
0000
0000
000b
0061
0001
ff7e
0045
0000
ff8a
0000
0002
ff92
ff42
fee7
ffff
fe94
fff9
00e9
000d
00cd
0189
0094
0001
00b5
ff63
fff2
ff89
ffb0
0000
009b
0000
fffa
febf
004a
0003
ff20
0011
ff03
fffe
ff9e
0000
ffe7
fffc
017d
ffce
ff45
fffd
ff4d
ffd8
ffcb
0000
0000
0000
0000
0000
0000
0000
0000
0000
0000
0000
0000
0000
0000
0000
0000
0000
0000
0000
0000
0000
0000
0000
0000
003c
006c
0002
fe8b
fe9f
fff7
00dd
0198
0004
00c4
0209
0100
0005
0162
0012
ff6c
fffc
fe2d
ffc0
ff20
fff8
ff79
feac
ff6c
ffe7
fef3
0001
0012
01d8
0003
ffc6
ffc4
0001
ff39
ffb2
ff75
0000
ffe0
0007
ff6d
fffc
0062
01ba
00c1
0003
002d
ff81
ffcd
0000
0000
0000
0000
0000
0000
0000
0000
0000
0000
0000
0000
0000
0000
0000
0000
0000
0000
0000
0000
0000
0000
0000
0000
011c
0050
0000
fdea
00ab
0004
00c3
0042
0001
00ad
ffbe
0226
0000
0062
0009
ff1a
fffe
00c1
00c2
ff58
fffe
ffe0
ffaa
0078
fff0
ffcb
0000
ff60
0085
0000
ff8b
00c5
0002
ffce
ff3e
0021
0000
004b
fff6
ffad
0003
00c7
0029
feba
fffb
ff48
ff43
ff72
0000
0000
0000
0000
0000
0000
0000
0000
0000
0000
0000
0000
0000
0000
0000
0000
0000
0000
0000
0000
0000
0000
0000
0000
ffc6
ff1f
00ba
0100
ff8a
ffbe
ff68
feb3
01d1
ff70
fff8
fffd
ff5c
ff11
00ac
fee5
ffaf
0077
0092
0000
ff34
ffce
011f
0008
fffa
ffc5
00c9
ffd7
003b
fffd
0096
ffc0
ffef
ffc8
ffee
0007
fffe
0024
0056
fff6
0042
011f
fff1
fffd
0012
ffe5
ff07
ffce
0000
0000
0000
0000
0000
0000
0000
0000
0000
0000
0000
0000
0000
0000
0000
0000
0000
0000
0000
0000
0000
0000
0000
0000
ff84
004d
ff67
0214
008e
0097
ffaf
003f
005f
0000
0006
0001
00a9
00da
ff89
0071
0046
ffca
fe9f
fffb
0044
01e3
ff6e
fe1c
ff41
006e
003b
ff7a
fddd
ff8e
ff35
019e
0041
01d0
0003
fffe
ff77
ff7b
003f
0111
0011
030a
00df
0000
00a2
ff73
fff4
fdb8
0000
0000
0000
0000
0000
0000
0000
0000
0000
0000
0000
0000
0000
0000
0000
0000
0000
0000
0000
0000
0000
0000
0000
0000
ff64
0019
008e
0063
fff5
fff9
ffd4
ffad
000f
00c6
0003
fffe
fe63
003a
00c7
0164
ff37
0050
ff0a
fffd
001b
0007
0020
ffbc
ff1b
ff3e
00dc
ffa5
0018
ff33
ffcc
ff15
ffb9
ff10
0000
ffff
0083
ff6e
fe2e
0122
feed
ffd3
feb1
0000
0023
ff7f
fff6
ff6c
0000
0000
0000
0000
0000
0000
0000
0000
0000
0000
0000
0000
0000
0000
0000
0000
0000
0000
0000
0000
0000
0000
0000
0000
0035
00df
ffa1
0042
010e
ffd3
00ec
ffa2
ff43
ff74
0002
0001
013c
ff99
0128
ff92
ff3f
02bc
fffc
fffc
ffef
0076
0059
ff62
0030
0010
ffb6
0116
ffcb
0101
0048
ffe1
ffd3
00fc
0010
0005
0049
00a0
00e2
ff43
008f
ff25
00ca
fffc
0076
ff6e
00bd
006a
0000
0000
0000
0000
0000
0000
0000
0000
0000
0000
0000
0000
0000
0000
0000
0000
0000
0000
0000
0000
0000
0000
0000
0000
ff5b
ffd3
0092
0080
ffa4
0129
ffe9
ff4d
011b
0225
0009
0001
003a
fde8
0064
016a
ff7a
feda
0002
0005
ff1b
ff3f
00a9
ff4b
ff98
0084
ff4a
ff39
ff83
ff8c
fee7
fe6e
ff77
ff92
0001
0007
fdc9
ffdb
ff41
ff30
01b5
00b3
0005
fffd
0057
ffe3
fea6
fff3
0000
0000
0000
0000
0000
0000
0000
0000
0000
0000
0000
0000
0000
0000
0000
0000
0000
0000
0000
0000
0000
0000
0000
0000
fe50
ffaf
fe7e
ff2d
fe95
fec5
017b
0033
00d2
fff3
0009
0000
fe98
ff83
00a2
ff86
feff
0416
0012
ffff
fff9
ff95
008b
fe48
0028
fe80
fe37
0053
ffa5
feb1
005a
00ce
004a
0065
fffe
fffe
ff9f
ff8a
ffbb
ff79
0134
0039
ff02
0000
ffe5
0098
ff10
ff32
0000
0000
0000
0000
0000
0000
0000
0000
0000
0000
0000
0000
0000
0000
0000
0000
0000
0000
0000
0000
0000
0000
0000
0000
ff49
ffe5
0089
011e
fffd
ffa7
ff86
0003
00d0
0184
0003
0003
0180
0013
011b
0096
002a
0071
00b8
fffa
ff98
ff3f
ffb7
0178
0031
ffc5
ff30
ff63
ff0f
fee9
ffdc
ff43
fee5
ff65
fff8
0002
fe93
fed4
003c
003d
00ba
ffeb
0032
fffc
ffba
ff1e
ff53
ffb2
0000
0000
0000
0000
0000
0000
0000
0000
0000
0000
0000
0000
0000
0000
0000
0000
0000
0000
0000
0000
0000
0000
0000
0000
fee2
031e
00e8
ff44
fffc
fe01
0098
002b
0044
006c
0007
0002
ff39
fd2d
011a
01c1
ffcd
0033
0220
0000
0120
fef7
00f2
ffa9
ffc8
fe58
0004
ffb2
0153
ff6c
fffd
ff5f
ffe3
ffff
0001
ffff
ff5c
ff1f
fea3
016c
007b
ffae
fe95
ffff
ffba
ffc4
0018
ff6e
0000
0000
0000
0000
0000
0000
0000
0000
0000
0000
0000
0000
0000
0000
0000
0000
0000
0000
0000
0000
0000
0000
0000
0000
ff55
0025
0010
008b
ff9f
0083
001d
ffae
0047
fff9
ffe6
fefe
0013
00bc
0050
0065
0000
0000
0000
0000
0000
0000
0000
0000
0010
003d
0026
ff54
00f0
ff0f
007d
0068
0029
fff7
ffed
007f
0082
ffc5
0007
ffa3
0000
0000
0000
0000
0000
0000
0000
0000
0000
0000
0000
0000
0000
0000
0000
0000
0000
0000
0000
0000
0000
0000
0000
0000
0000
0000
0000
0000
0000
0000
0000
0000
007f
fec4
ff77
ffa3
ff59
00d9
ffcc
ff23
0084
0005
ff88
000e
ff5c
0140
00b5
feb4
0000
0000
0000
0000
0000
0000
0000
0000
ff4c
0065
0005
0115
0065
ff07
0015
017a
0055
0015
008c
ff72
ff29
001d
00b1
0266
0000
0000
0000
0000
0000
0000
0000
0000
0000
0000
0000
0000
0000
0000
0000
0000
0000
0000
0000
0000
0000
0000
0000
0000
0000
0000
0000
0000
0000
0000
0000
0000
02ac
ffd2
007e
ffb5
00dc
ffc2
00f1
002b
00dc
0004
000c
ffa9
ffda
0009
ff9f
0168
0000
0000
0000
0000
0000
0000
0000
0000
ffb9
0086
0079
ff4f
ffc8
0098
012b
0201
ff1c
0003
ffdd
ffd7
ffd3
ffc9
ff26
ffee
0000
0000
0000
0000
0000
0000
0000
0000
0000
0000
0000
0000
0000
0000
0000
0000
0000
0000
0000
0000
0000
0000
0000
0000
0000
0000
0000
0000
0000
0000
0000
0000
ff8a
fffc
ffff
ff97
0053
fffe
ff05
ff3f
001a
0002
003e
ffd0
0243
0071
fffe
0031
0000
0000
0000
0000
0000
0000
0000
0000
003b
00bb
ff4d
ff38
fe83
fef2
00d8
fff3
ffa8
0005
0020
006a
0025
ff70
006e
01e2
0000
0000
0000
0000
0000
0000
0000
0000
0000
0000
0000
0000
0000
0000
0000
0000
0000
0000
0000
0000
0000
0000
0000
0000
0000
0000
0000
0000
0000
0000
0000
0000
ff89
011a
0013
0152
0133
005d
fee5
0046
0072
0005
fffa
ff53
0002
00f6
0164
ffff
0000
0000
0000
0000
0000
0000
0000
0000
0011
ffa3
0088
ff45
fe6c
ff56
0090
ffd5
0037
0001
ff87
ffa2
fdb0
ff0d
ff43
feb3
0000
0000
0000
0000
0000
0000
0000
0000
0000
0000
0000
0000
0000
0000
0000
0000
0000
0000
0000
0000
0000
0000
0000
0000
0000
0000
0000
0000
0000
0000
0000
0000
fe9b
0058
ff31
0021
ff4d
0099
000b
0073
013d
0000
ffe9
ff24
008f
0077
ffef
00a2
0000
0000
0000
0000
0000
0000
0000
0000
ff51
ff5b
ff79
00b9
ffc1
01ab
0067
00fc
ffcd
fff7
0038
ff9b
ff25
0040
ffca
fec3
0000
0000
0000
0000
0000
0000
0000
0000
0000
0000
0000
0000
0000
0000
0000
0000
0000
0000
0000
0000
0000
0000
0000
0000
0000
0000
0000
0000
0000
0000
0000
0000
ffd5
0002
006b
0128
00e9
ff90
0019
007b
ff8b
0002
0006
019f
ff89
0089
fff5
012d
0000
0000
0000
0000
0000
0000
0000
0000
ff4b
0044
0096
0023
ffdc
0066
ff2e
017f
ff99
0003
0006
fecb
ff98
ffd7
feb4
fffe
0000
0000
0000
0000
0000
0000
0000
0000
0000
0000
0000
0000
0000
0000
0000
0000
0000
0000
0000
0000
0000
0000
0000
0000
0000
0000
0000
0000
0000
0000
0000
0000
ff75
0129
006a
0072
01b3
00d4
000c
feee
00a1
0006
ffe8
00fb
00c2
feac
001d
018c
0000
0000
0000
0000
0000
0000
0000
0000
ffcb
0109
fef0
ffba
00ab
00c0
00d1
fdd9
ff4f
0002
ffed
fe48
ffa9
00ae
ffe5
ff2a
0000
0000
0000
0000
0000
0000
0000
0000
0000
0000
0000
0000
0000
0000
0000
0000
0000
0000
0000
0000
0000
0000
0000
0000
0000
0000
0000
0000
0000
0000
0000
0000
d2ee
3346
c1f6
3851
cf81
3b25
d587
cedf
f29a
ca50
1f39
dda3
3600
2e96
401a
288d
0000
0000
0000
0000
0000
0000
0000
0000
fd38
fe66
013a
fec0
ffd5
fdfc
01b7
0257
0a9b
03f2
006b
0191
01e3
0044
fd69
0270
0000
0000
0000
0000
0000
0000
0000
0000
