ff76
0007
fff9
fffe
005e
0000
0088
ffff
ff40
ffc2
0050
ff93
fff4
0026
fffb
0000
00a3
0030
fff2
000b
002f
fffa
000a
0000
0007
0001
0004
0004
ffce
0000
fff6
fff4
ffe9
fff8
000d
0035
fff2
0043
003b
0000
ffde
000f
ffef
fff9
0005
0005
fffa
0000
ffcc
feb4
feb8
fff5
ffd1
0000
fe97
fcb4
fe19
ff8b
007e
0028
00ef
ffd6
fffd
0000
fff7
00d1
0016
fec8
0109
fe5d
fd22
0000
000a
006b
0017
fff8
ffeb
0000
ffda
fffd
ffee
00f1
010c
006d
0000
0000
0012
0000
ffeb
ffad
ffd0
003b
ffc0
0020
fff3
0000
fffd
ffe5
fffe
ffda
0010
0000
fff4
fffe
0001
fffa
ffdb
ffb6
fff9
fffe
ffe7
0000
ffd0
0024
0077
0002
fff3
0004
fffe
0000
0054
0058
002b
0002
001f
ffff
002b
001a
000f
0002
0013
001a
0031
002c
000c
ffff
000c
0008
001c
004e
00d2
0002
0032
0000
0011
000a
0007
fff9
fff8
0000
fff8
0001
fff3
fff0
0018
004a
ffe5
0096
ffba
0000
0059
0006
ffe0
0000
001c
0008
fff5
0000
ff74
00ce
ff2a
fff3
ffcb
0000
fefc
ff59
ffcf
ff3b
ff14
0054
fe1b
0033
000c
0000
0011
ffe0
0018
014a
012e
fe57
001f
0000
0000
0000
0000
0000
0000
0000
0000
0000
0000
0000
0000
0000
0000
0000
0000
0000
0000
0000
0000
0000
0000
0000
0000
0000
0000
0000
0026
000b
000d
0000
fffa
0001
fff4
0017
ffbe
ffe8
000b
ffe5
002d
0002
0005
0040
0035
0010
001e
fff9
fffe
0000
0039
0156
0019
0002
0034
0000
008e
016e
0094
002b
0006
0015
fffe
0026
0008
0000
001b
0000
001d
0107
0161
0017
0137
0000
0000
0000
0000
0000
0000
0000
0000
0000
0000
0000
0000
0000
0000
0000
0000
0000
0000
0000
0000
0000
0000
0000
0000
0000
00ac
0129
febc
0000
0009
0000
0050
ffd7
007d
0103
ffd5
004a
ffe2
005f
fffd
0000
0038
0052
ffce
ff0e
ff32
002b
0003
0000
fefb
fff3
ffea
000a
0097
0000
0093
003f
000b
001d
ff90
0023
fff8
00eb
0070
0000
ffac
00d8
005a
ffb2
ffee
ffe3
ffad
0000
0000
0000
0000
0000
0000
0000
0000
0000
0000
0000
0000
0000
0000
0000
0000
0000
0000
0000
0000
0000
0000
0000
0000
0000
0040
01fe
000d
0000
0041
0000
00e4
01cc
00a6
0055
0024
001c
fff8
0011
000b
0000
001d
0017
0002
0072
007b
0080
00ee
0000
0004
0020
ffda
000a
fff9
0001
ffa5
0000
0018
ffe3
fff1
0030
0000
fffd
ffe3
0000
002b
fffb
001c
0000
001a
ffe6
ffed
0000
0000
0000
0000
0000
0000
0000
0000
0000
0000
0000
0000
0000
0000
0000
0000
0000
0000
0000
0000
0000
0000
0000
0000
0000
ff48
0007
001a
ffef
fee5
0000
0086
000a
ff6d
fff5
ffef
ffc6
0029
0057
0060
0000
005d
0031
0023
fff6
0001
fff8
ffe8
0000
fff1
0002
0002
fffc
fffb
0000
fff6
0009
ffee
fff1
002b
007a
0005
fff1
ffe3
0000
fff8
ffe5
ff83
fffd
ffef
fffe
0000
ffff
0000
0000
0000
0000
0000
0000
0000
0000
0000
0000
0000
0000
0000
0000
0000
0000
0000
0000
0000
0000
0000
0000
0000
0000
000c
0060
0051
ffd5
ffb6
0000
ff9c
0006
fff4
0038
0022
004a
fffd
0011
fffc
0000
ffe4
ffe1
ffc1
000a
0022
fff6
ffef
0000
fffe
fff2
fffe
fff4
0010
0000
0006
fffc
0000
ffed
ffff
fffd
0003
fffa
000c
0000
ffba
fff4
0007
0001
fff1
0001
0000
0000
0000
0000
0000
0000
0000
0000
0000
0000
0000
0000
0000
0000
0000
0000
0000
0000
0000
0000
0000
0000
0000
0000
0000
0000
0000
ffec
ffdd
fff9
fffe
ff98
fff6
0000
fffd
0019
001e
fed3
ffc6
fff5
0000
00b1
0000
0000
0027
0092
0042
004d
0009
0008
ff97
fff8
ffef
fef7
0003
fff7
0003
fff4
fffc
0017
fffe
0006
002d
0000
0000
000d
0021
fff9
fffe
0018
0008
fffe
0000
ffb9
ffea
ffff
000f
ffae
0011
0124
0021
0005
fe3a
0114
fec5
ff68
0005
feae
0000
ff00
ffa2
0009
feb2
00ff
fea8
ff97
fe4f
ff43
0001
0072
000f
001c
0023
0021
ffb6
0000
0004
ffb9
0081
fffa
ffc5
ffe9
0000
000b
ff8f
0002
0014
0023
ffd8
ff8d
fffc
ffde
ffa0
0005
005a
003c
0005
fffd
0003
fff2
0000
0001
fff6
0001
ffb2
ffff
0000
fffd
ff96
fff8
0000
0000
fff0
0004
0000
001f
0008
000e
0060
fffc
0033
0029
0011
0000
000d
0077
0069
0041
0009
000c
0000
0034
0014
0001
0040
0065
0017
006c
0002
001a
ffee
005a
ffc2
ffca
000c
0006
ffc8
0000
0000
fffb
0012
0019
0050
0004
0000
0018
0025
000b
fff6
0019
0007
fff1
0004
fff5
fff4
000b
000b
0005
fef4
01a2
ffa7
0004
fe8d
ff23
ff8c
0061
0032
feb2
0000
009d
000a
0004
ffe6
ffd0
ffc1
fed0
fe54
0026
0000
0000
0000
0000
0000
0000
0000
0000
0000
0000
0000
0000
0000
0000
0000
0000
0000
0000
0000
0000
0000
0000
0000
0000
0009
0021
005d
0048
0007
000d
0026
0000
0012
0008
000a
0003
0023
0017
0000
fffb
ffb5
0017
fff7
0007
fffb
002d
fffa
0011
0003
0010
006f
0000
001a
0035
0015
0000
0013
0054
0061
0097
000a
0012
0000
0075
0032
0001
004b
004f
002b
003b
0005
0056
0000
0000
0000
0000
0000
0000
0000
0000
0000
0000
0000
0000
0000
0000
0000
0000
0000
0000
0000
0000
0000
0000
0000
0000
fffa
ffe5
fe88
ff60
004a
009b
0062
0000
fe51
fedf
ff3e
004c
0012
fe05
0000
ff95
006a
ffff
ff66
ff72
ff31
feb2
fedd
002c
fff8
fff2
ffb2
0006
0006
0024
0005
ffff
0035
ffb1
0013
ff19
0007
fff3
0000
00a9
fffd
fff9
0022
00a8
0038
fef0
ffe9
ffea
0000
0000
0000
0000
0000
0000
0000
0000
0000
0000
0000
0000
0000
0000
0000
0000
0000
0000
0000
0000
0000
0000
0000
0000
fffe
0009
000e
fffe
0027
0013
001b
0000
0010
0026
0034
0078
000c
0011
0000
0053
006d
0001
003e
001e
0028
0017
0006
0053
000c
0064
0011
fff8
feed
0005
005a
0005
fffd
001a
00b1
fff7
ffe5
ffd8
0000
000a
ff3b
0019
ffdc
fffe
ffb5
000f
fffc
ffa6
0000
0000
0000
0000
0000
0000
0000
0000
0000
0000
0000
0000
0000
0000
0000
0000
0000
0000
0000
0000
0000
0000
0000
0000
0011
ffb4
fff5
ffe7
ffff
0027
ffe9
0000
ffc0
ff5c
0029
ff0c
ffac
fffe
0000
00c7
ffef
fffc
ffa8
00f5
007c
0061
000f
00ea
0008
ffdb
ffd3
fff9
ffff
0003
000f
000d
0001
0000
ffff
ffe7
001f
ffff
0001
ffef
0026
fff9
0002
fff4
0001
0019
ffff
ffdc
0000
0000
0000
0000
0000
0000
0000
0000
0000
0000
0000
0000
0000
0000
0000
0000
0000
0000
0000
0000
0000
0000
0000
0000
ffaa
008d
00ef
fff8
fefe
0002
00d3
0005
ffca
001b
00af
fff9
ffd2
0000
0000
001d
feb6
000a
0066
0009
ff7b
ffcd
fff2
ffd2
ffe9
002c
0025
0011
fff6
0000
ffdd
ffeb
fffa
fff6
fff6
fff9
006e
fff7
0001
fffa
ff5a
0003
0002
fffd
fff3
0006
fffe
000b
0000
0000
0000
0000
0000
0000
0000
0000
0000
0000
0000
0000
0000
0000
0000
0000
0000
0000
0000
0000
0000
0000
0000
0000
ffb3
0025
ffde
0036
0004
0000
fffe
fff8
ffe9
0010
0006
0001
0009
ffeb
fffe
ffec
0000
ffdf
0007
000b
00df
ff5b
ffa4
ffae
fff9
001b
ff7a
0002
fff4
0000
ffff
0017
0002
0004
002b
0020
ffff
fffe
fff1
002f
0000
ffc8
fffe
0000
ffc7
0005
fffb
0007
fdc8
0013
001a
fe69
ff98
0000
0137
02c6
feb5
ff75
fffd
fef1
006d
fe35
0010
0000
0000
ffd0
febe
0084
feaa
003e
ffb8
ff00
ffbd
feea
fff4
ff50
002f
0000
000c
0004
0049
ff74
ffea
ffaa
fff8
fff7
0006
ffe7
0000
00e6
fffa
0022
fff8
0008
fffe
fff2
fff7
fff6
002a
fffb
0002
0000
0004
0018
fffe
fffd
ff90
fffb
0013
fffd
ffd4
ffb6
0000
fffb
0007
ffdd
000d
0000
0000
0002
001b
0021
0035
0003
010b
0000
005c
01c6
000b
0036
0007
0004
0049
0014
0007
0008
0000
0001
0003
0036
0011
0070
002a
0063
fff6
0027
ffc4
0001
fffe
0000
0000
ffff
0000
0008
006b
0022
ffd6
000c
0003
000f
0000
ffda
fffd
0003
ffc9
ffe9
0006
0005
fdce
ffdd
0045
fe59
fc7b
0000
0101
ffdc
feb9
fec7
0019
fef6
ff93
fed4
ffff
0019
0000
009b
fe65
ff2a
ffb7
fedb
01da
fe87
0000
0000
0000
0000
0000
0000
0000
0000
0000
0000
0000
0000
0000
0000
0000
0000
0000
0000
0000
0000
0000
0000
0000
0000
ffea
ff8f
005c
ffe1
0005
0000
000c
fffa
fffb
fff8
ffd6
ff66
003d
fffa
ffee
0021
0000
0049
0000
ffdd
0020
0019
0007
0022
0024
0018
006b
0004
0009
0000
0090
00c0
0016
0055
0011
0000
0031
0062
0000
0005
0000
0046
000c
0030
007d
0048
009a
0045
0000
0000
0000
0000
0000
0000
0000
0000
0000
0000
0000
0000
0000
0000
0000
0000
0000
0000
0000
0000
0000
0000
0000
0000
fe97
002c
000b
ffa5
feda
0000
feef
feca
ff19
0119
0014
ff5a
ff44
ffb0
0009
0003
0000
0036
fe5c
00bc
0067
ff59
0040
fe29
ffdf
fffc
002c
0025
000c
0000
0003
ffdc
0004
0000
0004
ffce
fff4
fff6
ffda
fff8
0000
000f
0003
ffa7
0051
00cb
0021
ffe6
0000
0000
0000
0000
0000
0000
0000
0000
0000
0000
0000
0000
0000
0000
0000
0000
0000
0000
0000
0000
0000
0000
0000
0000
0068
0017
0054
0020
000d
0000
0054
0046
0020
00a2
0011
0003
0006
00bd
0000
0002
0000
0051
0012
0097
0096
002e
004f
0017
ffdf
0029
ffef
fff2
fff5
0000
ff53
ffed
ffeb
0012
0032
fffa
0154
0004
0011
0020
0000
fff9
0003
0052
0009
000a
0008
ffb8
0000
0000
0000
0000
0000
0000
0000
0000
0000
0000
0000
0000
0000
0000
0000
0000
0000
0000
0000
0000
0000
0000
0000
0000
ffdb
0008
ffaa
ffd3
fff6
0000
0000
fffd
000c
001e
fffb
ffb5
fff2
fff4
0000
ffd7
0000
ffc9
001b
0014
0101
009e
ffea
ffc4
0003
0020
ff65
fffc
000b
fffe
fffa
0000
0002
000d
0000
fffd
0000
0000
ff7e
0022
0000
001b
fffc
0008
ffdd
0013
0001
0003
0000
0000
0000
0000
0000
0000
0000
0000
0000
0000
0000
0000
0000
0000
0000
0000
0000
0000
0000
0000
0000
0000
0000
0000
0001
0026
fff8
000a
ffe4
0000
ff76
fffa
ffe4
ff77
0013
fff8
0130
0024
ffff
fff7
0000
0090
0007
0104
fff4
0014
fff1
ff9e
0000
0000
003c
0001
0008
0000
fffa
fffe
fffc
fffd
ffae
0000
0000
ffff
0017
ffc4
0001
ffe9
fffd
0006
0000
fff9
0001
0003
0000
0000
0000
0000
0000
0000
0000
0000
0000
0000
0000
0000
0000
0000
0000
0000
0000
0000
0000
0000
0000
0000
0000
0000
ffcb
fffe
000e
fffe
00a5
00c2
fff8
001e
000d
ffed
0016
005f
ffc6
0029
0000
0019
ffb7
0009
fffc
000f
ff19
002d
0008
0009
0019
000c
ffff
fff3
fffa
fff0
000e
ffff
ffec
0009
ffff
0036
0065
002d
0000
0032
0001
0002
fffc
ffff
ff99
0000
0034
ff2a
0025
008b
00a9
0031
005f
ff3b
ffb9
ff0b
ff1c
00a0
fe31
ff90
005d
0032
0001
ffbd
fe59
0240
fe9f
fdd6
0040
ff07
0026
003d
ffca
00fd
ffd7
0001
ffe9
00ab
ffe5
ffee
ffc1
ffd1
ffde
008d
0021
0058
0000
000a
0056
ffdb
0028
fffc
0011
fff0
006e
ffb3
ffc3
fff0
007a
fffb
fffb
fffd
000e
0004
000a
fffd
fff7
ff94
ffd7
002e
0000
fffa
fffd
0000
fff8
fff4
000d
fffe
000e
001b
0036
0055
003d
0003
001f
0012
01e4
fff8
ffff
003c
0005
0018
0023
0010
0000
007e
0055
00b1
ffff
0010
0012
001a
0022
000b
0022
0006
fff3
0001
ffe1
ffe7
ffd7
fff2
fffb
fffe
0002
0034
009f
005e
0000
001f
fffe
0000
0004
fff5
ff9e
0000
ffe2
ff87
002f
00f4
ff51
0020
006c
ff0e
ff99
feab
0163
00d7
fe35
ffd3
0006
002c
0000
fdf7
fe94
0019
fe3a
fdce
0001
015c
ffe4
006a
0000
0000
0000
0000
0000
0000
0000
0000
0000
0000
0000
0000
0000
0000
0000
0000
0000
0000
0000
0000
0000
0000
0000
0000
0011
0025
0011
fffd
0016
001b
001f
ffef
0019
fff8
fff9
ffcc
ff8b
0033
0000
ff9d
0002
0009
ffe8
ffed
004a
0004
ffa2
0051
0066
0063
0022
0000
0049
0025
01ae
0002
0058
006b
000d
0037
0011
0023
0000
0011
0070
0048
0007
004d
0021
00c8
0016
001e
0000
0000
0000
0000
0000
0000
0000
0000
0000
0000
0000
0000
0000
0000
0000
0000
0000
0000
0000
0000
0000
0000
0000
0000
005b
0075
fe47
fffe
010c
ffa9
fc2e
fe9c
00ad
ff37
fdee
000e
ff3d
ffc5
0000
fdd2
fe98
ff39
ffff
0050
0030
015e
003e
fff6
0018
0002
0018
001b
ffce
ffa1
0027
ffee
fffd
0012
0009
fff3
ffa7
ffc1
0000
0022
ffd5
0015
0039
fff6
ffbe
0000
0010
ffd7
0000
0000
0000
0000
0000
0000
0000
0000
0000
0000
0000
0000
0000
0000
0000
0000
0000
0000
0000
0000
0000
0000
0000
0000
0072
0019
0000
ffff
0036
0031
0026
0016
0033
0054
0017
0053
0006
0016
0000
000e
0081
fff2
0065
012e
0029
00ca
0010
0016
fead
ff56
ff50
003d
0000
fff2
0011
fff5
ffe1
0120
004f
00de
ff99
000e
0000
001b
0051
000b
fff7
0064
fff6
0006
ff55
ffb8
0000
0000
0000
0000
0000
0000
0000
0000
0000
0000
0000
0000
0000
0000
0000
0000
0000
0000
0000
0000
0000
0000
0000
0000
0025
0002
0007
0006
ffa1
009a
0008
000d
ffd5
0011
000c
0013
ff60
ffdc
0000
0010
ffac
000f
0019
0011
ff60
000f
0006
001d
0015
0001
fff6
ffd7
0001
fff9
fffd
fffe
ffee
fffe
0001
0019
0015
fff8
0000
0021
0005
0006
0005
fffd
0004
0000
000a
0036
0000
0000
0000
0000
0000
0000
0000
0000
0000
0000
0000
0000
0000
0000
0000
0000
0000
0000
0000
0000
0000
0000
0000
0000
ffe1
ff5c
ffb9
0015
000b
0073
fffa
0008
0000
00fd
0046
00f9
ffe4
ffe4
0000
fff9
0042
0016
0093
0000
ffc8
ffef
ff6e
fff1
ffba
ffef
004c
ffbb
fffa
000a
0001
0007
0005
ffec
fffb
ff66
ffe1
0003
0000
0002
fffd
0002
0000
ffff
fffb
fffe
ffc1
004a
0000
0000
0000
0000
0000
0000
0000
0000
0000
0000
0000
0000
0000
0000
0000
0000
0000
0000
0000
0000
0000
0000
0000
0000
0020
0051
00b6
0000
0006
fff9
001f
ffb5
000c
0000
fff3
0012
ffe4
ff6c
001f
ffe1
ff39
0000
0038
ffea
0000
0068
0088
ffcd
0000
fff5
000b
0000
ffff
0001
0001
0002
fff8
0000
0004
0000
fff7
ffff
0001
ffec
ffeb
0000
fffe
0002
ffff
fff4
fff9
0003
ffb5
fe97
00d9
0000
fe67
ffa8
017d
fef1
0014
0001
ff18
00a1
ffa4
feab
fead
0057
ff14
0001
fef8
01f5
0009
fdc0
fff8
0093
ffa0
0049
0035
0000
ff92
fffc
ffc6
00f9
004e
0000
0000
0021
ffbf
ff4d
0027
fff0
000f
0000
0057
ffef
0000
ffab
fffc
0012
0000
fff7
0013
0000
0004
0000
ffe6
0001
008c
0000
fff8
fff9
0009
fff1
0002
0037
fffc
0000
0000
0000
fffd
fff2
fff9
0014
fffd
0027
005e
0000
00cf
001c
0028
001b
003b
0000
0007
008c
0010
0011
004a
000e
0011
fffe
0082
00a5
0000
0008
000f
0035
0003
fff7
fff4
0000
fff9
fffb
ffe1
000b
ffab
0000
ffe8
0010
ffca
0007
fffb
ffc4
ffe9
0000
000b
0052
0000
fff8
fffd
fffb
0115
ff46
0028
0000
feb6
ff20
feff
feba
001a
0000
fe86
01d7
ff92
fed0
fec3
007b
ff0e
0000
feb0
019f
0009
fe4b
001d
00b8
0000
0000
0000
0000
0000
0000
0000
0000
0000
0000
0000
0000
0000
0000
0000
0000
0000
0000
0000
0000
0000
0000
0000
0000
fff1
fff8
ffe9
0000
000d
0003
ffa3
ffa9
0051
0000
ffe3
000d
0005
ffee
0006
fff4
fff4
0000
fff0
ffbd
0000
fffb
fff7
ff68
0020
007f
005b
0000
00dc
0026
fff0
0012
0031
0000
000a
0093
0016
0022
0044
0022
0063
0000
004d
0056
0000
001a
001e
0031
0000
0000
0000
0000
0000
0000
0000
0000
0000
0000
0000
0000
0000
0000
0000
0000
0000
0000
0000
0000
0000
0000
0000
0000
0189
ff86
ffc7
0000
ff5f
fe90
ff8d
0011
ff97
0000
ff9e
fea1
0024
ffad
fe83
fff7
00fa
0000
ff42
fff9
0000
fed6
017e
00d1
fff9
0070
ff27
0000
000e
ffe7
0009
0003
0010
0000
0022
0000
fff9
fff6
000a
000c
005a
0000
0005
0001
0003
fffe
0039
00b2
0000
0000
0000
0000
0000
0000
0000
0000
0000
0000
0000
0000
0000
0000
0000
0000
0000
0000
0000
0000
0000
0000
0000
0000
0046
009f
0024
0000
00a8
001a
000d
0023
0009
0000
0057
0001
003e
002d
0053
0013
00ae
0000
0010
0005
0000
004f
0048
0017
ffff
00a9
ffed
0000
ff7b
fffd
ffe4
0036
0000
ffff
005e
ffde
fe65
002c
0000
007c
0036
0002
fff2
fff3
fffd
ff9d
fff2
0009
0000
0000
0000
0000
0000
0000
0000
0000
0000
0000
0000
0000
0000
0000
0000
0000
0000
0000
0000
0000
0000
0000
0000
0000
0004
0087
ff73
0000
fff9
ffe6
fff0
0016
0025
0000
ffe2
0003
fffc
ffbd
001f
001c
ff5f
0000
ffe2
0001
0000
0013
00a2
004e
fffe
ffff
ffed
ffff
ffff
ffff
000b
0001
0000
0000
0005
0004
fffc
0001
0000
ffe9
fff1
0001
0003
0000
0002
fff9
0003
ffe5
0000
0000
0000
0000
0000
0000
0000
0000
0000
0000
0000
0000
0000
0000
0000
0000
0000
0000
0000
0000
0000
0000
0000
0000
000f
0089
ffcf
0000
ff98
0012
0050
0033
ff18
0000
ff9f
fff0
fed2
ff83
0018
008a
0005
0000
001d
fff7
fffc
ff9a
fff9
fff8
000d
fffa
0006
0000
0002
0001
0008
000c
0059
0001
0000
0000
0006
fffa
0004
0034
0006
ffff
0004
0001
fff6
fff9
0002
000c
0000
0000
0000
0000
0000
0000
0000
0000
0000
0000
0000
0000
0000
0000
0000
0000
0000
0000
0000
0000
0000
0000
0000
0000
fffc
ffa1
006b
ff50
0003
0010
0062
ffd9
0000
0000
0000
0000
0000
0000
0000
0000
0000
0000
0000
0000
0000
0000
0000
0000
fffa
001a
0030
ffff
fff6
0002
0002
ffff
0000
0000
0000
0000
0000
0000
0000
0000
0000
0000
0000
0000
0000
0000
0000
0000
ff9e
ffce
0197
ff65
fcf7
fec7
fdb7
ff0f
0000
0000
0000
0000
0000
0000
0000
0000
0000
0000
0000
0000
0000
0000
0000
0000
001c
ffff
0003
0054
000e
001b
005b
fee1
0000
0000
0000
0000
0000
0000
0000
0000
0000
0000
0000
0000
0000
0000
0000
0000
ffff
ffe7
fff9
fffb
0005
000a
fff6
ffec
0000
0000
0000
0000
0000
0000
0000
0000
0000
0000
0000
0000
0000
0000
0000
0000
00b5
0071
0046
0014
0020
ffff
fffb
0035
0000
0000
0000
0000
0000
0000
0000
0000
0000
0000
0000
0000
0000
0000
0000
0000
fff7
002d
0005
ffdb
fffb
0005
0002
0003
0000
0000
0000
0000
0000
0000
0000
0000
0000
0000
0000
0000
0000
0000
0000
0000
ff5a
015c
0053
feea
fcb8
fe3c
fdd8
00cb
0000
0000
0000
0000
0000
0000
0000
0000
0000
0000
0000
0000
0000
0000
0000
0000
0000
0000
0000
0000
0000
0000
0000
0000
0000
0000
0000
0000
0000
0000
0000
0000
0000
0000
0000
0000
0000
0000
0000
0000
ffda
ffe5
ffeb
0003
0004
ffed
ffd0
0024
0000
0000
0000
0000
0000
0000
0000
0000
0000
0000
0000
0000
0000
0000
0000
0000
00cd
00a5
002c
0011
0017
fffd
fffb
006d
0000
0000
0000
0000
0000
0000
0000
0000
0000
0000
0000
0000
0000
0000
0000
0000
0000
0000
0000
0000
0000
0000
0000
0000
0000
0000
0000
0000
0000
0000
0000
0000
0000
0000
0000
0000
0000
0000
0000
0000
fd30
ff1b
001f
ff7e
fcb2
ff1f
fe78
002e
0000
0000
0000
0000
0000
0000
0000
0000
0000
0000
0000
0000
0000
0000
0000
0000
fffb
fffa
000f
ff84
0012
0009
001a
ffeb
0000
0000
0000
0000
0000
0000
0000
0000
0000
0000
0000
0000
0000
0000
0000
0000
0000
0000
0000
0000
0000
0000
0000
0000
0000
0000
0000
0000
0000
0000
0000
0000
0000
0000
0000
0000
0000
0000
0000
0000
001c
0067
0025
001a
001c
fffa
000b
0064
0000
0000
0000
0000
0000
0000
0000
0000
0000
0000
0000
0000
0000
0000
0000
0000
fffc
0025
0058
00af
fffb
ffe2
0029
0012
0000
0000
0000
0000
0000
0000
0000
0000
0000
0000
0000
0000
0000
0000
0000
0000
0000
0000
0000
0000
0000
0000
0000
0000
0000
0000
0000
0000
0000
0000
0000
0000
0000
0000
0000
0000
0000
0000
0000
0000
000b
ffe8
0044
ff6a
0008
0002
001d
ffe5
0000
0000
0000
0000
0000
0000
0000
0000
0000
0000
0000
0000
0000
0000
0000
0000
0005
0015
0015
ffff
0008
fff9
fffe
0002
0000
0000
0000
0000
0000
0000
0000
0000
0000
0000
0000
0000
0000
0000
0000
0000
0000
0000
0000
0000
0000
0000
0000
0000
0000
0000
0000
0000
0000
0000
0000
0000
0000
0000
0000
0000
0000
0000
0000
0000
fffd
ffc7
0019
006e
0006
0009
004a
ff4b
0000
0000
0000
0000
0000
0000
0000
0000
0000
0000
0000
0000
0000
0000
0000
0000
0002
ffb2
ffe2
fffa
0005
001a
fff7
fff1
0000
0000
0000
0000
0000
0000
0000
0000
0000
0000
0000
0000
0000
0000
0000
0000
0000
0000
0000
0000
0000
0000
0000
0000
0000
0000
0000
0000
0000
0000
0000
0000
0000
0000
0000
0000
0000
0000
0000
0000
0400
0400
0400
0400
0400
0400
0400
0400
0400
0400
0400
0400
0400
0400
0400
0400
0400
0400
0000
0000
0000
0000
0000
0000
0000
0000
0000
0000
f800
0400
0000
0000
0000
0000
f800
0400
0000
0000
0000
0000
f800
0400
0000
0000
0000
0000
0000
0000
