ffe8
ffff
0030
fe9d
ffae
ff99
ff33
ffb5
ffea
0040
006f
ff3d
0007
ff31
ff36
ffb8
ffd5
0075
ff5f
0070
0051
001a
ffe5
0075
0004
fff1
ffd2
ff2c
ffaf
ff5a
ffbf
ffc2
fffb
0030
0021
ff8c
0018
fed5
ff8a
ffa5
000c
006b
ff61
00a1
0064
fff2
0079
005f
ffe8
ffdf
0011
feaf
ff81
0027
ff9e
ffe0
ffe7
0010
00ad
fef8
ffe0
ffa2
ff75
ffcc
fffd
0054
ffa7
002f
002b
006d
0021
007a
ffce
ffce
0006
005a
fffb
000b
006f
003d
ffd5
ffc7
fff2
003e
fffd
ffe7
0037
000d
ffdc
ffcf
ffed
002e
000b
ffe9
003c
002a
ffdd
ffc9
0011
ffd2
fffe
0014
ffb6
fffd
ffee
ffc0
ffda
ffb7
fffc
ffc7
ff7d
ffe4
0000
ffc9
fff2
0004
000a
ffe0
ffe6
0011
fff5
ffc6
fff7
fffd
ffff
0033
ffaf
0007
000a
ffc3
ffd5
0001
0000
0014
ffb4
0015
0008
ffcd
fff6
fffd
0007
0004
0004
000c
0013
0009
ffd7
ffde
fff1
ffff
ffb5
fff3
0014
0010
fffd
ffd2
fff3
ffee
ffcb
fff0
000d
0000
ffde
ffc9
ffe4
ffe3
ffee
fff2
002f
000c
fff2
ffe4
fff4
fff1
0033
fff4
002a
000b
0001
ffe2
fff9
ffd7
0006
fff4
0024
0007
fff2
ffdf
ffec
ffdf
0041
fffb
0017
0011
0032
ffe0
ffdc
0009
fffe
fff8
0008
0008
0001
ffd0
ffe3
fff7
ffb6
ffee
fffd
fffb
0014
ffe0
ffd6
ffe6
0000
0002
00aa
00cb
0039
002e
ffef
00b9
0084
0022
0040
007e
0034
00b0
0067
0052
004c
fffb
004b
006c
006c
004b
0060
0026
0025
ff18
0038
0051
0068
0033
0067
00cf
0047
ff8e
005a
00e6
0036
009a
0039
002f
00a0
0061
0032
0061
009f
001c
007f
0071
0067
ffe5
000f
0063
005d
008f
ffc6
009c
00aa
ffb1
0047
0044
0052
0068
0056
0085
00c1
ffd7
0073
00d3
00d2
0099
0074
0083
00a6
fffe
0016
0009
0005
0047
0006
0022
ffe1
0003
0050
002f
0009
003b
0003
0087
ffee
000f
0045
001f
0016
003c
0017
000a
ffe4
000f
000f
000e
0010
0031
0004
0014
0000
0010
0018
0005
002b
0031
001c
0012
0006
001f
001c
0004
001b
0053
0023
0014
ffed
001a
001c
002d
0012
0013
002b
ffee
ffff
000b
0025
0004
0047
0028
001d
0002
001b
0018
0025
000d
ffdb
000b
0014
ffff
ffed
0013
ffe3
0071
ff3b
00cc
0055
ffa2
0187
009a
ffeb
0037
ff53
0068
0009
ff94
ffcb
0008
005e
ffbe
0008
fef9
ff8c
0002
ff04
ff42
ff91
007d
ff27
0194
00af
0021
007c
008b
0000
0025
0033
ffd3
000f
ff21
ff61
ffda
005f
ff83
ff8d
fe87
ff72
ffee
ff40
ff47
ffa3
0066
0028
010d
0088
fff5
002d
008c
ffe9
fffd
ffec
ff80
ffda
ff47
0051
0023
0033
ff80
ff30
fed7
ff7b
001b
ff9f
ff90
0002
0003
ff74
ff84
ffda
ff70
ffc3
004f
0008
000b
ff34
ff52
ffd1
ffdc
ffaf
0003
0044
0021
ff9a
ff86
0008
ff4a
0069
0006
fffa
0002
ff6c
ff03
ffd7
ffc2
fef5
fff0
ffec
0004
ff72
fee9
ffc2
0033
ff18
ffb8
000a
001f
ff8e
ff15
fffe
ff9c
ffa3
ffc0
0030
0004
ff76
ff81
0000
ffd7
ff4e
fffc
0006
000f
ff90
ff3f
fff6
005a
ff5f
ffca
0025
0031
ffbc
ffc0
0017
fff8
0000
fff1
fff1
ffe0
fffc
0018
ffce
000b
0020
0034
000b
ffe6
ffd8
ffef
ffce
ffa3
ffac
0018
fff1
fff5
0038
000d
ffdb
ffa4
003b
0027
fff6
ffe0
ffee
ffd0
ffce
ffff
ffac
0003
0013
ffe9
0007
ff70
ffce
ff6e
0007
0000
fff7
fffd
0038
000f
ffd9
ffbb
0021
002d
000d
ffd9
ffe3
ffa2
ffca
fffc
000f
0000
0016
ffe9
000f
fff8
ffc6
ffa8
0037
003b
0006
fffd
0020
0006
ffd3
ffe9
0044
0014
ffb7
ff28
ffca
ff8f
ff95
ff3c
0023
001e
ff66
000c
ffd6
ff64
ffeb
ff49
0019
001d
ffba
006b
000a
ffae
00ee
002a
001a
ffa1
ffca
ff92
ffc5
ffe5
ffbc
fef4
0016
0039
ff44
006d
ffd9
ffb7
ff6e
fef0
000b
0021
ffc4
00bb
0011
0033
00b3
ff89
0000
ffe7
fff4
ff8f
ffd2
ffef
ff46
ff59
0008
000a
ff94
0036
ffdd
ffc6
ff16
ff37
fffe
fff5
000a
0078
000f
004e
0023
ffdb
fff0
ffd1
007b
fffa
fffb
001c
0031
0014
fff7
ffd0
ffe2
000b
0000
0020
0023
ffb8
fff7
fff4
0022
fffd
fffa
0028
003e
004c
0002
000a
ff97
fffc
fffa
001e
005e
ffe8
fffa
ffb3
ff2b
0017
ffff
001b
ffca
ff1c
fffc
ffe9
0005
0000
fffa
0029
fffa
0022
fffd
0007
0029
ffbd
fff6
0002
0030
0033
0003
ffee
007d
ffd2
fffc
fffd
fff0
001e
0000
002d
0070
ffc0
fff9
fff6
001f
006f
000d
0033
fff2
008e
ff35
ff68
fefd
fe6d
ff8a
ff51
ffee
ffae
ff84
feeb
ff39
ffb1
ff5c
fff8
ffef
ffd3
ffba
ff19
ff67
0067
00b9
001d
fff0
ff97
0086
ff6b
0066
ffca
ffa4
0093
ffea
000f
0052
fef3
ffa3
0052
ffc5
ff89
0001
ff4b
0078
ffa4
ffa8
ff9c
ff26
ffa8
ffd7
ff91
ff44
ff78
ffa9
ffbd
ffa7
0035
ffd4
0107
005c
ff38
ff1b
0074
ffdb
00e0
ffa5
ff6f
005f
fff8
00ba
ff5a
ffe5
ffcb
01c2
fff6
ff7e
ffb2
ff8b
006d
0024
ffff
0006
ffef
0062
0058
ffe0
ffe8
ff8d
00c9
0048
ffec
ff7f
ffc8
fff9
ffd4
000e
0011
0067
ff7c
ffe4
fff4
ff74
0045
001c
ffe8
00a2
fef5
003d
002c
0071
014f
0008
fffe
0032
0016
ff95
ffce
fff1
0065
0007
ffff
021f
ffed
fffd
ffb3
003c
ff9b
0002
002f
ff37
0041
ffef
ffdb
002c
000e
0003
fffe
0053
0015
001a
ffcb
0078
0105
0004
001d
0009
0000
0001
0000
ffff
fff1
0000
fff6
000d
0002
0000
fffd
fff3
fffd
0001
fffd
001c
fffb
fffd
0004
fffd
001c
0000
0001
0012
fffc
0003
fff0
0008
ffed
ffff
fff0
0022
0001
0000
fff0
0000
001c
0000
fff7
0028
fffb
0002
fff9
0002
002f
0000
ffff
0007
fff8
0003
ffeb
ffed
ffd3
0000
fff0
001b
fffb
0000
ffef
ffd7
0017
0000
fff8
0021
fff4
0000
fff7
ffee
001f
0001
0005
ffb7
00e9
000c
ffb9
00d2
002e
fffa
ff82
fff1
fff0
fffb
ffcf
008a
fff6
0000
ffb6
0077
ff02
ffe3
0060
ff7d
000a
fff9
00b5
ffb1
0106
002d
ffbe
00ef
0014
fffb
ff2f
0061
fff9
0010
fffb
fefa
000c
fffe
0013
0087
fedf
ffde
005c
ff84
ff8c
fff9
00d8
ffad
0114
0028
ffcd
ffd1
003c
fffe
ff61
ffbf
0005
fff8
ffdf
ffdf
fff2
0002
001c
0042
ff2b
ffdc
004b
005b
0017
fffe
00bb
ff81
ffd4
0021
0066
0075
0053
fffa
ffdd
ff52
0007
0011
0016
ff8a
ff01
fffd
fff0
ffd4
000b
fffc
001f
ffc0
ffb6
fff9
0015
ff48
0006
0014
0041
0061
ffaf
fff9
ffe1
ff0a
002f
000f
ffd8
ffac
fee6
fff7
fff5
ff4d
0041
fff3
ffd6
ffb3
ff7e
fff8
ffd8
ffbc
0012
000e
0032
010e
fff6
fff0
ffdb
ff5f
0072
000f
ffbf
0042
ff2c
ffee
ffc4
ffc9
0072
fff8
ffd6
001e
ffad
ffef
ffc4
0019
001c
ffd6
ffcd
003c
0011
0002
ffce
001a
0031
ffda
ffcc
ffd1
ffef
0000
fffa
0021
005b
ffdf
ff9e
000b
ffd2
0002
fffd
001d
0016
ffd1
ffb3
0007
ffc9
0001
ffdf
ffe5
0045
ffd4
ffc7
ffe2
ffd4
0000
0002
ffe7
0075
ffd9
ff8e
0009
ffab
0002
ffee
ffe2
001d
ffcb
ffbc
001d
ffa7
0001
fffd
001b
003f
ffcc
ffc5
0034
ff8c
0000
fff3
ffd4
0076
ffd3
ffb2
0007
ffe4
0003
ffce
0137
0176
0042
0045
fea2
0111
00e7
fe9f
0996
fc85
0665
ff46
0176
003e
08ab
fa1e
005c
fffb
0046
ff9c
ffe7
ffd8
0001
ffea
ffc4
fffd
0035
ffbb
ffff
ffc5
0006
0000
ffa9
0003
0056
ff60
ffec
001b
0015
0002
0065
fff1
0024
ffa1
ffe8
0001
ffec
ffde
ffbb
fff7
005c
ffb4
0000
ff9b
ffed
0009
ff91
0006
0066
ff7d
fff5
0022
ffde
0018
005a
fff9
0003
ffaa
fff0
ffdc
0013
ffdb
ffa1
fffa
005a
fff2
0005
ff90
ffc4
ffd6
ff6d
0002
006c
ff9f
fffc
0021
ff8e
0008
ff91
fffc
0048
ff97
000f
0016
fff7
ffed
ff8f
ffe8
0030
ff3f
0003
0073
ffbb
ffa2
ff9e
ffd6
0000
fea7
fffc
0000
fef7
ff94
ffef
000b
0004
0002
000f
fff8
00ac
003a
ffe0
0001
0038
ffbf
0008
fff3
00d1
0037
ffdd
ffe5
fffc
ff28
fffa
fff0
0020
fffa
000e
0017
ffee
0052
001d
000c
0048
0024
fffd
001b
0022
0065
0018
0028
009e
002b
fffa
000d
001c
0036
000d
0008
0071
0011
fffc
001d
0070
005f
fff7
0031
fffe
0005
0015
0015
002a
ffef
fff0
0000
000c
0007
fff3
0017
ffd2
003a
fff4
0053
0049
000a
0010
001b
005f
0035
ffed
0014
003c
fffe
0026
0016
003c
fff2
ffe9
fff3
005a
000e
fffb
0019
ffd3
003a
fff1
005b
005e
0015
001a
001a
0045
0037
ffd4
001a
0026
ffdd
0029
0017
002f
0002
ffd3
ffff
005d
fff0
0002
001c
ffe9
0040
ffda
004a
004f
fff1
ffeb
0010
ffb2
0061
004a
fff8
ffd3
0015
002c
fffd
00a6
ffd9
ffed
fff7
0032
0039
0015
ffe4
feb9
fff3
ffb2
ffeb
fff5
ffd3
ffb9
0013
ff7d
0051
0062
0006
ffc5
0004
002a
0006
00f6
001a
ffe8
ffcb
0055
003e
0000
ffed
fdc9
0009
ffa4
fffe
ffe8
ffd6
ffe0
0011
ffc0
0054
0059
002d
ffbc
0011
001b
0002
00d9
ff9c
ffe9
ffca
001d
0024
ffee
fff9
fe73
ffb5
ffcb
fff5
fff4
ffb7
ffe3
ffd9
ffb7
ffba
ffdb
0006
0027
ffec
ffee
ffe4
003a
0002
fffd
0014
0031
003e
ffe7
fff6
0026
000e
fffd
ff65
005d
0075
0000
fff6
ffb5
003c
ffe8
000f
ff75
ffe2
ffe2
ffff
000a
0071
0013
0055
ffde
0045
ffc4
0015
001e
00a8
0026
fff5
0027
0082
0048
0000
fff1
fff2
ffe2
004c
ffb1
ff89
0021
fffc
ffc5
0017
fff8
0070
ff4a
ffd9
ffef
0006
ffdf
004f
000e
0023
ff9a
ffff
000f
000f
0023
ffa5
0034
0055
0010
fff8
000c
ffca
0022
ff4f
001a
0033
ffec
0011
0018
ffc4
00af
ff8d
ffd3
0038
febd
0000
fffc
000a
0022
0028
0041
008b
ff5a
ffe2
0002
ffbf
004c
ffcf
0003
00a5
fe97
ffed
003a
ffca
022e
ff8a
ffad
ffb1
002a
ffd8
fffc
0030
0051
006c
004d
0024
ffaf
0014
0043
0005
005f
fff8
0012
ffe6
ff62
0061
ffb8
fffd
ff31
0000
0035
fff6
ffc4
0011
0058
004f
0070
ff7e
0010
ff41
00e8
0049
0085
ff8a
ffad
fe4f
ff58
ff90
007f
ff3a
0024
ffb5
ff8c
ff66
fff3
ffef
ffe6
ff98
fffa
0054
0070
ffd9
006c
ff80
001f
0043
006d
ffb1
0070
fe86
ff97
ffd1
006c
ff58
0024
ffae
ffbe
ff73
fffb
000d
ffe3
ff92
ff2c
0067
ffbd
005e
0072
fff1
000b
00bb
ffac
0005
0107
ff78
ffe2
0043
0018
0010
ffab
fff6
0022
ffc2
0017
ffca
0037
003a
ffdb
fff1
ffde
ffd4
fffe
0047
ff40
ffee
ffc6
fff1
00b5
0011
000d
0065
ff74
fff0
0005
fff4
00c3
ffca
0012
000d
ff94
fff6
001f
fff9
00fb
ffdb
fff7
ff6c
ff60
0003
0008
ffec
0013
0000
fff2
ffec
fea2
fffa
ffff
ffed
004f
001d
0012
ffab
ff90
fff3
001d
0009
010f
ffc3
fffd
0038
0146
fff3
003f
fffe
013b
ff6d
ffe6
0022
0246
0012
001c
fffe
007c
ffce
0001
0019
0113
0013
0078
ffd5
ffe9
ffcd
0019
0058
fffe
00a8
002f
fff7
ffe4
ffb1
0072
0077
0001
0049
ffd8
0022
ffec
ffd3
ffdc
0004
0000
ffa4
0068
ffd0
ffea
ffbc
0021
ffcd
0000
0080
0007
fff7
ffe4
ffac
0004
0026
0000
001f
ffa1
002e
ffee
ffd7
fff6
ffd3
ffff
ff71
0065
0007
ffea
fffc
0085
ff75
fffc
0065
ffe4
000b
ffe1
ffff
0008
ffe1
fffb
001d
ffaa
002f
fff7
0007
ffc8
ffc8
fff9
ff69
ffe7
0002
001a
0024
ff98
fffc
0000
ffd3
ffae
ffe2
0023
003b
ff4e
ffd6
0000
ffed
ffb5
ffa0
002c
0028
ff8a
ff8c
ffff
0066
ffda
0026
0007
0024
0006
0017
fffe
ffa8
ffca
0018
000c
0027
ffe9
0013
0001
ffae
ff74
fffb
0017
003b
ffac
ffd5
0000
ffca
0000
004a
ffff
002a
003a
003c
ffff
fff4
0008
0045
0002
0023
00a6
008e
0000
0006
fff0
003a
0009
0045
007e
008d
0001
ffed
fff3
0038
0001
ffec
ffa8
000a
0001
ffca
002e
0035
000d
ffdb
ff38
fff8
0001
fffa
000d
0021
0003
ffd0
0088
ff99
0002
ffe0
0003
0021
0000
fff7
ffa1
ffd2
0000
ffef
0041
0021
0006
ffdf
ffc4
ffe4
0000
0014
0023
0014
0000
ffdc
00ad
ffd2
0000
ffe5
0006
000d
ffe5
000f
ffc7
fffa
0000
0016
004a
0009
ffe9
fff8
004a
0011
0000
002f
0028
0006
ffe7
fff4
00cc
0011
0000
000a
ff7e
005d
000d
ffa9
00a1
fff2
0003
ffb7
0017
fffb
0013
0012
fe21
ff93
0006
ffe9
0061
ff87
ffbd
fff3
0122
002a
0007
0059
ff68
0075
0004
ffb2
005f
0019
0000
ff7a
0060
000a
0011
0031
fc88
ff69
0001
0008
0086
ff86
ffa8
001c
0261
002d
0001
008a
ffb1
0057
0013
ff95
fff0
ff73
0000
ffd0
002f
ffe2
0005
000b
fe68
002c
0002
0008
0009
ffa3
ffb3
ffea
0221
0014
0003
0044
ffbb
fff5
fffe
ffcf
ffec
ffef
0003
0011
ffb5
001e
0012
ffbe
0049
0052
0002
ffee
ffbf
0040
001c
ffc8
002c
002e
0003
ffee
0017
ffe9
ffdc
0000
00c2
0021
0001
0036
ffd6
0021
ffee
ffe0
0109
0085
0000
ffbb
ffb5
005c
fffd
ffdf
00a7
0078
0000
ff94
005b
ffc2
ffca
0037
ffda
002f
ffff
00b9
003a
ffd3
ffd1
0017
0020
0003
fffe
004c
0003
ffe8
ffda
0010
00a8
0023
fffe
ffd9
fffe
ffe8
ffff
0040
ffe9
0019
fffc
000a
0009
ff97
0023
ffb5
0049
001b
0003
ffd9
ffad
ffb0
0018
ff99
ff4e
0023
0004
0002
ffea
0008
0005
0068
0007
003f
fff7
ffc4
0001
ffc0
0024
ffe3
fff1
0028
fffe
ffcd
0005
ffbe
0009
ffd1
fdb1
0068
ffff
0025
003c
007e
0007
00e1
0029
003c
ffee
fffe
003c
0043
0028
0051
ffa8
0030
fff5
0077
fff7
0059
000c
fffa
01c9
0086
fff7
0048
0029
00bf
005b
0062
feef
ffbe
0000
0040
00d7
fec4
0013
00a8
0051
003d
fff8
00cf
008d
ff82
0018
ffed
0059
ffb9
ffff
005d
ff15
011f
005a
003d
ff4a
fff0
0009
ff5a
002c
ff85
0022
00b2
ffab
0021
0002
0080
0026
ff8e
001a
001f
0044
0016
0007
0042
fe69
0161
003f
ff6c
ffcb
fff5
0014
fe8f
feef
007b
0025
0007
ff61
0009
000d
ff70
ff82
002f
0022
ff9b
ffff
fffb
0012
ffc2
ffd0
ff91
fff5
ffad
004b
fff3
000e
ffeb
ff91
ffc1
fffc
ff9b
ffa6
0019
000f
ff90
ffa8
ffd3
0006
ff91
ffdf
0044
000f
ffbc
0000
0016
0029
005a
ff6a
0012
0000
002d
fff2
002b
0028
002a
0091
0010
ffff
0068
fff3
002a
0029
0012
001d
fff0
ffff
0011
002d
002c
0013
0062
0030
0054
fffe
0018
ffd2
0044
001e
002d
ffa6
0056
fffe
0001
ffce
004b
001d
000b
fff5
002f
fffd
ffe2
0161
fe65
fee6
00db
fea4
ff52
0113
fedf
00fc
fc09
01a1
003d
0124
0144
05c9
fda6
0039
fff4
001a
ffad
fff3
0036
0063
ffb7
001e
fffc
ffcf
ff76
fff7
ff91
0092
ffbe
0006
000f
0039
ffbc
fff3
ffa4
0034
ffb0
0039
000e
0037
ff87
ffe8
0079
006b
ffc9
0010
0018
0020
ff8a
ffec
fff7
0072
fff6
0004
0028
0014
0000
ffe9
0056
0015
ffd7
ffc5
0036
0065
0020
fffe
006f
00e3
0040
ff84
0049
ff60
0026
0000
ffd0
00b4
0040
ff76
0043
fff3
004f
0002
ffd2
0063
000c
ffb3
0019
0054
ffde
004e
ffff
fefb
0005
ffc7
002d
003e
0019
0053
000a
ff60
004f
ff4c
001f
ffbd
0026
0078
fffe
feb8
00e5
ffed
0005
003a
000c
0010
002a
001f
ffaf
ffef
0014
ffbe
0046
000a
0010
0004
ffe2
ff84
000c
ff4e
00e7
0037
0006
ff8e
007c
0078
ffd4
fff5
ff8a
ff6a
ff7e
0080
ff26
0080
ffe0
fffc
ffdf
ff4f
ff7b
ff8e
ff7a
0047
ffdd
ff45
002d
ff89
0016
000b
ffe9
0018
ffe8
ffc7
ffee
0009
fff0
fff4
fff0
000b
ffe3
fff5
ffca
0007
0005
0009
ffea
0006
ffe0
000e
fffa
0003
0037
0030
ffed
002c
ffe2
ffb2
ffc9
0004
ffe6
0014
ffe6
001b
ffdf
fff2
ffc6
0003
ffda
0013
ffe6
000c
ffde
000e
fffa
0000
0013
0044
ffda
0026
ffe2
ffae
ffc2
0000
0006
0015
ffe1
0013
ffdb
ffec
ffd2
ffff
ffe5
000d
ffd4
0003
ffdb
0000
ffea
fffb
fffc
0028
ffcc
0063
fffc
006c
0058
0004
0008
ff82
ff92
ff8f
0000
004f
0068
0046
002c
ffb3
000b
ffe8
0028
006e
0033
0047
0020
fffd
00aa
0045
ffda
00ea
ffe2
ffb1
ffb0
0000
ff7e
ff4c
ffdf
0008
0004
0003
0021
ffcb
ffea
ff78
000c
0024
0008
0015
000d
ff97
008e
00eb
ffdc
0119
0039
ff9a
000f
00a8
ff78
0000
ffe4
0012
000c
fff2
0027
ffcf
ffe3
ffe3
0009
0033
004e
0010
fffd
fffb
0086
ff8b
0016
ffa9
ffd3
fffb
ffff
ff96
00ca
fffc
0008
0036
ff75
0001
ffb0
ff06
0030
ffb1
0006
0021
ff97
0009
fff1
ff4a
0052
fff3
0008
ffb8
ffc2
ffcb
0014
ff83
001d
0068
fff7
000b
ff3f
ffcc
fff3
ff23
ff56
001a
ffee
002f
ff75
ffd4
0020
ff48
ff69
001d
0004
ffdf
0006
fff0
0019
ffe7
ffe0
006d
ffe6
ffdd
ffa6
ffde
0018
ffb6
ff18
003f
ffde
ffd8
ffc5
fff5
ffd9
ff9a
ff06
0057
ffc3
0037
ff2f
ff31
000e
002e
ff6d
0005
ff80
ffbb
ff60
ffa2
009e
0006
ffab
ffa4
ffce
ff11
0071
0075
0029
ff9f
004b
003f
ffd3
ffd1
ffde
ff8d
ff90
00bf
ff77
0006
ffab
ffa7
002c
0034
0071
009e
ffd3
fffc
001e
ff99
0116
00f1
0005
0051
00d8
ff95
ffcd
ff8e
ffd1
ff88
ffeb
00ea
ff82
ffda
fff0
ffd5
009a
0068
009b
007e
002e
000c
004a
0022
0153
00ba
fff7
0037
010b
ffdb
0000
009d
ff4f
ff61
007f
ffe9
ffd7
003e
0001
0071
ff2d
ff1f
0089
0004
ffa5
0010
fffa
0006
ff6c
ff62
0010
ffed
ff49
0060
000b
0000
ffff
000a
ff9d
00fd
0017
0065
ffee
005e
fff5
ffd6
ffd0
01b0
ffc7
006b
fff5
0051
0004
0006
ff5c
00c4
ffb3
ffb7
002e
ff88
0039
006c
003e
fff0
009f
ff72
0013
ffdd
004a
0080
fffd
0031
007b
ff5e
0019
005f
0069
0078
ffe6
0016
0069
ffe4
003c
003a
007d
008a
002d
ffce
0051
fffd
0032
0093
0085
008b
ffe0
000b
001a
0027
ffc5
0094
ffb0
0025
002c
fff9
ff97
ffbf
00a2
003d
0116
00da
0082
0028
00fc
ffb7
00a3
009d
00fa
00f1
001f
ffe5
00bc
0001
000d
00c4
ffe4
0056
0031
0011
0003
ffe8
005e
fff0
00c2
005a
005c
006a
009c
ffd1
0071
0078
009f
007d
000e
fff5
0074
fff8
fffd
006a
ffb8
0002
0024
ffd2
ffe3
0085
ff71
fff3
001d
ffee
001f
fff8
0081
005c
ffa2
fff5
ffe2
ffa1
ffc9
fff9
006d
0029
ffe5
ffef
000d
001d
000f
fff6
007a
007a
ffd0
fffd
ffca
0015
ffd7
fffe
007c
0030
0006
fff9
ff91
fff0
ffff
0000
001d
fffa
0033
fff7
ffd2
ffce
001c
fffd
000c
0003
0046
0001
ffed
004b
ffe7
fff8
ffdb
ff8b
0090
fff7
ffdd
ffb6
fef6
fff9
ff21
ff95
009e
fffa
0022
ffb4
0050
fff7
ff61
ff4c
0092
0016
ffbc
ff22
ff3e
fff4
ff6b
ff52
00b8
000d
ffed
ff90
ffa9
fff6
ff55
ff16
007d
0027
ffe1
0079
ffe4
fff2
ff20
0090
0004
000a
ffc4
0017
ffec
0000
0067
003b
0041
fffe
fffa
001a
0054
0002
0023
0023
002f
000f
fff5
00c7
0036
fffe
fffd
00eb
feff
ffdd
fff4
ffd6
ffbb
0008
00da
00f5
ff15
ffcb
001d
0011
0038
0009
00bc
00b0
ff50
ffd1
0020
0105
0021
0005
0077
ffe8
ffd5
0029
ffcc
000a
0025
0000
fffa
ffd0
ffc9
002a
ffd2
002f
0008
0000
fff9
ffbb
ffd1
0023
ffd1
004d
fff2
0000
ffe4
ffeb
ffc1
0025
ffdc
000a
0004
0000
000a
ffbd
ffb8
0027
ffe0
0039
ffda
0000
0003
ffb8
ffbf
0020
ffe5
004d
fff9
0000
ffd8
ffe0
ffb4
0022
ffe7
ffee
0002
0000
ffff
ffc7
ffab
0025
ffe9
002c
ffe8
0000
fff7
ffbe
ffa9
001d
ffed
0038
0007
0000
ffd7
ffed
fff4
0025
ffeb
ffc1
0036
0007
fff7
ff42
0049
0005
0004
ff8b
fff2
0001
ff49
feec
00a7
0011
ffc3
ffaa
000b
000d
fee2
0116
ff35
0029
0010
009c
0013
0007
011c
ff78
ffc4
fffc
0020
ffee
ffa3
0000
001f
ff16
0058
000e
ffdf
ffc0
0005
000c
ff4b
01e9
ff38
0002
002a
00a9
00b7
0005
017c
0082
ffa9
ffdf
002e
002a
ff7a
ffff
00d6
ffb7
0060
ffe7
ffe4
0026
ffa5
000b
ffb5
ff3f
005d
fff2
ff85
ffee
0004
0007
ff30
ffb8
0072
fff6
ff8b
ffbb
ffda
0004
ffd6
ffd3
0091
000b
ff82
0009
0015
0004
ffee
ffa3
001b
fff0
ffe2
003c
fff4
0003
ffd0
0035
fff3
ffe4
0007
ffeb
ffdb
ffff
005e
003e
fffb
fffb
ffeb
ffdf
000c
ffff
0004
fff6
0035
0006
004d
005c
ffc0
ffff
ffd4
00d5
ffc8
fff4
0083
0040
000e
fff9
0029
00f3
ffbb
000a
0057
0041
0060
fffa
fff2
00e0
ff04
fff2
006a
001b
0070
0016
012e
0037
feff
ffd2
003a
00b6
005b
0007
0067
ffb4
000a
ffcb
ff77
00a0
ffe0
0008
ff91
00bc
ff5d
0012
0059
00fd
007a
000c
0098
fff9
ffa7
0005
0045
0109
0000
0001
ffa2
ffb3
00d2
0012
ffaf
004c
ffa7
0002
ff6a
ffd7
ffe9
0000
0039
00b5
005a
000b
ffdd
ffca
007c
000e
0069
001f
ffd2
0000
ffd4
ffd9
0104
0027
0007
ffbb
004a
0002
ffe7
00a6
ff14
ffe1
002a
ff8f
ffee
000b
0092
00e5
ff19
ffd2
0060
ff9f
0008
000a
0118
00c4
ff23
ffb2
002e
ffd8
0002
0007
00eb
001f
002b
0020
001f
ffd1
001b
0003
0035
ffcc
ffe5
0021
003a
000b
004b
0000
ffee
ffd5
fff1
0015
0034
ffea
003f
0000
ffb4
ff7b
0101
0009
ff6a
0078
0000
000c
ff6d
fef5
0100
0016
ff6f
ffb5
ffb4
0008
ff26
fef7
00dd
001c
ff86
ffbe
000c
0008
fef1
ffc5
0059
ffe0
0028
ffc6
0034
fffc
ff6e
ffc1
006b
0008
00b3
ffa1
002c
fff6
ff95
007e
ff6c
0047
00ed
ff95
ffee
ffee
0039
ff29
0150
ffa3
ff99
ffdb
0003
0006
ff07
ff50
0192
ffe2
0023
ff6d
003b
0000
ff37
ffed
0018
0014
0098
ff40
ffed
fff9
ffdd
ff79
0062
ff93
ff77
0018
0008
0007
ff87
ff68
00c1
ffd2
fff8
ffa4
ffff
0000
ff9d
001d
ffb7
0008
007e
ff5b
ffd3
fff9
003c
0125
0230
fed3
fe38
0144
fe89
fea7
ff98
ff00
fc07
fa0e
ff36
03ea
071e
fecc
06d7
0065
fffa
0037
fff7
ffe4
ffee
009b
ffe4
ffe6
0004
ff30
ffea
ffff
001a
ff84
ffa0
ff8d
fff4
ff51
0090
0066
0052
ffe2
0009
000e
ffde
0177
ffe2
ffdd
ffe5
0108
ffbd
0076
fffa
0049
ff93
ffb8
0006
003a
ffe7
fffa
ffe6
fefa
004a
0019
0087
ff15
004b
ff87
ffdc
0108
ffb3
0054
ff7e
00d6
fff6
0019
ffe4
01a3
ff8d
fff3
ffe5
0086
ffec
005a
ffe6
fff5
004e
0004
0009
000e
0061
0035
0008
0044
ffa9
ffde
ffe6
0011
ff8b
ffff
000b
008d
ffea
0007
0021
0000
ffed
fff4
0000
0029
ffd9
0001
fffe
fff0
000b
002f
0007
0021
ffd8
ffea
fff0
0036
ffcb
fffd
0013
0070
0032
0010
0029
003a
001e
fff3
fff6
0032
0004
0009
0005
002a
0030
0030
0006
002d
ffee
ffeb
0010
0088
ffef
0004
0007
007f
002e
000a
003e
0067
0041
fff9
ffef
0028
0004
0002
fffd
001f
0050
fff6
0012
0029
0039
ffdf
ffb5
0003
ffc8
0003
0018
0052
0051
ffe1
ffcb
001c
ffea
fffa
001f
0050
0048
fffb
0007
000e
fff8
000c
000d
0031
002e
ffee
ff57
fffb
ffc7
0023
0014
003f
0055
ffef
ff79
0021
ffe8
0015
001b
0022
002b
0004
ffa8
0000
fffc
000e
0003
fff5
ffca
fff9
ffac
ffce
ffaf
002d
000a
0020
fff0
fffb
ffd8
fff0
ffd9
0020
0012
ffdc
ffd3
000e
ffee
ffd3
ffee
0080
fff1
0027
ff95
ffb1
0046
ffd7
ffe6
0017
ffed
0019
ffc6
ffa2
003d
000b
ffc2
ffc5
0008
ffde
ff8e
ff8e
003c
ffb0
ffc7
0048
ffe6
004e
ff8a
ffbb
ffb9
0046
fff4
ffea
ffe4
0033
ff88
ffab
0049
0005
000b
ff8c
0005
ffd8
ffee
ff96
0028
ffaa
0005
0049
ffe4
003f
ff6e
ffb0
ffca
000e
0020
fffa
ffe8
0086
ff96
ffa6
001e
0033
0048
ff92
fffe
ffd9
ffed
ff97
fff6
ffc1
0030
ff02
0088
0041
0170
012b
0070
ff6a
00ee
ffdf
ffe0
00c5
0062
0039
00c9
ffad
ffdc
0064
ffc8
0071
ffaf
ff5a
0028
0016
ff34
ff5b
0044
0098
00ad
00c3
0064
ff22
0129
0064
ffd7
00d7
0005
ffe2
00fe
001c
001a
00a1
ffd8
0019
ff61
ff4a
ffef
00ad
ff03
ff9f
003a
0099
005e
0050
004b
ffcc
0124
0088
ffe7
0089
ffa5
ffb5
0070
ffe4
ffd3
004e
ffbf
ff9c
feea
ff19
ff96
0060
feda
ffdf
003e
ff8f
00c3
0097
ffdb
005c
00be
0039
0008
000d
0096
005b
003b
0063
003d
ff98
fff6
002f
0048
003d
ffee
0077
ffb9
ff8c
ffee
000e
0078
0031
007a
0062
0070
003a
ffba
0097
0022
ffb5
008f
ffc0
000e
0002
ffc3
0067
ff65
ff72
0051
fff3
ff89
ff75
ffd5
ffcd
007c
0057
0053
0015
003a
001a
ffa8
00cb
0002
ffca
003f
003d
ffa6
0027
ffbf
00be
ff96
ff7c
ffbf
ffda
ff11
0035
fff4
002d
fff0
ffa5
ffec
ff96
fff9
0024
ffeb
ffb6
002b
ffac
0061
0023
003b
0058
fffe
ffc6
008d
ffa8
004d
0034
0059
fff6
fff3
008c
000d
ffad
001d
0096
ffd5
000c
ffdb
005f
ffbf
ffb7
001d
ff45
0001
0020
ffec
ff72
0023
ffba
0006
fff7
0005
ffbb
000c
0038
003c
ffad
008a
0056
fff4
ffcd
ffe6
0133
ff81
ffb7
ffc7
0073
ffcb
fff1
ffe8
ffd6
ffd1
ffb0
0007
0051
000b
0025
ffe9
0004
ff3b
ff8d
0012
ffd8
ffc6
0039
ffe9
0014
ffaa
ff68
004c
ffc4
ffbf
ffac
ffcb
ffc8
ffbc
ffbb
ffbb
0011
ff89
0047
ffe4
0000
ff79
ff68
ffdd
ffd4
ffb8
009e
fffd
0004
ffa1
ff29
0037
001b
ffb0
002c
ffe8
fffa
fff8
ff5f
ffa4
0024
ff4c
ffe0
ffd2
0003
ff71
ff72
ffd2
ffc9
ffa7
004e
ffe6
0061
ff91
ff26
0051
ffd8
ffca
001a
ffe8
004d
ffb4
ff49
ff9a
ffd6
ff5f
0018
ffd2
002f
008d
fffd
ffdc
fffe
004f
009e
fff8
fff4
0040
0220
0005
fffa
0096
ff98
0051
ffee
0024
00dd
ff9a
fffb
ff1d
ff29
ffb3
0043
004c
fe01
0014
0000
ff83
00c3
ffb7
0016
0020
fff7
0068
0000
00a2
0033
0020
ffea
fff2
0113
ffc1
fffd
0012
ff19
0051
0052
001c
fef7
0022
fffd
ff5c
ff82
000a
0053
0017
fe11
0093
fffc
ffa7
006b
003b
001a
001a
005c
0073
fff9
006b
ffdd
ffe7
ffdc
fff1
0044
fed0
ffff
005a
ffe8
fff3
000e
000a
002a
fff1
0000
ffc5
ffea
ffde
0016
0011
002e
0036
0000
ffd6
ffcb
0010
ffe1
fff5
0022
ff07
0000
0051
0004
0014
0015
0009
0047
0021
0000
ffd6
fffc
fffc
001a
0014
004c
0073
0000
ffdd
ffc0
0016
ffe1
ffd6
000f
ff0f
0003
0047
ffe6
0014
0013
ffed
005e
0052
0003
ffc8
fff4
fff7
0016
fff3
0035
00a3
0003
ffe3
ffd7
ffe7
ffcb
ffe2
0000
002b
0004
ffef
0005
ffe6
ffd7
ffdf
0029
0067
0004
ffed
ffe8
0000
fff9
ff92
004c
0099
0009
ffe5
ffdc
ffeb
ffd9
fff3
0000
000e
0002
fffc
0025
ffe8
ffea
fff3
0010
004c
0001
0003
0008
0001
000a
ffa7
001b
0075
0004
fff7
ffc4
ffe8
ffe6
ffda
ffc4
ffc4
0000
0029
0004
ffe7
fffa
ffd7
ffee
ffe3
0000
002a
ffee
0003
0017
ff8c
ffef
0018
0002
0027
006a
ffc8
ff89
fed5
ffe2
ffd9
fffc
006f
fffc
0010
ff83
fe9c
0001
ffe4
fffc
ffeb
ff76
00b5
ff76
fedb
0092
0000
fffb
ff85
007a
ffd1
ff98
fea1
ffb2
0009
fffe
0046
004b
0013
ff92
fe66
0062
003d
fffd
ffb3
ff56
00cc
ff80
fea4
0058
ffdc
fffc
ff69
005f
ffde
ff99
fea3
ffe4
fff4
fffc
003e
0024
003e
ff92
fe6f
ffec
0029
fffc
fff1
ff7b
00c8
ff84
fea8
0050
ffd0
fffc
ff5c
fe03
0245
fff9
ff74
001b
ffd7
0005
fecc
ff53
001f
0030
0057
ff4d
ffe8
0002
ff2e
005a
ff0d
ffcc
001f
fff5
0034
001b
0099
fe6a
0170
0024
ff69
ff37
0009
0004
ff20
00ae
ff9a
002e
007c
ff80
0095
0001
fff2
0174
feb3
ffc8
0046
006a
0092
0019
0182
ff5f
00f3
fff1
ff39
ff62
0014
000a
ff4c
00ac
ff81
ffd2
0047
0055
009c
0007
0070
011d
fe3d
ff7d
ffe9
0046
0042
001e
00fa
fff6
00bd
fffe
fff8
004a
ffe8
ffff
ffa8
004d
0039
fffb
004e
0015
fff9
fffe
0023
002a
0000
ffb1
fff7
ffb7
0000
0005
0018
fffa
001d
0024
ffea
0000
ffef
0001
ffd2
009c
ff68
0020
0063
ff27
ffe9
0001
0065
0064
ff60
ffcf
0005
ff42
ffc3
000a
0137
0007
fff8
002a
ffc7
0035
fff0
0006
ff65
007c
ff3b
002a
0041
ff1a
ffeb
0005
ffeb
0041
ff16
ffe1
ffea
fec8
0010
000d
00cf
ffee
ffe8
ff7e
ff40
ffd8
0000
0000
003e
0082
ffc1
ff8f
fedf
010b
ffc3
0000
0036
0067
0008
ff97
ff0a
0085
0042
fffe
002d
ffb9
0037
ff7e
ff26
ff42
ffe3
fffd
ffcd
0056
ffce
ff99
feba
ff8f
0011
fffc
0030
0081
0013
ff9f
fec6
00a6
ffef
0001
0007
ffba
00a0
ff78
ff23
fffe
005c
fffa
ff82
ff59
0042
ff92
fee0
fe2b
0015
fff8
ff91
0032
0034
ff9b
fea7
fff7
000e
fffe
ffe8
0001
ffc7
0094
ff80
fff7
ffc0
fffe
004a
fff3
fff6
0081
ffab
ffee
fffc
0000
0074
ffbb
fffd
0044
ff6e
003b
001f
0002
0014
ffdd
ffb7
0089
ffed
0004
fff3
0002
0035
0033
ffc7
0081
0023
003b
001c
0004
00b6
0044
ffa1
0039
ffe3
0057
0073
0001
00e8
0030
ff70
0087
ffa8
ffca
ffe4
0009
ffd6
004a
ff69
0081
ffd9
ffc0
0034
000a
0042
005a
ff4f
0041
ffa2
ffd5
0034
0006
0089
feed
fe8c
fe76
ff1d
fec2
ff3c
fefe
ff92
00ed
fe45
fcb5
f3a9
fea1
034e
f67a
0356
