0008
0000
0000
0000
0000
0000
0000
0000
ff63
0000
0000
0000
0000
0000
0000
0000
ffd4
0000
0000
0000
0000
0000
0000
0000
0091
0000
0000
0000
0000
0000
0000
0000
ffdb
0000
0000
0000
0000
0000
0000
0000
ff46
0000
0000
0000
0000
0000
0000
0000
0075
0000
0000
0000
0000
0000
0000
0000
005b
0000
0000
0000
0000
0000
0000
0000
0058
0000
0000
0000
0000
0000
0000
0000
00c7
0000
0000
0000
0000
0000
0000
0000
00c3
0000
0000
0000
0000
0000
0000
0000
0088
0000
0000
0000
0000
0000
0000
0000
0030
0000
0000
0000
0000
0000
0000
0000
ffe8
0000
0000
0000
0000
0000
0000
0000
001d
0000
0000
0000
0000
0000
0000
0000
ff4e
0000
0000
0000
0000
0000
0000
0000
ff28
0000
0000
0000
0000
0000
0000
0000
ffa2
0000
0000
0000
0000
0000
0000
0000
ff35
0000
0000
0000
0000
0000
0000
0000
ff8c
0000
0000
0000
0000
0000
0000
0000
0038
0000
0000
0000
0000
0000
0000
0000
004e
0000
0000
0000
0000
0000
0000
0000
0002
0000
0000
0000
0000
0000
0000
0000
007d
0000
0000
0000
0000
0000
0000
0000
0083
0000
0000
0000
0000
0000
0000
0000
00c8
0000
0000
0000
0000
0000
0000
0000
00a0
0000
0000
0000
0000
0000
0000
0000
002b
0000
0000
0000
0000
0000
0000
0000
006d
0000
0000
0000
0000
0000
0000
0000
0026
0000
0000
0000
0000
0000
0000
0000
00a8
0000
0000
0000
0000
0000
0000
0000
00b4
0000
0000
0000
0000
0000
0000
0000
0003
0000
0000
0000
0000
0000
0000
0000
0034
0000
0000
0000
0000
0000
0000
0000
ff5c
0000
0000
0000
0000
0000
0000
0000
ffbd
0000
0000
0000
0000
0000
0000
0000
ff9c
0000
0000
0000
0000
0000
0000
0000
0046
0000
0000
0000
0000
0000
0000
0000
0045
0000
0000
0000
0000
0000
0000
0000
ff79
0000
0000
0000
0000
0000
0000
0000
0005
0000
0000
0000
0000
0000
0000
0000
ff94
0000
0000
0000
0000
0000
0000
0000
ffa7
0000
0000
0000
0000
0000
0000
0000
ff94
0000
0000
0000
0000
0000
0000
0000
ffeb
0000
0000
0000
0000
0000
0000
0000
ff7f
0000
0000
0000
0000
0000
0000
0000
ff6e
0000
0000
0000
0000
0000
0000
0000
fef3
0000
0000
0000
0000
0000
0000
0000
ffcb
0000
0000
0000
0000
0000
0000
0000
0071
0000
0000
0000
0000
0000
0000
0000
005a
0000
0000
0000
0000
0000
0000
0000
00ae
0000
0000
0000
0000
0000
0000
0000
ffd5
0000
0000
0000
0000
0000
0000
0000
00c5
0000
0000
0000
0000
0000
0000
0000
00a4
0000
0000
0000
0000
0000
0000
0000
00b6
0000
0000
0000
0000
0000
0000
0000
ff1a
0000
0000
0000
0000
0000
0000
0000
002a
0000
0000
0000
0000
0000
0000
0000
0072
0000
0000
0000
0000
0000
0000
0000
ff1c
0000
0000
0000
0000
0000
0000
0000
005c
0000
0000
0000
0000
0000
0000
0000
0004
0000
0000
0000
0000
0000
0000
0000
ff55
0000
0000
0000
0000
0000
0000
0000
00aa
0000
0000
0000
0000
0000
0000
0000
009e
0000
0000
0000
0000
0000
0000
0000
002c
0000
0000
0000
0000
0000
0000
0000
002e
0000
0000
0000
0000
0000
0000
0000
0086
0000
0000
0000
0000
0000
0000
0000
0036
0000
0000
0000
0000
0000
0000
0000
008c
0000
0000
0000
0000
0000
0000
0000
002f
0000
0000
0000
0000
0000
0000
0000
ff4c
0000
0000
0000
0000
0000
0000
0000
0000
0000
0000
0000
0000
0000
0000
0000
0000
0000
0000
0000
0000
0000
0000
0000
ff33
0000
0000
0000
0000
0000
0000
0000
ff46
0000
0000
0000
0000
0000
0000
0000
ff4f
0000
0000
0000
0000
0000
0000
0000
ffb5
0000
0000
0000
0000
0000
0000
0000
ffe8
0000
0000
0000
0000
0000
0000
0000
0024
0000
0000
0000
0000
0000
0000
0000
0099
0000
0000
0000
0000
0000
0000
0000
002f
0000
0000
0000
0000
0000
0000
0000
ffb1
0000
0000
0000
0000
0000
0000
0000
0074
0000
0000
0000
0000
0000
0000
0000
0034
0000
0000
0000
0000
0000
0000
0000
0054
0000
0000
0000
0000
0000
0000
0000
ffe9
0000
0000
0000
0000
0000
0000
0000
fff7
0000
0000
0000
0000
0000
0000
0000
005d
0000
0000
0000
0000
0000
0000
0000
ff60
0000
0000
0000
0000
0000
0000
0000
ffde
0000
0000
0000
0000
0000
0000
0000
ffcb
0000
0000
0000
0000
0000
0000
0000
00f7
0000
0000
0000
0000
0000
0000
0000
0026
0000
0000
0000
0000
0000
0000
0000
ff94
0000
0000
0000
0000
0000
0000
0000
ffa0
0000
0000
0000
0000
0000
0000
0000
000a
0000
0000
0000
0000
0000
0000
0000
ff7c
0000
0000
0000
0000
0000
0000
0000
ff90
0000
0000
0000
0000
0000
0000
0000
ff4c
0000
0000
0000
0000
0000
0000
0000
ff72
0000
0000
0000
0000
0000
0000
0000
0026
0000
0000
0000
0000
0000
0000
0000
005b
0000
0000
0000
0000
0000
0000
0000
00b8
0000
0000
0000
0000
0000
0000
0000
001b
0000
0000
0000
0000
0000
0000
0000
002a
0000
0000
0000
0000
0000
0000
0000
ffa3
0000
0000
0000
0000
0000
0000
0000
fec4
0000
0000
0000
0000
0000
0000
0000
ff20
0000
0000
0000
0000
0000
0000
0000
ff0f
0000
0000
0000
0000
0000
0000
0000
002e
0000
0000
0000
0000
0000
0000
0000
0033
0000
0000
0000
0000
0000
0000
0000
ffee
0000
0000
0000
0000
0000
0000
0000
0056
0000
0000
0000
0000
0000
0000
0000
008a
0000
0000
0000
0000
0000
0000
0000
0099
0000
0000
0000
0000
0000
0000
0000
ffda
0000
0000
0000
0000
0000
0000
0000
002b
0000
0000
0000
0000
0000
0000
0000
0086
0000
0000
0000
0000
0000
0000
0000
ffae
0000
0000
0000
0000
0000
0000
0000
fedf
0000
0000
0000
0000
0000
0000
0000
ff8a
0000
0000
0000
0000
0000
0000
0000
005d
0000
0000
0000
0000
0000
0000
0000
0021
0000
0000
0000
0000
0000
0000
0000
0009
0000
0000
0000
0000
0000
0000
0000
00af
0000
0000
0000
0000
0000
0000
0000
007c
0000
0000
0000
0000
0000
0000
0000
0066
0000
0000
0000
0000
0000
0000
0000
ffc8
0000
0000
0000
0000
0000
0000
0000
ff58
0000
0000
0000
0000
0000
0000
0000
ffc0
0000
0000
0000
0000
0000
0000
0000
005f
0000
0000
0000
0000
0000
0000
0000
004f
0000
0000
0000
0000
0000
0000
0000
00b0
0000
0000
0000
0000
0000
0000
0000
ffd6
0000
0000
0000
0000
0000
0000
0000
0021
0000
0000
0000
0000
0000
0000
0000
fffc
0000
0000
0000
0000
0000
0000
0000
fffc
0000
0000
0000
0000
0000
0000
0000
ff97
0000
0000
0000
0000
0000
0000
0000
0065
0000
0000
0000
0000
0000
0000
0000
006e
0000
0000
0000
0000
0000
0000
0000
0088
0000
0000
0000
0000
0000
0000
0000
00a9
0000
0000
0000
0000
0000
0000
0000
0064
0000
0000
0000
0000
0000
0000
0000
000b
0000
0000
0000
0000
0000
0000
0000
ff48
0000
0000
0000
0000
0000
0000
0000
0000
0000
0000
0000
0000
0000
0000
0000
0000
0000
0000
0000
0000
0000
0000
0000
ff5e
0000
0000
0000
0000
0000
0000
0000
002d
0000
0000
0000
0000
0000
0000
0000
003b
0000
0000
0000
0000
0000
0000
0000
ff89
0000
0000
0000
0000
0000
0000
0000
003f
0000
0000
0000
0000
0000
0000
0000
ff79
0000
0000
0000
0000
0000
0000
0000
ff80
0000
0000
0000
0000
0000
0000
0000
ff27
0000
0000
0000
0000
0000
0000
0000
ff2c
0000
0000
0000
0000
0000
0000
0000
fffb
0000
0000
0000
0000
0000
0000
0000
ffdc
0000
0000
0000
0000
0000
0000
0000
ff9a
0000
0000
0000
0000
0000
0000
0000
001b
0000
0000
0000
0000
0000
0000
0000
002e
0000
0000
0000
0000
0000
0000
0000
ffee
0000
0000
0000
0000
0000
0000
0000
001c
0000
0000
0000
0000
0000
0000
0000
0066
0000
0000
0000
0000
0000
0000
0000
0033
0000
0000
0000
0000
0000
0000
0000
ffca
0000
0000
0000
0000
0000
0000
0000
ff3b
0000
0000
0000
0000
0000
0000
0000
ff11
0000
0000
0000
0000
0000
0000
0000
ff1c
0000
0000
0000
0000
0000
0000
0000
ff73
0000
0000
0000
0000
0000
0000
0000
ff94
0000
0000
0000
0000
0000
0000
0000
ff77
0000
0000
0000
0000
0000
0000
0000
007e
0000
0000
0000
0000
0000
0000
0000
00b7
0000
0000
0000
0000
0000
0000
0000
0005
0000
0000
0000
0000
0000
0000
0000
0002
0000
0000
0000
0000
0000
0000
0000
ff6f
0000
0000
0000
0000
0000
0000
0000
0006
0000
0000
0000
0000
0000
0000
0000
ffdf
0000
0000
0000
0000
0000
0000
0000
ffd9
0000
0000
0000
0000
0000
0000
0000
ff91
0000
0000
0000
0000
0000
0000
0000
ff78
0000
0000
0000
0000
0000
0000
0000
fffb
0000
0000
0000
0000
0000
0000
0000
00e8
0000
0000
0000
0000
0000
0000
0000
00cc
0000
0000
0000
0000
0000
0000
0000
002d
0000
0000
0000
0000
0000
0000
0000
0015
0000
0000
0000
0000
0000
0000
0000
ffc3
0000
0000
0000
0000
0000
0000
0000
ff61
0000
0000
0000
0000
0000
0000
0000
0082
0000
0000
0000
0000
0000
0000
0000
0050
0000
0000
0000
0000
0000
0000
0000
fecb
0000
0000
0000
0000
0000
0000
0000
0023
0000
0000
0000
0000
0000
0000
0000
ff93
0000
0000
0000
0000
0000
0000
0000
ffa0
0000
0000
0000
0000
0000
0000
0000
ffc6
0000
0000
0000
0000
0000
0000
0000
ff37
0000
0000
0000
0000
0000
0000
0000
ff32
0000
0000
0000
0000
0000
0000
0000
001d
0000
0000
0000
0000
0000
0000
0000
ffe3
0000
0000
0000
0000
0000
0000
0000
ffdb
0000
0000
0000
0000
0000
0000
0000
fee7
0000
0000
0000
0000
0000
0000
0000
ff60
0000
0000
0000
0000
0000
0000
0000
00c5
0000
0000
0000
0000
0000
0000
0000
ff7d
0000
0000
0000
0000
0000
0000
0000
004a
0000
0000
0000
0000
0000
0000
0000
0079
0000
0000
0000
0000
0000
0000
0000
ff83
0000
0000
0000
0000
0000
0000
0000
00de
0000
0000
0000
0000
0000
0000
0000
fffa
0000
0000
0000
0000
0000
0000
0000
ff2a
0000
0000
0000
0000
0000
0000
0000
ff1f
0000
0000
0000
0000
0000
0000
0000
feff
0000
0000
0000
0000
0000
0000
0000
0081
0000
0000
0000
0000
0000
0000
0000
ffc5
0000
0000
0000
0000
0000
0000
0000
ffab
0000
0000
0000
0000
0000
0000
0000
00dd
0000
0000
0000
0000
0000
0000
0000
008a
0000
0000
0000
0000
0000
0000
0000
00a5
0000
0000
0000
0000
0000
0000
0000
0000
0000
0000
0000
0000
0000
0000
0000
0000
0000
0000
0000
0000
0000
0000
0000
0015
0000
0000
0000
0000
0000
0000
0000
000a
0000
0000
0000
0000
0000
0000
0000
ffe6
0000
0000
0000
0000
0000
0000
0000
00eb
0000
0000
0000
0000
0000
0000
0000
003f
0000
0000
0000
0000
0000
0000
0000
ffcd
0000
0000
0000
0000
0000
0000
0000
009d
0000
0000
0000
0000
0000
0000
0000
ffda
0000
0000
0000
0000
0000
0000
0000
ff47
0000
0000
0000
0000
0000
0000
0000
0038
0000
0000
0000
0000
0000
0000
0000
ffb9
0000
0000
0000
0000
0000
0000
0000
0046
0000
0000
0000
0000
0000
0000
0000
ffea
0000
0000
0000
0000
0000
0000
0000
007d
0000
0000
0000
0000
0000
0000
0000
006c
0000
0000
0000
0000
0000
0000
0000
0041
0000
0000
0000
0000
0000
0000
0000
0094
0000
0000
0000
0000
0000
0000
0000
007a
0000
0000
0000
0000
0000
0000
0000
002c
0000
0000
0000
0000
0000
0000
0000
0019
0000
0000
0000
0000
0000
0000
0000
0044
0000
0000
0000
0000
0000
0000
0000
001a
0000
0000
0000
0000
0000
0000
0000
0033
0000
0000
0000
0000
0000
0000
0000
00cf
0000
0000
0000
0000
0000
0000
0000
ff1f
0000
0000
0000
0000
0000
0000
0000
ffef
0000
0000
0000
0000
0000
0000
0000
0024
0000
0000
0000
0000
0000
0000
0000
0014
0000
0000
0000
0000
0000
0000
0000
ff89
0000
0000
0000
0000
0000
0000
0000
0096
0000
0000
0000
0000
0000
0000
0000
ffea
0000
0000
0000
0000
0000
0000
0000
0001
0000
0000
0000
0000
0000
0000
0000
ff79
0000
0000
0000
0000
0000
0000
0000
ffba
0000
0000
0000
0000
0000
0000
0000
ff73
0000
0000
0000
0000
0000
0000
0000
ff8f
0000
0000
0000
0000
0000
0000
0000
001f
0000
0000
0000
0000
0000
0000
0000
ffb1
0000
0000
0000
0000
0000
0000
0000
0009
0000
0000
0000
0000
0000
0000
0000
00c1
0000
0000
0000
0000
0000
0000
0000
000f
0000
0000
0000
0000
0000
0000
0000
ff52
0000
0000
0000
0000
0000
0000
0000
007b
0000
0000
0000
0000
0000
0000
0000
fff3
0000
0000
0000
0000
0000
0000
0000
ffde
0000
0000
0000
0000
0000
0000
0000
00d3
0000
0000
0000
0000
0000
0000
0000
001e
0000
0000
0000
0000
0000
0000
0000
ffc4
0000
0000
0000
0000
0000
0000
0000
0099
0000
0000
0000
0000
0000
0000
0000
ff84
0000
0000
0000
0000
0000
0000
0000
ff2e
0000
0000
0000
0000
0000
0000
0000
ffec
0000
0000
0000
0000
0000
0000
0000
ff42
0000
0000
0000
0000
0000
0000
0000
ffa3
0000
0000
0000
0000
0000
0000
0000
ff99
0000
0000
0000
0000
0000
0000
0000
fff3
0000
0000
0000
0000
0000
0000
0000
002a
0000
0000
0000
0000
0000
0000
0000
0087
0000
0000
0000
0000
0000
0000
0000
ff65
0000
0000
0000
0000
0000
0000
0000
ff72
0000
0000
0000
0000
0000
0000
0000
0012
0000
0000
0000
0000
0000
0000
0000
007e
0000
0000
0000
0000
0000
0000
0000
0032
0000
0000
0000
0000
0000
0000
0000
003e
0000
0000
0000
0000
0000
0000
0000
0100
0000
0000
0000
0000
0000
0000
0000
008b
0000
0000
0000
0000
0000
0000
0000
0077
0000
0000
0000
0000
0000
0000
0000
ffaa
0000
0000
0000
0000
0000
0000
0000
ffb0
0000
0000
0000
0000
0000
0000
0000
fead
0000
0000
0000
0000
0000
0000
0000
ff68
0000
0000
0000
0000
0000
0000
0000
ff31
0000
0000
0000
0000
0000
0000
0000
0000
0000
0000
0000
0000
0000
0000
0000
0000
0000
0000
0000
0000
0000
0000
0000
