ffcf
ff8b
ff99
0063
ffe8
002d
0043
ffb1
ff64
0024
ffcc
0015
ff5e
0039
fffd
0062
0050
007e
009b
002c
ffed
00cd
ffe2
ffe0
ffdc
ffdb
0090
0043
004f
009c
ffc8
ff9f
009a
0035
ff52
ff59
0081
008f
ff59
ff80
ff59
ffc4
007c
007f
ff83
ffc4
ffeb
0058
0000
0000
0000
0000
0000
0000
0000
0000
0000
0000
0000
0000
0000
0000
0000
0000
0000
0000
0000
0000
0000
0000
0000
0000
00b3
ff8b
004a
0091
0016
ffdf
008f
ffc7
ffea
ff95
ffd2
ff7d
ff89
ffa6
003e
ff6b
fffb
ff73
0011
ff74
ffb2
009e
ffa6
0016
0036
0021
ffe6
ffde
ffbe
fffe
ffe5
ff49
ff94
ff75
0050
ff82
005c
0033
006b
ff7e
000d
00c6
0086
ff76
00ca
ff91
ffdd
0079
0000
0000
0000
0000
0000
0000
0000
0000
0000
0000
0000
0000
0000
0000
0000
0000
0000
0000
0000
0000
0000
0000
0000
0000
ffa3
0059
ff80
008a
ffe3
00ab
00a7
001a
0042
004f
005d
005c
ffa7
fff6
ffb4
0000
003f
0072
0060
0048
fff1
00b8
ff72
ffe5
0000
0000
0000
0000
0000
0000
0000
0000
0000
0000
0000
0000
0000
0000
0000
0000
0000
0000
0000
0000
0000
0000
0000
0000
0000
0000
0000
0000
0000
0000
0000
0000
0000
0000
0000
0000
0000
0000
0000
0000
0000
0000
0000
0000
0000
0000
0000
0000
ff93
ffeb
0075
ffa7
00bd
0091
ff90
ff90
001d
0023
ffc2
001f
00ae
ff92
0091
ffee
0055
0049
0093
002d
ffe0
0066
00ce
fffd
0000
0000
0000
0000
0000
0000
0000
0000
0000
0000
0000
0000
0000
0000
0000
0000
0000
0000
0000
0000
0000
0000
0000
0000
0000
0000
0000
0000
0000
0000
0000
0000
0000
0000
0000
0000
0000
0000
0000
0000
0000
0000
0000
0000
0000
0000
0000
0000
ff98
0025
ff94
0080
0095
0083
ffed
ffeb
ffdd
ffff
00a9
ffdf
ffce
ffeb
006e
ffde
0051
0008
00c0
ff99
ffd7
ffcd
00a6
0072
0000
0000
0000
0000
0000
0000
0000
0000
0000
0000
0000
0000
0000
0000
0000
0000
0000
0000
0000
0000
0000
0000
0000
0000
0000
0000
0000
0000
0000
0000
0000
0000
0000
0000
0000
0000
0000
0000
0000
0000
0000
0000
0000
0000
0000
0000
0000
0000
002d
ffee
0059
001e
0087
005e
ff6e
0000
ff47
ff5d
00a7
000a
ff9c
ff52
00ae
fff3
ffc5
00c3
fff4
0001
00b0
0004
ffd1
002e
0000
0000
0000
0000
0000
0000
0000
0000
0000
0000
0000
0000
0000
0000
0000
0000
0000
0000
0000
0000
0000
0000
0000
0000
0000
0000
0000
0000
0000
0000
0000
0000
0000
0000
0000
0000
0000
0000
0000
0000
0000
0000
0000
0000
0000
0000
0000
0000
00b4
ff65
0054
00cd
000a
0026
004d
ff6f
008d
004a
fff3
000d
0027
ff57
0052
ffb5
ff8c
0006
fff3
0004
001b
005d
0064
006e
0000
0000
0000
0000
0000
0000
0000
0000
0000
0000
0000
0000
0000
0000
0000
0000
0000
0000
0000
0000
0000
0000
0000
0000
0000
0000
0000
0000
0000
0000
0000
0000
0000
0000
0000
0000
0000
0000
0000
0000
0000
0000
0000
0000
0000
0000
0000
0000
0080
ff95
008d
0004
00d2
0005
0095
fff4
ffa4
0018
ffee
ffff
00a6
ffc5
004e
004a
ff9c
00d4
ffec
ff8b
00a5
006b
0044
00aa
0000
0000
0000
0000
0000
0000
0000
0000
0000
0000
0000
0000
0000
0000
0000
0000
0000
0000
0000
0000
0000
0000
0000
0000
0000
0000
0000
0000
0000
0000
0000
0000
0000
0000
0000
0000
0000
0000
0000
0000
0000
0000
0000
0000
0000
0000
0000
0000
0017
ff7d
00b5
ffbd
ff4f
0021
0043
005b
ffcc
00c9
0079
ff7c
0098
00bd
0026
ffa6
00d4
0099
ffa2
fff8
ffb1
003c
ff86
ff8e
ffc8
0023
ff7b
007b
000e
ff72
0007
ffc0
ffed
0082
ff9a
0036
0094
ff32
ff8d
ff35
ff71
ff5f
0020
ffa8
ffa6
0039
0004
0055
0000
0000
0000
0000
0000
0000
0000
0000
0000
0000
0000
0000
0000
0000
0000
0000
0000
0000
0000
0000
0000
0000
0000
0000
ffdf
0000
0074
0061
ff52
ffca
ff66
ff6c
0090
0057
0036
00b6
0082
ff5f
000a
004f
002a
fff6
ffa2
ff74
fff9
0021
ff71
ff82
003e
000d
ffbd
00ae
ffe4
ffe3
ffe8
004d
009c
ff78
ffaa
006e
0071
ff91
000f
00b3
ff71
ffdd
ffc5
006a
0071
009c
ffe1
ffda
0000
0000
0000
0000
0000
0000
0000
0000
0000
0000
0000
0000
0000
0000
0000
0000
0000
0000
0000
0000
0000
0000
0000
0000
ff6e
0047
ff8d
fff9
ff8e
0083
006a
fff0
0028
ffb4
001f
ff7d
0095
0097
003b
ffee
000d
ffc8
00b8
0040
002e
ffdb
ff7c
0045
0000
0000
0000
0000
0000
0000
0000
0000
0000
0000
0000
0000
0000
0000
0000
0000
0000
0000
0000
0000
0000
0000
0000
0000
0000
0000
0000
0000
0000
0000
0000
0000
0000
0000
0000
0000
0000
0000
0000
0000
0000
0000
0000
0000
0000
0000
0000
0000
0044
ffb9
ffd5
ffc4
ff47
0020
ff57
00dd
0036
ff52
0027
ff46
ff61
00b1
0024
0001
00b9
0083
ff94
0065
ffdb
008f
0004
ffc7
0000
0000
0000
0000
0000
0000
0000
0000
0000
0000
0000
0000
0000
0000
0000
0000
0000
0000
0000
0000
0000
0000
0000
0000
0000
0000
0000
0000
0000
0000
0000
0000
0000
0000
0000
0000
0000
0000
0000
0000
0000
0000
0000
0000
0000
0000
0000
0000
00d5
ff9d
ff70
00b4
003f
ff69
006d
004a
0094
0051
0072
00ac
ff84
0028
ffd7
fff3
fffc
0061
fff6
ff77
00a7
ff72
ff5e
ffd9
0000
0000
0000
0000
0000
0000
0000
0000
0000
0000
0000
0000
0000
0000
0000
0000
0000
0000
0000
0000
0000
0000
0000
0000
0000
0000
0000
0000
0000
0000
0000
0000
0000
0000
0000
0000
0000
0000
0000
0000
0000
0000
0000
0000
0000
0000
0000
0000
0086
001d
008e
fff8
0053
00bd
ff54
ff7e
ffb7
0095
0094
0065
00a4
008b
ff5d
00bf
0005
007b
ffb4
0089
ff63
ffd1
001a
0051
0000
0000
0000
0000
0000
0000
0000
0000
0000
0000
0000
0000
0000
0000
0000
0000
0000
0000
0000
0000
0000
0000
0000
0000
0000
0000
0000
0000
0000
0000
0000
0000
0000
0000
0000
0000
0000
0000
0000
0000
0000
0000
0000
0000
0000
0000
0000
0000
008e
ffdf
ffda
002c
0009
007a
009f
ffa3
007f
ff85
ffd1
001f
0091
ff92
0061
00bb
0036
0090
0018
ff9f
0059
ffa0
ff9a
0064
0000
0000
0000
0000
0000
0000
0000
0000
0000
0000
0000
0000
0000
0000
0000
0000
0000
0000
0000
0000
0000
0000
0000
0000
0000
0000
0000
0000
0000
0000
0000
0000
0000
0000
0000
0000
0000
0000
0000
0000
0000
0000
0000
0000
0000
0000
0000
0000
ffa9
ffa1
0036
0017
ff76
ff96
002a
003a
ff82
0008
0052
000f
00d5
ff6f
ffa6
ffd0
ffa7
00ba
0099
0083
003b
ff91
00a3
0096
0000
0000
0000
0000
0000
0000
0000
0000
0000
0000
0000
0000
0000
0000
0000
0000
0000
0000
0000
0000
0000
0000
0000
0000
0000
0000
0000
0000
0000
0000
0000
0000
0000
0000
0000
0000
0000
0000
0000
0000
0000
0000
0000
0000
0000
0000
0000
0000
0010
003c
ff88
001d
ffd1
0023
0018
ff91
ffe1
ffd0
ff76
ff9f
0043
ffc9
0078
0070
0055
0041
ff73
ff6c
0087
0068
ffb6
ffec
ff81
ff77
ffa7
001b
0011
0074
000c
ffd9
0074
009f
ff9d
ffea
002a
009f
0061
0063
ffbd
003e
ffac
ff65
ff93
0075
004c
0003
0000
0000
0000
0000
0000
0000
0000
0000
0000
0000
0000
0000
0000
0000
0000
0000
0000
0000
0000
0000
0000
0000
0000
0000
008f
ff86
ffac
00ca
ffca
006e
00de
ff90
ffcd
ff8d
0039
00ad
0031
004a
00ca
0051
0045
00e8
ff7c
ff5d
003d
008e
00d1
ff93
ffd3
00c6
004b
00b5
004c
ff9d
0082
0032
00a6
00c8
001a
002d
0037
003b
ffcc
0066
ffaa
00be
00b2
00bb
0064
00b2
002b
00be
0000
0000
0000
0000
0000
0000
0000
0000
0000
0000
0000
0000
0000
0000
0000
0000
0000
0000
0000
0000
0000
0000
0000
0000
0083
0063
006d
00d4
002a
0030
ff9f
ff76
003d
00aa
ff63
0025
0060
003c
00b9
ffa8
ff94
fff8
fff8
005c
ff6d
ff83
0094
00c6
0000
0000
0000
0000
0000
0000
0000
0000
0000
0000
0000
0000
0000
0000
0000
0000
0000
0000
0000
0000
0000
0000
0000
0000
0000
0000
0000
0000
0000
0000
0000
0000
0000
0000
0000
0000
0000
0000
0000
0000
0000
0000
0000
0000
0000
0000
0000
0000
ff47
ff92
ffd3
ffdf
0092
00c6
0067
ffbd
ffdc
ff81
ff92
0011
00a2
00a7
005d
ff88
ff73
0029
00ad
0030
0092
0026
0081
ffe2
0000
0000
0000
0000
0000
0000
0000
0000
0000
0000
0000
0000
0000
0000
0000
0000
0000
0000
0000
0000
0000
0000
0000
0000
0000
0000
0000
0000
0000
0000
0000
0000
0000
0000
0000
0000
0000
0000
0000
0000
0000
0000
0000
0000
0000
0000
0000
0000
0037
004b
0014
ffbd
ff9f
00bb
007c
00c5
0044
ffee
ffa5
00c6
000f
ff7a
ff6e
ffc5
0050
00ba
008d
006e
00ab
00d9
ffa3
ffcc
0000
0000
0000
0000
0000
0000
0000
0000
0000
0000
0000
0000
0000
0000
0000
0000
0000
0000
0000
0000
0000
0000
0000
0000
0000
0000
0000
0000
0000
0000
0000
0000
0000
0000
0000
0000
0000
0000
0000
0000
0000
0000
0000
0000
0000
0000
0000
0000
ffee
00c1
0036
0064
0007
002d
ffdf
0003
ff51
0055
0056
0037
009f
000b
0084
ffff
0043
0065
0016
00b5
007c
005d
0067
00a1
0000
0000
0000
0000
0000
0000
0000
0000
0000
0000
0000
0000
0000
0000
0000
0000
0000
0000
0000
0000
0000
0000
0000
0000
0000
0000
0000
0000
0000
0000
0000
0000
0000
0000
0000
0000
0000
0000
0000
0000
0000
0000
0000
0000
0000
0000
0000
0000
0030
00af
ff63
00af
ffdf
ffb0
ffe4
ffe3
0043
ff95
ffee
00cd
009f
0055
0093
005d
0025
0033
008d
0009
fff2
007b
ff92
ff5e
0000
0000
0000
0000
0000
0000
0000
0000
0000
0000
0000
0000
0000
0000
0000
0000
0000
0000
0000
0000
0000
0000
0000
0000
0000
0000
0000
0000
0000
0000
0000
0000
0000
0000
0000
0000
0000
0000
0000
0000
0000
0000
0000
0000
0000
0000
0000
0000
0015
00a0
0048
0002
0006
ffec
ffb5
ff83
ff5d
0055
0019
0080
ffd4
ffe3
0034
0084
ff85
00b3
002b
008b
005d
0068
ffba
00d3
0000
0000
0000
0000
0000
0000
0000
0000
0000
0000
0000
0000
0000
0000
0000
0000
0000
0000
0000
0000
0000
0000
0000
0000
0000
0000
0000
0000
0000
0000
0000
0000
0000
0000
0000
0000
0000
0000
0000
0000
0000
0000
0000
0000
0000
0000
0000
0000
0043
0046
00c6
ffca
002d
0006
ff62
0087
ff90
00b9
ffc3
ffb5
0048
0002
ff60
fffb
0077
00c4
ffaf
ffd5
ff8c
002b
ff8b
006d
001b
ffc0
ffe9
ff7c
ff4c
0037
0000
006b
ffe1
0043
ff48
009c
fff3
0034
0007
0085
ffdd
fff9
000f
fffd
0095
ff63
ff7a
ff98
0000
0000
0000
0000
0000
0000
0000
0000
0000
0000
0000
0000
0000
0000
0000
0000
0000
0000
0000
0000
0000
0000
0000
0000
ffef
006e
00cd
ffaf
0016
0069
0037
0007
00ad
0000
ffa8
0010
0006
0063
ff76
004e
00ac
00b6
0053
ffd9
0082
ffb5
ffd9
ff7b
ffcf
0009
ffd2
ffa3
ffdb
0008
00c8
ffc0
ffdb
004b
00a0
ff77
007e
ff76
ffec
fffa
ffec
00aa
ffd3
00bd
002a
002d
ffce
003b
0000
0000
0000
0000
0000
0000
0000
0000
0000
0000
0000
0000
0000
0000
0000
0000
0000
0000
0000
0000
0000
0000
0000
0000
ff57
0046
ff62
0087
ffed
0066
0010
ff78
008d
006f
000e
ff8d
ffa9
006a
0042
0051
00ab
ffd9
00a5
005b
ff6e
00b0
008e
ff9d
0000
0000
0000
0000
0000
0000
0000
0000
0000
0000
0000
0000
0000
0000
0000
0000
0000
0000
0000
0000
0000
0000
0000
0000
0000
0000
0000
0000
0000
0000
0000
0000
0000
0000
0000
0000
0000
0000
0000
0000
0000
0000
0000
0000
0000
0000
0000
0000
0050
ffb9
ffaf
0004
ff9f
009d
ff79
ffe8
ff6c
ff71
ffea
ff77
fff5
0010
ff70
0016
0071
005b
000e
006a
ffbe
ff93
ff6b
00a8
0000
0000
0000
0000
0000
0000
0000
0000
0000
0000
0000
0000
0000
0000
0000
0000
0000
0000
0000
0000
0000
0000
0000
0000
0000
0000
0000
0000
0000
0000
0000
0000
0000
0000
0000
0000
0000
0000
0000
0000
0000
0000
0000
0000
0000
0000
0000
0000
fff6
ffc3
ffeb
ffc7
ff78
ff8f
00b4
ff9a
0054
fff4
ff6e
0047
0069
ff6d
ffd4
002c
00ad
ff98
ff61
008e
00b0
0054
00b6
0047
0000
0000
0000
0000
0000
0000
0000
0000
0000
0000
0000
0000
0000
0000
0000
0000
0000
0000
0000
0000
0000
0000
0000
0000
0000
0000
0000
0000
0000
0000
0000
0000
0000
0000
0000
0000
0000
0000
0000
0000
0000
0000
0000
0000
0000
0000
0000
0000
009b
0048
00d0
005e
0035
00ba
0095
002e
0085
0019
ffa2
0041
ff67
0007
0047
ff9b
00ba
00c9
0061
0063
ffd0
ffab
008c
0007
0000
0000
0000
0000
0000
0000
0000
0000
0000
0000
0000
0000
0000
0000
0000
0000
0000
0000
0000
0000
0000
0000
0000
0000
0000
0000
0000
0000
0000
0000
0000
0000
0000
0000
0000
0000
0000
0000
0000
0000
0000
0000
0000
0000
0000
0000
0000
0000
ffab
008b
fff1
004d
ff80
ff7c
0067
ff5b
00a3
00bd
00ad
ff55
ff77
0004
ff5b
0008
005b
ff8f
ffdd
ff98
003e
ffd3
006c
ffdb
0000
0000
0000
0000
0000
0000
0000
0000
0000
0000
0000
0000
0000
0000
0000
0000
0000
0000
0000
0000
0000
0000
0000
0000
0000
0000
0000
0000
0000
0000
0000
0000
0000
0000
0000
0000
0000
0000
0000
0000
0000
0000
0000
0000
0000
0000
0000
0000
ffa1
ffbe
ffb8
00c0
0094
00ce
0070
ffaf
ffc0
00bb
ff62
00bc
fff6
0094
0065
ffba
0016
00e0
00cd
ff7e
0058
ffb8
001c
00aa
0000
0000
0000
0000
0000
0000
0000
0000
0000
0000
0000
0000
0000
0000
0000
0000
0000
0000
0000
0000
0000
0000
0000
0000
0000
0000
0000
0000
0000
0000
0000
0000
0000
0000
0000
0000
0000
0000
0000
0000
0000
0000
0000
0000
0000
0000
0000
0000
0051
ff5e
00d6
fff3
0000
0093
00bf
008a
00c6
0079
004a
0079
0037
fff5
00a8
ff75
0005
005a
0080
0004
0049
ffe3
ff7a
001c
ff61
ffb3
ff68
ff42
ffca
ff69
ff7e
ff42
003b
0073
0066
008b
0045
0001
ff5e
ff5b
ff86
ff74
ff3a
0016
0059
ff9b
ff74
0026
0000
0000
0000
0000
0000
0000
0000
0000
0000
0000
0000
0000
0000
0000
0000
0000
0000
0000
0000
0000
0000
0000
0000
0000
ffef
ff9f
0033
003c
0001
0062
00d7
0053
0079
007b
ffa9
00a0
ffbc
0061
007c
ffdb
0003
ffd8
007a
004f
00ae
00cb
ff92
ffe4
00a2
0084
0036
ff83
ff94
fff2
0079
00a6
ff7b
ffe6
0088
0095
ffd8
0042
0088
ff93
004b
ff6d
fffe
0068
0087
0029
00ad
0004
0000
0000
0000
0000
0000
0000
0000
0000
0000
0000
0000
0000
0000
0000
0000
0000
0000
0000
0000
0000
0000
0000
0000
0000
ff98
ff7d
0089
00be
0097
00ba
ff51
00a4
ffd7
002a
00bb
008f
ffc6
0092
00ad
0092
ff5b
003d
ffea
ff67
0000
ff8d
004b
0006
0000
0000
0000
0000
0000
0000
0000
0000
0000
0000
0000
0000
0000
0000
0000
0000
0000
0000
0000
0000
0000
0000
0000
0000
0000
0000
0000
0000
0000
0000
0000
0000
0000
0000
0000
0000
0000
0000
0000
0000
0000
0000
0000
0000
0000
0000
0000
0000
0020
0015
ff85
00c2
0005
0074
fff4
0080
fff4
ff86
0055
ffa4
ffe2
004c
0086
ffbe
ffd4
ffd6
0015
0025
ff88
006e
ffb9
ffbd
0000
0000
0000
0000
0000
0000
0000
0000
0000
0000
0000
0000
0000
0000
0000
0000
0000
0000
0000
0000
0000
0000
0000
0000
0000
0000
0000
0000
0000
0000
0000
0000
0000
0000
0000
0000
0000
0000
0000
0000
0000
0000
0000
0000
0000
0000
0000
0000
0020
00ca
00ae
00c0
00c0
ffd6
ff6d
003b
005f
ffe3
00c4
ff54
0023
002c
004f
ff6d
ffc1
00ab
ffd8
ffc7
0045
003d
0083
ffa1
0000
0000
0000
0000
0000
0000
0000
0000
0000
0000
0000
0000
0000
0000
0000
0000
0000
0000
0000
0000
0000
0000
0000
0000
0000
0000
0000
0000
0000
0000
0000
0000
0000
0000
0000
0000
0000
0000
0000
0000
0000
0000
0000
0000
0000
0000
0000
0000
0055
0050
0055
00a1
0060
ff7c
0001
ffd5
ffa9
ffdc
008f
ffdc
0050
007d
ffd4
ffb6
0057
ff8b
ffc2
ffa1
002a
00ce
ffd3
ff95
0000
0000
0000
0000
0000
0000
0000
0000
0000
0000
0000
0000
0000
0000
0000
0000
0000
0000
0000
0000
0000
0000
0000
0000
0000
0000
0000
0000
0000
0000
0000
0000
0000
0000
0000
0000
0000
0000
0000
0000
0000
0000
0000
0000
0000
0000
0000
0000
0026
ffd8
00be
00aa
fff8
0095
ffe5
0096
00c0
ffd6
00bf
0042
0037
006c
0088
00a3
00aa
0084
0046
006c
0089
00d2
ffa3
0045
0000
0000
0000
0000
0000
0000
0000
0000
0000
0000
0000
0000
0000
0000
0000
0000
0000
0000
0000
0000
0000
0000
0000
0000
0000
0000
0000
0000
0000
0000
0000
0000
0000
0000
0000
0000
0000
0000
0000
0000
0000
0000
0000
0000
0000
0000
0000
0000
0037
001c
ffd5
ffde
0015
0070
003c
002c
00cd
0067
ffd1
0089
ffb7
006c
00c1
005b
ff68
ff76
007d
0032
0055
ffe3
ffee
0086
0000
0000
0000
0000
0000
0000
0000
0000
0000
0000
0000
0000
0000
0000
0000
0000
0000
0000
0000
0000
0000
0000
0000
0000
0000
0000
0000
0000
0000
0000
0000
0000
0000
0000
0000
0000
0000
0000
0000
0000
0000
0000
0000
0000
0000
0000
0000
0000
0083
ff9f
fffb
000b
009a
ffb2
ff9f
00cb
006b
00b3
fff3
0050
0036
fff5
ff90
fff0
007d
0019
0061
0022
ff8e
ffa8
0098
003a
ff67
ff91
ff7b
ff3b
007a
ff59
0024
0018
ff6a
ff7f
ffe1
ffbe
ff55
003e
0012
ff9d
ffc2
ffa2
003e
ff54
008c
000e
ffc2
008c
0000
0000
0000
0000
0000
0000
0000
0000
0000
0000
0000
0000
0000
0000
0000
0000
0000
0000
0000
0000
0000
0000
0000
0000
0072
003d
ffc3
0060
ff87
ff86
ffd1
ffc7
0046
0018
ffcd
fffb
ff79
0082
005d
00c9
ff9e
0013
00a4
0029
ff6d
007c
0035
004d
0097
003b
ffd7
ffe9
00a0
002d
00bc
0039
0036
001c
001a
003f
ff7b
ffb2
0029
0049
ffa8
ffbf
0022
ffdd
0052
008c
ffdf
ff61
0000
0000
0000
0000
0000
0000
0000
0000
0000
0000
0000
0000
0000
0000
0000
0000
0000
0000
0000
0000
0000
0000
0000
0000
0021
006d
0016
0074
ffe1
ffcd
00b5
ff82
ff95
00da
ff5d
0027
000f
0076
00b7
00a2
0002
00a0
002b
ffa9
00ce
0043
009f
ff95
0000
0000
0000
0000
0000
0000
0000
0000
0000
0000
0000
0000
0000
0000
0000
0000
0000
0000
0000
0000
0000
0000
0000
0000
0000
0000
0000
0000
0000
0000
0000
0000
0000
0000
0000
0000
0000
0000
0000
0000
0000
0000
0000
0000
0000
0000
0000
0000
ffc0
0054
003f
001b
008e
0074
ff75
00c2
ffaa
00d6
fffa
003b
0098
00a6
00cd
ffef
0020
ffe5
ffde
008b
ff65
00c5
ffc0
ff9e
0000
0000
0000
0000
0000
0000
0000
0000
0000
0000
0000
0000
0000
0000
0000
0000
0000
0000
0000
0000
0000
0000
0000
0000
0000
0000
0000
0000
0000
0000
0000
0000
0000
0000
0000
0000
0000
0000
0000
0000
0000
0000
0000
0000
0000
0000
0000
0000
0094
0007
007c
ffff
001a
0016
0048
ffb7
ffc7
007f
008f
0059
00c9
0026
ffb0
ffcc
00a6
00bd
ff98
ff74
ffd9
0055
005b
ffd8
0000
0000
0000
0000
0000
0000
0000
0000
0000
0000
0000
0000
0000
0000
0000
0000
0000
0000
0000
0000
0000
0000
0000
0000
0000
0000
0000
0000
0000
0000
0000
0000
0000
0000
0000
0000
0000
0000
0000
0000
0000
0000
0000
0000
0000
0000
0000
0000
0008
ff92
ffa1
ff9f
0011
ffb1
0013
fffd
00c9
ff92
001a
ff9c
ffe5
0028
007a
0050
0047
ff63
ffaf
ff6a
0001
0077
ff78
0020
0000
0000
0000
0000
0000
0000
0000
0000
0000
0000
0000
0000
0000
0000
0000
0000
0000
0000
0000
0000
0000
0000
0000
0000
0000
0000
0000
0000
0000
0000
0000
0000
0000
0000
0000
0000
0000
0000
0000
0000
0000
0000
0000
0000
0000
0000
0000
0000
0056
0019
ffb0
0045
ffe5
ffa8
ff98
ff62
ff96
007b
006a
0018
0000
ffb2
0024
003a
00c9
005b
000f
003c
0072
0014
ff62
ffb1
0000
0000
0000
0000
0000
0000
0000
0000
0000
0000
0000
0000
0000
0000
0000
0000
0000
0000
0000
0000
0000
0000
0000
0000
0000
0000
0000
0000
0000
0000
0000
0000
0000
0000
0000
0000
0000
0000
0000
0000
0000
0000
0000
0000
0000
0000
0000
0000
ffc5
008d
ffd8
ff93
ffa3
0065
00b4
0075
008e
0057
0017
006b
0052
ffe4
ff8c
0051
003e
ffaf
ffda
0061
00b7
0067
0028
0034
0000
0000
0000
0000
0000
0000
0000
0000
0000
0000
0000
0000
0000
0000
0000
0000
0000
0000
0000
0000
0000
0000
0000
0000
0000
0000
0000
0000
0000
0000
0000
0000
0000
0000
0000
0000
0000
0000
0000
0000
0000
0000
0000
0000
0000
0000
0000
0000
000c
00a7
ff8e
ffad
ff77
ffc9
00a4
ffe7
ff94
0005
ff9f
00c1
ffb8
0077
ffb7
ffd8
0000
0000
0000
0000
0000
0000
0000
0000
ff5f
ffc3
00af
ff9c
ff5f
0091
ffea
ffc2
ff74
ff87
fffb
ff8e
ff91
ff6a
0005
ff6b
0000
0000
0000
0000
0000
0000
0000
0000
0000
0000
0000
0000
0000
0000
0000
0000
0000
0000
0000
0000
0000
0000
0000
0000
0000
0000
0000
0000
0000
0000
0000
0000
0055
009c
00b2
ffe5
ffca
ff83
006a
ffe4
ffc3
ff72
0019
000b
0022
0081
000e
00a6
0000
0000
0000
0000
0000
0000
0000
0000
00b5
00a4
ff71
ff78
ff62
ffff
00a1
0060
0070
ff73
007f
006c
ffc0
001a
ff45
ffaa
0000
0000
0000
0000
0000
0000
0000
0000
0000
0000
0000
0000
0000
0000
0000
0000
0000
0000
0000
0000
0000
0000
0000
0000
0000
0000
0000
0000
0000
0000
0000
0000
008c
ffee
ff54
0091
ffa5
fff8
ffaf
ff69
0003
001d
0050
00c2
ff95
004a
ff9a
ff94
0000
0000
0000
0000
0000
0000
0000
0000
0000
0000
0000
0000
0000
0000
0000
0000
0000
0000
0000
0000
0000
0000
0000
0000
0000
0000
0000
0000
0000
0000
0000
0000
0000
0000
0000
0000
0000
0000
0000
0000
0000
0000
0000
0000
0000
0000
0000
0000
0000
0000
0000
0000
0000
0000
0000
0000
003d
006e
ffc1
0002
00be
fffc
fff8
ffc5
ffa3
ffce
ffc4
00b1
0058
0065
00c1
0090
0000
0000
0000
0000
0000
0000
0000
0000
0000
0000
0000
0000
0000
0000
0000
0000
0000
0000
0000
0000
0000
0000
0000
0000
0000
0000
0000
0000
0000
0000
0000
0000
0000
0000
0000
0000
0000
0000
0000
0000
0000
0000
0000
0000
0000
0000
0000
0000
0000
0000
0000
0000
0000
0000
0000
0000
ffd4
0023
0079
ff61
001c
0005
00b4
ff63
fffb
ff63
ff7b
ff95
0035
ffa7
ffba
00df
0000
0000
0000
0000
0000
0000
0000
0000
0000
0000
0000
0000
0000
0000
0000
0000
0000
0000
0000
0000
0000
0000
0000
0000
0000
0000
0000
0000
0000
0000
0000
0000
0000
0000
0000
0000
0000
0000
0000
0000
0000
0000
0000
0000
0000
0000
0000
0000
0000
0000
0000
0000
0000
0000
0000
0000
ffd2
007b
ffc4
008f
ff9a
0060
ffbb
0072
003a
00ae
ffe7
ff9b
ff98
005e
ff47
ffd3
0000
0000
0000
0000
0000
0000
0000
0000
0000
0000
0000
0000
0000
0000
0000
0000
0000
0000
0000
0000
0000
0000
0000
0000
0000
0000
0000
0000
0000
0000
0000
0000
0000
0000
0000
0000
0000
0000
0000
0000
0000
0000
0000
0000
0000
0000
0000
0000
0000
0000
0000
0000
0000
0000
0000
0000
0043
0003
0040
fff3
ffbb
00bd
002d
ff7e
00b7
ffc5
00af
ffb2
0049
ff9b
ffcc
0022
0000
0000
0000
0000
0000
0000
0000
0000
0000
0000
0000
0000
0000
0000
0000
0000
0000
0000
0000
0000
0000
0000
0000
0000
0000
0000
0000
0000
0000
0000
0000
0000
0000
0000
0000
0000
0000
0000
0000
0000
0000
0000
0000
0000
0000
0000
0000
0000
0000
0000
0000
0000
0000
0000
0000
0000
00de
fffb
ff9a
00c8
007b
ff7e
ffeb
fff7
0056
ffb8
0081
fff9
00a6
ff7d
0039
0045
0000
0000
0000
0000
0000
0000
0000
0000
0000
0000
0000
0000
0000
0000
0000
0000
0000
0000
0000
0000
0000
0000
0000
0000
0000
0000
0000
0000
0000
0000
0000
0000
0000
0000
0000
0000
0000
0000
0000
0000
0000
0000
0000
0000
0000
0000
0000
0000
0000
0000
0000
0000
0000
0000
0000
0000
0400
0400
0400
0400
0400
0400
0400
0400
0400
0400
0400
0400
0400
0400
0400
0400
0400
0400
0400
0400
0400
0400
0400
0400
001e
0023
0017
001b
0024
001e
0023
0041
ffe9
0012
0000
0000
0000
0000
0000
0000
0000
0000
0000
0000
0000
0000
0000
0000
