0005
fffe
ffff
fffe
fffe
0000
fff9
fffe
fff2
fff9
0003
000b
0002
0006
0005
0008
0003
0000
ffff
0001
0002
0008
0006
0004
000c
0003
0002
fffe
0006
0001
ffff
fffc
fff6
0002
fffe
0009
0002
0003
0002
0004
ffff
ffff
fffb
0003
ffff
0005
0001
0000
0004
0001
fffe
0000
0001
0001
fffd
0000
fffb
0004
0005
0000
0003
0000
0006
0001
0000
0000
0000
ffff
0003
ffff
0005
0001
fffe
ffff
0000
0001
fffc
0000
0000
0000
0000
0001
ffff
0003
0000
0002
0000
fffe
0001
0001
0000
0003
0000
0001
0000
0001
0000
ffff
0000
0001
0000
0000
ffff
0000
0000
0000
0000
0000
0002
0000
0000
0000
0000
0000
0002
0000
0003
ffff
0001
0000
0001
ffff
ffff
0000
0001
0000
ffff
0000
ffff
0000
0002
ffff
0001
0001
0000
0002
0000
0000
0001
fffd
0001
0001
fffe
0000
ffdb
0094
0011
0024
001c
001c
0064
0001
007a
006d
0014
0019
ff77
ffde
002f
004b
0016
0088
ffdf
0023
fec8
001c
001a
ffc6
0031
ffaa
0008
fffe
008f
0036
0027
ff8c
006c
ff9c
0015
fffa
0023
0052
0019
ffc9
001c
006a
ffd7
0008
fef7
0084
ffe1
fff5
fff7
ff29
002c
0017
ffcf
ffbd
ffda
0059
008b
ff2f
ffe3
fff9
0084
ffca
ffd3
0016
008b
ff65
ff73
ffdd
ffd6
005a
ff57
ffb6
0002
fff8
0003
0006
fffb
0012
000d
0018
0018
fffe
0013
0001
000c
0012
fff0
0008
0005
fffa
0024
0006
001e
fff5
fff7
ffff
fff6
000b
0000
0009
ffee
ffe8
fffc
001d
0015
0006
0018
0000
0004
fff4
ffef
0007
ffff
ffff
000c
fff6
000a
0003
ffec
fff2
0001
0007
ffff
0002
000a
0001
fffa
0019
0013
ffff
000e
ffff
fff1
ffe4
0000
ffff
ffef
000e
000c
fff0
ffe8
0000
fff4
fff5
0070
0086
0006
ffea
002d
ffd4
0002
000c
0081
006a
003c
fff3
0033
0066
ffd9
006a
00a3
000e
ffd8
fffb
003c
0049
ffe8
fff9
ffc6
0007
0006
ffe4
0029
ffb1
001f
fff7
ffa4
000c
ffe8
fff4
002b
fff3
ffed
ffb9
fffa
ffed
ffc9
0011
ffb9
ffaf
002b
ffbd
ffb1
ff7f
0014
001e
0026
fff3
00a0
0001
ff8d
ffc7
0004
0016
0091
0072
ffc5
ff91
004d
ff33
0049
0018
003b
ffb2
ffea
ff82
006b
ff9f
000d
fff6
00db
ffdd
001b
ffcc
0058
ff50
fff6
000e
005d
ff2b
fffe
ffaf
0006
007b
0014
fff7
0015
ff76
0050
002a
0093
000d
ffb7
0019
fff1
001d
006a
ff32
00e1
ff95
0027
003f
ffec
ff4e
0012
0055
0038
ffc2
0003
fffb
ffda
0059
ffa9
003a
ffe8
ffa9
ff88
0032
ffc4
fff6
0083
0041
000f
ff15
0058
004a
ffbe
ffa7
000d
0059
ffa7
ff9a
001a
fff9
000c
0052
ff71
000f
0032
ffef
001d
0000
ffe8
0006
0018
fff5
001e
ffe6
0044
fff7
fffa
0068
ffba
ffd0
000d
0027
fff6
ffc9
0027
0019
ffe1
ffef
fff0
fff3
0020
0020
ff9a
0035
005b
ffd2
ffbc
ffd8
0015
0013
ffe2
0064
0037
ffe8
ffd8
0024
ffca
ffea
0018
fff7
0010
ff98
ffc8
0039
007c
0022
ff9b
0000
fffb
ffea
000d
0036
0009
0006
ffbf
fffb
0036
0026
ffbf
ffef
ff92
0000
ffd9
ff7a
0021
0000
003c
ff8a
ffd5
fff6
0033
000b
002f
0019
0034
ffe3
ffe1
ffff
ff7d
001d
0021
ffa9
009d
004d
ffd9
0012
fff7
ffbb
fff2
0082
005f
ffe0
0051
ffeb
008c
0041
0037
0065
ffeb
005f
0057
fff9
fffc
ffc1
ffbf
ff6c
0094
0037
fffb
0000
fffa
fffc
ffd8
0055
00a2
0047
0044
0001
ff90
002f
ff8f
ffd0
00c6
0090
009e
000f
0034
ff71
ff9e
ff66
001e
007b
000f
fff4
ffc9
ff5c
ff90
0006
0003
ffff
0000
fffd
0009
0001
0000
0000
0005
0004
0009
0003
fff1
fff9
0004
fffa
0007
0007
0006
fffe
ffff
ffff
0000
fffe
0007
0000
0001
0000
0007
0005
fffe
0004
0004
0003
0003
fffc
ffee
0000
0000
ffff
0004
0004
0000
fffa
ffff
0000
fffe
0000
0003
0003
0001
fffc
0002
0001
fffe
ffff
0002
0005
0001
fffb
fffd
0002
fffe
fffe
0002
0002
0003
0001
0000
ffff
fffb
0003
0001
0000
0000
0000
ffff
fffe
0002
0000
0000
0002
0001
0000
0000
0000
0000
0003
0000
0002
0001
0000
0000
0001
0000
0006
0001
0000
ffff
0000
ffff
0001
0000
0002
0001
ffff
0000
ffff
ffff
0001
0000
0000
0000
ffff
ffff
0002
ffff
0000
0000
fffd
0000
fffe
ffff
0000
ffff
0000
0000
fffb
0000
0000
0002
fffe
fffe
0000
ffff
0001
0001
0000
0001
ffff
fffe
0000
ffff
0000
fff6
007d
fffa
00bc
ffed
001e
005f
0069
000a
00c0
ffb9
0039
ffc5
0009
00c7
ffe5
ffe5
fffc
0046
fffc
ffde
003e
0044
ff49
0059
0020
ff81
0075
fffb
0079
0020
0013
0077
00a2
0023
ffc7
ffee
0056
ffd8
fff0
006b
006c
0074
ffa6
ffa1
ffd3
0008
ff78
0067
ff05
ffe5
002f
0056
00f3
001b
007e
009a
ffe7
0074
ff57
ffdb
00b7
ffc2
008d
00b9
007c
008c
ffbf
ffdb
005b
000f
ffca
0001
ffff
0004
fff6
fff5
0009
fffe
0000
0000
0009
fff1
0007
fff2
fffd
0000
ffe1
fffd
fffb
000c
fff3
0015
fff7
0020
fff8
0004
fff1
0004
fff7
fff5
0000
0017
0017
fff6
0001
000f
0003
0007
fff2
0000
0006
fffe
ffe5
000f
0011
001c
fffc
0013
0007
fff5
fffb
000d
fffb
fff1
ffef
0006
0004
ffed
fff6
0018
000d
0009
fff9
ffea
fffd
ffee
ffff
0015
0012
000e
0000
0002
0005
ffca
ffe5
ffa7
007c
ffec
ff87
001f
ffcc
ffa2
ffab
ff83
0093
ffd2
0067
ff5e
fefb
0019
00dd
ffbe
007b
ffdb
002d
ff7f
ffea
ff7e
0083
0058
0093
fff8
0003
005b
0016
ff8b
004b
003a
0074
002c
0074
0048
ffa2
ffe5
00ba
0053
0024
ffda
00d0
0011
ffc7
ffdd
0057
004f
ffe7
0010
0006
0062
0093
000a
0066
0044
ffb3
0072
006c
001f
003e
0000
000b
0002
fef2
00cf
0039
003f
007f
fff3
0084
0015
fff1
ffde
0044
ff63
003e
0020
002f
ffd6
0002
ff55
005f
ff97
00cd
ffca
000b
00e0
009a
ffa1
ffd2
003e
0097
fff0
ffeb
004b
fff9
ffc8
fff2
ffe6
0077
ffbe
ff7e
001f
ff6c
ffd8
0066
ffdc
0040
ffaa
00b5
0092
ffe2
0041
ffe0
004f
ffed
000b
ffc2
ffdd
0025
0018
00b5
0038
0015
0007
ffc4
0008
ff99
001d
0091
ffd8
001c
0035
0031
ff89
0039
001c
0071
006e
ff9f
ffef
ffc0
ff99
0036
ffb2
003e
ffda
ffc3
0018
0005
0023
ffd0
0013
ff9f
ffdd
0052
ffd4
0014
000e
ffdf
ffd5
0001
ffd7
006b
ffeb
003c
ffed
002a
ffc0
003b
ffdc
0068
0015
0041
0027
004a
001b
fff5
0034
0066
ffff
ffff
0001
002f
ff88
0018
ffd5
008e
001c
0020
ff84
ffd8
ffe9
0012
ffa0
007b
fff9
0018
ff86
003c
0040
003a
ffbb
0030
ffe0
000c
ffb4
ffdf
0028
0011
ffd8
0053
00e8
002e
ff04
0067
0021
0085
00bf
ff00
ffe9
007d
ffc8
0037
fff4
0089
002f
ff94
ff85
ffe5
0061
ffbb
0052
0016
ff91
ffc1
008b
0031
0000
007a
ffa1
005b
0005
ffb3
ffea
009e
ffb9
0165
000f
0069
ffe6
ffa4
ffca
fffd
0016
ffe8
0014
0002
ffcc
0011
002d
ffcb
ffab
ff7a
0080
0030
ff8e
ffe9
0030
fff4
00ef
0088
00c0
ff8f
004f
fffd
ffd6
0061
0078
ffec
00cf
0063
008e
fffc
0000
0001
0000
fffb
0000
fffa
0000
0003
fffc
fffd
0001
fffd
fff7
000d
0003
fff8
0005
ffff
fffd
0000
0000
0002
0000
0000
0000
0001
fffc
ffff
000a
fff9
0001
0003
fffd
fffd
fffe
0001
fffe
000c
ffff
fff9
0002
ffff
fffa
ffff
0000
0007
ffff
fffb
0000
0003
0000
0001
0002
fffe
0000
fffe
ffff
0004
0001
0000
0005
0001
fffa
ffff
0000
0000
0000
fffe
0000
0000
fffe
0000
0002
0000
0001
0000
0000
0000
ffff
0000
0002
0000
0000
0000
0006
0000
fffe
0007
0003
ffff
0000
0000
000b
ffff
0000
0010
0001
0000
0000
ffff
0007
0000
0000
0007
0000
0000
0001
0000
0002
0001
0000
fffd
0000
0000
0001
0000
ffff
0000
0000
fffb
0000
0000
0003
0000
fffd
0000
0000
fffb
0000
0000
0000
ffff
0001
0000
0000
0000
0000
0000
0000
ffff
0000
ffff
0000
0000
00cd
003c
0037
0018
004f
0012
004e
ffba
004b
001a
0079
ff26
ff61
0004
0020
ffaf
fffb
ffeb
ffb2
ff03
ffab
ffc0
ffab
fff6
0031
ffeb
0055
ffef
0017
0053
ffbf
ff69
0105
009f
00a4
ff7d
ff9f
0061
ffd5
ffb4
007f
ffdb
007c
ffb2
ff93
005a
ffac
005f
0039
ffc0
fffa
fff2
ff8f
0017
ffb7
006c
0045
008f
fff3
0028
fff6
0029
ffb3
007f
ffaa
000e
001f
0040
ffd3
0043
000d
0029
fff9
0014
fff5
fffe
0009
fffc
fff6
fffd
0000
0016
0009
ffe7
fff0
001e
0002
fff8
fffb
0001
0001
0013
fff4
000f
0007
ffeb
ffed
000d
0001
0010
fff7
fff1
fff3
ffe7
fffd
0008
0015
ffe8
fffd
0004
0007
fffe
0004
0000
ffff
000b
0016
000d
000a
0002
0003
0019
0001
fffc
0000
ffe8
000a
000d
0017
ffed
0029
0006
fff7
ffe3
000a
0001
0017
0003
fffa
0002
0010
fff6
fffd
fffc
ffaa
ffdc
fffc
ff9d
0054
006a
001a
0037
ffff
0048
ffc5
0052
004b
004c
fffd
ffe0
0069
0043
ff83
fffe
0058
ffc1
ffda
000b
0000
ffe6
0059
0014
00a6
fffa
ffed
fff0
003c
0078
0020
0047
000a
0058
fff9
000a
0051
0031
ff3b
ffd8
007a
0025
fff6
0027
ffdb
ff2c
00b4
0009
0019
ffba
0008
0019
ffe7
ffa6
00ad
ff99
ffae
001a
ffb9
ff6f
0023
ff79
0075
0026
ffe2
ffce
ff8b
004a
000c
ff8e
ffed
007a
0031
ffd2
fff7
005d
ffa8
ff6a
ff03
0020
ffbf
003d
003d
ffa3
ff90
0038
ffe0
ff86
ff44
ffda
0010
000f
0058
ffbd
002f
fff0
002f
ff98
0022
005c
ff87
0004
0011
fff4
ff8e
0018
ffb2
ff8f
0002
005c
0072
ffcd
ffea
000d
0031
ffe2
003d
ffae
0053
ffb6
003a
0002
ffbb
ffd6
0061
0027
007e
ff83
004c
fffb
ffe9
ff26
000f
0028
005a
fffe
0058
001e
ffe5
ffb9
ffe1
ffd2
ffe6
0005
004e
ffd4
ffcf
ffe4
fff5
fffa
001a
0086
ffd7
fffb
ffd1
ffaa
0014
0020
001a
004a
ffcb
ffe8
ffe5
0027
fff4
009a
ffda
0016
0016
ffd5
ffbd
ff89
001b
fffb
003c
0071
003e
001e
0033
0006
0028
ffb2
ffe6
001c
ffec
0043
001a
fff5
0014
0023
ff96
004a
fff2
ffd7
004a
ff79
ffef
ffcb
fffb
009b
0043
ffdd
0013
002b
004b
ffe7
002c
0018
0038
ffd0
ff9e
ffd5
0018
ffe0
ffa6
fff3
ff78
ff5f
ff9f
0099
fffc
ffc8
fffe
ff53
ffda
fffe
fff7
0087
ff9c
ffed
001f
ffc3
fff9
002e
006a
fffd
ffcc
ffc8
002c
0084
ffed
ffa8
ff46
00a8
00aa
0042
0006
008d
0050
002c
ff99
0024
0093
0041
ff61
007a
0040
0010
000f
001b
fffa
ffd7
fffc
0095
ffcd
ff92
ff95
ffbc
ffc6
ff21
007a
00d4
005b
0049
0070
008d
001d
ffc0
0074
004a
0013
0047
0069
ffbf
0002
fffe
fffb
0003
fff9
fffc
0001
fffb
ffff
0001
000c
fff6
ffff
fffc
fffd
fffd
0000
0000
0000
0000
0001
0000
fff5
0000
0000
fffe
fffc
000a
ffff
0000
0002
fff8
fffe
fffd
0003
fffb
0003
fffd
fffa
0000
ffff
ffff
fffe
0001
0001
fffb
fff0
0000
fffc
0000
fff7
0008
0003
fffc
0001
fffb
0000
000a
fffa
0000
0000
fffc
fffb
fff5
0000
0000
ffff
fffe
0000
fffa
ffff
fffe
ffff
0000
0000
0000
0001
ffff
0001
0000
0000
fffe
ffff
0000
ffff
fffd
ffff
0000
fffd
ffff
ffff
0000
ffff
ffff
0000
fffe
ffff
fffe
0000
0001
0000
fffd
0002
0000
0000
0000
0000
0000
0000
fffe
0000
fffe
0000
0000
0000
0000
ffff
ffff
0000
0000
0000
0000
0000
0000
0000
fffd
0003
ffff
0000
0000
0000
0000
0000
ffff
0002
0000
0000
0000
0000
0000
0000
0001
0000
0000
0056
0000
ffce
0021
0080
001c
ffea
0000
005c
fffe
ffe6
ff3d
0021
ffeb
0034
ffac
004a
0001
ffc5
ff45
ffb8
ffb4
012e
ffa6
ffcd
ffff
ff89
007d
007b
fff7
ff45
ff8c
000a
0000
000a
ffd9
0038
ff69
ffb3
ffe4
ffea
0000
0050
ff6b
ff84
0023
007a
0094
ff70
0000
ffa5
00c3
005b
ffe5
0003
ffe5
ffe9
ffff
ffe5
0069
005a
ffe8
0053
003e
0045
ffff
0023
0028
ff59
002c
006b
00ab
ffe6
0005
0025
ffd9
fff2
001d
0004
0000
fffb
0002
0010
fff4
fff0
0015
ffe7
fffc
0000
0000
fff0
ffdb
000e
000b
ffff
000b
fff8
0002
ffef
ffe9
fff9
0013
000b
0012
fff7
fffe
0005
fff5
fff9
0004
fff7
000a
ffec
fffb
0001
ffff
0001
0003
0010
0009
fffb
fffd
ffe5
0008
fff7
fff4
0011
000c
0003
0001
0016
0017
0006
ffef
0001
0012
ffe7
0001
0003
000f
0010
fff7
0003
0014
ff51
0000
ffd4
0024
ffe2
0015
00ba
ff7c
ffb4
0000
ff8a
ff94
002a
0060
008b
0008
0024
ffff
0024
ffe7
0060
0068
0007
ff69
ff9f
ffff
ff88
0010
0039
0020
006c
004f
ff85
0002
001a
ff93
0032
0065
00c3
0027
ffec
0003
fff9
0044
ffdf
0089
0036
001c
ff7e
0000
ff14
ff4b
0058
0020
0049
00bc
ffea
0000
ffc7
ff5a
ffa4
0071
0002
000b
ffb5
ffff
ff57
ffbe
ff8f
0017
0021
0061
ffe4
0000
0060
0016
fef8
001d
ff25
0010
0019
fffe
ff33
008e
ffa9
ff7e
fea5
0045
004a
fffe
ffc4
0023
0097
0027
ff41
005b
0087
0000
ffc9
0058
ff4b
002a
0044
001a
ffb5
ffff
0083
007a
ffc5
ff08
ff57
0025
ffe5
ffff
ffe4
0047
ffcf
004c
fff5
009c
006b
0002
ff7e
005b
ff8d
0026
0031
002b
ffe9
0000
ffc5
ffc2
ff73
ff82
ff63
ff9f
ff84
0000
fff1
ffa8
ff7a
0012
fffc
0047
001e
0002
ffd1
0021
fff0
0009
0019
0054
002d
0001
ff99
009c
0029
0013
ff24
002e
ffb9
0001
ffe9
0009
0037
000d
fff7
000d
ffb0
0000
ffd6
ffbf
ffe5
ffff
0010
ffb1
001f
0001
fffa
0031
ffb3
fff0
ff8f
0063
0020
0000
0002
fff4
0007
ff88
ffe2
000a
003d
ffff
0004
ffc0
ff71
ffb7
ff99
ffa9
ffe8
0002
0057
fff6
ff9e
ffe9
ffc9
0040
ffd4
0000
ffe7
0020
0000
ff7f
0024
003e
0053
0001
0074
002b
000d
000a
0024
fff9
0078
0003
ff79
004f
001b
ff6b
ffef
ffd5
0016
0002
ffb3
fffc
0020
ff96
0005
0066
0026
0000
0000
0018
0049
ffbb
ffa7
ffad
ffcf
0001
ffa5
ffce
00c8
0025
008a
0044
0013
0001
ff6a
ff7c
0043
006f
0043
ffe4
ff34
0000
ff54
ffb4
0013
ff8b
ffb8
ffb4
ff4f
ffff
000a
ff74
00bd
ff9c
0052
ff90
ff31
fffe
ff58
ff23
000c
ffe5
ffe3
fff7
fffc
ffff
0000
0000
0001
fff9
0008
fffd
fffa
fffa
0000
fffb
fff9
000b
fff9
0008
0002
fffe
0005
fffe
fffb
0004
0003
0006
fffa
0003
ffff
0004
fffe
fffb
0001
fff8
ffff
fffd
0000
fffb
fffb
0002
fffc
0001
0001
fffe
0000
fffc
fff8
fffc
fffc
0006
0000
0001
0000
fffd
0001
fff7
0002
fffe
fffe
0003
0000
fff8
0003
ffff
0004
ffff
fffd
0003
fffb
fffc
0000
0000
0002
0001
0003
0001
0000
0000
0002
0000
fffe
ffff
0000
ffff
0002
0000
0000
0000
fffe
0003
0000
ffff
0000
0004
fffe
ffff
0000
0001
0001
ffff
ffff
0003
0000
fffe
0000
0000
0000
0000
0001
0003
0000
0000
0000
0001
0000
fffe
0000
0003
0000
0000
ffff
0000
0003
0000
0000
0002
0001
0000
ffff
0000
0000
0000
fffe
0001
0000
fffd
ffff
0001
0000
0000
ffff
0001
0000
fffe
ffff
0000
0039
005f
009e
ff6a
0043
ffb2
004a
ffd4
0041
000c
ff9d
0021
0014
002c
005e
ffac
002b
00c6
ffdb
ff70
0023
0020
ffbb
007b
001c
ff55
0035
006d
ffe6
ffa7
0090
fff5
0057
ff5c
0008
0038
ffe6
0042
0040
ff03
0086
004e
ffcc
ff7c
003e
0060
ffed
ffea
ffbd
fea7
00c1
0079
0007
0007
001b
003d
006d
ff05
00a0
000e
ffef
ffe3
ff8d
0013
00b4
ffce
ff24
ffc9
00b9
004b
002a
0015
000e
fffa
fffc
000b
fff9
fff4
fffb
fffd
001c
fff6
0002
0002
fff5
ffe2
0011
0003
000c
fff4
0000
ffe2
0007
fff0
000a
0014
fffb
000c
0005
fffc
0005
ffeb
fffc
fff8
0004
fff5
fff7
0010
fff3
ffeb
0016
ffff
fff1
0004
fff5
ffe5
0002
0000
0005
0000
fff0
002a
0007
fff2
0004
ffeb
ffe7
0000
ffde
fff1
ffff
0007
fff4
fff6
fff9
fff7
ffdf
fffb
ffe3
000b
fff7
0005
ffff
ffe8
0024
0059
0081
ffc3
0001
fef0
0051
003c
003e
ff51
0066
ffc9
0042
ff4d
005c
005a
007e
0068
00b6
0042
009b
ffc8
0045
0076
ffdd
fff9
0033
008e
00b9
fff7
008e
ffdd
0011
0015
0041
ffb2
005f
ffae
0084
0014
0047
ffdb
0064
ff7d
00c3
0038
00ab
003a
ffd5
ffe2
ffd0
ffd4
0008
ff25
0031
fee2
ff95
ff97
ff6a
001e
0047
ff96
0000
fec1
ffe7
ff6d
ff76
0019
0000
ff13
0011
ffc1
fff8
ffc3
00b6
ffad
0069
004d
002d
ffe6
ffb1
fed8
00e1
001a
001e
ffe7
fff5
0047
ff95
0057
001e
ffea
0007
0051
0059
0050
004b
ffa2
00e0
ffbd
0046
ffde
ffe7
004c
0038
ff97
0101
ffef
ffce
ffd0
ffea
0095
ffe0
006f
004a
fff2
ff9f
0092
004c
fff9
003f
ffc4
002f
0023
ffe8
ff24
ffd6
0060
0046
fff6
0088
ff57
0008
ff4c
ffb5
0051
0057
fffc
ffef
ffe1
ffb5
ff47
000e
0035
ffe0
ff4e
ffd8
0035
ffb5
0050
ffe6
0050
0023
0006
ffec
0029
fff5
0005
ffef
ff9d
0011
ffe7
ffce
fff6
ffe8
ffed
0019
0021
ff7f
ff50
0014
0043
ffba
004b
ffd7
000f
ffc2
0008
fff8
004b
0041
0074
002d
fff7
0024
ffcf
ff93
0042
001a
008c
ff9c
0002
ffb3
ffa9
0040
0051
fffc
ffe4
0025
0023
ffb7
0006
ffb8
0007
ffb0
002b
ffeb
0070
fff2
ffc1
ffe3
ffac
ffee
004f
ffbe
0019
ff9a
ffee
00b2
001c
008d
0034
ffce
0051
0027
004e
003b
ff96
ffe1
ffd7
005d
0070
fff4
ffd0
fff7
0034
002c
ffe8
0030
ffec
0018
ff7f
0097
0057
004d
ffd4
0009
ffd9
0004
ffba
ffa8
0057
ff8c
006a
0012
009d
ffd9
ffd2
0037
000d
ffc7
0080
004b
0029
ffc3
0166
00a3
ffbc
ffcd
ffe7
0019
ff31
0003
ffd2
ff8d
002a
ffc1
005c
ffe7
fed2
ffa5
ff27
0030
ffb9
005a
0057
ffbc
ff51
0002
fff5
fffe
fff9
fffa
0003
fffc
0003
fffc
0005
0001
fffe
0008
fff6
0003
0004
fffe
0002
0000
fffd
0005
fffc
ffff
0004
0001
fffa
fffe
fffa
fffb
000b
fffe
0002
fffd
0000
fffa
fffa
0005
fff7
ffff
0004
0000
0001
fffa
fff8
0005
fffe
fffc
0003
0002
fffd
fffb
fff9
0002
0004
fffd
0002
ffff
fffb
fffd
0000
fffc
0006
0002
fffb
ffff
ffff
fffb
ffff
0000
0000
0003
ffff
0000
0000
fffe
0001
0000
0003
0001
0000
fffd
0000
0000
0000
ffff
0000
fffd
0002
ffff
0000
0001
0000
ffff
0001
fffd
0001
ffff
0000
0000
ffff
ffff
0003
fffe
0000
0000
0000
0000
0000
0000
ffff
0000
0001
0000
0001
0000
0000
0000
0000
0000
0000
0000
0000
0001
0000
0000
0001
0001
0000
0001
ffff
fffe
0000
0000
0002
0002
fffd
0000
ffff
ffff
0000
0000
0000
0001
fffe
ffe8
ff7f
ffde
ffed
007e
ff90
ffe0
ffd2
ffcb
0059
ff79
0002
0051
ff80
fff9
ff8e
ffa4
0046
ffc9
0009
005f
000f
ffed
ffbe
ff7e
ff92
00c8
0000
0096
fff6
008d
ff81
ffeb
fffa
00ae
fff5
00a7
0018
00e0
ffc1
fffa
fff7
0002
001b
fffd
007e
00b6
ff48
0021
ff80
0055
007f
ffe3
0040
00dc
ffeb
0043
0073
0081
fff6
ffab
003e
0055
007a
006b
0071
ffe7
ffdb
ffe9
ffc6
0027
0017
fffd
0012
fff5
0010
fff9
fff0
0018
ffff
0001
000d
ffeb
fffb
ffe9
0006
fffe
ffee
000d
0005
000d
0011
ffec
0004
fff1
fff4
0008
000a
ffe1
0028
fff9
ffff
0011
0009
ffff
fffd
fff8
0021
ffea
0019
0001
ffed
0006
000f
0000
001a
ffed
000c
0000
fff6
fffc
0014
fff5
0001
fffd
fff9
fffd
fff5
fff3
0013
fffe
000b
ffde
0016
fff9
ffe5
000a
0015
fffc
0013
ffe5
fffb
fff0
ffe5
0010
ffca
ff7a
005d
ff2f
0095
0042
003b
005e
0040
ffba
004b
ffa3
003d
00fa
ffc9
fff1
ffcc
fff2
ffd4
ff80
007a
001e
ffcf
ffe7
fffb
ffd3
001c
ff91
0050
0000
ffcb
005c
fff3
fffd
004c
fff6
009b
007b
0006
0070
0030
ffd6
0005
ff89
0044
0020
ffad
fff9
ffea
ffe9
0004
0030
ff87
ff9b
ffd4
000f
000f
0017
0030
fff3
fffb
ffd0
0022
0045
001e
ffa8
0057
fff4
001c
ff8b
ffe0
ff9f
0056
ffff
ff80
ffa5
fff7
0012
0002
ff68
ffff
0024
ff8f
ffcb
ff56
fff7
0000
ffa4
ffab
ffcf
ffa5
ffeb
ff60
ff9f
0036
ffc5
0094
ff8f
0000
0014
0035
0023
000f
0025
0048
ff9d
ffbd
002d
ffc0
ffcd
ffa7
ffc1
002b
001e
0009
ffd9
ff6c
ffbe
ffaa
0014
0076
ffe5
0013
ff9a
0036
0041
009d
004c
ffc6
ffc9
fff4
000b
ffb5
000d
ffe2
fffc
ffdb
ff82
0093
ffd0
ffdb
0050
0022
0007
ffa7
ffe4
001c
004b
003d
0004
0010
0032
ffdf
0022
0044
0037
0020
fff7
ffdf
004d
0002
ffe8
fffe
005b
000c
fffe
0019
0021
0002
0019
ffc4
0038
0007
000c
0037
0008
fffc
0004
0034
ff93
ffde
0002
0016
fff0
0088
003d
0021
0017
002e
ffee
0017
0001
ffe3
0063
fff8
004c
ffff
ffc5
0010
ffe3
ffe5
fff5
006d
ffe7
0000
ffd0
ffdd
0038
0040
ffba
0071
0041
003b
fffe
0004
0014
0059
ff99
ff9b
0079
004c
0044
000f
ff58
0045
ff8c
0062
ffd3
ffba
ff27
ff8a
ffd3
005c
0001
0062
001f
000b
0004
0008
0077
0039
ff1a
0019
005a
0072
0024
000c
0066
0028
ffd5
0017
002e
0002
0035
ffd7
009c
008a
ffe0
0007
00a4
ffc5
0030
ff5e
ffd8
ff8b
000e
ffd8
ffde
ffda
ff65
002d
0085
ff52
0055
0005
ffb3
ffc8
00c5
ffc1
0013
ffe2
00a5
ffb3
009a
0058
0012
fff6
0004
fff7
0000
fffc
0000
fffb
fffe
0002
fff4
000d
fffd
ffff
0000
fffe
fffc
fffe
fffd
0008
0000
fffc
fffd
0000
ffff
0001
0003
fffa
0000
ffff
0000
ffff
0000
0002
fff1
000b
fffc
0000
ffff
fff4
0000
0003
fff8
0004
0000
fffd
ffff
fffc
fffe
0001
0000
fffd
fffd
ffff
ffff
0003
0001
0001
0005
0001
fffc
0001
0001
fffe
fffe
0000
0001
ffff
0000
fffd
0002
ffff
0002
0001
0000
ffff
fffe
0000
fffd
0004
0000
0000
0000
fffe
fffc
0000
ffff
ffff
0001
0000
0000
fffe
fffd
0000
0000
0000
0001
0000
0000
fffe
fffe
ffff
fffe
0000
0000
ffff
0000
0000
ffff
0001
0000
0000
0000
0000
ffff
0000
ffff
0000
0000
0000
0000
0000
0001
ffff
ffff
0000
fffe
0000
ffff
fffe
0000
0000
0000
0001
0005
0000
ffff
0002
ffff
ffff
0000
0000
0005
0000
ffff
0000
000e
ffeb
004f
00b8
0087
0027
fff8
00a4
ffb4
fffe
ff9b
0047
ffe1
ffb8
ffb8
0082
006c
ffb3
002d
0000
ffa8
ffff
ffd5
ffef
005c
0026
004b
0074
0038
0050
ffff
008b
0046
ff69
0002
0006
ffc9
00a7
ffe4
0076
0066
ff87
ffb0
ffcb
ff5c
001f
004d
ffee
ff8f
ffef
0000
0003
0025
ffc6
0058
ff93
ff53
ff68
0010
fff2
ffcd
0020
fff9
003e
0018
fef0
001a
ffd3
0055
0045
003a
ffb4
fff2
ffea
fff6
ffe9
fff5
ffe4
ffe3
fff7
0009
ffff
0011
fffd
fff8
fff8
fff5
fffb
0002
0007
0006
0012
ffe4
ffe4
0001
fffb
ffeb
000f
ffdd
0008
fff6
fff8
000c
fffb
fffe
0006
000f
0000
fffd
0001
fff6
fffd
fff9
fffd
000b
ffff
000f
ffee
fff4
0001
0002
002b
fff7
0000
0007
ffef
fffd
ffff
0014
0017
000d
0000
fff8
000a
ffef
0008
fff7
fffa
000b
000d
fff5
ffe0
ffe2
0005
0047
ffc4
00a1
0074
0072
005f
0005
000f
0041
ff88
0043
fff0
ffb6
0030
fff3
ff9e
004f
ffbb
0041
ffac
ffe0
ff85
ffdf
ffd7
000e
ffd7
0000
ffd0
0013
ffa8
000b
fff8
007b
ff99
0030
ff99
ffb9
005a
0011
ff95
ffd9
ff96
fff1
003f
ffa9
ffa2
fffb
ffc9
ffe6
0003
ff72
0032
0070
ffef
002f
0099
fffc
0004
ffce
0017
0092
0009
0073
00da
ffb7
ffb6
0074
00c8
0061
ff42
007f
006f
ff77
0075
ff89
ffc5
00cf
ffaa
ff73
ffcf
0016
ff74
ff4a
0048
0068
ff8a
ff74
001e
004c
ff96
00e0
000a
ff86
ffeb
000f
0005
ffe7
ffff
ff7c
fffe
ffe5
000f
ffaf
ffef
ffbb
ffc6
fed4
ffef
0003
0042
0014
0049
ffda
002a
0056
ffe1
ff6a
ffdb
ff7d
fffc
fff6
006f
ffa8
0059
0070
0017
ffbd
ffe0
ffbf
00cb
ffaa
000b
004d
0056
ffd5
00e2
ff73
00c9
0006
0063
ff29
ff56
ff85
0053
0031
001c
ffe0
ffc8
ffe9
ffe3
ffeb
fff3
0019
0074
0007
000d
0087
fff2
ffa8
0000
fff9
0036
0088
0001
0064
0013
ffab
0028
0038
0040
ffaa
ffd6
ffc6
ffbc
003c
0026
ffff
003b
ffff
ffd9
ffbf
003a
000a
004c
0022
fffb
002d
001f
ff89
004e
ffa6
0008
001d
0012
ff8f
ffe0
ff7c
ffee
000f
000d
0000
ffe0
0035
ffcd
ff70
0047
0020
0041
0011
0006
002d
ffcf
ff2c
0022
0021
fffa
ffca
ffce
ffeb
009d
003a
0074
fff5
0029
ffbd
001a
0004
ffea
005d
002f
ffc2
0060
ff4c
0049
ff7c
000d
ff9e
fff3
0049
ffd7
000a
ffc1
ffac
007c
ffe6
ffd1
0031
fffe
ffd0
006b
0022
0013
ffb0
0035
0036
ff90
003b
006d
ff8d
0001
ffca
ff6d
003e
ffb5
0001
ff70
0069
ff85
002c
004c
002c
ffb5
ff24
ff55
000b
ffe9
001c
0044
004b
fff4
ffdd
ff77
0007
0006
ffd9
ffe9
ffc1
0069
0002
fffc
fff5
ffff
0004
ffff
0000
0000
0000
fffb
000a
000d
fffd
fffe
fffc
fffe
fffc
0000
0009
fffb
0006
0002
0000
0000
0000
ffff
fffb
fff4
0001
0000
ffff
0001
0001
fffe
0006
0009
fffe
fffe
fffb
fffe
0001
0000
0002
0005
ffff
0000
fffd
ffff
0000
fffe
fffc
0007
0000
0003
ffff
0000
0000
0003
0007
0000
0002
ffff
0000
0001
ffff
0000
0003
0000
0001
0000
0000
0000
0001
0000
ffff
fffe
ffff
ffff
ffff
0001
0000
fffe
fffe
fffd
fffe
fffe
0000
0000
ffff
0000
fffd
fff8
0000
0000
0000
0000
0000
ffff
fffd
fffb
0000
ffff
fffe
0000
0000
0001
0000
ffff
0000
fffd
ffff
0001
0000
0000
0000
ffff
0000
ffff
0000
0000
0000
fffe
ffff
0001
0000
fffd
ffff
0001
0001
0000
0001
fffe
ffff
ffff
0000
0000
0001
0000
fffd
fffe
fffe
0000
0000
0000
ffa4
ffe2
0009
fefc
0030
ffea
0041
ffcc
0092
ffb1
00c2
ff4e
0052
0018
0015
003e
ffcd
002d
ffcb
0054
0009
0020
0035
0048
ff47
0037
ffaa
ffa4
0079
0013
000d
ff3a
007d
ff1d
ffe8
ffb6
0072
ff9e
ffbf
0088
fff2
ff85
ffd0
ffba
ffdf
ffab
0051
006d
0041
0092
fff5
ffa1
00f9
0019
0068
ffe4
0044
0063
ff47
ffa2
0050
0069
0042
0005
0036
ff42
ff3c
0001
ffdf
00c1
ffd8
001d
fff7
0009
0000
ffe9
ffe5
fff4
fff7
fffc
0002
0009
ffff
fffd
ffeb
ffee
fffe
0010
0029
001f
ffdc
0007
0004
001e
0000
0001
0000
0008
ffef
0006
fffc
0000
fffa
ffe8
ffe1
ffef
0001
000b
ffef
0008
0011
ffff
0005
000d
fff3
fffd
001e
001b
0002
0007
fffd
0002
fffa
0002
0000
fffb
0020
fff1
fff2
0011
0006
ffea
0009
fffc
0030
ffff
fff3
0021
ffec
ffef
001a
fff5
000c
ffdc
003a
002a
000a
0034
ffee
ff72
0089
0045
0042
ffe0
003a
0009
003d
ff9b
007e
0033
00b1
0058
ffbe
ffa3
0018
0038
0072
ffd3
ffe2
ffff
ff7b
ffe0
005a
001a
0046
00aa
fffa
ffb2
ffd6
007e
0075
ffa1
0034
004c
000b
ffc5
ff66
0034
0057
005d
0045
0070
0029
ffe3
003d
002f
0082
0047
0162
0053
ffa1
0030
00ca
0014
0009
ffbb
0191
00a0
005f
006d
009d
0081
0062
003e
0116
0073
0093
ffc7
0037
0061
ffed
00ab
000d
ff7c
ff92
ff2b
0026
ff97
003f
007e
ffde
ff79
000d
ffbd
ff6f
ffd2
ffb3
001f
ff96
ff98
004e
0083
0068
0056
ffaf
ffea
fff1
ff7e
ff3f
ffe3
00ed
ff98
ffda
0072
ffc3
ffad
000a
ffff
ff50
0029
0010
008f
ffab
ffdb
000e
0054
005d
ffd3
ffbe
0006
ff99
007b
ff18
ffce
00e1
ff5d
ffa7
ffd2
fff2
00d7
0020
ff75
ff45
0073
ffc5
006d
ff96
ffb2
0032
0004
ffb0
0050
ffdd
002b
0026
0042
003c
0051
fffd
0047
ffd8
fffd
0044
ffbb
000a
0090
0025
0021
0027
ffba
0030
ffa9
ffc8
001a
0011
0005
fff8
fff6
0075
0064
0012
0079
ffce
fffa
0010
0008
ffe0
fff1
ffda
0052
001f
001d
0019
ffca
002c
0009
000d
0018
002e
ffdf
ffee
ffff
0041
0043
ffb0
fff0
0023
ffca
ffb9
002e
0012
0016
ff93
fffc
0040
001e
001f
002e
004a
0059
ff1e
00bb
ffbc
006f
fff0
fffb
ffd4
ffb2
001b
0086
008b
ffaa
ff80
ff97
ffcc
ffb5
003e
ffd9
00bb
ffcd
0070
0001
fff1
ffef
0026
002e
ffc3
001f
002a
0034
0049
fff0
ffcb
ffd4
ffed
ff8f
ffac
000a
0099
ff96
007c
ffef
001d
007f
0037
fff6
ffd6
002e
ffee
ff75
ffa1
0058
0003
0010
004d
ffe7
0020
ffa0
fff0
ffe4
ff6c
ffeb
006d
ff58
fffa
ffbf
ffe5
ffee
0008
fff6
ffe8
ffbc
ffff
0001
0002
0002
0000
ffff
fff7
0003
fffe
fffd
0002
fffb
fff7
0002
0005
fff9
0002
ffff
0000
fffe
ffff
ffff
0001
0000
0000
0002
0008
0005
0000
fffe
fff9
000b
0000
0000
fffe
fffc
0000
fffe
0001
fffc
fffd
fffe
ffff
fffe
0000
ffff
fffe
ffff
0000
0001
0001
fffc
fffb
fffd
fffb
fffc
ffff
0001
fffd
fffb
0005
0000
0001
0000
0000
0000
fffd
0001
0000
0000
0003
0003
fffe
fffe
0000
0002
0000
0002
ffff
fffd
0000
ffff
0000
0004
0003
fffe
ffff
0003
0001
fffe
0002
0002
0004
0000
ffff
000b
0000
fffe
0000
0000
0003
0000
ffff
000b
fffd
fffe
0000
0000
0000
0001
0000
0003
fffe
0000
0000
fffc
0000
0001
0002
0005
fffe
0000
0000
fffe
fffe
0002
0002
ffff
0000
0000
0002
0000
0000
ffff
0000
0000
ffff
0000
0003
fffe
0001
0000
fffd
ffff
0045
ffa0
0000
ffa5
ffef
0002
ffdc
002a
0026
ff43
fffd
ffe9
ffbf
0013
ff91
003f
00bb
fff4
0002
007b
00bf
000b
0033
001b
fff2
ff8b
0001
ff6d
ffaf
fff5
004e
ffe3
ff8f
ff1d
0000
ffb0
ffda
fff0
ffd4
0055
00af
003b
0000
0082
0067
0021
006f
ffdc
004d
ff8d
0000
ffa7
ff7d
0008
0026
fff1
ffa4
ffc8
0000
ffce
ff50
ffcb
fff1
0086
ff3a
0088
0000
00c6
0046
0009
003f
ff71
000e
fffc
0002
0013
fff5
fff9
0010
fffd
001a
0005
0000
001c
fff3
0000
000c
fff7
0004
fff4
0003
0027
fff7
fff7
fffb
0000
0019
000d
0002
0006
ffef
fff7
0002
ffe9
001b
0015
0001
fffb
0001
0001
000c
ffee
0013
0017
0002
0009
fffd
fffb
fffa
ffe8
0008
ffee
0000
fffb
0001
fff8
ffff
ffe4
fff8
fff9
0000
ffed
ffee
fff4
0019
0001
0008
fffa
0000
fffa
fff6
fff2
fffe
ffec
ffa2
ff75
ffff
00c9
0000
fff8
0077
0008
003e
ff57
ffff
009d
00a1
ffbd
0007
fff2
008a
0000
ffff
0079
0041
ffda
000b
ff80
00a0
ff9b
ffff
fff0
fff4
0010
0059
ffd4
0088
0011
fffe
005c
0018
ffd0
ffed
0002
005b
0054
0000
fffc
ff97
ffda
ffe6
ffc6
ff54
fff3
0001
00d9
ffb6
fffc
007d
fed6
fef4
ff85
0000
00cf
0038
0005
008e
ff48
ff2f
ffc5
0000
0009
ffa6
0005
00c7
ff85
ff8e
0046
ffff
0028
0002
ffdf
008b
0015
ff19
0070
fffc
ffa8
ff97
fffa
0068
ff72
ffac
009a
0009
ffb9
fff0
ffde
ff9f
ff80
ffef
fff4
0006
000a
009e
ffe4
001c
ffec
ff99
000c
0002
fff8
0055
ffef
ffd6
0082
ffee
ff0f
0000
000f
ffe3
ffc5
ff0a
0032
ff84
ff94
0000
0005
003f
ffec
ffb8
002d
ff7c
ffbe
0001
ffee
0073
ffe2
ff5a
00db
ffc3
feff
0002
0080
0056
ffee
fe92
fff1
ffcc
fff5
ffff
0011
fff9
fffd
fffd
fff2
0017
0024
0001
ff91
ffd5
0013
ffcb
fffd
0045
0075
0000
003f
003e
0008
fffd
ffec
0031
0010
0001
ffb2
ffab
fff6
fffa
0005
0007
0040
0002
ff60
ffe7
ffff
001c
004d
0049
0039
0000
ffe3
0019
fff8
003d
fffe
0026
ffda
ffff
ff84
fff4
0009
ffdc
001c
fffa
ffb7
ffff
ff9d
0010
fff8
0055
0022
fff7
0020
0000
ffd9
0022
fff6
0037
ffd5
ff43
00b6
ffff
ffb3
fff1
ffe4
0051
0027
0041
009c
0000
00aa
0028
ffd3
005b
000a
fff6
0052
0003
ffcf
0014
ffdf
ffbd
ff6d
ff7e
0070
0000
ffe7
ffb6
ffe8
003a
0021
0071
0084
fffe
00bb
0023
ffd2
ffba
ffc6
ffef
0031
0000
0072
0071
fffd
002c
ffa7
0053
ff94
fffe
ffb2
ff8c
fffa
001d
00ed
0032
ffbb
0006
001a
ff66
ffec
0049
007b
0042
0059
0006
0050
0006
0017
ffc7
ffd6
0002
ffff
0004
0013
0003
fffd
0009
0007
fffe
fff6
0000
fff4
ffff
0002
0000
fffb
0000
fffd
0000
fffe
0000
fffe
0000
0003
0002
0000
0007
000e
0001
fffe
0005
0009
fffc
fff8
fffc
fff1
fffd
0002
fffd
fffc
0000
fffb
fffe
fffe
0000
0000
0000
0001
ffff
0001
0001
0009
0002
fffe
0002
0005
fffb
0001
fffc
0001
0000
0003
ffff
0002
fffe
0000
0006
0001
fffc
0005
0003
0004
ffff
0000
0000
0000
ffff
0001
0000
0001
0001
fffe
0001
0001
fffe
0000
0000
0001
0001
fffe
0001
0001
0000
0000
ffff
0002
0000
fffc
0001
0002
ffff
0000
0000
0001
0000
0000
0000
0000
0000
0000
ffff
0000
0000
ffff
0000
0000
0001
0001
ffff
ffff
fffe
ffff
0000
0001
0000
0002
0000
0000
0000
0000
0000
0000
0000
fffe
0000
0000
0000
0000
0000
0000
0000
ffff
0001
fffe
0006
ffe6
ffe4
0004
0002
0035
0000
0006
0009
ffe0
ff47
0002
0003
fffc
fffe
0001
fff1
ff89
0010
fffe
0005
009d
0000
0007
fffc
fff2
00b4
0000
000a
ff89
0000
0009
0001
0024
ffad
0000
0011
ffcd
ffff
000a
fff1
ffbb
ff5a
0000
0003
007a
0000
000e
0000
0001
0069
0000
ffdd
0009
ffff
0008
0008
0027
003a
fffb
fffc
0075
0000
ffff
fffe
0024
0085
ffff
0000
006d
0000
0002
fffd
fffc
fffd
ffff
0000
0022
0000
0000
fffc
ffff
0003
0000
0009
fffe
fffe
0000
fffd
0000
000b
0002
0006
0019
fffd
0001
0003
0003
fff8
0002
0000
0030
fffe
ffff
fffd
0007
0014
0000
0006
0002
0000
0000
fff9
0003
0010
0003
0005
001d
fffd
0004
0003
0002
ffff
0001
fff8
0017
fffe
0000
0000
fffa
000e
ffff
fffb
fff9
ffff
0006
ffff
fffb
0001
fffb
0000
0011
fffe
0004
0001
0034
ffd9
fffd
ffea
0092
0000
0007
fffe
005b
0039
0000
fff0
0059
fffd
fffd
0000
ffe5
004c
0002
ffeb
0127
ffff
fffa
0005
0011
ff89
ffff
fffa
00dc
0000
0000
0003
ffec
ffcb
fffe
0000
0085
fffe
fff1
fffe
ffd4
0045
ffff
0016
00a1
fffe
fffa
fffb
003c
ff59
ffff
0011
fe9b
ffff
fffe
fffe
ffe1
ff59
0000
0003
fe3c
0000
fff5
0009
ffca
ffde
0002
fff0
ff32
0000
fff3
fffa
ff99
ffa5
ffff
0017
0055
0001
0002
fffb
ffcb
ff1d
0000
fff8
001f
0000
0000
fff9
ffb2
fff7
0003
fffe
ffbd
0006
000a
0000
ff74
ffed
0000
ffe6
fffa
0001
000d
0002
ffde
ffd0
0003
ffe1
007b
0002
0003
fffb
ffe4
0057
0001
0008
0005
0000
fff2
000b
ffcc
ff6a
0000
ffe5
ffe8
fffe
0008
0005
ffa4
ff8a
0004
fff2
ffbf
ffff
0000
fff9
ffec
ffd6
fffc
0007
fff1
0000
fff4
0002
fff9
ffe9
0000
ffef
ffe5
0001
fffb
0002
fffa
ffde
0000
fffb
004a
0003
fffc
fff8
ffd2
ffe3
0001
ffea
fffc
0001
fffe
0005
002c
ffd2
0005
ffe4
004b
0001
fffc
0006
fff3
ffe7
0000
ffee
0059
0003
ffff
fffc
ffcf
0008
fffc
fff8
005e
0001
fff8
000c
001e
ffb8
0002
fff5
ffef
0000
ffff
0004
ffdc
ff9f
0003
ffef
0048
0000
0000
0002
fffb
ffc7
0001
fffd
006e
ffff
fffc
fffe
0004
0001
fffc
0020
ffd9
0000
000a
fff3
0025
ff6f
fffa
0008
feee
0000
000c
fff4
0004
ffe2
0000
0018
ffc0
0001
0007
0000
ffc8
00cb
ffff
001c
0059
0000
fffb
0000
ffa1
ffcd
fffb
000a
ffd5
0000
0002
fffc
0049
ffff
ffff
001a
ffc6
0001
0001
fff4
0010
00f5
0002
ffff
0080
0002
fff8
fff5
ffee
002a
fffe
000a
004a
0000
0006
0002
0014
0084
fffe
001a
004f
0000
0000
0004
0005
0000
0000
ffff
0000
fff6
0000
0005
fffb
ffff
0003
0000
fff6
0007
fffa
0000
ffff
0000
fff5
ffff
0002
0001
0003
0001
0003
0001
0000
0001
0001
fffe
fffe
0000
fff8
fffc
0002
ffff
fff9
fffb
fffc
0001
fffd
fffc
fffc
fffd
0000
fffb
0000
0000
0001
fffc
fffb
fffe
0005
fffa
ffff
fffe
0000
0006
fffe
ffff
0005
0000
ffff
0002
0000
fffd
fffe
0004
0001
0002
ffff
fffe
0000
0000
0000
0000
fffe
ffff
0000
0000
fffe
ffff
0007
0000
0000
fffd
0000
0001
ffff
0000
0009
0000
0000
fffe
ffff
0001
0000
0002
0004
0001
fffe
ffff
0000
0000
0000
0000
fffe
0002
fffe
0000
ffff
0000
0001
0001
fffb
0003
0000
0003
0000
0000
0002
0000
fffb
0001
0000
ffff
0000
ffff
ffff
0000
0000
fffe
0000
0000
0001
0000
ffff
0000
0000
fffe
0001
0000
0000
ffdf
ffcc
ffa0
001d
001d
0015
0079
0028
0048
ffee
0066
0097
004c
0023
fff1
ffce
0035
0077
0019
ffe0
ff28
0098
fff1
ffed
ffeb
fff6
ffce
00a9
ffe9
ff90
0063
ff3e
ffa9
002a
ffd5
0129
0007
ffff
ffb4
ff3e
001a
0067
0010
0061
ff00
0060
ff3c
ff7f
002a
002e
fff3
00a7
ffe8
ffc9
ffe7
ffd5
002f
ffd2
fff2
00ac
0016
ffc5
ffaa
ff3f
0049
ff95
0059
004c
ff2b
0056
ffb0
fe4c
0000
ffdf
fffb
0005
ffff
0019
0007
0001
fff7
fff1
fff8
0014
0000
0001
fff2
0011
fffb
0004
0006
0018
fff5
ffff
0004
000f
0009
fff6
0000
000c
0007
0001
0010
000a
001c
fff5
fff7
0015
fffd
fff2
ffe2
000e
fffa
ffe5
fffb
000a
fff5
fffe
fff6
0017
fffc
fff3
0004
0007
0000
0004
002b
fffb
0011
ffe7
fff6
fff4
fff9
fff3
fff8
ffe7
fff9
ffeb
fff8
ffff
ffef
0007
ffee
000d
0037
0095
0049
ffab
0029
00c4
0074
0068
00a5
ffff
0092
0025
ff86
0034
0088
fff5
ffc7
000a
0057
fff7
ff5e
ffbd
ffd1
ff8c
00a4
004f
ffe9
0039
0046
0066
0090
005f
0016
ffdf
fffb
006a
ff9c
fff6
007e
0051
ffdb
0041
0030
ffe5
ff37
ff8c
fff9
0029
0098
ff36
ffcd
0003
003f
004d
0005
ffb8
0087
ff32
ffba
0038
0009
0073
ff6f
ffd1
000b
ffcd
ffea
004e
ffd2
00b0
ff51
ff86
fff8
ff03
ffb3
fff0
ffff
000c
fff3
ffd4
ffd3
0019
ff6b
ff5d
0044
0082
ff78
00af
0003
00a2
ff46
ff76
ffc2
0027
ffdd
0094
ffc3
ffac
0042
003b
ffbd
ffb5
00b4
0035
ffb0
ffe3
ff9d
ffda
0043
0013
00c3
fff7
ffe3
ffee
006a
ff9d
0025
ffc2
0053
0033
004d
0034
0066
fff0
0043
ffd1
0049
fff0
000c
ffc6
ffdf
ffe1
0034
0037
008a
ff82
0019
002b
00b5
003e
0003
0000
002d
ffe9
0064
0006
fff4
000a
0009
ffd0
ff9e
ffdb
ffe4
0032
ffa9
000e
0042
ffce
0066
000c
0027
ffc6
ff5e
0032
001c
001a
fff3
001c
0050
0004
ffed
ffb4
0007
ffd7
ffdc
0014
0035
fff0
ffd8
ffd6
ffef
0041
002e
ffe4
ffe2
0022
ffbf
ffee
ffea
001c
0045
ffc0
0039
001b
0027
ffc8
0028
fff8
00c4
ffd1
000c
fff2
fffc
0019
0036
0016
0041
000a
ffde
ffe2
0000
ffed
0027
ff84
0030
002c
ff45
0052
ffc9
0060
fff9
ffc9
00bf
00bf
ffbf
000e
fff6
004b
0029
0016
0034
0018
0010
ffe5
ffab
ffac
0001
fff0
004d
0039
ff4c
005b
ffc8
007f
ff7d
fffc
0021
ffca
000f
fff9
002f
0104
0054
000e
0082
fffd
0016
001a
0090
ff45
ffa5
001d
0089
0066
ffcf
0014
ffec
00c0
00d8
0035
ffd9
ff64
0103
000c
ff88
0132
00b0
ffba
0033
0058
ffe0
ffcf
0063
ffb5
ff8c
ffb9
0074
009e
fffb
0006
0003
fffc
fff5
0001
fffe
fffd
0002
fff9
fffc
0000
0000
0000
fffe
0007
0004
ffff
fffe
0000
0003
fffb
ffff
ffff
fffd
000b
000a
fffe
fffc
fffd
0005
0001
0000
fffd
fffb
0003
0002
0003
fffc
0000
0001
0000
ffff
ffff
0000
ffff
fffc
fff5
ffff
0004
0004
0000
fff4
0001
fffe
fffa
0000
fffd
0000
fff8
0004
fffe
0001
0000
0001
fffc
ffff
fffb
0000
fffc
fffc
0003
0001
0003
0002
0000
0001
0000
fffe
ffff
ffff
fffc
0006
0000
0000
0000
0001
0000
0000
fffe
0005
0000
ffff
0000
0004
ffff
ffff
fffd
0005
ffff
0000
0000
0002
0000
0000
0000
fffd
0000
0000
0000
0001
0002
0000
0002
fffe
0000
0002
0000
0002
0002
0000
0004
ffff
0000
0000
ffff
0000
fffe
0002
0001
0003
0000
0001
0000
0000
0000
0004
0002
0002
0000
0000
ffff
0000
0000
005f
0080
0024
0027
0074
0009
febb
0039
fff7
005e
ffaa
0000
0017
ffeb
0000
0076
ffd2
ffdf
ff8a
0027
ffb6
ffe2
0017
000a
007c
fff1
0011
ffb4
0069
ffe3
0022
ffd1
0030
002a
ffe2
ffd3
004f
0021
ffe6
ffe7
003b
0000
ff5d
006d
000d
0001
ffe0
ffd1
ffdd
005d
0025
ff8e
0047
fffb
0078
ffea
001a
ffce
0002
ffb1
0073
0055
ffd1
ffe4
ffd8
ffd3
ff67
0054
002c
0048
fff4
0025
0006
0011
fff3
0008
0005
ffe9
fffe
000b
fffc
0023
fffc
0023
0000
000d
000a
0006
fff7
0013
ffe8
0018
0021
fffa
0002
fff6
000f
0015
0004
0012
0001
fff9
ffeb
0008
000a
002e
0003
001f
0000
fffe
000b
0000
0004
000f
fff0
ffed
000d
fff4
000a
fff6
0013
0004
002d
0012
ffff
0001
ffdf
fff9
0009
0003
0014
001a
0004
0011
fffd
0001
ffeb
fff6
000b
ffdb
0011
0009
000b
0000
0033
ffd0
ff5b
ffa2
003a
0015
0020
0031
ffef
ff42
ff50
ffe2
ff9c
0009
fff0
0024
ff0b
ff0e
fffa
ffe6
ff74
fff6
0055
002f
0060
0002
ffd8
fff3
0008
0083
ffc5
0001
00bf
fff9
ff8b
ffbd
fffa
0051
0004
ffdd
000b
ff41
ff87
0011
0031
001b
002c
fffe
00dc
006b
0027
fffe
ffe8
0050
00b1
001c
005b
00b4
ffe7
ffed
ffa8
0044
ffd9
0013
ffc5
ffd1
ff80
ffc5
ffcb
fff4
ffc8
0030
ffae
ff93
0099
ffa8
ffeb
ffc8
ffdc
ffa2
ff85
003c
0091
0081
ffe4
fff6
ff38
ffe0
0023
00d6
00ef
ff88
ffd4
002d
0063
ff85
ffeb
ff62
003f
ffe8
ff82
ffca
003a
ffd0
000e
ff34
ff7c
001e
ff9f
ff84
002a
fffd
0011
0004
ffee
0043
ffd7
ffcc
0018
fff9
ffc6
000e
005b
0074
0038
ffe5
001e
ffa9
fffd
003e
ff8f
0047
ffea
ffa3
0007
ffd2
0016
0026
ffe3
00b4
0081
ff40
004d
0023
003b
0056
fffa
ffdf
003d
0045
001d
0035
ff9e
fff0
004b
ffeb
0047
0037
ffe0
ffc8
ffdc
0007
ffc0
ffe9
0033
0031
ffed
ffd7
005c
ffd1
ffff
0060
0041
000a
ffda
001a
0037
fff2
0077
ffd8
ffe7
0002
ffc4
ffdb
fff7
0000
0004
ff96
0014
ffed
ffc4
0000
0039
ffa1
0010
ffd6
ffde
ffea
ff74
ffe5
001e
ffdd
005a
fffe
ffa6
ffda
ffea
ffd6
000b
0035
001b
ffdd
0011
ffc6
ffae
002f
ffd1
fff6
0023
001c
0063
0082
ffee
000c
ffff
fff1
001b
ffb4
003a
0011
ff6c
ffb6
0007
003f
ffbe
ffb4
ffc6
ffae
0040
ffcf
fffd
0067
fff8
00a1
ffed
0027
00e9
0042
001a
0036
ffdc
ffe1
ff60
fff0
ffe6
ffd6
0002
000b
ff86
ffe9
fff5
0000
0003
ffeb
fff1
001a
ff6a
0142
ff99
ffea
0167
fffa
0076
fff9
ff90
ffd7
ffef
fff7
0080
0029
0015
ffb2
ff98
0016
ffab
0001
001b
0006
0008
fffe
0000
fffe
0000
ffff
0000
0000
fffd
fffb
ffff
fffd
0000
0000
ffff
0000
fffe
fffe
ffff
ffff
0000
ffff
0000
0000
0001
fffa
ffff
fffe
0000
0000
0000
0000
fffe
0000
0000
0000
ffff
0000
0000
0000
0001
0000
0000
ffff
ffff
0000
0000
0000
0005
fffe
0000
ffff
ffff
0001
0000
ffff
fff8
ffff
ffff
0000
ffff
0000
ffff
ffff
fffd
ffff
fffe
ffff
0000
0000
fffe
0001
ffff
0001
fffc
0004
fffb
0002
0000
000d
0001
0002
ffff
fffa
0000
fffb
0002
fff3
fffe
0000
0000
0000
000a
fffd
0001
fffb
0000
ffff
fffe
000f
ffff
0004
0001
0015
0000
0000
0000
0001
0000
fffc
0000
fffa
0000
0000
0000
0003
0004
0000
0000
fffd
0000
0003
0000
0005
0003
0002
0002
000d
0002
ffff
0001
0000
fffc
0000
fffd
0001
0000
fffd
0002
fffc
ffff
0000
0000
fffd
fff6
0000
fff4
ffa3
ff98
0028
ffa4
ffd2
001b
fffe
ffe9
00c6
0064
001b
fee7
0041
ffb5
0000
fff1
0057
003b
0035
ff8d
0087
ffe0
0000
0007
001c
ffeb
0015
003a
0007
ffcc
ffff
fffa
00ec
0062
0020
ff5e
fff8
ff7d
0002
ffdd
003e
ffd8
001c
ff7c
ff84
ffb7
0002
000a
0007
ffd2
ff42
007c
003b
ffad
fffc
001a
0011
00cc
ff92
00e1
ffe9
ffb4
ffff
0017
00b5
0033
ffa8
0006
fee0
0009
0000
0008
0017
ffff
fffc
0009
000b
0004
0002
0000
001f
fffd
0003
0008
fff1
0003
0000
0002
0007
fff8
fff5
fff7
fffc
0016
ffff
0002
0012
fff6
ffff
fffb
fff8
001c
0001
ffff
0018
fff3
0003
fffd
ffef
fffa
fffe
0003
000c
ffe6
0007
0004
0007
000a
fffe
fffd
0012
fff0
ffef
fff2
fff3
ffff
0000
0005
000b
0001
ffe5
ffe8
0015
fff2
0000
0009
0020
fff0
ffeb
ffe7
0016
ffdf
0002
0027
0028
000d
0076
0028
0010
ff97
ffff
001f
0084
ff97
0024
003f
ffb8
fff3
fffe
0017
0026
ffaf
ff95
0048
0088
0029
fffe
0005
fffb
0033
fffb
0007
fff6
ffce
0002
0023
006b
ffc0
ffa6
0011
ffd3
fff4
0000
0014
ffd3
0017
ffa2
ffe6
00a5
0005
ffff
0008
0052
ffe4
0122
004b
ffbf
ff5e
ffff
0029
004e
ff7f
016e
0059
ff9b
0022
ffff
0028
0048
ffc1
0082
001e
002e
0038
0002
fff8
fffd
0018
fff6
ff86
ffcd
00ab
0002
ffea
ffb6
000c
ffec
ff8e
002c
ffeb
ffff
0072
002a
0079
ffdc
ff46
ff7b
ffe0
fffb
ffec
ff06
0016
fffe
ffca
0004
0081
fffe
ffd2
ff88
0015
ff1a
0012
ffe6
ffd9
fffd
0032
ffd6
0014
ffd7
ff9e
ffb3
0066
ffff
0000
ffae
fff0
0042
ffbc
ffcc
0073
0002
0005
0028
ffef
005a
ffa5
ff73
ffe3
0000
0000
ffd5
0001
0060
000e
ffc2
ffc5
0001
ffe7
ff7d
ffe5
ffc7
ffec
ff72
ffd4
0000
fff5
ffe7
0030
000e
ffe7
ffd6
ffa0
fffd
0004
ffc3
fffa
ffe4
0015
ff9c
ffb8
ffff
000c
ffbb
ffb6
0014
000d
ff87
000f
ffff
000f
ffd1
ff8d
ffde
fff5
ffe9
ffbb
fffd
0006
ffd3
ffde
ff7c
ffdd
fffa
ffd2
0000
0021
0027
001a
ffc6
ffc7
ffa5
003e
0000
0027
0018
ffde
0017
ffe5
000f
ffbf
ffff
0011
0013
ffe5
0010
ff5b
0013
ffcd
0001
000f
ffcd
ffa8
ffdf
ffd5
ff6c
002f
0000
0022
0029
0013
003c
ffa9
ff85
ffc3
0001
003b
ffe8
002b
ffdb
ffc1
0026
ff63
0000
fff2
00da
ffe9
0003
00d7
0052
ffd6
fffe
ffff
0047
ffd2
ffc6
004a
ff5a
0014
0002
fffe
ffa0
ffca
fffc
0006
001b
ffe8
ffff
ffd6
000f
ffc9
ffe8
0018
fff3
000f
0000
ffde
0054
ffc2
ffe2
015e
ffe4
ffd6
0000
ffea
001c
ffba
ffdf
002c
0043
0001
0000
0000
0000
0000
0000
0000
0000
0001
0001
ffff
0000
ffff
ffff
0000
0000
0001
0000
0001
0000
ffff
ffff
0001
0000
0000
0000
0000
ffff
0000
0000
0000
0000
0002
0000
0000
0000
0000
0000
0000
0000
0000
0000
0000
ffff
0000
0000
0001
0000
0001
0000
0000
0000
0001
0000
0000
0000
0000
0000
0000
ffff
0000
0001
0000
0000
0000
0000
0000
ffff
0000
0002
0000
0000
ffff
0007
fffd
fff9
fffa
fff0
0004
ffff
0000
fff5
fffa
0000
fffd
0007
0000
0004
fff9
fffe
ffff
0000
ffff
fffb
0004
0003
fffb
000c
000e
fffc
0000
fff1
0008
0000
ffff
fff5
fff9
0001
0000
0009
ffff
0001
fffc
fffe
0000
0003
ffff
fffe
0001
0003
0000
0002
0005
fffe
0000
fff6
0004
0000
fffc
fffd
fffe
fffb
0002
fffd
0006
0008
0002
fffc
fffe
fffa
fff6
ffff
0003
ffff
ffe2
ffab
ffc1
ffd2
0097
000c
ffca
0076
006a
ffe9
002d
ff81
fff0
fec2
ff9f
0049
ffbb
ffad
00ef
ffc1
ff89
0017
ffd7
0084
0057
ff4d
0032
ff9d
0005
008e
ff4b
0017
003f
ffa2
ffdf
ffad
00ad
ff3b
ffee
fff6
ffe8
0008
003d
fff5
0095
006c
000b
fff0
0044
ffcd
ffbe
0026
ffce
ffeb
ff1a
ffb9
004a
ff14
0057
ffb5
0083
ffa9
ff3e
fff6
ff5f
ff80
0054
ff1f
003f
ffbc
ffc8
ff81
fff2
000a
0000
0000
0021
0001
fff7
fff8
0006
000b
0003
fff2
ffed
fff7
fff3
ffe8
000f
0016
fff5
0001
fff5
0014
0002
fffe
fffd
0017
fff4
fffc
0015
0008
fff9
ffee
001b
000d
fffa
0002
ffe1
fff9
fff2
fff4
0011
0012
ffec
fff8
ffed
0022
ffff
000b
fffb
001a
0000
fff5
0023
0001
fff3
fff4
0015
fff7
0000
fff8
fffe
0000
0002
000d
fffc
0004
ffef
fffc
fff7
0008
fff4
fff5
ffd6
ffd3
001b
0038
ffc6
007d
0027
00a2
ff4e
003e
004b
0059
0056
00b2
008c
000c
0010
0047
ffd7
0008
ffd3
0050
ffe8
0001
002c
003b
fff2
ffd9
ff5f
ffa3
001d
006c
001d
ffd9
000a
0001
ffb2
0010
ff85
0021
000e
ffd1
fff8
ff8e
ffc3
ffac
ff9a
0081
ffd6
ff99
fff3
ffd8
0083
ff71
003e
009f
ffd2
ffb0
ffcd
006d
ffef
ffb6
ff69
0069
ffb5
000e
000a
0059
ffd2
ffcb
ffcd
00ee
ffbb
ff68
ffb5
001c
0022
ffe5
ff13
0024
ffde
005d
ffb7
ffa6
003a
ff01
ff3f
0053
00af
0091
ffde
001d
0074
ff3e
0031
fff4
fffa
ff68
000d
ffe8
00cf
0007
000c
ff89
0064
0020
ffaf
fff5
00ab
00a6
0005
ffcf
ffb9
000b
0016
ffc9
ffee
004e
002b
ffed
0045
ff9e
ffea
002d
00e2
0025
0077
ffa6
00ee
ffbd
ffcf
ffa1
00ac
0023
00a9
ffe8
0029
ffae
ffde
0004
ffd0
0082
0062
003e
ff9e
fff3
004c
0022
0001
0043
0019
fff4
ff9d
0051
ffeb
fff2
ffff
ffdd
ffd8
0005
0066
007b
002c
ffe4
ffa6
0028
ffbe
0003
ff75
ffa7
ff69
ffd0
0055
0029
ffd9
0048
ffdc
ffbb
ffb1
ffb7
002a
ffbe
0023
ffd8
0030
ffcc
0001
0043
0004
fff4
fff1
000c
ffae
0010
ffc5
ffea
0057
ffd4
ffc9
0036
0044
0049
fff2
ffb9
00c9
ffe5
ffc7
ffbc
000d
ffc1
ffe2
0031
0028
003c
fff0
fff5
ff71
ffd4
0048
0079
0095
0025
ff84
0002
ffb5
002a
fff1
0000
0094
0030
ff4c
ffdc
ffe7
004f
ffce
0044
ffbc
ffa3
0042
0024
0005
00b0
0087
0083
0002
0064
ffff
0013
0019
ffff
004a
fffc
00bd
0071
0016
ff8d
ffc4
0009
ffa5
ffcf
ffe4
ff89
ffac
00d4
0008
ff7a
0037
ffeb
ffdf
002c
ffc0
011b
000d
ff5c
005f
ffca
ffe0
ff7b
00a7
ff8e
fefb
ffc2
0032
ff73
fffa
ffcb
002c
ffb7
0000
0000
0000
0000
0000
0000
fffe
ffff
0000
0000
0000
0000
0000
ffff
fffd
ffff
0000
ffff
0001
ffff
0000
0000
fffe
fffc
0000
0000
0000
0000
0000
0000
fffe
ffff
0000
0000
0000
0000
0000
ffff
ffff
fffe
0000
0000
0001
0000
0000
0000
0000
fffe
0001
0000
fffe
0000
0000
0001
0000
0000
0000
0000
0000
0000
fffd
0000
ffff
0001
0000
ffff
0000
0000
ffff
ffff
fffe
0000
0001
0000
000d
0001
fff6
0004
fff5
0004
000a
0001
fffb
ffff
0008
fffb
fffd
ffee
fffe
fff6
0000
0000
0002
fff0
fffa
fffa
fffb
ffff
0007
0003
fff7
0006
fffc
000e
0007
fffe
fff8
fffe
0008
fffe
0000
fff5
0000
fffc
ffff
0000
0004
fff5
fffc
fffc
0000
0000
fffb
0003
fffd
0007
fffc
000a
0000
fffd
0000
0004
fffa
fffb
fff5
0000
fffb
0001
0000
fffe
0004
fff6
fffb
fffd
003c
0045
ffe5
0012
0050
0054
0044
0011
0002
ffe4
0015
000a
ffc1
0006
006d
ffb9
009e
005a
ffae
0015
ffc0
ffda
0079
0045
0023
000a
ffec
ffed
00da
004a
005a
ffa4
ffc1
ff8d
ffbf
000b
0035
0088
00f2
0033
0087
0046
ff87
ffc7
0050
fff3
006b
0059
0011
00d9
ffd3
003a
00e8
00ad
fff4
ffb1
ffc4
005e
ff9e
0037
0106
0029
00a2
0059
0015
0039
ff7c
ffff
00fd
ffc1
0074
009a
0018
fff7
001d
fffb
ffe5
0004
000e
001c
0000
0002
001d
0005
fffa
ffea
0000
0013
ffeb
0002
fff8
fffc
000b
fffc
ffe8
000d
fff8
fffa
0017
000d
ffe6
0003
000b
0017
ffe4
0006
fffc
ffec
fffe
fffa
0014
0022
ffe7
0010
0000
fffd
0023
0008
0000
0019
ffea
fff3
fff1
000b
ffe9
fffb
ffea
0000
ffe3
000a
ffe4
fff2
ffef
0000
0007
0005
0000
0009
fffb
fff2
001f
0010
0008
0006
ffeb
0051
ffc0
005f
0054
004b
ffac
ff86
ffa7
ffeb
005f
0067
0095
00e8
0007
ffee
ffc7
ff9e
0007
003d
ffc4
000a
ff88
0042
0026
ffd5
0022
ffe0
000b
006d
ff89
ff98
ffe8
fff0
0041
0041
0045
00b6
0036
0004
004e
ff92
fffe
ffe1
000c
006a
0008
0027
0078
ffd2
0046
ffd9
ff8a
0002
ffd2
fffe
012b
ffd6
0036
ffc2
0062
ffee
003d
ffd6
00fd
ffdc
0066
ffc2
0033
006c
ffe2
ffe3
ff3f
00bd
ffb9
ff6d
ff07
ff44
ff9e
0015
0003
00ae
ff12
ff6b
ffd3
ff66
0009
ffc0
ffc3
00ac
ffd8
ffee
0090
002e
ffec
ff40
ffa3
0041
0000
0036
fed8
ffa7
0019
006f
0010
ffea
ff99
ffae
ff51
ffbc
002b
008d
0000
ffc9
ff8c
ffff
0041
ffe8
0050
ffad
fffc
0085
fffc
00a6
ffcc
ffed
fff8
0023
00a7
ff9c
000c
ff70
ffaf
0035
009c
0028
ffe8
ff86
ffff
ff83
ff94
003d
005d
ffa9
ffdb
000f
ffee
ffab
0041
002f
ff9a
ffd2
ffea
ffef
fff4
ffe7
fff3
fffe
ffc8
001d
ffca
000d
ffcf
ffe5
001b
0040
ffae
006d
ffeb
0021
fffc
ffcd
0000
0045
ffe3
0029
fff0
fff7
ffb8
fff2
0010
fffb
0046
ffea
ffd2
ffe1
000e
002a
000b
0040
0053
ffed
ffff
0021
ffce
ff84
0016
0003
fffe
0025
ffec
0023
ffe7
0009
ffcd
001f
005e
ffa6
fff4
0074
ffe4
ffd4
ffaf
0067
0062
ffab
fff0
0034
ffab
ffe4
ffda
002f
ff89
001e
0003
00cf
ffa5
ffab
0032
ffd6
fefd
ffc7
0048
0042
ffd7
002e
001d
ffd7
ffd8
ffd1
fe8e
0029
0054
ff7e
0011
0023
ff78
ffd4
0057
0090
ffef
fff9
0000
000d
fff1
ffdc
00a2
0000
004a
0016
0018
0011
0046
ff71
ff2f
010b
ff8f
ff85
ff34
ffe6
ff65
ffd7
00a7
009f
ffa6
001a
ff96
ff60
000a
ff66
008b
ffa6
0062
ffd5
ffa6
ffc6
ff87
ffce
0000
0000
0000
0000
0000
0000
0000
0000
0000
0000
0000
0000
0000
0000
0000
0000
0000
0000
0000
0000
0000
0000
0000
0000
0000
0000
0001
0000
0000
0000
0000
0000
0000
0000
0000
0000
0000
0000
0000
0000
0000
0000
0001
0000
0000
0000
0000
0000
0000
0000
0000
0001
0000
0000
0000
0000
0000
0000
0000
0001
fffe
0000
0000
0002
0000
0001
0000
0000
ffff
0000
0000
0001
0000
0003
000b
0003
0005
0007
fff5
0004
0000
0003
0008
0003
0003
fffe
0006
fffd
fffd
0001
0000
0000
0004
fffa
0003
fffe
0006
0003
0006
fffe
0003
0005
fff4
ffff
ffff
0001
0000
ffff
fffe
fffe
0003
fffb
0000
0001
0003
0000
0003
fffb
0004
fffe
0002
0005
0002
0003
0002
ffff
fffc
0000
0002
0004
0004
0001
0001
0000
fffc
0006
0002
0006
0003
0005
0001
fffa
fffe
0000
ffd6
ffde
0033
0076
ffe7
0026
005e
ffe7
ffaa
000c
002e
ffdb
ff81
0030
ffa7
0005
ffe3
ff0b
0089
0075
ffc2
0061
0022
0021
fffe
fff5
00e2
ffd4
0039
0047
0062
000e
ffdb
ffd8
008e
ffac
ff52
ff8d
ffd3
0027
0034
ff02
0029
0038
0024
fff3
fff5
003c
ffe4
ffe9
fff0
ffec
0095
0086
000d
0016
fffb
ffa9
0030
007a
ff23
ff97
0085
0026
0070
ffbe
00b4
008f
0045
ff6b
ffe6
003e
fffd
0014
ffee
0002
fffe
000b
000f
fffc
ffed
0012
0005
0013
ffff
ffff
fff9
fffe
fffb
0001
fffa
0001
000e
0000
ffe7
fff5
fff9
000f
fffd
fffe
fffa
fffb
0005
ffff
fff9
000e
fffd
0019
0003
0000
000f
fff9
fffb
fffa
0000
0013
001b
fff5
ffed
fff5
fff9
000f
0006
ffef
000c
ffe9
000f
0004
0003
0016
ffe8
000f
000a
fff5
001c
ffff
fff9
fffb
fff5
000e
000f
ffdd
fff3
fff4
0023
00a2
ffe6
0025
ff89
fff3
0058
002e
001c
00c1
001d
009a
ffc3
00bc
ffe6
0004
0058
004a
fff1
0001
ffdf
008f
000d
ffe6
ffd4
ffc5
ffe6
fffb
0011
ff63
ff9e
001a
001b
0008
ffeb
ffd2
ffee
0050
000a
ffef
001d
ffcb
0007
0009
0042
0020
0021
ffe4
ff98
0011
0008
009c
0029
ffa3
ffaa
0012
fff9
002c
0015
002d
0052
0081
ffc9
0000
0036
0089
ff9e
fffe
0015
0075
004a
001f
0006
0009
0016
ff47
ffce
0012
0094
ffe2
ffc3
0037
0098
0029
fff5
0058
007f
fffd
ffe8
002e
ff91
ffdb
ffce
0065
ffdb
fffa
0013
0032
ff30
ff5e
0011
0023
ffd0
001c
001f
005f
ffa9
0056
ffee
0045
ffe1
0030
0014
0067
ffde
0033
0027
00c5
ff3f
ffec
fff5
ffbf
ffc8
fff1
0010
0004
fffd
0035
ffe0
ff78
ffbe
ffd3
006e
fff5
ff62
0034
0023
ffeb
0040
004f
ffbe
0029
ff67
0027
ffec
007e
0012
0018
0005
ffd1
0026
ffea
ffc6
0020
ffd6
000c
001b
0002
ffa3
ffe8
0023
0040
ffef
ffb8
fffe
0004
ffbb
000c
ffe9
0032
004f
ffc0
ff93
ff89
fff1
0006
ffb7
0002
ffc4
0045
ffed
ffcd
0010
0013
001b
003f
ffe0
004c
0028
ffda
0030
0003
fff6
002d
0043
ff9c
0000
ff87
0001
ffef
fff5
0019
001a
0024
001d
ffcf
ffdf
0003
0006
0035
0015
001b
0000
ffad
ffda
ffe9
0000
004c
0041
ffe9
ffbc
ff83
0054
ffeb
ffbc
0057
0007
ffd7
ffd5
0031
ffaa
ffef
0042
fffe
ff64
ff8b
ffed
004d
ffe5
0004
002e
fff0
001e
0067
ffd4
ffe4
ffc9
ffe4
002f
002e
ff62
001a
ffe7
0017
ff90
000f
00ad
ffe8
ff52
fff2
0044
0000
ffa4
000e
0030
004d
006c
0050
ff97
ff31
ffb3
ffcd
ffef
002a
ffee
0049
005a
ff8f
003d
ffda
0019
ff9f
ffae
002a
0023
ff95
ff91
fffb
0000
0001
0000
0000
ffff
0000
0000
0000
0001
0000
0000
0000
fffd
0000
0000
0000
0000
0000
ffff
ffff
fffd
0000
0000
0000
0000
0000
0000
0000
fffe
0000
0000
0000
0001
0000
ffff
0000
ffff
0000
0000
ffff
0000
0000
0000
0000
fffe
0000
ffff
0000
0001
0001
0000
0000
ffff
0000
ffff
0001
0000
0000
0000
fffe
0000
0000
0000
0000
0001
0000
0000
ffff
0000
0000
ffff
0000
fff8
0005
0002
fffc
0003
fff3
fff8
fff0
0004
0001
fffd
0003
0000
0006
0006
0005
0000
0003
0001
0004
fff1
0000
0005
0002
fffb
0001
0007
fffd
0009
fff2
fff5
fff9
0006
fffc
fffc
0002
0003
0006
0003
0004
0000
0002
fffd
0004
fff5
0001
0007
ffff
fffb
0001
0000
0000
0005
fff9
fffc
fffa
0004
fffd
fffe
0001
0000
0002
0005
0008
0003
fffb
ffff
fff4
fffb
ffff
fffd
ffff
00b7
004d
ffd0
0048
0073
0007
0015
0086
0065
00b3
0008
fff6
0074
0037
0008
00b8
fff9
0011
ffc7
0049
ffd9
0090
ffde
00b2
ffcf
ffba
0046
0072
fff0
fff9
002c
ff5a
0022
0045
ffd5
0043
ffc5
ffd7
002f
ffd8
0015
005f
ffee
ff63
ffd6
00bb
0056
fffd
ff91
ffc6
0049
ffea
004c
0060
0023
ff5c
ffd0
0051
ff6f
0033
ffcb
ffcf
0039
ff98
0079
005b
005c
ff7f
ff7e
003c
009b
ff4c
0003
0014
000d
0010
0000
fff8
0004
ffe8
001b
0005
0003
fff5
0005
0009
000f
0006
0007
fffb
0006
fffc
0006
fff6
0014
ffeb
fff0
0008
0026
0011
fff6
0000
fffb
fff5
000c
fffe
0019
fff9
0001
001a
fff9
0018
ffe9
fffd
fffe
fffd
fff9
0009
0007
0005
ffff
0005
000a
0017
fff6
ffec
ffdf
fff5
0015
ffff
fffa
0008
ffea
000b
ffea
000c
fff7
0006
ffe8
fffe
fff8
fff4
0013
fff9
0013
000d
0021
ffc8
ffdd
002d
0025
ffc0
ff46
ff78
ff62
0018
ffa7
0066
0085
0006
ffb0
ffd0
00a8
ffd5
ff69
0051
ff64
0053
ff5b
000a
fff4
ffec
0035
ffea
0052
ffc1
ff25
004d
fff3
0072
fffd
0016
0016
ffc2
ffec
003f
0080
0046
0022
0004
ff79
005f
00c3
ffd1
ffbf
ff95
0031
0086
0035
fed3
0049
0029
ffe7
fffb
0039
004c
008f
ffb4
0078
0081
ffd6
ff57
0005
002a
0032
ffef
0066
0014
00c1
ffbc
0016
0051
0004
ffbd
0018
0011
001c
ff7a
ff66
005e
001c
0010
fff2
ff98
fffc
fffd
0022
ffee
ff63
0005
ffd0
ffb7
ffb9
ffe7
fffc
ffdb
ff92
ff65
002f
005e
ff97
0000
ff83
0037
ff7b
ff96
ff4e
002d
0068
ffd3
0034
002b
ff84
ff1b
ffc3
006b
001f
ff9d
0061
ffdf
ffaa
ffde
0086
0088
ffea
000e
002f
ffd4
ff66
ffce
0008
0080
0021
ff76
0049
0039
ffae
ffbe
fff1
fff0
ffee
ffc0
0040
ffc6
003d
001c
fff4
002a
0037
ffff
ffc9
0038
0035
ffd5
fff3
0053
001f
0016
ffd2
ff32
ff8d
ffa8
ff9a
004f
ffe4
000c
0088
ff76
0066
ffeb
ffd2
004e
004e
ffd8
004d
ffa2
006a
ffc4
0006
009f
005a
fff1
ffc6
ff86
ffa8
ff97
ffcc
0048
ffbc
0043
0063
0008
0000
ffdb
ffca
006b
0000
ffb6
0039
ff6b
ffab
ff7e
0028
0078
fff5
ff8b
fffa
fff7
ff4e
fff5
0025
ffe0
ff7a
ff3b
006b
0000
0095
0088
fffb
ffbe
ffae
006b
001b
0018
004f
002d
ffd3
ffc9
ffd1
ffd0
0009
ff9f
ffe8
001f
006e
ffbe
ff5d
ff98
0029
0014
0096
0032
0042
ffa2
ffac
0001
fffb
0093
ffd6
ffc1
0024
fff9
ff83
0000
ffcb
ffe6
ff98
003a
ff96
fff3
0032
ffb3
000f
ffe1
ffd0
fff8
0007
0045
ffd5
ffee
ffd5
0004
ffc7
ff2f
0031
001e
fff0
ffee
0019
ff89
004a
003f
0000
0000
0000
0000
0000
0000
0000
0002
0000
0000
0000
0000
0000
ffff
0000
0000
ffff
0000
0000
0000
0000
0000
0000
0000
0000
0000
0000
0001
0000
0000
0000
0000
0000
0000
0000
0000
0000
0000
ffff
0001
0000
0001
0000
0000
0000
0000
0000
0000
0000
0000
0000
ffff
0000
0000
0000
0000
0000
0000
0000
0000
0000
0000
0000
0000
0000
0000
0000
0000
0000
0000
0000
0000
fffc
fff2
fff6
fffb
0009
0002
fffd
0005
000c
0004
0002
ffff
fffc
0000
0001
0005
0002
0000
0001
fffd
fffc
0002
0002
fffd
fff8
fff2
fff7
0000
000b
0002
0000
ffff
000a
0005
0002
fffb
fff6
0000
0000
0006
0002
0001
0002
fffd
fffc
0000
0001
0002
fffe
fff9
fffe
0004
0000
0000
0003
ffff
0000
fffd
ffff
0000
0003
fffb
0000
0005
fffa
fffb
fffd
0002
0003
fffd
0000
fffb
fff8
000e
fff5
ff93
ffa6
ff40
fff8
0030
0046
0070
001b
0005
0035
ffc3
ffdb
ff95
0058
0025
0018
0047
ffd2
0028
ff7f
ffb0
0000
fffd
008a
ffdc
004c
ff43
000e
0081
ffff
0031
ff91
0019
00b3
ffad
ffd0
ffd4
002c
0099
ffef
0061
0046
0038
ffd7
0015
ffc4
0017
0080
ffc5
00fe
feb9
009b
0058
0032
0029
003b
0007
011e
fefe
00a1
002f
0002
0077
ffab
003d
00f6
ff77
fff4
007f
0005
ffe9
fffb
fff2
fffa
fff6
fffd
001a
fff4
ffe4
0012
fff6
0004
ffed
fff8
ffde
001d
fffe
0016
000d
fffa
000a
ffec
0006
0007
ffe9
fffb
fff2
0005
ffe9
fff6
0021
0000
ffe9
fff2
fff5
0002
fff2
fffc
000a
0027
000f
0003
0007
fff8
0018
ffff
0012
000e
ffef
0001
fff3
fff8
0004
000d
0017
fffd
ffd9
fff3
fff1
fffd
0000
0000
fffd
0027
fff7
fff8
0004
0008
0022
0008
0005
000d
ff89
0042
ffc0
fff7
ffa3
ff5c
ffae
00c0
ff65
0038
0035
ff6d
0087
ffa5
ff73
008a
ffa5
0022
fff1
ff74
000a
ff8e
0017
0012
005e
ffff
0035
000d
0011
ff6a
fff6
0051
ffe3
fffc
ffef
fff7
001c
ff72
ffed
0008
ffdb
003b
ffc2
0074
fff6
ffcb
0037
0054
00ce
0006
001d
ff2f
fff1
ffa9
ff06
0063
0031
ff87
001d
ff13
ff88
ffc6
ff0f
006c
ff64
0004
0033
ff8d
ff39
ffe4
ffaa
002b
0094
ffa7
001d
0017
001b
0066
00ac
003e
0070
ffcd
ffad
0030
000f
007c
ffe4
fff3
ff75
ff5f
ffca
0053
003c
ffb5
ff50
ffe2
ff11
ffe7
ffd4
00a0
ff97
ffbb
ffe9
ffcd
000a
ff8b
ffce
fff9
ffa8
000a
0021
ffab
0024
0060
006d
ffe3
002b
ffca
ffb7
ffe3
ffbc
0037
ffa5
0043
ffc8
ff8e
ffe1
ff3f
ffaf
ffdb
0024
ffd2
0009
002c
001e
0070
ffce
ffb6
008c
fff1
00b1
00b1
ffde
0039
ffb3
ffc7
ffab
fffd
0019
0011
ffde
fff1
ffc7
0041
fff2
ff89
002a
ffee
0017
ffe3
ffc5
000c
fffd
ffe8
0024
ffa6
ffb9
ffe7
ff7c
ffb8
ffbd
0030
0024
0063
ffc6
000a
000d
ffb1
0006
0000
fff5
0028
003b
ffda
fff6
002f
0013
006f
0017
000e
ffcd
ff7d
ff99
ff88
ffa4
ffe4
ffde
004d
0002
ffe7
0019
ffd4
fff0
ffe6
ffe9
0000
0018
001e
fff7
0056
ffe6
0043
ffdd
ffeb
ffcf
ff6f
ff93
ff96
0068
0000
ffb9
0093
ff71
000e
000b
fffa
0040
ff7d
ffe3
005d
007b
00a3
ffb0
0049
0020
ffc8
0003
ffc8
fff8
ff66
ff6a
ff77
ffea
fffd
ffb2
0003
fef1
fff6
ffae
ffb4
0063
ff7d
ffba
005a
000c
0040
ff5b
005d
ffda
ffd1
0035
ffc7
ffdd
ff33
ff9c
ffaa
ffa9
00e6
ff90
ff8f
ff96
ff94
ffc4
ffbd
ffbb
004f
fee3
ffa7
fee4
0051
ffa3
ffbf
007d
ffc1
ff8d
ff79
ff25
0000
0000
0001
0000
0000
0000
0000
0000
0000
0000
0001
0000
0000
0000
0000
0000
0000
0000
0002
0000
0000
0000
0000
0000
0000
0000
0000
0000
0000
0000
0000
0000
0000
0000
0001
0000
0000
0000
0000
0000
0000
0000
0001
0000
0000
0000
0000
0000
0000
0000
0000
0000
0000
0000
0000
0000
0000
0000
0000
0000
0000
0000
0000
0000
0000
0002
0000
0000
0000
0000
0000
0000
fff8
0006
0006
0008
000a
fff2
0000
0004
0008
fff8
fffb
0001
0000
000c
0000
0002
fffe
fffb
fff9
fffa
ffff
0006
0001
0002
fff4
0008
000c
0004
0003
fff8
0004
0000
0005
fff7
fffb
0000
0005
0011
ffff
0000
0000
fffc
fffb
0000
0003
0009
0000
0005
fffa
0004
0005
fffe
ffff
fffe
0004
0002
fffc
fffc
0003
0001
0005
0003
ffff
fffd
0000
ffff
0003
0002
ffff
0000
0004
fffb
0018
0008
ffaf
0032
ffe2
0072
00cb
0061
0016
ffda
ff99
ffe6
ffcd
0034
0058
001b
ffe1
00e7
ffbb
0062
0085
ffca
ff9e
000e
001e
ff53
ff33
0087
ff7f
001f
fffd
008d
ffcb
ffc6
0008
0001
ff7e
ff5d
0026
0007
ffe2
0077
ffb1
0047
00d3
ffc0
0022
ffe6
0022
0073
ff1a
001a
008b
00f5
0000
005d
ffdf
ff93
006a
00a1
0037
00c1
fff8
ffdd
001a
ff46
001b
0083
00a2
00e9
002e
ffb7
fff2
fffd
ffe1
0001
0005
0015
0021
0000
fff5
fffc
fffd
fffd
fff9
fff1
ffe2
0004
fff3
fff4
fff5
fff8
001d
fff1
fff2
0013
fffb
000a
0006
0001
0009
002a
000f
0009
0000
ffeb
0002
ffe8
0008
fff9
ffe3
fff8
0003
fffc
0000
fff3
0013
0008
ffe9
fff5
fffc
0019
fffd
fffc
000d
fffd
000b
fffa
0000
fff4
0002
0002
0016
ffe6
000c
ffea
0001
fff0
0009
fffc
fffd
0003
fff6
fff9
0049
0013
ffef
007d
00c6
001b
0030
0008
0017
007c
ffc9
00d1
00e5
ffeb
ff8d
0077
0034
0065
0003
00d9
005b
ff45
0014
0038
0045
ffdf
0005
fff3
003d
0037
0006
0024
ffed
0045
002b
ffb8
ff86
002a
ffc3
004c
000b
0022
ffb2
0075
ff87
ffed
ff9e
0000
00b0
fffa
fffe
0041
ffc3
fff1
ff66
ffad
002f
fffe
ff8e
003d
ff83
006f
ff6a
008a
0068
ffec
ffc2
0072
ff9a
005a
feba
fffe
fffc
ff2d
ffc7
ffd7
fee3
ff5c
00bf
ff48
0024
ff94
fff3
0002
fe6a
ffc1
0115
ff4f
ffd6
fff9
008c
00f3
003c
00db
00a3
fffe
ffaf
0023
ff6b
ffb9
0022
ffb7
0094
ff9b
ffd5
fff4
ffe1
ffcc
ffd7
ff1d
00bf
ff25
ff55
0001
0072
00a1
0051
003d
002f
0024
ff9c
fff8
ffaa
0030
00a0
0012
0077
ff98
ffb1
ff78
0040
0113
0062
ff8c
001d
ffc4
ff77
003f
fff8
011c
ffed
004d
ffb5
004a
0055
0068
0020
ffce
ffed
0005
0006
ffb2
fff5
ffd7
003c
ffc1
fff0
fff0
0034
ffd2
fff5
003e
fff4
ff6c
0002
002a
fff2
fff0
005d
ffea
000d
fff4
ffbe
ffbd
ffea
ffa5
fff9
0006
ffd7
008c
ffd1
fff9
ffe6
ff9b
fff4
000a
0025
000b
0039
0004
001e
ffcf
0039
ffb5
ffe9
ff7d
ffde
ffd2
0046
ffc0
0006
0017
0001
0010
ffbf
fff0
0022
ffcd
fff7
000f
ffba
0013
0055
0055
ffac
ff8e
0025
ff69
ffa1
000c
0005
ffc3
0010
0060
0031
ffbe
ff39
0024
ff79
0079
ffeb
0069
0000
0081
0020
ffa5
ffa0
000e
ffb1
ffe9
ffc7
002e
000e
000d
ffc7
ffc6
0020
ffd1
0000
ffc9
ffb5
004c
fff2
ffcf
0009
006b
fff0
ffe8
0013
fffb
fffd
ffb4
ff60
ffff
ffc7
00f7
0031
ffa1
ffc9
ffb1
006e
0008
fff0
001b
ffbe
007e
003a
0085
0048
001f
ffb0
ffd2
fff1
00e3
001a
ffc6
003c
008d
ffff
0000
0000
0000
0000
0000
0000
0000
0000
0000
0000
0000
0000
0000
0000
0001
ffff
0000
0000
0000
0000
0000
0000
0000
0000
ffff
0000
0000
0000
0000
0000
0001
ffff
0000
0000
0001
0000
0000
0000
0000
0000
0000
0000
0001
0000
0000
0000
0001
0000
0000
0000
0001
0000
0000
0000
0000
0000
ffff
0001
ffff
0000
0000
0001
0000
0000
0000
0001
0000
0000
0000
0001
0000
0004
fff8
fff8
fff8
0002
ffff
0006
fffb
fffb
0001
0003
0007
0000
0000
ffff
fffc
fff3
0006
0005
fffb
0000
ffff
fff3
fffa
0005
fffa
fffe
fff7
0004
ffff
0007
fff6
fffc
0000
0003
000b
0000
0000
fffd
fff7
fff6
0005
0002
fffe
0000
0000
fff6
fffb
0002
0000
0000
fff9
0000
0000
000a
fffb
fffe
0000
0006
0000
0002
fffd
fffd
0000
fffe
fffc
fffa
0007
0000
0000
fff3
0001
0080
fff2
004b
007b
0020
0000
0027
0036
ff95
ffe5
fffb
ff98
0018
0000
fffd
004e
ff7a
0059
ff5b
ffc3
fffa
0002
ff47
007d
0045
ffb4
002e
0080
0047
ffff
0039
ffc5
ffa2
ffdb
0010
ffe4
fffc
fffd
0083
ffe1
ffea
ffe7
0009
ffb9
002c
0005
ff92
0020
009d
ff96
0035
ffa8
ffd7
0000
0001
fffd
0097
002b
ffcc
0012
ffbb
fffc
0045
005a
0001
ffc0
ff31
0003
0022
0000
ff84
0058
fffe
ffea
0006
000a
fff3
0000
0001
fff7
0014
ffea
0016
fff6
fff7
ffff
fffe
ffe9
0014
fff2
0008
fff8
0008
0000
0001
ffe7
fffc
0004
ffff
fffd
ffe6
ffff
0002
0002
000d
000a
0000
ffef
fffa
0000
fffc
ffef
000c
fff6
ffe6
0003
0010
0000
fff1
ffff
fff4
000b
0019
ffed
fff3
0000
0004
0000
0004
000b
000b
ffe9
ffff
0000
fff9
ffe7
fffe
000c
0008
0000
0005
0000
ffe9
fff3
0034
00c7
0096
004d
ffe4
ffff
ffce
0031
0021
00a6
00d0
008c
0012
ffff
002f
004a
005c
0048
0032
001f
0013
0000
002a
0015
ff10
006a
ff99
0031
ffd4
ffff
0016
0046
ff18
ffb4
fffc
003d
ffe3
0000
0046
0038
ff52
ffa9
003d
0025
0049
0001
005e
001e
0019
008a
ff69
0056
ff9e
ffff
0053
001a
004d
0063
fff1
0023
ff90
0001
00a7
006d
0063
007f
0010
ffb4
ff74
0003
ffe2
ffcd
ff20
ff15
fffe
ff80
002a
0000
ff8b
0026
ffcc
ff7e
0033
ff61
00ee
0000
0006
00b6
ff88
007c
0002
ffad
fff7
ffff
ff9b
0011
ffc9
ffd8
001d
001b
ffd8
0001
fef8
ffce
0019
ffea
ff88
0071
ffb0
0001
ffc5
ffd6
fffb
0005
0057
ffe1
ffc4
0002
0002
ffe1
0030
ffe1
fff3
000f
ffca
0002
ff6f
ffa3
ffb1
000c
ffba
0011
ff25
fffa
000d
ff12
ffc2
0004
006f
ff46
ffc1
0000
ffb8
ffc7
0000
0039
0015
fff7
000c
fffd
ffeb
ffdf
fff3
004e
003f
002c
004b
0004
002e
ffb5
0034
005d
003a
fffd
fff1
000a
fffa
0053
0042
0032
000b
0007
ffc1
0004
0048
ffed
ffd3
fffa
ffd2
000e
000f
0001
005f
0010
0020
0001
0014
fff1
0041
0003
0011
008f
0005
000e
fffd
001b
ffee
ffff
0026
0039
0000
002c
0007
0025
ffde
0001
0016
fff5
fff9
ffd1
0038
fff5
0021
0001
ffdd
0029
ffdc
ffd1
ff4a
00d7
0028
0000
ffda
ff96
ffbd
003e
ff34
005c
fffd
ffff
fffe
000c
ffd2
ffa3
ff3b
ff59
ffe8
ffff
0019
0077
ffa3
ffcc
0050
0130
0094
0000
0019
ff47
ff8d
fff2
004a
0067
ffc6
ffff
0045
0032
ffc2
ffd8
ff9c
ff9e
00d9
0000
0084
00b4
006e
ff6c
ffc6
004f
0056
0000
ffef
ff68
006a
003d
ffcd
000f
0066
0000
0015
ff70
0013
00c7
002a
ffb6
0000
0000
0017
ffbd
ffff
0000
0000
0000
0000
0000
0000
0000
0000
0000
0000
0000
0000
0000
0000
0000
fffe
0000
0000
0000
ffff
0000
0000
0001
0000
0000
0000
0000
0000
0000
0000
0000
0000
0000
0000
0000
0000
0000
0000
0000
ffff
0000
0000
0000
ffff
0000
0000
0000
0000
0000
0000
0000
0000
0000
0002
ffff
0000
0000
0000
0000
0000
0000
0000
0000
0000
0000
0000
0000
0000
0000
0000
0000
0006
0008
fffd
0009
0007
fff8
0004
fff4
ffff
fff9
fffe
fffb
fff7
0004
0003
0007
0001
fff8
fffd
ffff
fff4
000b
0002
0004
0003
0009
0000
000b
0006
fff8
0001
fff8
ffff
fff9
0000
fffc
fffc
0006
0002
000f
0006
fffc
fffe
fffd
fff5
0004
0004
0006
0007
0004
fffd
0006
0009
fff8
0002
fffe
ffff
ffff
fffe
fffd
ffff
0006
0008
0000
0003
0001
0000
0001
0001
000a
0000
0004
ffc7
fffc
fff0
0066
ff36
0003
0035
001c
ffa9
0074
0037
0090
ffff
fff9
0058
ffee
ffca
0001
0006
003f
0083
002d
007e
ff91
ff7d
0091
0049
0024
ff8a
00a0
0036
008a
ff72
012c
002d
0023
ffdd
0159
001a
008d
ff3b
fff4
0022
ffe5
0029
00b7
0078
fffc
ff7b
ff8a
0028
0044
ffa7
003c
ffd1
ffcd
ff95
008a
0062
0040
0014
0118
000b
00d2
ffb7
002a
ffcf
001e
0083
0138
0085
0065
fff6
ffef
0000
fffa
fff1
ffed
fff6
fffd
0019
fffa
0003
0008
ffed
ffe9
0004
fffe
0034
0000
fff2
001f
ffde
fffb
001a
fff5
ffe0
ffed
0007
ffed
0000
ffff
000b
fffd
0026
fffa
0000
0002
000b
fff7
fffe
0012
001f
ffff
fffe
0005
fff4
0004
0000
ffff
fff6
000d
fff0
fffd
fffb
ffff
0001
fff8
000e
0008
ffed
fff2
0004
000c
0003
0000
fff8
ffef
fffa
fff8
fff5
0000
fff0
ffed
ffbe
0123
0061
ffb6
ffc5
ffe9
ff94
0003
0013
0058
004d
fffb
ff6d
0057
ffb5
00a9
ff2b
0094
0028
001b
002e
fff4
0096
006a
ffde
0025
0077
0045
002e
002a
ffeb
ffab
fff2
ffaa
002c
00de
001b
00ab
002c
fff1
ffc2
ffe6
ffd8
0089
ffdd
0017
006c
fff7
0043
004f
0057
001d
ff85
ffee
ffac
0038
ffa2
fff7
004a
0089
ffa5
0071
ff55
009f
ffcb
ffbe
ffeb
0047
ffa0
ff8b
ff71
008a
0045
0099
ffb9
ffbe
001f
0024
000e
ffd5
0009
0103
0065
002b
002f
ffb0
0000
0034
ff8b
00a6
004c
ff7b
0000
ffd9
ff75
00d1
00b9
001c
ffe7
ffd7
ffd6
005a
005a
ffeb
0012
0057
fff3
ff75
000c
ffe0
0086
00dd
001b
fff2
ffa8
ffe9
000a
ffba
0023
0052
012e
ffdf
ffbc
0021
ffd7
0012
002a
0094
ffc9
ffda
ff7b
ffd4
ffb8
0034
002e
011a
ffd2
0052
ffab
000d
ffcd
ff9d
0079
002c
0026
fff3
ffca
0032
fff9
ffd6
0002
ffcd
0055
0023
0004
0055
ffb2
0015
ffd8
fff3
ffe1
ffeb
0017
0023
ffda
0010
ffc1
001b
ff6c
ffc0
004e
ffce
ff96
fffa
0069
0006
003f
0000
0054
ff90
ffa2
0040
ffd4
ffda
ffa3
fff2
001b
0027
ffd3
ffc8
001a
ffe8
ff95
000c
0051
004a
ffca
0022
001d
003a
0051
ffd0
004c
ffde
ffa8
ffb0
002a
0031
004e
002c
ffea
ffb8
ff83
ff55
ffea
000b
ff91
0048
ff8e
0072
0077
ff93
0011
ff85
011f
0017
0033
0095
0026
ffdb
0045
fff4
fff1
0034
0012
ffff
002a
00d9
ffdf
002e
ffab
0022
ffb6
ffcb
0064
fef9
000a
fee9
008b
ffef
0028
ffc1
0062
ffa1
0009
fefc
ffbe
0049
ffe2
00a3
fff1
0096
ffdf
ff93
000b
0073
fef8
004e
ffc4
fef3
ff9e
fefa
0090
ff5a
ffcc
ff69
ff92
ff77
ffca
fff8
ffff
ff54
0028
ffe4
ffd4
00d6
ffcc
ffe5
0000
ffff
0000
0000
fffe
0001
ffff
0001
0000
0000
0000
0000
ffff
0000
0000
0000
0000
0000
0000
0000
fffe
0000
0000
0000
0000
ffff
0000
ffff
ffff
0000
0000
0001
0000
ffff
0000
0000
ffff
0000
0000
0000
0000
ffff
0000
0000
fffe
fffe
0000
0000
ffff
ffff
0000
0000
ffff
0000
0000
0001
0000
0000
ffff
ffff
ffff
0000
0002
0001
0000
0000
0000
fffe
ffff
ffff
0001
0000
0003
fff2
000f
0005
fffa
0002
fffe
fff6
0000
0004
fff9
0003
fffb
0001
0000
000f
fffe
0007
0000
0001
0000
0004
0004
0003
0005
fff7
000d
0001
0001
0004
0004
fff1
fffb
0004
fff9
fffb
ffff
ffff
0002
000d
fffd
0007
fffe
fffe
0002
0000
0005
0004
0004
ffff
0006
0001
0008
0003
0005
fffa
fffd
fff6
0000
fffe
0000
0001
0005
0000
fffa
0001
0000
fffb
ffff
ffff
ffff
0004
ffa2
ffca
0001
0001
ff6b
0015
0122
fff4
ffd6
001e
ffa5
0015
ff49
0062
005a
ffc2
ffff
ff09
fff9
0077
0066
fff6
ff9c
0010
fff2
fe85
ffe8
ffaa
ffeb
ff7f
002b
0021
ffba
feab
ffe5
ffd8
ff35
fffe
0018
ffbb
ffdc
fefa
ffe9
0018
fffc
ffa9
ffb7
0031
004c
ff6c
0051
ffb5
ffd0
003c
0058
004b
007d
ff8b
00bb
ffce
ffbf
ff3d
0099
0018
000f
ff5c
00d8
0079
ffcd
ff11
008f
0062
0004
0008
fff2
fff9
0013
0005
001b
fffd
0008
fffc
0005
0010
0015
0000
0023
ffef
ffec
0001
0004
0003
0010
0014
003b
fffb
fffa
0003
ffec
0007
0014
0025
0013
0004
ffff
0008
0013
0004
0014
000d
0010
0001
fff1
000d
ffff
000f
0006
000d
0007
0000
fff7
fff8
ffef
0000
0001
0011
0012
0004
fffc
0003
0002
0008
0007
0013
000c
fffe
0000
0003
ffe9
0017
fffe
0009
fffa
fffe
ff8c
fffd
ffe3
0065
007c
001f
ffec
0039
0035
ff63
fff2
ffa9
0046
0009
0109
0052
007a
ff49
0030
0066
ffb7
0044
0060
0004
0069
ff51
004a
ffeb
0022
0009
0007
000f
0015
fed8
0059
ff88
003a
ffc9
0097
0020
001f
ff90
0046
000f
0019
0090
0020
001b
ffdf
ffa6
00f6
001d
ff87
ff3a
00a4
0040
ffd2
ff83
010c
ffac
ff88
001f
001c
0029
0000
ffbb
001b
008f
ff9e
004a
006d
0057
ffd3
fff9
002c
0015
ffe0
001a
000e
ffee
004f
ffc8
008d
ffb0
ff60
0019
ff59
ffcd
ffc7
0025
ffb1
ff75
001c
ffd4
ffcc
ffe9
ffc8
fff3
006c
0076
005a
009a
ffb1
ffd2
ff9f
ff90
ffeb
005b
0029
0046
ff75
ffd8
fffc
000d
ffbb
004c
0015
ffc9
ff99
ffe7
ffe8
0054
ff59
009b
0043
003a
ffb5
ffd8
ff1b
000d
0058
0084
0006
ffd3
ffb2
ffb6
ffd9
fff4
ffa9
00c3
ff7f
ffbd
ffec
000c
0045
ffa7
0008
004d
ffdd
ffd1
ff56
ffed
0012
ffef
0020
0011
ffc0
fff8
ffbc
0025
0006
ffec
0050
ffd6
0035
0020
fff4
003f
0012
ffc2
002d
004f
fff0
fff9
0027
001c
002e
ffff
000b
002e
fffd
000d
000a
0048
004b
001d
ffeb
002e
003e
ffa5
ffdc
0032
0007
ffb0
0061
fffb
001c
fff7
0017
0001
002a
0067
0049
ffef
fffc
ffdb
0078
003a
0020
005c
ffc3
ffc4
000d
ff9a
fff1
002a
0023
0001
001d
ffc7
ffb4
ff54
005c
ffdc
ffd0
ff72
0021
ff97
ffad
ffdb
0019
ffc1
ffd6
ff9c
ffd8
fff6
ffb3
002f
ffe4
ffac
007e
ffec
001d
006e
0017
0027
ffe4
ffc3
0000
ffe3
ff54
0007
002d
ffc8
ffe7
ffba
ff63
ffc4
ffcb
0000
0026
ffd8
ffb8
ffca
ffbc
ffca
ffa8
00df
ffdf
ffd5
ff80
0027
ff77
ffe9
ffb6
0024
004a
ffeb
ff9f
ffb8
ff2d
ff55
002d
002c
0067
ffa0
002a
0006
0000
0000
0000
ffff
0000
0000
0001
0000
0000
0000
fffe
0000
0000
0000
0001
0000
0000
0000
ffff
0000
0000
0000
0000
0000
0001
0000
fffe
0000
0001
0000
0001
0000
0001
0000
0000
0000
0000
ffff
0000
0000
0001
0000
0000
ffff
0000
fffe
0000
0000
0001
0000
0000
ffff
0000
fffe
0000
0000
0000
0000
fffe
0001
0000
0000
0000
0000
0000
0000
fffe
0000
0000
0000
0001
0000
0006
ffee
0004
0006
fffa
fffe
0007
0003
0000
000c
0002
fff7
0001
ffff
fffc
fffe
0000
0007
ffff
fffb
0002
0000
fff8
fffb
0004
fff6
0006
000c
0007
0002
0005
0002
fff8
0010
0000
fff9
0000
fffc
fff9
fffd
fffe
0006
0000
fff9
0003
ffff
fffd
fffd
ffff
fffc
0005
ffff
0005
0005
ffff
ffff
0003
0000
fff6
0001
0001
0000
fffc
0000
fffa
ffff
0000
fffe
0002
0002
0000
0001
00a2
000e
fffb
ffcd
0055
000d
0020
0046
ff87
ffcf
ffed
ff4e
0098
0001
ffcc
ffee
fff3
003a
ffa4
ff97
ffca
fff5
000c
0033
0038
ffaa
ff87
ffe2
003c
0078
ffd1
0082
ff4d
ffa7
003a
0019
0007
0063
0003
ffe8
ffab
ffd3
0040
006e
ffc4
0025
0008
fff8
0038
0057
ff7c
002d
ffa3
0024
ff86
0044
0047
ffc2
ff5f
003d
ffb7
fffd
ffc6
0054
fff5
0069
000f
010b
fffc
003b
00ad
ffda
0004
000b
fff7
0014
ffdc
ffe6
fff0
ffff
000e
fffe
0007
0009
0000
ffe4
fffd
0007
0016
fff2
0012
0000
fff4
fffb
fffb
0020
0006
000f
fff6
0009
fff6
ffeb
000e
000f
0002
fff9
fff9
ffeb
000e
fff7
0011
000e
fffe
fff1
001a
000a
fffe
fff5
0006
0017
fff3
0011
fffe
ffe1
0001
fffb
0000
fffc
fff9
0003
fff1
ffd9
0010
ffeb
fff3
ffef
fff4
ffff
0029
fffd
fff5
fff5
fff0
000e
00d1
0030
0012
001a
ffae
ffcf
ff76
0016
011e
002a
0085
0041
0001
ffa8
fe69
0005
0109
001c
ffa1
004b
0073
002a
ffb0
fff6
000a
0074
0038
ffd8
0073
ffa3
006b
004d
007a
00b9
0021
0001
0098
ff4e
0060
ffc5
fff8
0094
ff79
0037
0005
0012
005f
000d
ff8f
ff6c
ffd1
ffa1
003a
ff3c
ff53
00ab
ff1c
0060
ff8e
0107
ffec
ff50
fe6e
ffe0
ffd4
00ce
ffb0
0031
004a
000e
feba
fff8
fe94
ff71
000e
003a
ffe9
0054
ffd8
0023
fd99
ff38
ff5d
ffbe
ff57
0040
006e
ffac
ff09
fedc
00a2
ffd3
0051
ffd8
fff9
ffbe
fff0
ffa0
0074
0024
ffdd
ff96
0011
ff9f
ffef
ff92
ff6c
002c
fff6
0038
ff8b
fff6
0025
ffde
0043
ffae
000c
fff3
000c
ff8c
ffd5
003e
002b
ff87
0001
fed5
002f
ffde
0024
0019
fffa
008f
001c
0026
ff30
ff94
0024
0029
000e
ffd5
ffed
000a
0000
ff58
0023
fffd
ffd7
002f
fff9
ffec
ff7e
0000
0010
ff9a
0018
006f
ff6e
0004
fffa
ffd3
ffd8
ffde
0047
0039
fffa
0020
ffee
ffd1
001d
0019
ffdd
0044
ffbf
0036
ffbc
ffd7
ffd6
0019
0045
0019
ff1b
0006
0043
0018
ffe7
001c
fffa
0026
ffeb
fffa
004d
0069
ffe8
002b
ffcf
ffdf
ffed
001b
ffe1
000a
000d
ffd9
001a
ffbb
0058
0021
000e
005a
ffe2
000e
0038
0002
0046
ffcc
000c
009c
0010
fff7
0020
fff8
fff2
ffe3
ffc6
000c
fff7
0068
0014
fff0
004c
ff82
ff90
0007
ffe8
ffdd
004e
ffe1
0022
0007
ffaf
fff6
ffdf
ffbf
0016
ffb1
ff19
0017
004b
ffe4
0064
0022
0039
ffdf
007f
ffaf
ffef
ffe5
009f
ffc3
ffe6
ff74
002b
ffd3
0026
ffde
002e
ff64
002e
ff78
ff48
ffd8
0045
0038
00a5
ffe4
005f
ffd7
0032
fff9
0043
ffe1
006c
ff76
0024
ff93
0016
fffd
fff0
0043
0000
0000
0000
0002
0000
0001
0000
0000
0000
0000
0000
0001
0000
0000
ffff
0000
0000
0000
0000
0001
0000
0001
ffff
0000
0000
0000
0000
0001
0000
0000
0000
0000
0000
0001
0000
0001
0001
0000
0000
0000
0000
0000
0000
0001
0000
0000
fffe
0000
0000
0000
0000
0001
0001
0000
0000
0000
0000
0000
0000
0000
0000
0000
0000
0000
0000
0000
0000
0000
0001
0000
0000
0001
0004
fffc
ffef
fff4
fffe
fff8
0001
0002
ffff
ffff
0009
0005
0006
0006
fffa
0000
fffe
fffe
0004
000a
0001
0003
fff6
ffff
0000
0003
fff3
0000
ffff
fffa
0007
0004
fffe
0001
000a
0003
0005
0003
fffc
fffe
fffd
0000
0003
0000
0002
0006
fff9
fffc
0000
ffff
fffc
ffff
0000
0000
0000
0000
0002
0002
0000
0006
0001
ffff
0000
0002
0001
fff8
fffc
0001
fffa
fffe
0004
0004
ffca
0003
001b
ffe3
0094
0034
0000
009d
0051
0080
fff9
0005
0058
ff8a
000f
00a7
ffc8
ffd1
0005
ffc5
0056
fff8
ffd6
ff5a
ff5c
0026
0021
fffc
00cc
003b
0051
0022
0031
0047
fff8
ffe0
0067
001a
0030
00b2
0007
fff1
fff3
ffee
0001
007a
fff2
fff9
ffb9
ffec
0003
0014
0042
ffc4
002f
ffeb
ffbb
ffe9
fffb
001a
003c
004e
0064
ffbf
ffca
0032
ffef
ffcc
fff9
0094
ffc7
ffb9
fff3
ffff
0000
0009
fff9
0006
fff4
000a
ffef
fffe
ffff
000b
ffeb
0009
fffd
fff0
0003
0004
0000
0000
fff9
0013
0005
0006
fff4
fff0
0000
0006
0000
ffe7
fffb
0001
0005
fff8
0000
fffc
ffe9
0000
fff5
ffed
000e
fffb
fffe
0010
fff8
0005
fff6
001b
000f
0012
0001
0006
ffe9
fffb
000b
0011
001c
0001
0001
fff5
fff6
0020
fffb
ffed
fffc
0002
fffd
0012
fff9
000b
fff3
001c
ffe6
0029
0000
ffd4
ffa0
004f
0060
ff42
ff18
001b
fffb
ffef
ff9c
0062
007a
ffc0
0034
0047
fffc
002e
ffac
fff5
ff8e
ffef
0067
fff8
000b
ffb7
fff6
ffe7
ffa8
ff4b
ffcf
fff0
fffc
ffb7
ff55
0035
ffe1
ff91
0029
ffda
fff3
fffa
0000
0004
ffd6
0015
0039
0016
000e
ffd8
fec3
0071
ffdb
0020
0065
001d
0003
ffd4
ff93
00a2
ffb8
ff6d
ffe2
000b
fff0
ffc9
fffc
00bd
ff37
ffc5
ffce
ffba
fff7
0049
004e
fff4
ff9d
00aa
0067
0002
fff9
0047
00e7
feab
ff91
00c4
ffd7
ffe2
fffc
0015
0004
ff78
0046
00cd
ff83
0036
fffd
0058
ff3b
003a
001b
0035
ff43
001e
fffc
ffd9
ff6f
0047
001b
0000
ffb5
ffdc
0003
0000
ffeb
003d
ffe1
ffd2
0009
0027
0002
0025
0062
0075
0001
003b
ffe2
003f
0000
fff0
0046
0143
fffa
0010
ffc4
ffe0
0000
0023
0008
0074
0013
0018
ffec
fff5
fff4
ffef
ffbb
ffcd
ffd3
ffc2
fff8
000b
0002
002c
ffd5
ffd4
ff99
fff6
ffe0
0010
fffb
ffe5
ffef
ffe8
ff76
ffde
0030
ffd3
fffb
0005
ff90
0012
ffb0
ff85
002b
0022
0004
002c
ffdb
0024
ffe4
0043
004a
0023
0005
ffe6
0031
001c
ff96
fff4
003d
0067
0003
0004
ff73
0026
ffcf
ffa0
0044
fff1
0000
0001
ffd2
0060
fff5
007e
0021
000f
0004
fffb
0003
003f
ffc8
003d
ff8f
0014
0004
003d
ffdf
001a
005e
0006
ff56
0022
fff7
ffe2
ff94
0042
001e
000f
00d4
0054
fffa
0022
ffdd
0008
ff52
ff7a
ff96
fff0
000d
0041
fff6
ffd6
0027
ff70
002a
0051
0008
ffc3
001a
0003
00ed
000c
006b
002f
fff5
ffef
ffe8
ffb1
ffbc
ff95
ffb4
0000
0000
009e
ff19
ff8a
000b
ffb8
fffa
000e
0000
003c
0039
0025
002a
ffbc
ffff
ffe0
ffee
ffe0
ffc1
0023
0033
ffc2
0001
0000
0000
ffff
0000
0000
0000
0000
0000
0000
0000
ffff
0000
0000
0001
0000
0000
0000
0000
ffff
0000
0001
0000
0000
0001
0000
0000
ffff
0001
0000
0000
0000
0000
0000
0000
0000
0000
0000
0000
0000
0000
0000
0000
ffff
0000
0000
0000
0000
0000
0000
0000
0000
0000
0000
0000
0000
0000
0000
fffe
0001
0000
0000
0001
0001
0000
0000
fffe
0000
0000
0000
0000
0001
0002
0002
fff9
0001
0002
0003
0000
fffd
0001
fffe
0005
0003
0000
fffe
fffb
fffe
fffc
fff6
0001
0003
0000
0002
0003
0000
0001
0005
0000
fffd
fffd
0005
0004
0000
0000
fffd
0005
ffff
0000
fff9
fffc
0001
ffff
0000
ffff
0001
0005
fffb
0000
0001
ffff
0001
fffd
0001
0000
0000
0004
fffe
ffff
0002
0002
0000
fffd
fffb
0002
0000
fffe
ffff
0000
0001
fffe
0000
0003
0008
004c
fffb
003f
0072
ffa5
0041
0037
ffd7
007b
0078
ff7e
ffbc
ff4f
00ac
003c
0014
002f
ffd1
ff37
ffb9
ff4c
ffd3
ffe1
0007
006c
0040
0036
0014
ffc6
0048
ff99
0069
0077
0061
fff3
fffa
ff8e
00c7
fff3
0062
0016
ffd4
fec3
005c
ff5a
002d
ffcb
004f
0043
00bb
009f
0028
ffd0
009c
ffe6
001f
002e
fff5
ffc9
0004
ff14
00cf
ff52
0014
001d
0029
fe9f
00bc
fffc
0001
ff7b
003f
0001
fff4
fffd
000a
ffda
fff7
0001
0008
0002
0002
ffff
fffd
ffe4
0019
0006
0008
0002
0007
fff0
ffd9
ffe5
0007
ffff
0001
fff8
ffea
fff6
0002
ffe9
0006
0007
fffb
ffff
fff2
fff6
000c
ffef
001f
0011
fffa
fffa
0002
fff5
ffe9
fff8
fffe
0011
0006
0008
ffe4
ffeb
fff7
0000
fffa
000b
fffb
0006
0004
ffee
0010
fffc
0019
0007
fffb
ffeb
fffb
fff0
fff4
fffc
000a
fff8
0002
007c
ffeb
0078
ff84
00bc
0068
ffcd
001e
ff26
ff6b
0018
ff9b
002e
0019
ff81
002d
ffe1
006b
ff71
0042
00bd
ffe9
ff57
0023
0054
000a
0060
007a
0052
0091
0021
0006
0030
0081
0084
0009
000e
0029
0083
fff7
ffef
0001
fffd
ffc9
00cb
ffb3
0085
ffec
ff9d
0048
0093
002a
ff2f
003f
fe6f
017f
fee5
ff7b
011f
0095
fe61
0020
fe93
013e
0001
fff5
004d
0086
ff2c
ffd3
fe42
00e0
ffd2
0090
ffc1
ff52
0031
0055
00b2
fed8
0092
00c9
008f
ff53
ff3f
006f
012c
ffbb
0005
ffbd
00da
004b
ffb0
ff96
0036
0040
ffd7
002b
ff6c
ff67
fffe
00b0
ff0d
ffdf
fef1
00e1
ffd0
ffa2
00ab
00a2
ffa5
0063
ff50
ffce
0056
ff82
0090
0038
ffb7
ffbc
ffef
0060
ffbb
0028
0093
000c
ff1d
0042
ff84
008c
0032
004b
003b
0006
ff6e
0044
ff95
002f
0036
feff
0010
ff96
ff84
ff6d
0013
0036
003f
ff78
ffd4
0016
ffac
0000
0011
0033
ffcf
ffa4
0083
ffe7
ff96
fff4
002a
ffeb
001c
ffcc
005e
ffa9
003c
fffe
0014
0059
0054
ffc3
ffc0
001d
0002
0031
0014
006f
0028
ff90
0075
ffbc
0038
0013
003e
0026
003c
ff9d
ffff
005f
0062
ffbb
fff5
00b1
0011
0024
fff3
0006
0023
0010
ffe7
005e
001f
fff0
0009
ff5b
0010
ffd2
006c
0053
ffe8
ffb1
ffec
ffff
ffee
000b
fff6
0009
014c
ffaf
ff75
001b
ff8e
ffa9
ffb0
0015
ffbd
ffa7
ff78
ff8d
003f
ff9f
ffbd
ffe5
ffc8
0033
ffba
ffaa
0078
ff86
fffd
fffe
00f1
ff9f
ff7a
003e
ffca
001f
ffa2
fff3
0045
fff8
ffe3
ffb6
001f
ffee
ff37
0005
ffc3
0029
ffa5
ffdd
0035
ffa6
000c
ff90
ff51
ffbd
ffe2
0057
0068
ffed
fff7
ff53
ff9a
001b
ffed
00ba
004b
ffa6
ff61
ff73
ff8d
ffc2
0011
ff9f
0026
ffe5
0001
0000
0000
0000
0000
ffff
0000
0000
0001
0000
0001
0000
0000
0000
ffff
ffff
0002
ffff
0001
0000
ffff
0000
0000
0000
0000
0000
0000
0000
0000
0000
0000
0000
0001
0000
0000
0000
0000
ffff
0000
0000
0002
0000
0000
0000
0000
ffff
0000
0000
0001
0000
0000
0000
0000
ffff
0000
0000
ffff
0000
0000
0000
0000
ffff
0000
0001
0000
0000
0000
0000
ffff
0000
0000
0000
0002
0005
fffe
0015
0002
0007
fffd
fffa
0000
fff4
0008
fff2
0000
fff8
0001
000a
0004
fff6
0000
fffa
fffd
fff7
0000
0001
0001
0006
fffe
0012
0005
0009
ffff
fff9
0000
fff7
0005
ffec
fffe
fffb
0001
0008
0000
fff8
ffff
fff6
0000
fffc
0000
0002
0000
0000
fffe
0006
0007
0007
fffe
fffe
fffd
0004
fffb
0000
fffa
0001
0007
0001
0002
0000
0005
ffff
fffc
ffff
fffe
0006
ffee
ff7f
0006
ffee
0003
ffcc
009f
000a
0062
003d
005a
0015
0006
0087
00d4
fff1
0058
0108
0001
0002
fff6
003d
0094
fffe
ff89
003b
0006
ffe0
0010
fec7
007c
000f
0012
ff73
003e
00a9
0006
0046
001a
fff5
fff4
ff86
0125
ffe6
ffdf
00a8
ffe1
fffd
0029
0050
00f9
00d7
000c
ff3e
008e
0009
007b
ffa2
0060
0146
000f
ff45
ffdc
0001
ffc2
ff26
006f
004e
ffdb
000c
004a
0001
0015
fffc
0016
ffff
0007
fff5
0004
0000
fffc
000b
ffeb
fffe
0009
fff4
0002
0000
ffef
0022
fffc
0009
fffe
fffd
000a
ffff
fffb
0001
001f
0000
0009
fff5
0001
0000
ffd9
fffb
fff3
000d
0008
ffe2
000c
0000
ffd7
fffb
000f
fffa
fffb
ffe8
fffe
0000
0000
ffed
001f
0000
0009
fffe
fff2
0000
fff0
ffff
fffe
0000
0007
fffc
ffe8
0000
ffe3
fff8
0009
fffc
0000
ffe5
fff4
0000
0087
0054
0071
009a
fff1
ffde
ff92
fffe
007a
0094
ff3f
00d9
ffe5
ffbc
0014
fffe
008d
0014
0014
0055
ffde
ff8a
ffaa
fffc
005b
000d
ffd2
003f
fff9
ffd8
ffbe
fffe
0016
0014
0003
0060
fff7
0052
ffba
0001
fffb
ff87
ffdc
0033
fff3
001a
ffe3
0000
0053
ffd0
ffc6
0069
fff2
ff8b
003a
fffe
ffae
ffcc
fff3
0070
fff1
ff33
0060
fffe
ffce
ff42
0015
001a
fff6
fef0
ffe0
fffc
ff83
ff4f
ffbc
ffff
000d
ffaa
0002
fffb
fff2
ff36
ffa7
0012
0020
005a
0028
fffa
ff2a
ffda
ffc6
ffd5
0018
0037
00a4
ffff
0003
ff91
ffbc
ffed
ffff
ffbb
ffc4
fffd
008d
0088
ffe4
ffc5
0010
005e
fffe
fffa
0022
008c
ffc3
ff83
001e
ffad
00bc
fffc
0042
ff60
0035
ffde
0005
ffb8
0067
fffe
0045
0018
fff6
0019
000c
009d
fff3
000b
ffa4
0080
ffb8
001c
0014
0018
000f
000c
0022
ffd1
0018
fff6
0005
ffdb
0030
0004
ffa9
ffde
ffe8
ffff
fff7
ffed
ffdf
0003
fff4
0000
fffb
0037
fff1
003b
001f
0000
001a
ffa1
0040
001e
0005
002b
0036
0002
0000
ff9b
ffa6
fff8
fff4
fffe
ffc7
0003
001f
001f
fff3
001e
fff3
ffe1
fff5
0000
ffda
ff68
0026
ffc4
ffff
ffe4
ffe9
0002
005b
ffed
ffdb
ffad
fffb
ffef
ff61
fffd
fff4
0028
ffc0
fff0
fff6
ffe1
ffbd
fffe
0036
fff7
ff5a
ffd7
0003
0064
ffde
fffd
fff4
ffe7
000c
0085
fffb
00a1
0053
0000
0052
ffee
ff95
0082
fffa
003c
001f
0001
0000
ff6f
ff9a
ff79
fffc
0024
0065
0001
0012
ff98
00a2
fff8
fff5
003b
00a4
0003
ffb9
0072
ffe3
0027
fff2
004e
ffc8
0000
0036
0032
0000
ff53
ffe7
00ea
ff3c
0002
001b
ffc0
00e3
001e
fff9
ffdf
ffef
0002
ffb2
0002
ffe2
0070
fff5
ff94
fffb
ffff
0000
0000
0000
0000
0000
0000
0000
0000
0002
0001
0000
0000
0000
0000
0000
0000
0001
0000
0000
0000
0000
0001
ffff
0000
0000
0000
0000
0000
0000
0001
0000
0000
0000
0000
0000
0000
0000
0001
ffff
0000
0000
0000
0000
0000
0000
0001
0000
0000
0000
0000
0000
0000
0000
0000
ffff
0000
0001
0000
ffff
0000
0000
0000
ffff
0000
0000
0000
0000
0000
0000
0000
0000
0000
ffff
000a
0003
fff7
0002
fffb
fff8
0002
0000
fff7
ffff
0000
0000
0002
0002
fffc
0008
fff9
0002
0000
fffd
ffff
0003
fff6
0003
000c
0004
fffb
0002
fff7
0001
0006
fffe
fff6
ffff
0000
fffe
0000
0001
fffe
0001
fff7
0002
0001
fffd
0007
0000
fffc
0000
0002
0005
0001
0001
fffc
0000
0000
fffa
0000
fffd
0001
0003
0000
fffd
0003
0002
0000
fffc
fffd
0000
fffa
fffd
fff9
fff1
ffd7
fff3
fff9
002d
006c
0000
ffd1
008d
ffd2
ffe8
0042
00a6
0051
fffd
ff6d
ffd5
002c
ff2f
0017
0058
0039
fffd
ffab
0001
ffa7
ffae
fff5
ff7d
003b
ffff
0049
0065
0045
ffa9
fff2
ff96
002f
0003
fffa
001e
003a
ff3f
0027
ffdf
ffde
0000
ff6a
0056
0046
ffb9
ff4e
ff2b
ffbd
0000
0016
0057
0126
0055
fff8
ff06
ffe2
0000
0031
002b
007b
003f
000e
fff1
ffbd
fffb
ffb1
fff3
0008
0017
fffd
0023
ffe8
0000
ffec
0010
000a
0003
0003
fff6
fff9
0000
000a
0009
0009
fffb
0002
fff7
0002
0000
000c
ffec
001b
0005
ffe9
001c
ffdb
0000
fffa
0014
0028
0009
fffa
ffeb
000c
0000
0008
000d
001e
0003
fffb
0003
0006
0000
000d
fff1
0000
fffc
fffc
0008
fff8
0000
0011
000d
fffe
000a
fffb
0000
0013
0000
001a
fffe
fff2
0005
fff0
fffd
000b
0000
0015
0007
0022
000a
000b
005d
ff6f
0000
0025
ff74
0028
ff8d
007c
fff6
ff21
0000
00bc
ffb0
0016
0024
006a
fff2
ff5f
ffff
0091
003a
0035
001b
0003
0065
0061
0000
fff9
005b
ffa5
ff9e
0012
0026
ff6d
0000
005e
007b
002f
ff54
fffb
0041
0015
0000
0085
014e
0038
003a
00c0
002a
ff68
0000
0050
00cb
003a
ff3e
0062
ff61
ff08
ffff
009f
012b
0012
ffb6
ffc0
ffe6
0017
0000
0000
00d8
fff7
ffe1
fef3
ffdd
ff3c
0000
ffe5
ff7f
0047
ffc5
ff5a
ffe2
0033
fffd
ff3a
0013
0014
ff68
ffa8
007c
00ec
fffa
fee1
0070
ffec
0098
ff8f
0000
0008
0000
ffed
ffe5
ff6a
0034
ffdc
ffb0
ffe8
fffe
ffd1
fffe
ff9c
ffb5
ff9a
000f
feef
ffff
ffe5
fff9
ffe7
ffe4
009b
ffca
000b
0000
ff7a
ffcd
ff83
008c
00f6
ffdd
ffed
0001
ffc6
0034
ff86
0027
0043
001c
ff25
0001
0094
fff5
004f
0035
ffc1
ffe6
ffea
0002
ffff
001f
fff0
0041
0003
ffb6
0066
0001
fffa
0046
ffb4
0027
0065
0027
0041
0006
ffb5
ffea
fff2
0046
001d
ffe2
fff9
0003
0061
0058
0059
0030
ffa6
ff7c
0085
0005
ffa7
fffa
0095
002b
ffc7
0034
0004
0003
ff9c
fff6
ffcc
008d
0035
fffb
000a
0000
0011
ffdb
003c
0045
ff83
ff73
0048
fffd
0025
fff6
003b
ffc9
ffe1
ffe4
fff3
fffe
ffd1
ffa5
ff5f
ff82
000d
ffb3
ff81
0000
0038
ff61
ff87
0066
0006
003e
ff8f
0000
ffcf
0013
ffa8
0066
0011
ffc1
0028
0000
ff6b
ff7d
ffee
ffdf
ffab
ff7f
ffd1
0000
ff51
ff03
ff25
00b3
ffa9
001e
ffa9
0000
ffa7
ffa7
ff95
0005
0003
fff8
ffbc
0000
004d
ff9d
006e
ff8e
ffe2
ff9a
ffe3
0000
ff80
ff59
ffc6
ff86
ff87
ffad
ff9a
0000
0030
ffde
ff75
ff92
0018
ffb4
ff87
0000
0078
0000
0000
0000
0000
0000
0000
0000
0000
0000
0000
0000
0000
0000
ffff
0000
0000
0000
0001
0000
0000
ffff
ffff
0001
0000
ffff
0000
0000
0000
ffff
ffff
0000
0001
0000
0000
0000
0000
0000
0000
0000
0000
0000
0000
0000
0000
0000
0000
0000
0000
0000
0000
ffff
0000
ffff
0000
0000
0000
0000
0000
0000
0000
0000
0000
0000
ffff
0000
0000
0000
0000
0000
0000
ffff
0000
fff6
0000
0006
fffe
0001
fff7
fffc
0006
0009
0003
0001
ffff
ffff
0000
0000
ffff
0001
0000
ffff
0002
ffff
0000
0004
0000
fff5
ffff
0000
ffff
fff9
ffff
fffc
0006
0007
fffe
fffc
0002
fffe
0003
0005
fffc
0004
0000
0000
0008
0002
0000
0004
fffd
fffd
0003
0002
0005
0003
fffe
fffd
fffb
0000
0000
0000
fffb
0000
0000
fffa
0000
fffe
0000
0004
fff4
fffd
0001
fff7
fffe
0011
ff9b
003f
000d
fff2
fff7
ff28
fff3
0015
ffd7
fff2
fff2
0006
ff8f
ffd4
fff9
0058
ffdc
001c
ffac
fff5
ff91
0036
fff2
000e
ffb7
ffc9
0012
fff5
ffcb
ffb6
fffa
ffd7
00ed
ffcc
0003
000a
ffb8
0029
0000
0020
0028
ff6c
ffe3
0007
ffbf
0034
fff2
001f
0026
0045
001c
fff4
0013
ffdf
0004
0019
0066
0072
0041
fffc
0020
ffea
0011
0035
ffc6
002e
ffd2
0006
fff9
ffa9
0010
000c
fffd
0013
ffe9
0002
fff9
0009
ffff
fffd
0012
001f
fff5
0001
fff9
ffe6
0003
fff2
fff9
0001
ffe9
ffff
fffc
001d
fffe
0014
0002
001b
ffed
0001
fffe
0012
ffff
000f
fff8
0011
fffe
0002
fffe
ffeb
0001
0000
0006
ffe7
ffed
fffd
0001
ffef
fffd
0015
fffd
fff5
fff8
ffff
fffe
000c
fffe
002b
ffd3
fffc
0000
0002
0001
fff5
0000
0025
001c
fff6
0009
fffe
0005
ffef
ffff
0004
004b
0008
0000
fffb
0006
ff78
0003
0098
00e3
00b9
ffd6
0000
ffe4
ffb2
0002
0035
0072
0052
001d
0002
0024
0030
0005
ffe9
004a
ffec
ffae
fff3
ffb0
005e
fff7
0021
006e
000f
ffa5
fff4
ffa6
000e
fffb
0011
0069
ffd1
000e
fff7
ffec
ff99
0007
003c
ffea
0048
ff4e
0007
ffc7
00cb
0003
0042
012c
008a
0007
0002
ffe3
0055
0007
ffce
0104
0080
007b
fff0
0020
00be
000d
0043
0094
0035
0057
0004
001e
fff4
0012
ffac
ffe8
ff5f
004f
0004
ffed
ff5f
0001
ffbb
ffd2
ff47
ffdf
0000
ffd5
fffe
0012
005f
ffee
0069
001e
0000
0035
0093
0019
005d
ffbc
0025
0020
0005
0016
ffa1
fff8
fff3
ff48
fff1
ffd6
fffd
0000
0016
000b
0082
ff62
006c
ffdd
ffff
0006
0006
fffa
007d
0050
003a
ffd0
0009
fffb
ffea
fff5
fff2
fffa
002d
ff9d
fffb
0016
001c
000b
000f
0002
0001
ffed
fff7
0014
ffef
0002
ffcb
ffbb
0062
ffe8
fff8
001e
fffd
fffe
ffdf
001b
0030
ffd0
0004
fffc
0020
0005
ffd5
0060
0009
0010
fff7
0020
ff91
0003
ffd0
0019
0020
0036
fff8
001a
0016
ffff
ffbc
ffe7
ffa2
ffcf
0004
fff9
fffa
0002
0063
001d
ff40
0019
fff9
ffef
ffe0
0006
0095
ffe5
ffbb
0043
ffff
fff8
002e
fffd
ffe3
ffb4
0013
0000
fffc
fff0
fff0
ffff
0003
ffa8
fff5
ffa2
0004
003d
0073
0000
ffdf
ffbe
ff9f
ffa7
fffd
0001
ff9e
0002
ffbf
000e
ffea
000b
fffb
ffd8
ff8e
fffc
0027
0012
0020
ffa8
fffb
002a
008e
fff7
ffd9
ffea
0049
000e
0003
0021
ff68
ffff
0031
ffdc
0071
0041
0000
ffd2
ffe8
fffa
008f
ffed
0030
ffc2
0000
0004
0010
fffc
0010
ffa2
00cf
ffef
0007
ffce
ffbc
0000
0007
00ab
00ce
0027
0001
ffc3
0083
ffff
0000
ffff
0000
0002
0002
0000
0000
0001
0000
ffff
fffe
fffb
ffff
0000
ffff
0001
0000
ffff
fffd
ffff
fffe
0000
0000
0000
0000
ffff
fffe
0000
0000
0001
0000
0001
0000
0000
0000
0001
ffff
0001
0000
0001
0000
0000
0000
0002
0000
0000
0001
0003
0000
0000
0000
0003
0000
0001
0001
0004
0000
0000
0000
0000
ffff
0000
0001
0000
ffff
0000
0001
0000
0000
ffff
0002
0000
0001
0002
0000
ffff
0000
ffff
0000
0000
0002
0000
0000
0000
fffc
0000
fffe
0000
0000
0000
0000
ffff
0001
fffb
0000
0000
0000
fffc
0001
0000
0001
0000
0001
fffe
0002
fffd
0000
fffd
ffff
fffe
0000
ffff
ffff
0004
0000
ffff
0001
fffd
0000
ffff
0000
0005
0000
ffff
0000
0000
0000
fffe
fffe
0000
ffff
fffd
0001
fffe
0000
ffff
0000
0000
ffff
0000
fffc
0000
0000
fffd
ffd4
0093
fffc
0018
0009
ffe3
fff6
0025
ffa6
fffa
0026
0026
0003
fefd
fffd
0033
0055
ffe0
0024
ffe3
0034
ff5d
0071
0026
ffd0
0082
fff4
000d
006b
0031
0035
ffdf
0059
0047
001b
0052
0019
fffe
0080
fff7
0070
ffa8
0002
0008
005c
ffd9
00a2
ffeb
fffe
ffd9
002a
ffdf
0014
ffc6
0033
fff2
0084
0030
0020
001c
0072
ffd2
005f
ffc1
0015
0006
ffe7
000a
ffc8
ffe8
012b
ffab
fff8
000a
0002
fffe
0007
0007
fff8
fff1
fff8
0028
fff9
fffe
0012
0017
fff5
0008
ffff
0008
000b
fffe
ffe3
fffe
0012
0001
fffa
0006
0012
ffef
0010
0009
0000
ffff
0008
0000
0001
fff7
fffb
001e
fffb
000a
0001
fff4
0003
0000
ffdc
0001
0011
000e
fff0
fff3
0005
fff7
000a
000d
fffd
fffe
fff9
ffee
0001
fffc
0013
000a
ffc8
0006
0007
0000
0000
0002
ffec
0006
fffe
001a
ff74
ff87
000a
0010
0032
0020
fffa
003d
0027
ffbb
ffe3
0000
ffd6
002b
0052
0046
003d
ff92
ffce
ffeb
0006
0004
0066
ffee
ff5d
0052
fffd
0026
ff59
fffd
0065
0013
fff3
0046
0002
fff9
ff6a
0028
00ac
0021
ffdc
ffff
ffde
fff8
ffce
fff1
0070
001a
ffd4
005c
ffc8
005d
ff98
002d
005a
0006
ffe4
0065
ffb4
fff4
ff4e
00b6
00a7
002e
ffc2
0024
ffaf
0028
ff94
0093
00d8
003c
ffe3
ff1c
0001
ffb8
ffc8
0018
ffde
ffd7
fffb
fea0
ffc2
000c
ff78
ff75
ffb6
0023
ffc0
ffff
ffe0
ffd7
0000
ff82
ff42
0036
001b
ffb1
001c
0005
0057
ffda
ffe5
fff6
fff7
ff94
fff6
006b
ffff
0006
ffff
0013
0063
0071
fffa
001c
fffa
ffc2
ff33
0012
000d
fff6
fff7
ffc9
0019
ffac
ffa6
0006
ffc1
ff6d
0012
ffed
0033
005b
ff67
000a
007e
ffe0
ffde
0026
ff74
fff5
ff9e
0002
0023
ffca
0015
0001
ffc4
0012
003d
ffe0
ffc6
0049
ffee
001e
ffb9
ffd4
000d
0015
ffa0
004a
ffe0
004f
ffd1
ffe0
ffeb
0013
ffde
ff66
000b
fff9
ffff
002b
0015
ffff
fff5
0013
0009
0012
ffd5
fff3
0038
0010
000a
fff2
ffe3
001e
ffc6
fff5
000e
0018
ffa7
ff99
fffb
ffe0
fffd
0035
0090
fffa
ffd2
0042
001e
ffbd
ffb3
ffc7
0063
ffff
ffc7
fff2
fff8
fffc
ffa8
ff77
005a
ffef
ffee
ffb0
0010
ffcd
0078
fffd
ffe7
003e
001c
ffce
ffed
fff1
00aa
004b
006c
ffbe
ffe1
0035
fff3
ffcb
003a
ffff
0039
0010
ffb0
0004
002a
ffcf
003f
ffd6
0092
0045
0011
ff79
fff0
0011
ff9e
0065
005a
ffce
ffc7
ff68
fffb
0022
ffeb
0065
ffc0
ffb6
ffd6
0086
0026
003e
0037
004b
003f
0032
ffd5
ff70
001f
fff1
fff2
0028
001e
fff4
0003
ffd2
0021
003b
0008
0017
ffe9
0004
ffff
0000
fffc
0002
ffff
0000
0000
0000
0000
ffff
fffa
0001
fffd
0002
ffff
fffe
ffff
ffff
fffd
0002
fffd
0000
0001
0000
fffd
ffff
ffff
0001
fffd
0002
0000
fffe
ffff
0002
fffc
0000
0000
0000
0000
0001
0000
0000
fffd
0000
0000
0000
0000
0000
fffe
0001
fffb
0000
0001
0000
ffff
0000
ffff
0000
0001
ffff
0001
fffe
0000
0001
0000
0000
0000
ffff
0001
0000
0000
0000
0000
0001
0000
0000
0000
0004
0000
0000
ffff
ffff
0001
ffff
0001
0001
ffff
ffff
fffd
0000
ffff
0000
0001
0000
ffff
0000
fffe
0000
fffd
0000
0000
0002
0000
0001
0000
fffe
0000
0002
0000
0005
ffff
fffc
fffe
0000
fffe
0002
0002
0004
ffff
ffff
ffff
ffff
fffe
0001
0001
0003
0000
0001
fffe
0000
0001
0000
0001
0000
fffe
0001
0000
0002
0000
0000
0000
0001
fffd
0000
ffe9
0017
ffd4
fffc
0059
0039
ffff
ffe2
ffdb
0060
ffd2
007a
0014
0006
ffd3
0038
000c
002c
ffdf
0002
ffae
0065
ffec
0057
ffe8
0005
ffd8
0019
0027
0058
0060
0017
ffce
0068
ffc9
0043
ffa5
000a
ffdc
ffb6
0002
ffb3
ffd6
ffba
ffc5
00a3
ffef
ff58
fffc
0020
0004
ffb5
fff5
002e
000d
fff1
fffa
fff0
fff1
ff91
0007
ffc9
fff6
ff9e
fff9
fff4
ffd6
ff1c
0042
ffd5
ffa0
ffb6
0000
000e
fff8
ffe9
0007
fffb
fff0
0017
0001
fff3
0003
fffb
fff9
fff3
fff3
002d
0007
000d
fffb
0002
0004
ffdf
fff6
fffc
0002
fffb
fffa
0001
000f
0000
fff3
0005
0003
ffe4
0005
0008
fffc
0015
0008
0014
0008
fff1
0000
0009
000d
ffea
0000
fff1
000a
ffff
fffb
fffc
0007
0014
0000
fff5
0000
0006
fffe
0003
fff6
0015
001d
fffd
0001
0000
ffff
fffc
fffa
ffeb
fffd
fffc
0011
0183
0000
ffa9
ffc1
0041
ffe6
ff8f
000b
0103
ffeb
ffda
ff46
ffcf
ffcc
0011
ffec
00f8
ffd1
0039
ff9d
ff40
ffd8
0015
0005
0088
0001
0000
001f
fff4
ffd5
0040
0005
008b
ffea
ffd0
ffce
ffe9
ff9e
008d
ffe8
0075
ffd2
ffdf
0000
004e
ff8a
004e
fffd
ffcc
ffe5
ff26
ff88
000d
ff5c
004f
fffb
ffdc
ffd0
ff5d
ffa3
0076
ff3f
0091
fffe
ff78
ffd2
ffb6
ffa3
0018
ff4b
00bd
ffdd
fd8a
001c
ffc0
ffb7
ffe9
ffce
ffe0
ffe0
fd92
ffba
ffce
00ec
ff7f
ffa1
ffb2
0006
fe4f
ffbe
fff8
0102
ff93
002b
ffad
0018
ff0b
0026
ffa2
ffd8
0008
ffcf
ff82
0012
ffd1
ffda
fff7
0056
ff63
ff88
000f
ffff
ffa0
fff1
ffde
0070
ffd9
ffc4
ffd2
0035
ff19
0023
ff85
000f
000c
ffc1
ffd5
0003
ffcd
fff4
ff9e
0017
000b
ff9d
00aa
ffdc
ff69
ffe8
ffa7
0034
00a1
ff5f
0005
0007
004e
0014
ffc7
fffa
ffe4
000e
fff7
fff9
0010
0007
0002
ffee
fff5
0007
ffd1
0006
0009
fffe
fff6
ffc6
0038
ffc6
002d
fffa
000f
0008
ffe5
0007
002d
0007
0026
0007
001d
0005
ffe8
fff6
ffd3
ffc9
ffe3
0006
0005
0015
ffe4
0013
0044
0036
0007
0004
000c
0014
0014
0007
fffc
0020
0037
fff4
ffff
0007
ffe1
0024
0045
fff9
002b
fff0
0012
0009
ffd2
fff3
002b
001b
ffeb
fffa
001e
0013
fffc
0022
ffca
0088
0038
0004
0067
0000
002d
003b
ffb2
0029
0074
fffe
0010
0008
007e
009a
ffe6
005f
0070
fff5
0033
001f
ffb8
0084
fffb
001d
ffad
fffe
ffdb
ffe7
0004
0091
ffcc
0078
0057
0006
000b
0002
0090
0075
ffc3
ff8a
fffe
ffe1
002a
0035
ffb5
0016
ff63
ff60
ffa3
ffe9
0001
002f
ffaa
005a
fff0
0018
ffa8
fffb
ffa5
0010
0049
0026
0002
0000
fff1
0000
0000
0000
0000
0001
0002
0000
0001
0000
ffff
0002
0000
0000
0000
ffff
ffff
0002
fffe
0000
0001
ffff
fffe
ffff
fffd
0001
0000
fffe
0001
0000
ffff
fffe
fffe
0002
fffe
0002
0001
0000
0000
0001
0000
0000
0000
0003
0002
0000
0000
0000
0000
0000
0000
0000
0000
0000
0002
0000
0000
0000
0000
0000
0002
0000
0000
0001
0000
0000
0000
0000
0000
0000
0000
0001
0000
0002
0000
fffe
0001
0000
ffff
0000
fffe
ffff
0000
0000
0000
0000
0001
0000
0000
ffff
0001
0000
0000
0000
0000
0000
fffe
0000
0000
0000
0003
0000
fffe
0000
fffe
0001
0001
fffe
fffe
ffff
0000
0000
ffff
0001
0000
0000
0000
0001
0000
0000
ffff
0001
0000
0000
0002
0001
ffff
0000
ffff
0000
fffe
0000
0000
ffff
0000
0000
0000
0000
fffe
ffff
0000
ffff
0000
fffe
ffff
fffc
0024
ff6e
0007
003e
fffc
0095
004b
0041
0063
00a1
ffef
003f
0027
0029
0049
ff7c
005b
0097
ff7c
004f
fffa
0053
0041
ffa5
0006
ffc3
006b
ffdc
fffe
ffcb
0052
00e1
0042
ffeb
0070
0064
ffe0
0030
ffda
ff7a
0017
ffff
ffcd
007f
fffd
007b
0088
ff08
0013
ffc4
0071
ff54
0034
ffeb
fff6
0063
0002
ff28
00d4
0046
000b
001f
ff43
0097
0089
ffed
0026
000a
0027
00ea
0052
0007
0014
fff5
000c
fffa
fff7
0002
fffb
001c
0011
000d
fffc
0005
fffb
0003
001c
fff8
000d
fff9
ffe7
0000
0004
000b
0031
ffe9
0005
fff0
ffff
0005
fffe
fff3
000a
0000
0005
0009
0003
0019
ffff
000e
000b
0003
000e
ffef
000e
0017
0001
ffff
0034
000d
000c
0001
fff6
ffef
0008
000d
0005
000d
0004
0007
fffa
0005
0002
0014
0003
fffa
fffe
fffa
0012
fff3
0003
0008
002e
0018
ff90
ff91
ff95
0030
006b
fffb
fff0
00ca
ffb2
ffac
ff81
ffa0
0025
0053
0025
ffdb
0000
0002
ffff
006e
0056
ffe5
ffea
0061
fff9
ffaa
ffc7
ff71
0045
ffcb
ffc6
00e4
009d
ff8e
005a
ffad
fffb
0037
ffce
ff8e
00af
ff8b
004d
009b
0017
0056
ffd9
0063
000e
ff75
0035
0089
00a8
ffb3
0045
0069
fff2
ffc0
0064
006d
005f
00b5
ff97
0037
001a
0005
ff3e
00bc
0094
011e
002c
ff3d
ff74
000b
ff03
ff8e
fff6
0001
004b
ff3e
ffa3
fff7
ffe8
ffe2
0037
0068
ff93
0001
0013
ffab
ffd3
ff97
ffb6
ff8c
ffdc
ff7a
ffa9
ffce
ffe9
ff89
ff7c
ffd7
0047
fff7
ffe1
0018
0031
0002
fffd
fff6
0062
ffcc
fffd
0013
001c
0017
ff63
ff28
0082
ffe3
0053
ffd2
00c9
ff95
ff93
0008
fff2
0000
ff77
ffc0
ffff
ffda
ffdb
0024
00e4
001f
ffbc
0000
ffdf
fffc
ffa0
fff6
00e0
0033
0070
ffbb
ffed
003f
0059
fffe
ffc3
002b
000c
001b
fffe
0072
0007
0043
ffba
ffc9
ffdc
0009
ffd3
0058
fff6
0015
ffe5
ffeb
ffea
0016
ffc7
003c
006b
0008
0030
ffe8
ffca
0026
ff74
008d
0001
0025
ffb5
0019
ffca
ffee
fff6
0046
ffef
ffff
ffba
0029
ffc4
001d
002b
001e
0052
ff93
0072
ffd3
ffc0
0009
fff1
ffe8
0007
ffb1
0024
0076
fffd
ffea
001d
ffdd
fff3
0022
ffee
0003
ffe0
ffde
0012
002b
000e
0054
0036
0012
fff8
ffc6
0076
0020
0011
0027
ff6e
004b
fff7
ffc2
ffe3
007b
ffee
ffe9
ff87
ff3b
0008
ffed
ff85
0051
ffd1
ffeb
00b2
0032
0032
ffcf
001a
ffdc
000b
0010
0028
ffce
fff5
ff85
005a
0040
fff6
ffce
fffb
ff4d
0001
ffd2
ff44
00c5
ffb0
ff63
0053
ffed
00a1
ffde
ff58
ff95
ffb2
ffa2
ff8a
fffc
0083
ff94
000d
ffaf
ff91
0041
ffda
0000
0000
fffe
0001
fffe
0000
0000
0001
0000
0000
0001
fffc
0000
0000
0000
0001
0001
0001
fffd
fffe
ffff
ffff
0002
0000
ffff
0000
fffe
fffd
ffff
0000
0000
0000
0000
fffe
0000
0000
0000
ffff
0000
0000
0001
fffe
fffe
0001
ffff
ffff
0000
0000
0000
ffff
0000
fffe
0001
0000
fffe
0000
0001
ffff
ffff
fffd
0000
0000
ffff
ffff
0000
fffe
0000
fffd
0000
0000
0000
fffe
0000
0000
fff8
0005
fffd
0002
ffff
ffff
0000
fffe
fff9
0008
fff3
0001
ffff
0000
fffd
0000
0000
fffc
0001
ffff
ffff
0000
0000
0003
fff4
000b
fffc
0001
0000
0000
ffff
0000
fffd
0003
fff8
0000
0000
0000
fffe
ffff
fffe
0000
fffb
0000
ffff
0000
0000
fffc
fff9
0000
fffd
0001
ffff
ffff
0001
fffc
0003
fffb
0000
0000
ffff
0000
ffff
fffc
0000
ffff
0000
0000
0000
0000
0068
005a
0006
00a6
00a6
fff3
fffa
0000
ffd0
0088
0005
ff9f
0045
0003
ff3e
0000
ff53
0013
0005
ff66
ffbe
ffdd
ff6f
fffe
0041
0058
ffc8
001a
0010
ffe6
fff1
0002
001a
0053
0019
ffa3
001a
0002
ffbe
0001
ff49
0003
0007
ff7f
0071
fffb
ff66
0001
ff90
0004
ff4b
ff9b
fff1
0049
0014
0001
ffe5
ff6a
ffef
ff45
ff9a
fff9
ffd2
ffff
ff9c
ffcc
ffbc
0022
006f
005c
00bb
ffff
0017
0005
fffa
ffff
000b
0000
fff0
0002
0001
0006
001e
fff5
000d
001b
0011
0000
fffa
fff4
ffed
fff0
fffe
0014
ffe9
fffe
ffef
0001
0005
0003
0022
fff3
fff4
fffd
ffef
0005
0012
fffb
0005
0007
000a
0002
fff2
ffff
fff7
fff6
ffe9
0004
0000
0000
fff4
fff9
000d
000c
ffef
ffe5
ffea
0002
fff9
000c
fffd
0014
0007
000d
0000
ffff
ffe4
000d
fff7
ffee
ffee
0019
fffd
ffff
ffeb
0039
fffd
ffe1
ffe9
005e
0008
0000
0031
006c
ffb7
0013
ffcc
0058
ff73
0001
009a
ffce
ffdf
0033
0080
fffa
ff8c
0000
ffcf
0024
fff8
ffcc
fffb
ffc1
ffde
ffff
ff69
001d
fffc
000e
0034
ff31
ffe9
ffff
ffa1
002b
ffdc
0041
0023
fffc
ffde
0000
0001
00c7
ffac
0056
ffbb
ff9a
ffb1
0000
fef1
0053
ff77
00a4
00c8
ff50
ffdb
0000
ff57
0039
ff34
00a8
00fb
ffa5
ffd4
0000
00a5
ffad
ffdf
ff3a
00b3
00c1
ffc3
0002
001b
ffb7
ffcc
ffdf
002b
0194
0033
0000
fe41
ffa3
0015
0037
ffa7
ff9e
00c9
0000
0023
ffe7
0011
ffa4
ff7e
ffb8
ffaf
0000
003c
002b
0036
003e
ffd9
0033
0038
0001
ff6f
ffef
0059
0006
ffee
ff50
0056
0001
0020
ff7e
fff3
ffea
ff2f
ff62
ffab
0001
ffd2
ffb4
0013
0038
ffca
007d
0079
0000
0054
ff50
fffe
ffe2
00b1
005c
ffa4
0006
003c
0007
000a
ffdd
0063
ffd1
ffbb
0003
0052
fffd
ffec
001a
001d
ff99
fff4
0001
002b
002e
fffb
0054
002c
fff6
0049
0000
ffff
0026
0041
0011
0054
0016
004e
0000
fff6
0012
000a
0017
001f
ffe4
000a
0000
fff5
001b
0004
ff97
ffe8
006e
0000
0000
ff4b
0014
0032
0008
0003
ffcd
001f
0000
ffae
fff8
0043
fff7
0047
ffca
ffe6
fffb
ffe4
0016
0029
ffcc
0023
003c
ffd7
fffc
ff83
ffc4
007b
0063
ff6f
006c
ffe7
ffff
ffb6
ffbe
0047
000a
ffd1
0028
ff9c
0000
0010
ffcc
0019
fffe
ffed
0029
ffbd
0001
ffcf
ffdf
ffae
ff43
ffad
00a7
ffcf
0000
ffdf
0025
0004
ff30
ff47
fffa
ff53
0000
ffe2
ffeb
ffee
001f
0008
ffb1
ffc0
0003
004d
fff3
0037
ffcd
0088
0050
0009
0003
ff7a
000d
0036
ff9a
0059
ffd3
ff94
0000
ff4f
ffe6
0000
0084
0026
ff7f
0011
fffe
0bb8
faeb
e30e
2f08
e7fa
18ce
e060
1ff0
ffd6
ffd6
fcd6
ff98
011e
00f5
001e
fce8
0023
ffe3
0029
0011
0029
ffe5
ffdb
fff0
0057
0043
ffc4
0010
ff8d
fffd
ffea
00f6
0028
0057
ff5f
000e
ffcf
ff3e
ffca
ff30
0062
0016
0085
0003
ffcb
ff83
000a
ffd4
0019
0045
0067
fffb
fedd
ffa5
ffe1
0033
ffc9
0043
ff7b
fff3
ff6f
ffb4
002e
ffdb
0076
0016
fff6
0003
0054
fff4
0015
ffd9
003a
0045
0062
ffe3
ffa1
ffc3
0000
ff5a
002a
0039
ffc4
ffe2
ffc4
ff87
003e
ffa3
0000
0000
0000
0000
ffff
0000
0000
ffff
ffff
0000
ffff
0000
ffff
0000
0000
0000
ffff
0000
0000
0000
fffe
0000
0000
0000
ffff
0000
0000
0000
fffe
0000
0000
0000
ffff
0000
0000
0000
ffff
0000
0000
ffff
ffff
0000
0000
0000
ffff
0000
0000
0000
0000
0000
0000
0000
fffe
0000
0000
0000
0000
0000
0000
0000
0000
0000
0000
0000
0000
0000
0000
ffff
0000
0000
ffff
0000
ff70
ffe6
ff92
001f
ff5b
0028
ffef
ffc9
fef5
ffba
ffcf
ffec
ffea
fff6
fff2
ff5b
ffa5
ffc5
ff8d
ffe8
0036
005b
ff5f
ff88
002f
0003
ffef
0009
ff38
ffd8
ffee
ff76
ffea
ff8f
fff8
fff7
ffa4
ffd6
002a
ffca
ff91
fff0
000d
ffe4
0069
ffc1
ffac
0018
ffbc
00a4
0003
0003
ff52
ffdc
00ee
ff5c
0005
00d2
ffeb
ffe2
ff64
ffb8
0041
ffce
ffbb
0098
ffaa
ffc5
ffc7
ffce
ff62
0025
ff44
fffd
ffd1
000a
ffc0
0002
00dc
006f
fff6
0004
0023
0002
008c
008f
00a9
ffac
001f
004e
004f
ffe3
0084
0055
003f
0016
ffec
ffca
003c
0002
ffab
ff4e
0088
00f2
000b
0028
002a
0016
0075
0098
ffcd
ffa7
fffc
0075
ff78
0000
fff0
0055
0014
00b1
ffbf
ff90
0024
0018
000d
ffba
ffcd
ffc7
ff25
ffe5
ffdc
0000
ffe6
006b
ff04
ff1b
ff29
005c
ffd9
000b
ff7f
0008
0008
00c9
002b
0062
ffba
0003
fff3
0011
0048
ff8b
ff93
004b
0021
0003
ff9a
0019
ffad
0099
ffd9
0095
0007
0014
002d
ff83
ffbf
ffaf
ffed
ffce
ffed
fffb
fff7
0062
003e
ffa9
ffce
ffe5
0041
0013
ffe4
0039
002f
00c7
ffdc
001a
fff3
fffe
0003
002d
0001
0007
0068
ffe9
ffda
000b
ffe1
00a9
001b
ffdf
00c5
ffd6
ffbf
0018
ffe2
0003
0060
0025
fff4
0050
ff7f
fffa
ff6d
0052
ffee
005a
fff6
ff83
0034
0003
fff1
ff5d
0075
fffb
fee3
ffb2
0079
000d
ffad
ff01
ff9c
ff4c
ff85
00a8
009b
ffad
ffc4
ff1b
005f
ffa7
0024
0015
ff9c
0010
ffc7
ff99
002f
ffc9
ff77
ff97
0029
0047
0000
000d
0025
00d6
ffee
fff6
004b
000c
ff96
00a2
002b
0051
00b9
001f
fff2
001b
0023
007e
000c
ffd9
0058
000b
fffc
0020
ff8d
00bd
ffed
fff5
00cb
0013
0054
001a
ff7e
ff9c
003e
ffee
ffc3
ff7c
005a
000f
0042
ffe0
ffff
ffde
fff5
ffba
002a
0006
fff7
007d
ffef
ff98
ff6a
ffbf
fffc
ffec
ff52
0005
0035
fff3
0031
ffdc
0047
0010
0011
0067
ffd6
ffe5
002c
006b
fffa
0008
ffb3
0074
0060
fffe
ff4c
002e
fff1
001a
ffcf
ffc2
0031
0002
0014
005e
fff1
ffff
ffde
ffdf
0036
000e
fff1
0037
ffca
fff0
ff9f
0000
ffe6
0009
ffaf
00b1
0047
0009
001c
ff94
007d
0021
0070
ff8b
0052
ffef
0005
0022
0016
0022
ffd1
ffed
0070
ffdf
ff73
0101
ff9d
00a1
ffc4
0084
ffe5
fff5
fff3
ffde
0020
00a7
ffb7
0019
004a
0011
006a
001d
0046
005b
ff93
0029
0045
0017
ff51
0038
ffe9
0070
ff8b
0035
0027
0004
fff5
ffc7
ff98
0021
005c
001e
fff8
0021
0044
ffca
ffde
006a
0014
ff7d
ff77
002b
0006
001f
ff8e
0025
ffa2
ff2d
ffca
fffc
0008
ffc8
000a
001b
ffc5
ffc4
003e
0064
ff9c
0020
0060
002e
0013
0044
0067
ffe2
ff82
0022
002b
0015
00a6
ffad
0005
ffd9
fedd
006f
0087
ff33
ffa8
ffbb
0094
008e
0067
ff8a
00b8
002f
0000
006d
0032
ffbd
ffcb
0028
0056
0071
0023
0021
fffa
0036
ffc3
0017
0013
fed9
0000
0011
0007
009b
ff92
0016
0082
ffe1
0036
005c
0054
fff0
ffdc
000e
0000
ff9e
000e
0031
0091
0002
007d
001b
0058
ff67
0000
0000
0000
0000
0000
0000
0000
0000
0000
0000
0000
0000
0000
0000
0000
0000
0000
0000
0000
0000
0000
0000
0000
0000
0000
0000
0000
0000
0000
0000
0000
0000
0000
0000
0000
0000
0000
0001
0000
0000
0000
0000
0000
0000
0000
0001
0000
0000
0000
0000
0000
0000
0000
0001
0000
0000
0000
0000
0000
0000
0000
0000
0000
0000
0000
0000
0000
0000
0000
0000
0000
0000
0000
00a9
0005
ffd5
ffa6
00a4
00cf
0015
ffb0
ff96
ffb7
ff7c
ffd4
0067
0067
ffaf
0002
fffa
003b
ff77
ff29
ff97
ffdb
ffdd
0046
ffd0
ffa3
ff9f
ffb8
001c
ffa2
ffff
ffff
ff72
ff70
ffb5
ffcf
00ed
ff9e
ffc6
0020
004f
ffa9
ff3a
ff94
ff9e
fff0
ff91
0007
ffe3
0034
0004
ffeb
0017
ffe9
ffa3
003a
ff71
ffa2
ffd4
ff61
0065
ffe8
000b
ffe3
00a5
ffa6
ffd9
ff4e
ff65
ff8d
000a
ff70
ffcf
ffa9
ff82
003a
ffc2
005f
002f
003e
00bd
ff8c
fff4
ff1d
ff7a
ff13
ff71
001f
0020
0056
0033
004d
ffb2
0021
ffd5
0015
ff53
ff8e
ffc9
001e
0034
0026
ffd9
0057
001f
ffaa
0015
0030
ffc3
0025
ff2e
0082
003f
0085
0032
008b
ffb4
002a
ff39
005f
ff32
ff97
ffac
ffaf
003c
002b
007c
0001
ff8c
ffa9
ffa8
0046
0035
005c
0024
0097
ffc1
0029
0075
0006
0049
ffc2
ffb0
ff84
0006
0005
0007
001d
0070
ffd4
0018
ffca
0025
ffef
fffe
001d
ffe1
000e
ffda
0005
ff0f
ff82
ffff
ff95
ff5d
ffd7
ffaf
ffdd
003d
000c
ff67
ffae
0029
ffc2
ffb7
ffe0
004f
ffa5
ffc8
ff39
ffd6
002c
ffec
0006
ffef
ffcd
001b
ffa3
ffde
ffe2
ffad
0032
002f
0028
ffb2
ff80
0016
ffdf
004f
0009
0012
ffc4
ffcc
ff14
0031
008a
0013
fffb
004f
ffc6
0042
ff88
002f
ffa3
ffce
0023
00ea
0024
0080
007f
0055
ff8a
00bc
0015
0042
007c
ffe6
0094
004c
003d
0016
ffe5
ffc2
fffd
009f
ff71
0044
0023
0015
ffcc
00f8
004c
00a3
ffc0
0093
00a5
0016
0080
ffe5
008f
0005
ff5f
0053
ff7c
fffb
004b
ffe1
0065
0093
ff95
0026
ff6c
0053
003d
0026
0024
000d
ffcd
009d
ffac
ffc2
ffe3
0023
ffd6
0064
009b
ffe7
fee1
007f
0020
003b
001c
fff5
0013
ffc8
ffbd
0019
ffff
ff96
000d
0095
ffc1
0046
0029
00de
000c
ffeb
ffef
002b
ffd6
ff9b
ffda
00c2
ffc6
ffd8
000e
ffe9
ffcd
ff7e
0015
0068
ffd6
000e
0028
00a3
00a1
0036
00a4
0037
ff92
ffb8
000c
005e
fff3
fff6
001b
ff7b
ff8e
ff6a
ffb3
0000
ffaa
ffbe
ffe8
ffca
ffe6
0017
ff8d
ffd8
0083
00b9
fff2
ffcf
ffb2
ffea
ffdb
0013
fff5
0040
ffe0
ff46
fffe
ff8f
ffaa
000d
002c
0022
ff82
ffd4
0058
ffed
001f
0001
0035
0011
ffea
ffc5
ffed
0045
ff45
0074
ff91
fff2
0087
ffe9
ffc3
004e
ffa8
003e
ffca
ffdf
0025
ffcf
0019
0046
0034
ffbe
0012
fffd
fff0
006a
fff2
00b1
003a
ffe5
0006
001e
ffe6
fff8
ffc8
00c8
ffb2
ffd3
008c
0002
ffa7
0027
0042
0048
0036
ff93
ffcf
004a
00d3
0032
005f
0047
0006
006c
001b
0064
ff5d
007a
0010
0049
fffb
000b
fff1
ff2f
ff91
0053
0054
0041
005b
ff8a
ffbd
0042
00cb
001a
ffca
0035
ff90
003e
003c
006c
ffc1
0085
0073
fffa
ff32
007c
0094
0042
ffdd
ffa8
001c
0051
0103
0064
ff49
000e
00e2
ffaf
ffe4
002f
0073
00b2
ff60
ffd1
ffdf
ffa6
002e
ff40
002f
010d
0025
004f
0049
0031
0051
0031
0017
fff1
ffa8
ff87
ff5b
ff43
00ac
ff97
ffeb
fff9
ff60
fffc
0001
ffd1
ff61
ff12
0032
00f0
0012
0032
0033
003e
0000
0000
0000
0000
0000
0000
0000
0000
0000
0000
ffff
0000
0000
0000
0000
0000
0000
0000
ffff
0000
0000
0000
0000
0000
0000
0000
0000
0000
0000
0000
0000
0000
0000
0000
0000
0000
0000
0000
0000
0000
0000
0000
ffff
0000
0000
0000
0000
0000
0000
0000
0000
0000
0000
0000
0000
0000
0000
ffff
0000
0000
0000
0000
0000
ffff
0000
0000
0000
0000
0000
0000
0000
0000
ffc5
ff97
ff7c
fff0
ff67
00b5
0053
ff20
00a7
ffe0
0021
ffd1
ff2d
0065
0061
ffb3
ffe2
0001
00c0
ff71
ff81
ffe4
0019
0060
0035
ffd7
fec6
ff3a
ffba
0074
0063
ffe7
002d
ff84
ffdf
005b
ff76
0072
ffe0
0038
0005
002d
00d1
00be
ff61
0000
002d
ffeb
00c2
ff50
00d0
ffac
ff92
fff8
006b
0007
ffe7
ff42
0024
0044
0005
00e3
ffb2
00a0
fff1
0029
006e
ffe6
ffe9
00c1
0051
003e
0002
fff8
fee1
ff4e
ffdf
0046
0029
00bc
001a
ffd1
ff8d
0037
ff83
003b
004e
0051
ffb1
0044
ffdb
ff11
ff63
0076
ff7e
ffed
00a8
0015
ffd6
fe5d
007a
0092
0055
0067
ff70
0001
ff17
0069
0056
005c
0091
002e
fff1
ffe1
001a
0077
0053
0061
fffd
000e
00a2
fff4
0008
0000
ffe0
003a
ffdb
00b4
fff4
0052
ff64
fffa
000f
0011
005b
0055
fff9
0005
ffa5
008f
000f
0047
0034
ffad
ff8e
0014
ffbc
000f
ffcb
000f
0036
0014
ffc2
002a
ffee
fff1
ffb8
ffe6
003b
00a8
ff80
0079
ffd5
0001
ff95
002c
0083
007f
ffdd
fffd
0046
0037
0045
0034
ffbc
ffd7
000e
ffc3
001d
ffe2
002b
000a
ffba
0001
ff9e
fffe
ffb3
ffdd
ffdd
0034
002e
0054
ffd9
000e
0009
ffcd
000b
0027
ffb4
ffd8
ffea
000c
ffe7
ffc6
fff9
fffe
ff98
fffd
001d
ffde
ff8f
ff73
0005
ffc6
ffea
ffff
000b
005f
0039
007f
0027
ff8f
ffa6
ffa8
ff75
0087
0023
0004
fff9
ffcf
ffeb
00f0
ff44
0079
ffba
ffe2
00e3
0040
fff8
ffcd
0031
0032
0027
011c
ff3c
ff72
ffa8
ffb7
0006
003f
00a4
fffa
ffb6
ffd8
ffec
00b7
