ffe3
001b
0032
ffff
0048
0012
ffeb
0017
ffbb
0030
0021
0002
0096
0001
ffc1
0000
0039
0023
0018
0013
0044
0006
ffbf
ffe3
ffce
0045
0072
000a
0025
ffd2
0021
ffd5
ffe4
008f
0043
0008
0071
ffd8
0031
ffe8
fff1
004a
0053
0022
fffe
fff3
0023
0000
ff96
ffc9
001c
0006
ffef
0007
ffe3
ffdf
ffbd
0013
002e
000f
0027
000d
0022
ffff
ffaf
ffd7
0028
0012
ffbf
fffa
ffee
0035
ffff
fffe
ffff
ffff
0001
0001
fffe
0002
fffd
0000
ffff
0000
0000
fffc
ffff
fffe
fffb
0000
0002
0001
ffff
fffd
ffff
fffe
0000
fffd
ffff
0000
fffe
ffff
0000
0001
0002
0002
0001
0000
0000
0001
fffd
fffe
0001
0000
0000
0000
0000
0000
0001
0001
0000
0000
0000
0000
fffe
0000
0002
ffff
0001
0002
0002
0001
fffd
0002
fffe
fffb
0001
0001
0001
0000
fffb
0000
ffff
0000
000a
fff2
0013
fffd
0033
ffea
0006
0018
0020
fff0
0016
fff9
0029
fff4
0002
001f
fffb
ffd8
0016
fff3
0012
ffc7
fffb
ffeb
003a
000e
fff8
0003
0057
fff6
ffc6
001b
003d
fff3
ffeb
fff8
0050
0013
ffa0
000b
0032
ffd7
ffe5
fff5
004e
fff1
ffce
ffde
0044
003f
005c
000a
006e
0019
fff8
fff7
0031
004e
0033
0009
0095
002d
0016
ffe5
0008
0032
002f
0002
0067
000c
0033
ffde
001e
0000
fff4
ffe1
ffa7
ffb2
009d
000f
0023
fff2
ffdd
fffc
ff9b
ffeb
008a
0050
0022
0003
ffe9
fff8
ffc0
ffbe
0045
0011
0046
ffd6
ffd0
ffd3
ffa8
fff0
0061
fffc
0045
ffce
ffe5
fffc
ff9a
ffdf
0056
002f
002e
0032
0001
fff6
ffd6
ffa2
0003
ffec
003c
ffdf
0012
ffe0
ff97
0004
fff7
fff5
0039
ffc9
000e
fffe
ff5e
fffc
0005
fff6
0044
0072
002e
fffb
ffc1
ffd6
002d
ffce
fffe
0000
0000
0001
0000
0000
0000
ffff
fffe
0000
0000
0000
fffe
fffe
0000
fffe
0000
0000
0002
0000
0000
0000
0002
fffe
fffe
0000
ffff
0000
0000
0000
0002
ffff
ffff
0002
0000
ffff
0000
0002
0000
ffff
0003
0000
0000
0000
0000
0000
ffff
ffff
0001
0000
0000
0001
0000
fffd
fffe
0000
0000
0001
0000
fffe
ffff
0002
0000
0000
0000
ffff
0000
0001
0000
0003
0000
0001
0000
0000
0000
0001
ffff
fffc
fffd
0002
0003
0001
0002
0002
0001
fffe
0001
fffd
0002
0004
0004
0007
ffff
fffe
0002
fffe
ffff
0000
0000
0000
0000
ffff
fffe
0002
0000
0002
0000
0002
0003
fffe
fffe
0003
0000
0003
0001
0000
0003
0000
0001
0005
0001
0001
0001
0000
0002
ffff
fffb
0001
0003
0001
0007
0001
0001
0000
0000
0004
0000
0000
0003
ffff
0003
fffc
000e
000b
ffe3
002c
003a
0000
0025
0033
fffa
0001
0000
fffd
0020
fffa
0020
0034
ffdf
0017
001a
ffdf
0032
0003
fff9
0029
ffe9
fff2
0004
0007
0030
ffed
0041
0010
0000
0017
0015
ffdf
0036
0002
002c
fffe
ffb7
0000
002e
ffdc
002d
0013
0053
0017
ffc6
ffee
000a
ffec
003f
ffea
0020
0005
003d
fffc
ffd8
ffcd
001f
ffe8
0016
fff1
001b
ffe1
ffd3
001a
0019
fffb
0038
fff6
0039
ffea
0000
ffff
0000
0000
0000
0000
0000
0000
0000
0000
0000
0001
ffff
0000
0000
0001
0000
ffff
ffff
0000
0000
0000
0000
0000
0000
0000
ffff
0001
ffff
0000
0001
0000
0001
ffff
0002
0000
0000
ffff
0000
0001
0000
0000
0001
0000
0000
0000
0000
0001
0000
0000
0001
0000
ffff
0000
ffff
0001
0000
0000
0001
ffff
0000
0000
0000
0000
0000
0000
0000
0000
0000
0001
0000
0000
002a
0014
002a
0007
0025
ffc8
0026
0012
003b
ffec
0023
ffd5
ffe5
001c
0056
004c
fff9
ffe9
ffed
0000
fff5
ffec
0051
0028
ffbf
ffff
000a
ffb5
0003
fffa
003c
0008
ffca
0017
0064
ffc3
ffa3
0013
0078
0030
ffc2
0037
000e
ffb3
ffc4
ffc2
006b
ffd8
ffd1
0007
ffb6
ffe9
000c
0015
000b
ffae
ffde
fff7
ffe2
ffe0
ffb4
ffec
003a
ff7e
fff9
0002
ffbf
ffc5
ffc5
ff98
0014
ffbb
0000
ffff
0000
0003
ffff
ffff
0000
0000
fffe
fffd
0000
0000
0002
0000
fffe
0000
0000
fffd
0000
0000
0001
ffff
0000
0000
0001
ffff
0000
ffff
0000
ffff
0000
0000
ffff
0000
fffe
0000
fffe
fffd
fffe
0000
0000
0005
ffff
0000
ffff
ffff
0000
0001
0003
0000
0000
0000
0000
0000
0002
0000
ffff
0000
0004
0004
0000
0000
0001
0000
0001
0002
0001
0002
ffff
fffe
0002
0000
0038
0007
0008
0000
ffdd
fff6
fff3
ffff
0044
0036
ffe1
0017
0001
ffdc
004d
002b
0013
0039
fff8
ffcf
ffce
0002
000b
0004
0045
ffed
0007
fff8
ffee
ffee
ff81
005b
0028
000d
ffdd
fffb
0016
ffe0
fffd
0092
ffea
0008
fffc
ffd8
ffe5
fffe
ffce
007a
fff9
fff6
0033
0018
fff5
0022
ffeb
0065
ffec
0006
0068
002f
ffe7
000a
0035
0083
ffbf
ffea
001e
000f
ffdd
0016
001f
0045
ffd9
ffdd
0028
0031
001d
0033
fff0
ffc8
003e
ffdd
004d
0047
004a
0027
fff8
ffe9
004b
0008
ffef
003b
0049
0015
0016
006a
ffa1
ffa8
0027
004c
0030
000a
fff2
ffd2
0047
ff89
0057
003a
0057
ffe7
0006
ffc4
0029
000c
0006
0058
006d
0034
0053
0095
0015
ffe2
fffd
006e
003a
0040
fffb
000b
0091
ffca
0012
004a
004f
ffff
ffdf
0011
0061
0065
fff6
0081
0065
0064
0050
006a
0000
ffff
ffff
0000
0000
0000
0000
0000
0000
0002
0000
0000
0000
0000
0000
0000
0001
0005
ffff
0000
0000
0000
0000
0000
0000
0000
0000
0000
0000
0000
0000
0000
0000
0000
0000
0000
0000
0000
0000
0000
0001
0000
0000
0000
0000
0000
0000
0000
ffff
0002
0000
0000
0000
0000
0000
0000
0001
0000
0000
0000
0000
0000
0000
0000
0000
0000
0000
0000
0000
0000
0000
0000
0008
ffff
0000
fffc
0001
0000
fffd
0000
0000
0001
0000
fffd
0000
0000
ffff
0004
0000
0004
0001
ffff
0000
0000
fffd
0003
0001
0001
0000
fffe
0001
0000
0002
0000
0000
0002
0000
ffff
0000
0003
0003
0001
0000
0000
0000
0000
0000
ffff
0005
0000
0001
0001
fffb
fffe
0000
0001
0003
0001
0000
0001
ffff
0001
0000
fffe
0003
0000
0001
0000
ffff
0003
0000
ffff
ffff
0000
0068
ffec
fffa
000e
0018
0005
0011
0000
0016
fffb
000e
0034
0013
003c
fff1
0025
0008
0016
fffc
000d
fff9
0028
0038
003b
0062
0008
ffec
001c
0008
ffe0
0029
0006
0012
ffd3
000f
0041
0007
000d
ffc3
001d
fff6
003f
0015
0007
ffda
fff3
003c
0055
0045
ffe7
ffe2
000d
ffeb
fff9
0023
fff7
fff1
ffd5
fffb
0010
ffc2
0000
ffc8
001f
ffac
0056
fff4
fff7
ffc2
ffc0
0041
0000
0000
0000
0002
0000
0001
0002
0000
0000
0001
0000
0002
ffff
0000
0000
ffff
0000
0000
0000
0001
0000
0000
0001
0000
0000
0000
0001
0000
0000
0000
0001
ffff
0000
0000
ffff
0000
0000
0000
0001
ffff
0000
ffff
0000
0000
0001
0001
0000
ffff
0000
0000
0001
fffe
0000
0001
0000
fffe
0000
0000
0001
0000
0000
0000
0000
fffe
0000
0000
0002
0000
0000
0002
0000
0000
0001
0029
0042
0051
fff4
008b
ffe8
0011
0002
ffcc
001b
fffc
ff72
008a
000c
ffc6
0032
ffe7
ffee
0059
ff99
0097
003a
0010
002a
0038
003b
ffe3
fff3
003c
ffc5
0004
003a
0032
001e
fff2
ffee
0015
ffeb
fff5
0066
0031
ffcf
000a
ffee
003e
002e
0049
004b
001d
fff4
0003
ffed
0001
ffbe
001c
0011
0004
001c
ffe7
fffb
002f
ffaf
006d
001c
0000
ffe9
fff9
0011
0010
ffaa
0058
ffeb
ffff
0001
0000
0003
ffff
fffc
0005
ffff
0001
0000
0003
0001
fffe
0000
0000
0000
0001
0001
0002
0000
fffd
0001
0002
ffff
fffd
0000
0001
ffff
fffe
ffff
0003
ffff
ffff
0004
0001
fffd
0003
ffff
0002
0000
0000
0002
0001
fffe
0001
0004
0001
0000
0000
0002
fffe
0001
ffff
0003
0000
0001
0000
0005
fffe
fffc
0000
0000
0001
fffd
0002
0001
0003
ffff
0002
0000
0001
fffe
ffd9
0031
ffe7
0013
ffeb
ffee
ffee
002a
001c
fffe
fffe
001f
ffd2
ffff
ffe8
0049
ffde
ffde
ffd7
000a
ffd7
0031
ffec
001c
ffdf
0053
ffe9
0005
ffc8
ffdd
ffea
fffd
000a
0000
0005
000a
ffc0
fff6
ffd1
000b
ffd3
ffd9
ffde
fffc
ffe6
0050
ffd0
0000
ffcb
0073
fff1
ffe9
ffe6
ffdd
000e
002e
ffdb
0019
001d
0000
ffb8
002b
fff0
008e
ffe5
ffef
ffea
ffef
fff8
008a
0022
0041
fff3
ffe9
ffbe
0027
ffd4
0007
0031
ffe9
0004
0067
ffd5
0054
ffba
ffb5
0042
ffd0
0021
0049
ffec
0074
ffbd
fff7
0028
0005
ffe4
ffe8
ffe2
ffe0
ffd0
0003
0022
ff7d
ffb4
008c
ffef
0000
ffdf
ff9b
0006
ffba
ffee
0044
002d
0044
ff8f
ffdc
ffd9
0020
0016
ffcb
fff6
ffd2
ffdb
000d
0028
ff84
ffe8
0065
001c
ffe5
ffaf
ff76
ffe4
ff9a
0021
0042
0053
fffc
ffba
ffe0
0005
001d
0000
0000
0000
0000
0000
0000
0000
0000
0000
0000
0000
0000
0000
0000
0000
0000
0000
0000
0000
0000
0000
0000
0000
0000
0000
0000
0000
0000
0000
0000
0000
0000
0000
0000
0000
0000
0000
0000
0000
0000
0000
0000
0000
0000
0000
0000
0000
0000
0000
0000
0000
0000
0000
0000
0000
0000
0000
0000
0000
0000
0000
0000
0000
0000
0000
0000
0000
0000
0000
0000
0000
0000
0001
0000
0002
fffe
0000
0000
0000
ffff
0000
fffe
0003
0002
fffe
0000
0002
fffe
0000
fffe
0001
0002
fffe
0001
0000
0000
0001
0000
0001
0002
0001
0000
0000
0000
fffe
0002
0001
fffe
0001
0000
0000
fffc
ffff
0002
0002
0000
0002
ffff
0000
fffb
0000
0003
0003
ffff
0000
0000
0000
fffb
fffd
0001
0008
fffd
0001
0000
0000
fffe
fffd
fffa
0006
fffd
0002
fffe
0000
0009
ffc7
0035
ffef
fffe
0025
ffdd
ffff
002a
fff6
003d
000b
ffcc
ffa7
ffb0
fff7
002d
fffd
fff8
ffea
ffed
000f
00ae
0016
0041
fff2
000d
000f
001e
001a
0006
fff4
0015
0028
0041
0013
ffeb
ffee
ff4e
000b
0012
000e
fff0
fffe
0008
002b
008a
001f
006c
ffc9
0023
fffc
0005
0007
ffb8
ffef
002f
fff6
0029
fff2
ffda
ffc9
ff5b
ffb3
0036
ffe5
ffec
000a
fffd
0018
0049
0019
0064
0000
ffff
0000
fffe
0001
fffb
0000
0000
0000
0001
0000
ffff
0000
fffd
0000
0001
0000
0000
0000
fffd
0000
fffb
0000
0003
0000
fffe
0000
fffd
0000
fffc
0000
0000
0000
0000
ffff
0000
fffe
0000
0000
0000
0000
0000
ffff
0001
fffd
0000
0000
0000
0000
0000
fffe
0003
fffe
0000
0000
0000
0000
0000
fffd
0001
fffc
fffe
0001
ffff
ffff
0000
0000
0000
fffb
ffff
0002
ffff
ffab
fff5
ff9d
fff7
ffc4
002b
ffd8
ffea
ffc3
ffe9
ffb3
fff7
ff96
006b
ff85
ffae
0028
ffee
ffc3
ffc5
ffb4
0015
fff4
ffe0
ff92
ffdc
ffbd
ffe5
ffc3
ff8a
fffb
ffbf
ff7e
0026
ffab
0008
ffea
ff49
ffd5
ffa7
ffca
000d
ff9c
ffcb
0003
ff61
fffd
ffc8
ffaf
ffac
ffdb
ffdb
ffa4
ffca
004e
ffe7
ff8f
ff96
ffaf
fff1
ffe8
ffa0
0028
ff94
fff1
ff92
ffba
ffa6
fff9
ffbc
000a
ffd7
0002
0000
0000
ffff
0002
0000
0001
0001
0000
fffd
0000
0004
0000
ffff
0001
0000
ffff
fffe
0000
0000
0003
0001
0000
fffe
ffff
ffff
0001
fffd
0002
0001
0001
ffff
ffff
ffff
fffc
ffff
fffb
0000
0000
0002
0002
0000
fffe
ffff
0000
0000
0000
0000
0000
fffe
0000
0001
0003
0002
0000
fffe
fffe
0000
0002
fffe
fffa
0000
0002
0001
0002
0001
ffff
0000
0000
0000
0000
0001
002d
ffc8
0051
fffc
0012
0064
0018
0013
004a
fff1
0067
0033
0046
0099
0043
003d
0023
ffc9
0039
000d
002b
003c
ffff
0015
000f
0010
0000
fff1
0029
0009
0021
0024
0052
004b
0035
0008
001f
003b
004c
0047
0002
0011
001c
0003
ffff
001e
0015
0013
ffea
fff5
0004
0005
0030
0016
0014
fff6
0007
0034
0030
0018
002c
0012
005c
0000
ffca
fffe
fff7
0021
0000
0006
0028
ffe4
0081
0010
002e
0006
0028
ff9c
ff9e
0065
005b
002f
0029
ffbb
0044
ffd1
002f
007a
001a
0020
0024
ff67
003f
0004
ff8a
0059
007c
ffed
0022
0010
0022
0006
ffab
0053
0056
fffb
ffef
000c
ffd2
002d
0025
004d
0022
002e
002a
ffbf
fff8
001e
ffb1
0027
0077
ffd3
002c
ffe5
0010
ffdc
ff93
0028
0068
ffcc
0027
fff9
ffa4
ffce
ffe7
0060
0034
0033
0044
ffc9
ffbf
fff3
ffb6
0007
0000
0000
0000
0000
0000
0000
0000
0000
0000
0000
0000
0000
0000
0000
0000
0000
0000
0000
0000
0000
0000
0000
0000
0000
0000
0000
0000
0000
0000
0000
0000
0000
0000
0000
0000
0000
0000
0000
0000
0000
0000
0000
0000
0000
0000
0000
0000
0000
0000
0000
0000
0000
0000
0000
0000
0000
0000
0000
0000
0000
0000
0000
0000
0000
0000
0000
0000
0000
0000
0000
0000
0000
fffe
0000
ffff
0000
0000
fffe
fffe
fffe
fffb
ffff
0001
0000
0000
fffd
ffff
0000
fffb
0000
0000
0000
0002
ffff
fffd
0001
fffb
ffff
0001
0000
0000
0000
0000
0000
0000
0000
0000
0001
fffe
fffe
0000
0001
ffff
0000
0001
0000
fffd
fffb
ffff
0002
0000
0000
0000
0000
fffe
fffe
fffe
0001
ffff
0000
0000
0001
ffff
fffe
0000
0001
0000
ffff
ffff
0002
fffe
fffc
0001
fffb
fff8
ffb6
0020
002e
fff7
001e
ffce
0011
ffef
fff5
fff5
ffe6
001d
0039
001a
0001
001c
fff8
ffec
ffb4
0005
004a
0029
fffb
001f
fff6
002a
0039
0004
ffd3
ffde
002d
001a
0017
0013
0003
0018
ffc9
0011
fff7
fff3
0021
ffe4
ffe1
000c
ffbe
000a
ffe2
fff9
ffe5
ffee
0051
ffed
ffd4
0012
001a
fff7
0005
ffda
fff2
0025
ffe2
000b
ffe8
ffd0
fff2
ffb5
ffca
0039
ffe7
fffe
ffdc
ffff
ffff
0000
0000
0003
fffb
0000
0000
ffff
ffff
0000
ffff
0002
fffd
0000
ffff
ffff
0000
0000
ffff
0003
fffb
0000
0000
0000
ffff
0000
fffe
0001
fffb
0000
0000
ffff
0000
0001
0002
fffe
0000
fffe
0002
0000
0000
0000
0003
fffc
0000
0000
0002
0000
0000
0001
0003
fffd
0000
0000
0004
0000
0000
0000
0003
fffc
0000
ffff
0001
0000
0000
0000
0004
fff9
0000
ffff
0001
0005
000f
0016
fffa
001b
0000
ffe2
0002
ffff
fff9
ffd4
0002
005a
fffe
001b
ffff
0002
ffe3
0046
0010
0006
ffff
0017
0001
0003
fff4
0032
0008
0001
0000
fff5
0004
0000
fff4
ffff
0000
ffe3
ffff
0004
fffa
0000
ffee
0023
fff6
ffd7
ffff
0016
fffc
ffff
fff3
002c
0007
0017
ffff
0006
0000
ffff
0005
0020
0002
ffe8
0000
fff9
fffd
0001
ffe3
ffea
fff8
ffdc
0000
ffff
0000
0000
fffe
0000
fffe
0003
0003
0000
ffff
0000
0001
0000
0002
fffd
0000
0002
fffd
0000
ffff
fffc
0004
fffe
0000
0004
fffe
0001
fffd
fffd
0001
0002
0001
0000
0000
fffe
ffff
0003
ffff
ffff
0000
0002
fffe
0002
ffff
0000
fffe
0000
0000
0000
fffe
0003
ffff
0001
ffff
0002
ffff
ffff
0000
0003
0000
0005
fffc
0000
0001
fffe
0004
0004
0000
0001
fffc
0004
0002
ffff
ffff
ffff
ffe8
fffb
fffe
0007
0000
003c
0000
0001
0008
0033
fffd
fffa
0000
fff0
0000
0001
000b
0013
fffe
0012
0000
0007
0000
0000
ffc2
fff2
ffff
0010
0000
0023
0001
0000
001b
ffcb
0000
0008
0000
ff8a
0000
0001
0009
fff3
fffd
ffed
ffff
ffbb
0000
0000
0008
ffc7
0010
002d
0000
0019
0000
ffff
000d
ffc0
0001
0011
0000
0009
0000
0000
fffd
ffcb
fffc
0001
fffe
ffed
0000
0001
0002
ffae
000a
0047
ffff
003f
0000
0000
0002
ff9b
0004
0022
ffff
ffe8
ffff
0000
ffe7
ffe3
ffe1
002f
ffff
000d
0000
0000
ffec
0002
fffb
0003
ffff
0027
0000
0000
fff3
0014
0015
0036
0003
0006
0000
0000
ffe2
ff9f
0012
001a
0005
003a
0000
0000
000e
0024
000f
ff96
0002
ffd7
0000
0001
0005
0058
0016
0002
0005
fffb
0000
0000
ffe0
ffb7
000c
000b
000b
ffc5
0000
0000
0000
0000
0000
0000
0000
0000
0000
0000
0000
0000
0000
0000
0000
0000
0000
0000
0000
0000
0000
0000
0000
0000
0000
0000
0000
0000
0000
0000
0000
0000
0000
0000
0000
0000
0000
0000
0000
0000
0000
0000
0000
0000
0000
0000
0000
0000
0000
0000
0000
0000
0000
0000
0000
0000
0000
0000
0000
0000
0000
0000
0000
0000
0000
0000
0000
0000
0000
0000
0000
0000
0000
0000
0000
0000
0000
fffe
0000
0000
0000
0000
0001
0000
0000
0000
0000
0000
0004
0002
0000
0000
0002
ffff
fffd
0001
0004
0000
0002
0002
0000
ffff
fffe
0000
ffff
fffe
0002
0003
fffc
0000
0000
0002
ffff
0001
0000
0000
0001
0001
0002
0000
0000
0000
0000
0001
ffff
0000
0001
0002
fffd
ffff
fffe
0000
0000
0001
0000
0002
0000
ffff
fff7
fffd
0003
0000
0003
fffd
0003
0000
0005
ffc6
0006
0037
0000
0019
0000
0000
ffda
ffff
000e
ffe6
0000
ffce
0000
0000
ffbc
0026
fffc
fffb
0000
ffe6
0000
0000
fff9
ffff
fff2
ffe4
0000
fff6
0000
0000
0000
003e
000b
001e
0000
ffea
0000
0000
ffd8
fff4
0005
0014
0000
ffe5
0000
0000
0013
002d
fffc
fff0
0000
0000
0000
0001
ffef
003f
000a
0015
0000
0019
0000
0001
0009
ffc9
000c
000d
0000
fff6
0000
0001
0002
fffe
fffc
0003
0000
0000
0008
0000
0002
fffe
fffd
0002
ffff
ffff
0002
0000
0003
0000
fffc
0003
0000
fffe
0008
0002
0002
ffff
fffd
0002
ffff
ffff
0003
0001
ffff
fffd
0001
ffff
0000
0000
0000
0003
fffe
fffc
0000
0000
0000
0004
0000
0002
ffff
fffc
0002
0000
0000
0002
0000
0002
fffe
fffd
0000
0000
0000
0005
0000
0004
0000
fffd
0002
0000
0000
0010
0001
ffeb
0011
fff9
ffca
ffcf
fff2
ffad
0000
0008
0059
0019
fff0
ffe4
fffa
0011
0000
ffdc
001a
0047
0062
001b
0023
ffe1
0000
fffa
ffed
005d
0015
ffbc
ffd0
002c
0000
ffd0
ffe2
0067
ffdc
ffc2
ffee
0024
0000
0000
0008
004e
0061
0005
0030
000c
0000
ffa0
fffa
000b
0029
ffc3
0015
002c
0002
ffa4
0000
ffac
0096
ffac
000e
001d
0001
002a
0000
ffe2
0041
fff8
0018
ffed
0000
fffe
0005
0000
ffff
0001
0005
0002
0000
ffff
0000
0000
fffe
0000
0000
fffd
0002
fffe
fffe
fffd
ffff
0000
0000
0003
0003
fffe
0000
0002
0001
fffe
0000
0002
0001
ffff
fffb
0000
ffff
0001
fffe
0001
fffe
0000
0000
0000
fffe
0000
0003
0004
ffff
0001
0000
0000
0003
0002
0003
0000
0000
fffc
fffc
ffff
fffd
0000
ffff
0005
fffe
0000
fffd
0000
fffe
0003
0003
0002
fffe
ffe2
0031
fffa
0060
0018
0006
0004
0000
ffe5
0026
fff0
0032
002a
ffb2
0005
ffff
0031
fffa
ffcc
ffa0
0011
ffea
0015
0000
0010
ffbe
0016
ffa7
001d
001c
fff0
0000
002a
fff7
ffe6
0010
0037
ffee
ffd6
0000
ffe2
ffac
0000
ffa1
0007
0001
fffa
0000
0000
0023
0009
ffff
ffe3
0019
ffc2
0000
ffe0
ffec
0002
0001
fff6
0014
0012
fffe
ffd4
ffec
0014
fff2
0014
ffe4
ffc2
ffff
ffb9
002a
0025
001d
000c
ffd8
0021
0000
ffbb
fff2
fffb
ffcb
0006
ffd5
002c
0000
002d
ffeb
0013
ffc6
0032
005f
000b
0000
ff9f
0018
fffc
fffc
ffeb
fff6
ffba
0000
0018
0031
fff2
ff3c
0033
0027
ff91
0000
0068
001d
ffc1
0037
fff8
003c
004f
ffff
ffe0
000b
0015
ffcd
ffc2
0002
ffb7
0000
002b
000f
ffee
ff92
ffd8
fffd
ffc4
0000
002a
ffd5
ffa9
ffee
ffbb
0018
0023
0000
0000
0000
0000
0000
0000
0000
0000
0000
0000
0000
0000
0000
0000
0000
0000
0000
0000
0000
0000
0000
0000
0000
0000
0000
0000
0000
0000
0000
0000
0000
0000
0000
0000
0000
0000
0000
0000
0000
0000
0000
0000
0000
0000
0000
0000
0000
0000
0000
0000
0000
0000
0000
0000
0000
0000
0000
0000
0000
0000
0000
0000
0000
0000
0000
0000
0000
0000
0000
0000
0000
0000
0000
0000
0000
fffe
ffff
fffd
ffff
0001
0000
ffff
0000
fffe
ffff
0000
0004
ffff
0000
0000
fffe
fffc
0000
0000
0000
fffe
0002
ffff
0000
ffff
0000
0001
0000
ffff
0000
0000
fffe
0001
ffff
0001
0000
ffff
0000
ffff
fff9
0000
fffe
0001
fffd
0000
0000
0000
fffe
ffff
fffc
0002
0000
0000
0000
fffe
fffd
ffff
fffe
0005
0001
ffff
0000
fffd
0005
0000
0000
0000
ffff
ffff
fffe
ffd6
000b
002d
fffd
0009
0000
0015
0000
001d
0015
0018
002f
0070
0001
0041
0000
0016
ffe9
000b
0013
ffce
0026
0024
fffe
ffcc
0013
0032
ffea
003f
0028
ffec
0000
0086
000e
ffff
ffe3
ffdd
002d
0003
0000
0028
002e
000c
0036
0009
0017
0007
fffe
ffff
ffdd
fffd
ffeb
0028
001d
fffb
0000
0041
0033
fff5
fff1
ffe1
0017
ffef
0001
0011
0009
ffe8
0004
fffe
0032
0036
0000
0000
0000
0000
0000
0000
0000
ffff
0000
0000
0001
0000
0000
0000
0000
0000
0000
0001
0001
0000
0000
0000
0000
0000
0000
0000
0001
0000
0000
0000
0000
0001
0000
0000
ffff
0000
0000
ffff
0000
0000
0000
0000
0000
0000
ffff
0000
ffff
0000
ffff
0000
0000
0000
0000
0000
ffff
0000
ffff
0001
0000
0000
0001
0000
0000
0000
ffff
0000
0000
0001
0000
0001
0000
0000
ffff
0030
0020
0028
0000
0000
fff5
000d
000c
ffc9
ffec
ffeb
0000
0011
0023
0016
ffe9
ffb1
000e
fff8
ffff
ffb2
000b
0009
fff8
ffd6
ffb5
0039
0000
0036
ffe4
0034
0000
ffc3
ffb7
fffc
0000
002a
0014
fffb
fff6
ffcc
000d
fff2
ffff
ffda
fff1
ffec
ffeb
002a
fff6
0007
0000
fffe
fffe
0006
001c
ffdf
004d
001b
0000
0020
000b
0008
0008
002b
005f
fff6
0000
ffe0
fff5
fff9
fff5
0003
0000
0004
0001
0000
0000
0000
fffe
ffff
ffff
0000
fffe
fffd
ffff
fffa
0000
fffd
0003
0000
fffd
fffb
0001
fffe
0000
0000
0003
0000
0000
0000
0000
0000
0000
ffff
0000
ffff
fffd
ffff
ffff
fffe
0001
0001
ffff
0001
fffb
0001
ffff
0000
0000
0000
0002
0002
0001
0000
0000
0002
0000
0000
0000
0000
fffc
0001
fffb
fffd
0002
ffff
0000
0000
fffa
0005
0000
0000
0000
fffe
ffdd
ffed
0000
fff7
fff6
ffaf
ffdb
0017
ffff
ffff
0000
fff2
ffff
ffeb
ffe7
fffa
001e
ffe5
0000
0004
fff3
ffd9
004a
ffa9
0028
ffee
0001
ffe8
fff1
ffff
0023
ffc1
ffc1
ffe6
0000
ffde
0016
002a
0002
fff3
fff2
0009
0000
0010
0019
ffe1
fff4
0019
fff4
fffb
0000
0000
0006
ffda
0014
0019
ffe8
ffdf
0000
ffed
fffa
ffe2
ffe6
002b
ffe6
fff9
0000
000a
ffe4
ffea
ffb8
fffd
001c
ffcb
ffff
fff2
ffff
ffcb
0019
0033
0030
fff4
0000
ffd3
fff8
0030
ffd0
ffd9
0040
002f
0000
ffdb
ffe0
002f
ffda
001a
0033
ffe7
0000
ffb6
0016
fff4
0042
003d
007f
0000
0001
ffca
ffef
0011
0009
ffb6
0032
002c
0000
ffe2
fffe
002a
ffcc
fff6
0047
0008
0000
ffbb
0011
003a
005b
ffda
0030
0003
0002
ffc8
fffa
0026
ffdf
ffbd
0000
0002
0000
ffe2
ffda
fffa
ffd7
0000
0000
0000
0000
0000
0000
0000
0000
0000
0000
0000
0000
0000
0000
0000
0000
0000
0000
0000
0000
0000
0000
0000
0000
0000
0000
0000
0000
0000
0000
0000
0000
0000
0000
0000
0000
0000
0000
0000
0000
0000
0000
0000
0000
0000
0000
0000
0000
0000
0000
0000
0000
0000
0000
0000
0000
0000
0000
0000
0000
0000
0000
0000
0000
0000
0000
0000
0000
0000
0000
0000
0000
0000
0003
0000
0000
fffe
ffff
0000
0001
0000
0000
0007
0000
0000
0000
0002
0003
ffff
0001
0002
0000
fffe
ffff
0004
0002
ffff
0000
0004
0000
fffe
0000
0000
0000
0001
0002
0003
0001
0000
fffe
ffff
0000
0003
0001
0005
fffd
0002
fffd
0000
0000
0000
0005
fffe
0000
0000
0000
0000
0000
0001
0000
0005
0000
0001
fffc
0002
0002
0003
fffc
000d
fffd
ffff
0008
0004
0007
0015
000a
0002
0000
001a
000b
001e
0007
ff71
0007
0020
0000
ffd1
000a
0025
0042
ffeb
ff9a
ffef
0000
ffdb
ffe9
ffaf
003b
0051
004a
0006
0000
002d
0006
fffe
0049
ff7b
0062
002e
0000
ffe2
001a
0026
ffe7
ffe5
fffe
fff8
0000
000a
fff4
ffde
ffee
002b
fffb
0019
0000
ffff
fffe
0000
0016
ff6c
ffe6
ffcd
0000
000a
fffe
ffdc
0020
0021
0004
fff3
0000
002e
ffd2
ffae
fffa
ffff
0000
0000
ffff
0000
fffe
0002
0000
0000
0000
ffff
ffff
0000
ffff
0000
ffff
0000
ffff
0000
0000
0000
0000
ffff
0000
0000
0001
ffff
fffe
0000
0000
0000
ffff
0000
0000
0000
0000
0000
0001
ffff
0001
0000
0002
0000
0000
0001
ffff
0000
0000
0000
0000
0000
0000
0001
0000
ffff
0000
0000
0001
0000
ffff
ffff
0000
ffff
0001
fffe
0001
0000
0000
0001
ffff
0001
0000
ffd6
ffbf
ffbe
ffd8
ffcd
fffd
ffcd
fffe
0020
fff2
fff8
ffe5
ffb2
0033
ffec
0008
003e
fff9
fff3
000f
003b
0036
ffa5
001a
ffc6
ffb8
000f
ffc7
ffdb
0021
0001
0040
0014
0027
003a
ffb4
ffb2
004b
002a
0016
003b
0049
0017
0014
001c
ffff
ffea
0003
002e
ffdb
ffdd
fffa
0004
ffef
ffdd
0035
0009
0029
fffd
fff1
ffe8
ffc4
003d
0025
ffd8
003a
0000
0046
0004
0000
0035
0002
ffff
ffff
0000
0000
ffff
0000
fffd
0000
0002
ffff
0000
ffff
0000
0000
ffff
0004
0004
ffff
0001
0000
ffff
0003
0003
0002
0000
0000
0003
0000
0000
0001
0002
ffff
0000
fffe
0000
ffff
0002
0003
ffff
0004
0000
0005
ffff
0000
0001
0003
0000
0002
0000
0000
0000
0002
ffff
0002
0002
0001
ffff
0002
fffe
0000
0002
0001
0006
0008
0002
0002
0002
0000
0002
0000
0003
0003
ffb9
fff9
0019
0009
001b
fffd
ffd5
ffce
fff2
fff3
001e
0053
0048
ffc5
000c
ffef
0004
ffcd
fff8
000f
ffe3
ffda
fff1
0008
000f
0019
001b
0023
ffd3
ffd8
0000
0033
0008
0002
fff6
0049
ffea
000f
ffdd
003e
fff9
0014
0001
002e
fff7
ffc6
fff3
002a
ffd1
0000
0014
0015
fff8
ffc6
0007
0006
ffe4
ffb1
ffe9
0003
0004
0017
fff5
0025
ffcc
fff1
0026
fffb
ffe9
ffd6
ffcb
0032
002c
0012
ffe7
ffeb
fffd
0065
fff6
0050
0035
0003
001b
003f
ffdd
0069
000c
004b
0004
ffb0
002c
0005
0006
001a
fffb
0004
0005
fff6
ffee
ffe8
005c
003e
ffcf
fff5
ffec
fff0
003b
004a
0008
007c
ffc7
0028
fff7
0016
ffd0
000b
0037
0054
ffd2
0022
0013
ffe8
0019
0003
0001
0003
0002
ffdc
004b
ffe6
ffe0
0013
ffee
0049
ffed
001e
003e
ffe6
ffe8
ffd8
000b
ffce
ffaf
0001
0000
0000
0000
0000
0000
0000
0000
0000
0000
0000
0000
0000
0000
0000
0000
0000
0000
0000
0000
0000
0000
0000
0000
0000
0000
0000
0000
0000
0000
0000
0000
0000
0000
0000
0000
0000
0000
0000
0000
0000
0000
0000
0000
0000
0000
0000
0000
0000
0000
0000
0000
0000
0000
0000
0000
0000
0000
0000
0000
0000
0000
0000
0000
0000
0000
0000
0000
0000
0000
0000
0000
0000
0003
0000
0002
0001
fffc
ffff
ffff
ffff
ffff
0000
0000
0000
fffc
0000
0003
0000
0000
0000
ffff
ffff
fffb
0001
0005
ffff
0000
ffff
0000
0000
fffe
ffff
0000
0000
0000
0002
0000
fffe
0000
0000
fffe
0002
0001
0003
0000
fffb
0000
fffe
0000
0003
0001
0002
0000
fffb
0000
0002
fffe
0000
0000
0002
ffff
fffd
0001
0002
0002
0004
fffd
0007
0000
fffe
0001
fff9
0000
0008
0040
ffe2
fff0
000f
0022
000f
fff4
ffdd
ffcc
fffe
0034
002d
0007
0000
000e
0031
001f
ffe9
002e
ffc0
0016
fff1
002d
ffe7
0032
0010
0024
0033
ffe2
ffee
fffc
0017
fffc
0000
001e
005d
0024
fff6
ffb8
0006
0004
000a
fff5
ffb1
004f
ffd7
ffe8
ffd1
ffc2
fff9
0040
000f
ffcb
ffed
0014
000a
ffc5
ffbd
0001
0012
ffe3
ffdc
ffd7
0007
0031
000c
000f
0010
003b
001f
ffcf
0005
0000
ffff
0001
0000
0000
0000
0000
0000
0001
0000
0000
ffff
0001
0000
0000
0000
0000
ffff
0001
0000
0000
ffff
0001
0001
0000
ffff
0000
ffff
ffff
0000
0000
0001
0000
0000
0000
0000
0001
0000
ffff
0000
0000
0000
0000
0001
0000
0000
ffff
ffff
ffff
0001
0000
0001
0000
0000
0000
0000
0000
0000
ffff
0001
0002
ffff
0000
fffe
0000
0000
0000
0000
ffff
0001
0000
0002
0006
003b
0001
ffda
fffd
fff6
ffd4
004b
000a
005c
0000
ffcc
000f
0043
0012
000a
0012
004b
0002
0036
0037
003f
ffe5
002e
fff1
0000
0003
ffea
ffed
000d
fff2
ffd9
ffb4
ffec
0000
ff9f
0000
ffd7
ffe9
0019
fffe
003b
ffff
fff7
0043
0008
0020
ffd7
ffa9
ffc6
ffff
0004
ffce
0001
009b
ffe1
ffed
fff2
0000
fffd
ffd6
ffed
0055
ffe7
004d
0050
ffff
fff5
0031
ffc3
0087
ffeb
fffb
fff8
0000
fffe
0003
fffe
0001
0003
0003
0001
0000
fffc
0002
ffff
ffff
0000
0004
0000
ffff
0000
0001
0001
0000
ffff
0000
fffe
0001
fffe
ffff
0001
0000
0001
0002
fffe
fffd
0000
0000
0000
0000
0000
0000
0000
ffff
0000
0000
0000
fffe
0000
fffe
0000
0001
ffff
0000
0001
0000
ffff
0005
fffd
fffd
0000
ffff
0001
ffff
fffe
0000
0000
ffff
0000
0000
0002
fffb
ffff
0036
ffde
0001
0015
001e
ffcd
0012
0005
ffa8
ffe4
0000
fffd
0015
ffe9
ffe4
ffd0
0023
0024
0000
ffc7
0027
ffe5
fff3
fffa
ffe7
ffea
0001
0023
fff0
ffef
0015
004b
ffa2
0012
0000
000c
ffe3
0009
ffcb
003d
ffe2
001c
0000
000c
ffed
001e
ffc2
0030
ffea
ffdb
0000
fffd
ffe4
fff4
0000
0009
ffc7
0043
0000
0028
ffee
fff4
ffe9
0020
ffa5
0063
0000
fff5
ffb1
ffd6
ffb8
000c
fffa
0026
0000
0047
0007
ffd2
ffd9
ffdd
0031
0047
0000
0045
0017
0035
0018
fff3
0005
0023
0000
ff9a
0016
0027
ffea
003b
ffd3
fff1
0000
000b
0021
0005
0003
0003
0019
0044
0000
0060
0009
0016
0038
ffec
ffec
004d
ffff
ffdd
0024
003e
ffb3
0016
fff3
0000
0000
0037
ffac
000f
000f
001a
fff0
0009
0000
004b
ffc8
000f
fff1
0004
0014
0039
0000
0022
0026
0014
ffcb
003b
0000
0000
0000
0000
0000
0000
0000
0000
0000
0000
0000
0000
0000
0000
0000
0000
0000
0000
0000
0000
0000
0000
0000
0000
0000
0000
0000
0000
0000
0000
0000
0000
0000
0000
0000
0000
0000
0000
0000
0000
0000
0000
0000
0000
0000
0000
0000
0000
0000
0000
0000
0000
0000
0000
0000
0000
0000
0000
0000
0000
0000
0000
0000
0000
0000
0000
0000
0000
0000
0000
0000
0000
0005
0000
0002
0000
ffff
0002
0000
0000
0000
0004
0001
0004
fffe
0006
0001
0000
0003
0002
0001
0000
0000
0009
0000
0000
0000
0000
0000
0002
0000
0001
0000
ffff
0001
0003
0005
0000
0003
0000
0000
0000
0003
0002
0002
0000
0005
0000
0000
0000
0002
0000
0006
0000
0005
0000
0000
fffd
0003
0006
0000
ffff
0002
0000
0000
0003
fffe
0004
fffa
0001
0001
0000
0002
000c
0061
0014
0000
0026
fff3
0075
002d
ffc6
0038
002c
0000
0046
ffdc
000c
0022
fff7
ffcb
ffd4
ffff
ffde
0011
ffd2
ffe6
0020
0000
001c
0000
ffb7
fff6
0005
0057
ffcf
ffd6
004f
0000
0064
fff9
0028
0041
ffd4
ffda
fff3
ffff
0026
0008
ffe3
ffdc
001a
0004
ffe1
0000
ffdc
0003
ffe3
ffde
0000
0000
fffe
0000
0011
ffda
0003
fff9
002a
ffbc
fff4
0000
fff0
fff6
ffd4
0008
0023
fffe
0000
0000
0000
0000
0000
ffff
0000
0001
0000
0002
0000
0001
0000
0000
0000
0000
0000
0002
0000
0002
0000
0000
ffff
fffe
0001
ffff
ffff
0000
ffff
ffff
0000
0000
fffe
0001
ffff
0003
0000
0000
0000
0000
0000
0000
0000
0002
0001
0000
0001
0000
0001
0000
0000
0000
0001
0000
0001
0000
0002
0000
0000
0000
0000
0000
0002
0001
0003
0000
0002
fffe
0002
0000
0001
0054
0023
000b
ffe1
0024
ffff
000e
ffdf
ffda
0039
ffe9
ffc2
0021
001f
ffcc
fffe
ffea
ffee
003b
fffb
001c
0012
0006
0009
fff1
0033
ffd8
0040
fff8
fff6
ffdf
fff3
0004
001c
ff98
0019
000b
fff2
ffd3
ffc9
0003
0006
000a
ffc9
ffed
ffd4
000e
ffd7
ffe4
002a
0071
003b
ffe3
001a
0002
ffbe
001c
002a
0057
fffb
003b
0006
0007
ffbb
ffe5
0005
0051
ffdd
fff4
ffad
0002
003f
0000
0000
fffd
0001
ffff
0001
0004
0002
0003
fffe
ffff
ffff
fffd
fffe
ffff
fffa
0002
ffff
0000
ffff
fffe
fffe
0000
fffe
ffff
0001
0003
ffff
ffff
0000
0000
ffff
ffff
0000
0000
0000
fffe
ffff
0000
0000
0001
0002
0000
0000
0000
0001
fffe
0000
0002
0000
0000
ffff
0003
0001
0002
0001
0000
fffd
fffd
fffe
ffff
fffd
fffe
0003
ffff
0000
ffff
0000
fffe
fffd
ffff
0000
ffdc
0014
fff3
ffc2
ffc8
0009
fff9
0013
0007
ffee
0005
fffa
ffef
0012
fffd
000e
fffd
001a
ffcc
000b
fff7
0012
ffe6
fff7
ffcf
ffea
ff68
ffdb
ffeb
fff7
003b
ffa8
ffd3
0000
ff4f
ffe7
0017
001f
0021
ffd0
0015
ffb4
ff42
0060
0005
002f
001c
ffc8
fffe
0025
004d
fffb
0022
0005
0031
ffe3
0029
ffe9
0051
0032
001d
000c
0027
ffeb
0013
ffcf
0029
fff4
002d
0018
fff5
ffd2
0021
0030
0007
fff7
0008
002f
ffcc
000e
fff8
ffd0
003d
0026
ffd9
0046
ffd0
ffc6
fffd
0041
fff0
fffd
fff3
0038
fff7
ffe3
0010
ffeb
ffd8
ffc5
0025
001f
fff0
ffce
ffe9
000b
0034
0017
ffff
0082
fff0
0005
ff9a
fff9
ffad
fff6
0060
0061
0005
0025
ffd9
fff4
ffff
fffb
0007
fff0
ffc7
002b
0004
001f
0033
ffd5
001e
004b
ffeb
000f
ffed
000b
ffed
ffe2
001a
0021
000c
ffeb
0000
0000
0000
0000
0000
0000
0000
0000
0000
0000
0000
0000
0000
0000
0000
0000
0000
0000
0000
0000
0000
0000
0000
0000
0000
0000
0000
0000
0000
0000
0000
0000
0000
0000
0000
0000
0000
0000
0000
0000
0000
0000
0000
0000
0000
0000
0000
0000
0000
0000
0000
0000
0000
0000
0000
0000
0000
0000
0000
0000
0000
0000
0000
0000
0000
0000
0000
0000
0000
0000
0000
0000
0002
0000
0001
0000
0000
0003
0000
ffff
fffd
0000
0001
0000
0001
0001
fffe
0000
0001
0000
0006
0001
0002
ffff
0000
0000
0000
0000
0000
0000
ffff
0002
0000
0000
0000
0004
0000
0000
0005
ffff
0000
0000
0001
ffff
0000
0000
0002
ffff
0000
0002
0000
0000
0001
0000
0002
0000
0000
0002
0002
0008
fffd
ffff
0001
0001
fffc
0001
0002
0002
fffa
fffd
0003
0008
fff9
fffc
0024
fffe
001a
fffd
ffd1
000b
ffe4
0020
ffeb
ffeb
0006
ffd7
003d
0079
0002
0028
0008
ffe4
ffef
fff4
ffe8
0003
ffea
fff0
ffe8
fffe
0040
001e
ffc2
001e
fffa
0005
ffb7
0002
0043
fff1
004a
0008
001f
ffde
0016
0017
0098
ffd2
000b
001e
fff1
0026
ffff
0003
000b
0001
001b
0037
000b
0004
ffd1
0018
002b
fffd
0014
0048
0025
ffef
ffd2
0038
0009
fff7
ffd6
0051
ffba
0003
0000
0001
0000
0000
0000
0000
0000
0000
0000
0000
0000
0000
0000
0000
ffff
ffff
0000
0001
ffff
ffff
0000
0000
fffe
0000
0000
0001
0000
0000
0001
0000
0001
0000
0000
0000
0000
0000
0000
0001
ffff
0000
0000
0000
0000
0000
0000
ffff
fffe
ffff
0002
0000
ffff
0000
0000
0000
0000
ffff
fffe
0001
ffff
0000
0000
0000
ffff
0000
0002
ffff
0000
0000
0000
fffe
0000
fffe
fff3
0013
ffe5
0000
ffd8
0002
fffb
0002
0025
ffec
fff8
0000
000a
0029
ffd3
0041
0004
0018
0026
0000
ffe7
ffd0
002f
0009
0042
0006
000f
0000
002a
001c
fff3
ffda
ffcf
ffdf
0010
0002
0037
0048
000a
003d
ffd4
0058
fffe
ffff
ffe8
ffbe
0034
0088
0049
0019
000f
ffff
0000
ffee
0036
ffe9
002c
0017
ffde
0000
0047
ffe7
0017
0037
0032
001c
0033
0000
0003
ffe5
003b
0026
0001
0000
0001
0001
fffe
fffd
0000
fffe
0002
0000
0000
0000
0000
ffff
ffff
fffe
0000
fffd
0000
0000
0000
0001
fffd
fffb
fffe
fffd
0000
0000
fffd
0000
0000
ffff
0001
0000
fffe
fffe
0003
0000
fffc
0002
0000
0000
0000
0000
0002
fffe
0000
0000
0000
0000
0000
0000
0002
fffe
0000
0001
0000
0000
fffc
ffff
0007
0000
fffb
0007
0000
ffff
fffe
fffd
0002
fffe
fffd
0004
0000
ffee
0030
0000
0057
ffe8
000f
001e
0015
0023
001a
fffe
ffff
ffcc
ffea
fffe
0065
ffc2
0013
0000
000b
ffc3
ffe9
ffb9
000c
fffd
fff9
0000
0060
0020
fffb
0005
ffce
0027
0010
0000
fff9
0011
0014
ffc4
0051
000b
ffdc
0000
ffdf
ffdc
ffca
ffc0
0031
0016
0000
0000
002b
000d
0020
0003
001a
ffe5
0018
ffff
0017
fff7
ffe6
0031
002d
0027
fff3
0000
001c
000b
ffc1
0011
fff2
ffe3
002a
0001
0034
001e
0039
fff4
fffd
ffdd
ffd0
0000
ffcc
001f
002a
ffd2
005d
0020
fff0
ffff
0011
ffbc
000a
ffbe
ffcb
ffd2
0029
0000
001a
000a
0010
fff9
ffb9
0017
fff0
0000
0029
0008
fffe
fffa
003f
0005
005d
0000
0017
0004
0039
ffe2
0021
0007
001e
0000
0015
ffd6
002b
0018
ffe0
ffc0
000d
0000
0018
ffe7
ffd7
0041
0045
ffbd
0073
0000
0026
001b
ffac
0024
0000
0000
0000
0000
0000
0000
0000
0000
0000
0000
0000
0000
0000
0000
0000
0000
0000
0000
0000
0000
0000
0000
0000
0000
0000
0000
0000
0000
0000
0000
0000
0000
0000
0000
0000
0000
0000
0000
0000
0000
0000
0000
0000
0000
0000
0000
0000
0000
0000
0000
0000
0000
0000
0000
0000
0000
0000
0000
0000
0000
0000
0000
0000
0000
0000
0000
0000
0000
0000
0000
0000
0000
0000
fffe
ffff
0003
ffff
fffe
0000
0000
0004
ffff
0001
0000
fffe
0000
fffe
fffe
0001
0000
0000
ffff
0000
0000
0001
fffc
0000
0000
ffff
0000
fffe
ffff
fffd
0000
0000
ffff
0001
ffff
fffe
0000
fffd
0001
0000
0000
0000
0000
0000
0000
fffd
0004
ffff
fffe
ffff
fffe
0000
fffd
0001
0000
0000
0000
0003
fffe
fffd
0002
fffd
fffe
fffb
0001
0007
0000
fff7
0004
fffe
0000
ffe8
0005
ffcb
0000
0048
fff3
ff97
004e
ffd3
0035
fff9
0000
ffff
ffb5
000b
0006
001d
ffd3
ffb1
0000
ffa8
ffe6
0001
0018
ffbe
0007
ffca
0000
002f
007a
ffe2
001c
ffe7
fff9
fff6
0000
0004
0008
007c
ffc0
0015
ffae
002c
0000
ffcf
ffbe
002b
ffe8
ffe6
001f
ffee
0000
0001
0004
0014
0015
fff7
ffb8
0040
0000
000f
001b
0018
fff4
ffe0
0018
005a
0000
ffe8
ff68
ffe0
fff6
fffe
0000
0000
fffe
0001
0000
fffe
0001
fffe
ffff
0000
ffff
ffff
0000
ffff
0001
ffff
ffff
ffff
fffe
0002
ffff
fffd
0002
fffe
0000
0000
0000
0001
ffff
ffff
0000
0000
0000
0000
0000
ffff
0000
fffe
0000
0000
0000
0000
0000
0001
0000
0000
ffff
0000
fffe
0000
0001
0000
0000
0000
ffff
0000
0000
ffff
0000
0001
0000
0002
ffff
ffff
fffe
fffe
0003
0001
fffe
0005
fffd
0059
0012
ffee
0047
ffed
0012
000a
fff4
fffb
fff4
0020
0068
000e
0014
0044
ffec
0032
ffdd
ffe1
0011
0004
fff7
005f
ffee
0011
0019
000c
fffe
fff9
0017
0019
fffd
0027
0021
001f
001f
0031
0020
0034
002d
ffe8
fffc
ffee
004b
fffe
0037
0037
ffed
ffe5
003c
0000
0035
0023
004c
0043
0011
fff6
0051
0050
002d
008c
0042
0017
000f
0021
ffe3
0005
0004
0042
0045
0020
ffd6
0000
0000
0003
ffff
fffd
0000
ffff
ffff
0000
0000
0000
fffb
0000
ffff
0000
0002
0000
0000
0000
ffff
0001
0000
fffe
fffd
0000
0001
0002
0001
0001
0004
ffff
fffe
0000
0000
0004
0001
ffff
0000
0000
0002
0000
0002
0000
ffff
ffff
0001
0000
0001
ffff
0000
fffd
fffe
0004
fffe
ffff
0000
fffe
fffe
0000
fffe
0001
0002
0000
0002
fffe
0001
fffe
fffd
fffe
ffff
0000
0003
0011
fffc
fff3
0018
ffe3
0007
0006
0032
0024
ffec
ffff
000e
0007
0017
ffca
0031
0011
0002
0006
0026
0007
0008
ffe3
0028
001f
005d
ff95
fff1
ff98
0018
fffc
0017
ffc1
fff5
ffbc
0004
ff8e
0002
002c
001b
ffb4
ff8f
ffad
003b
ffb5
ffd3
ffee
0029
0012
0038
0015
ffe4
ff94
002a
ffff
fff7
fffd
0039
0018
ffd4
ff89
0017
0007
fffd
fffd
0036
0036
002d
0000
ffcf
0000
ffd3
0031
0011
fffc
003b
ffe2
ffe8
ffe5
0011
ffe3
000d
0031
0043
ffc3
000e
ffdc
0013
ffbc
0028
ff96
001b
0029
ffd9
ffcf
0070
0040
ff77
ffd6
001b
ffde
ffc4
ffd9
0015
001c
ffd8
004a
000f
ffcc
002d
0017
0018
ff91
0081
ffee
ffbe
fff1
0000
0017
0034
0046
ffdc
001f
ffc8
ffda
fffd
ffe9
0007
ffe3
003d
004d
ffea
ff7c
0030
ffe6
ffe7
ff9b
0097
ff9e
0015
ffc3
0088
0026
fffb
0000
0000
0000
0000
0000
0000
0000
0000
0000
0000
0000
0000
0000
0000
0000
0000
0000
0000
0000
0000
0000
0000
0000
0000
0000
0000
0000
0000
0000
0000
0000
0000
0000
0000
0000
0000
0000
0000
0000
0000
0000
0000
0000
0000
0000
0000
0000
0000
0000
0000
0000
0000
0000
0000
0000
0000
0000
0000
0000
0000
0000
0000
0000
0000
0000
0000
0000
0000
0000
0000
0000
0000
ffff
0000
0000
0001
0001
fffd
0003
0000
0002
0000
0000
0000
0000
0003
0001
0000
0002
0000
fffe
0003
0000
0001
0003
0000
0000
0000
ffff
fffe
0000
0000
0003
0000
0001
ffff
0000
0000
0001
0001
0000
0001
0002
0000
0000
0000
0002
0001
0000
0002
0000
0000
0000
0000
0002
0002
0000
ffff
0000
0000
0001
0000
ffff
0001
ffff
0001
0000
0000
0005
ffff
fff1
0000
0001
0000
ffd1
0010
fffd
001d
ffe4
0011
0003
0001
0016
0013
004b
ffc3
002c
ffea
ffd3
0019
ffdf
ffcc
fff6
0027
ffee
ffff
ffdc
fffa
0030
ffc4
0001
fff1
0036
003e
ffe4
0000
ffd1
0052
0061
ffc1
ffa7
0029
002c
001f
ffe0
001f
fffb
0067
0031
0052
ffef
0018
0045
ffea
ffde
ffe4
0032
0005
ffe6
ffd8
0012
0000
ffe7
ffd3
ffce
0013
0035
fff6
000b
0013
ffb2
0000
0003
0058
fffb
0000
ffff
0000
0000
0000
0000
0000
0000
ffff
ffff
0001
0000
0000
ffff
0000
0000
0000
fffe
0001
0000
0001
0000
0000
0001
ffff
0000
0000
0000
0000
0001
0000
0001
0000
fffe
0000
0000
0000
0000
0000
0000
ffff
0000
0000
0000
ffff
0000
0000
0000
0000
0000
0000
0000
0000
0000
0000
0000
0001
0000
0000
0000
0000
0002
0000
0000
0000
0005
ffff
0000
fffd
0001
ffff
0000
0000
0049
fff9
fff5
001a
0044
fffb
fffc
0036
002e
0047
0024
ffeb
0036
ffe8
001a
0003
ffed
ffe0
0009
ff96
003a
006a
fffa
0009
0018
001c
003d
0021
004c
0003
0004
001a
003b
003b
0034
001f
ffc9
ffc1
ffd4
000f
0018
0006
ffeb
ffbd
ffe4
ffcb
ffda
0033
ffc5
002f
001a
0047
000f
0018
0014
003a
ffd7
ffca
0025
0029
ffe6
fff0
ffec
001f
fffe
fffe
ffe7
ffe8
0041
ffea
ffe4
0043
0000
0000
0000
0001
0002
fffe
fffe
0003
0000
0002
0000
0000
ffff
ffff
0000
fffe
0000
0000
0002
0000
ffff
fffd
ffff
0000
ffff
fffd
0001
0000
0001
ffff
0001
0000
0001
0000
ffff
0000
fffe
0001
0000
0002
0000
ffff
0000
fffe
ffff
0000
0000
0000
0000
fffe
0001
ffff
0000
0001
0000
fffe
0001
0001
ffff
fffe
ffff
ffff
fffc
0004
0002
0000
0001
0000
0000
fffd
0000
ffff
ffea
0039
001a
002f
ffdf
ffed
0034
ffbc
fff1
0009
0043
0048
ffec
ffdb
0000
fff3
0003
0053
0039
002d
ffcd
fffb
fff1
ffed
ffd2
ffe2
0012
fff1
001a
002e
0029
ffeb
fffc
ffed
0002
ffe4
fff6
ffdc
ffdf
ffff
0010
ffcb
0001
ffbd
ffe9
0001
ffbd
0002
ffdb
000a
004c
000d
ffe4
0018
003d
0005
0000
0004
0014
0017
0037
0005
0013
fffe
001d
0008
ffff
fff1
0035
fffe
ffea
fffc
001b
000b
0017
001a
ffee
fff9
0012
fff8
0006
ffc9
006d
0032
ffe7
0002
0004
ffcb
ffcf
ff88
000b
0058
ffff
ffcb
ffc5
ffcb
ffe4
0009
ffe9
ffe2
fff8
ffdc
ffe1
0013
ffe9
fffd
002e
ffdf
0020
0005
002b
ffef
ffb3
fff6
ffcd
001a
0031
ffb0
0045
ffd3
ffde
0003
0028
ffc6
000c
0023
ffe8
fff0
ffd5
fff3
0056
ffdb
003a
ffed
0002
ffe3
000a
ffe3
ffc4
0006
ffe1
ffe8
004f
ffcf
0000
0000
0000
0000
0000
0000
0000
0000
0000
0000
0000
0000
0000
0000
0000
0000
0000
0000
0000
0000
0000
0000
0000
0000
0000
0000
0000
0000
0000
0000
0000
0000
0000
0000
0000
0000
0000
0000
0000
0000
0000
0000
0000
0000
0000
0000
0000
0000
0000
0000
0000
0000
0000
0000
0000
0000
0000
0000
0000
0000
0000
0000
0000
0000
0000
0000
0000
0000
0000
0000
0000
0000
0000
0000
0001
0003
0000
0003
0002
fffa
0001
0000
fffe
0000
0001
0000
ffff
fffc
fffe
0000
0000
ffff
ffff
0001
0000
fffd
0000
0000
ffff
0000
0002
0002
0000
fffe
ffff
fffe
0001
ffff
0001
ffff
fffe
0000
0003
ffff
0001
0002
0002
0001
fffd
0001
0000
ffff
0001
0000
0000
fffe
fffc
0000
0000
0000
0000
0000
ffff
fffb
fff8
0000
fffd
0002
0003
0004
0004
0000
fffe
0003
0019
fff0
001f
0033
0022
fff5
fff2
ffe9
ff25
ffd4
0047
ffd7
003f
ffe1
fff1
000c
0008
0035
fff4
0040
ffff
001d
0009
0002
003b
fff4
0047
0028
0017
0009
fff1
0029
ff98
0001
ffec
ffdf
0078
0033
001f
ffd3
ffd6
0028
0005
ffd9
002d
fffa
002d
000b
0010
ffc9
002e
0036
0021
fff8
ffe4
ffe9
fff3
0040
fff8
0021
001e
ffdd
0001
ffe5
0017
002b
0006
0016
0007
ffff
0011
0002
0001
0000
0002
0000
0000
0001
fffe
ffff
0000
0002
0000
0002
0001
0003
ffff
0000
0000
0000
0003
0000
ffff
0002
ffff
0000
0000
0000
0000
0000
0000
0000
ffff
0000
0000
0000
ffff
0000
ffff
0000
0000
0000
0001
fffe
0000
0002
0001
fffe
0000
0000
0001
0000
0001
0000
0001
ffff
ffff
0001
0000
fffd
0002
0000
0001
ffff
0001
0000
0003
0001
ffff
0000
0008
fffd
0000
ffff
0002
ffe0
ffec
ffda
fffc
ffff
fff3
0024
0001
0002
ffd2
fff9
fff8
0011
fff4
0014
fff6
0008
0001
001c
0025
fffa
0014
fff2
000f
0026
fffb
001f
0010
fffa
ffee
0012
0000
0053
0014
fff8
0012
fff3
0039
0007
fff6
0040
002e
0006
ffef
fffb
fff6
0016
ffe9
ffd7
ffb4
0048
000f
fffd
fff7
006d
ffe1
0003
0003
fff3
fff9
0000
005a
0015
ffe0
0015
ffd6
001c
ffb2
0010
0003
ffea
fffb
fffe
0002
ffff
0001
fffd
0000
0003
0004
fffb
ffff
0001
ffff
ffff
0001
ffff
0000
fffa
ffff
0001
ffff
0000
0000
0001
fffe
fffe
0001
0002
0003
0000
0000
0002
fffc
0001
0000
0000
0000
0000
0000
0000
fffd
0000
0000
0000
ffff
0000
0000
ffff
fffe
0002
0000
0000
0000
fffe
0000
fffe
fffb
ffff
0000
0000
0000
0000
ffff
0000
fffe
ffff
fffd
0000
fffe
0000
ffff
0001
fff2
ffed
0041
ffca
ffe5
ffc7
ffde
ff95
ffe9
ffdb
ffe7
0037
fff2
ffd6
000a
fff9
ffe4
ffe2
001a
000d
0014
ffd7
ffeb
ffd0
0001
fff0
000d
ffb6
fff4
ffd5
ffe4
fffa
ffe4
0001
ffcb
0012
0026
ffe7
0022
ffff
fff7
001c
ffe7
0016
000b
fff2
ffcf
fffc
000f
ffe5
ffd0
ffad
0005
fff8
ffdc
fff0
000e
000a
0033
fff2
0035
0008
0007
ffbb
0014
fff2
ffd6
fff1
fff1
0010
fff6
ffd6
0001
ffcf
fff4
ffa5
0017
002d
0036
fffc
0005
001f
ffdb
0014
fff3
0026
0004
ffbd
0024
fffe
0034
fff1
ffe3
000c
fff0
ff95
0014
ffa6
ffd1
000c
0008
0028
0037
0038
ffed
ffbe
001a
005a
ffe3
0029
0009
ffa8
0000
0020
0022
001d
ffc7
0019
ffb5
ff88
0022
0007
0001
0022
0011
004c
000b
0048
000a
ffbc
000c
0001
ffda
0014
ffcb
fff3
fff6
fffe
0029
ffeb
0007
001b
ffa3
000c
0000
0000
0000
0000
0000
0000
0000
0000
0000
0000
0000
0000
0000
0000
0000
0000
0000
0000
0000
0000
0000
0000
0000
0000
0000
0000
0000
0000
0000
0000
0000
0000
0000
0000
0000
0000
0000
0000
0000
0000
0000
0000
0000
0000
0000
0000
0000
0000
0000
0000
0000
0000
0000
0000
0000
0000
0000
0000
0000
0000
0000
0000
0000
0000
0000
0000
0000
0000
0000
0000
0000
0000
0000
0000
fffe
0000
ffff
0000
0000
0001
0000
ffff
0000
0000
0000
ffff
fffd
0000
0000
0000
ffff
0000
ffff
fffe
0000
ffff
fffe
0000
0000
0000
ffff
ffff
0001
0000
fffd
0000
0000
0000
0000
0000
ffff
0000
0002
0000
fffe
0000
0000
ffff
fffe
0001
0000
0000
ffff
ffff
0001
fffd
ffff
0001
fffe
0000
0000
0000
0000
0000
0000
0001
0005
fffd
0000
0000
0000
0001
0000
0001
fffa
fffd
ffde
0017
ffd1
0037
ffef
fff8
fff8
003d
0013
002b
000f
ffd9
ffc9
ffab
000b
0009
000d
fff9
ffe9
001f
ffb3
002d
ffdf
ffe5
ffa0
0041
0020
001d
ffe1
0023
ffe3
0033
ffee
0029
0002
fff1
0001
0025
002a
0022
fff2
ffe7
002c
000a
fff3
ffed
fff8
fff5
0017
0024
ffe6
0028
ffdc
ffe7
fffb
ffff
0022
ffde
0028
ffdf
ffeb
0021
fffe
0047
004b
0039
001c
0031
ffec
ff87
ffff
ffff
0001
fffe
0000
0000
0001
ffff
0000
ffff
0000
0000
0001
0000
0000
0000
fffe
0000
0000
0000
0002
ffff
0000
0000
0000
0001
0001
ffff
0000
0000
0002
0001
0000
0000
0000
0000
0001
0001
0000
fffe
0000
0000
ffff
ffff
0000
0000
0000
0000
ffff
0001
0000
fffe
0001
0000
0000
0000
ffff
0000
ffff
fffe
0000
0001
0000
ffff
fffc
0000
ffff
0000
0000
fffe
fffe
0002
0018
0001
0000
fffe
0004
0022
ffcf
003a
ffeb
ffe7
0000
ffff
ffc6
ffeb
ffe5
0004
ffee
0019
0000
fff8
0000
0007
fff9
ffd4
fffc
000f
0000
fffb
ffe5
0005
002b
0022
0010
ffe6
fffe
0004
0003
fff4
000a
0000
0021
0014
ffff
ffff
001d
001f
0019
ffe3
ffcc
ffcd
0000
fff4
ffcd
fff6
001a
ffdc
ff98
ffe4
fffe
0020
ffce
0006
004e
fff1
ffdb
fff3
0001
ffe3
000e
0055
fff2
0010
0000
0000
fffe
0000
0008
0000
0002
0000
0000
0000
0002
0001
0002
0000
ffff
ffff
0001
0000
0000
0001
0005
0000
ffff
fffe
0000
0000
0002
0002
fffe
0000
0000
0000
ffff
0000
0000
0000
0000
ffff
0000
0000
0000
fffe
ffff
fffe
0001
ffff
fffe
0000
0000
fffd
ffff
0000
0000
0000
ffff
0000
0000
0002
0003
fffe
0000
0000
0000
ffff
0001
fffd
ffff
0000
0000
0001
ffff
0000
0000
ffe3
ffff
fff1
ffa7
fff2
ffef
0031
fff3
0022
fffe
0004
ffb9
ffcf
ffdd
000f
0059
ffeb
ffff
ffca
0015
fff6
ffe9
ffed
0007
ffec
fffe
0001
0038
ffdc
ffe6
003f
0028
001f
ffff
000a
000c
fff2
ffec
0002
0025
0021
ffff
fffb
ffda
0014
fff3
000f
000c
000d
ffff
fffd
001c
ffe9
0007
0021
0002
000e
0000
fff7
ffcf
fff3
ffd0
0041
000f
ffe6
0000
fffd
ffcf
fffa
ffc4
005a
ffe4
0000
0000
0002
0005
fff5
fff2
ffd7
ffca
0010
0000
0019
0002
ffcd
ffe2
0000
0053
0004
0000
ffcc
ff9a
ffdf
000b
0013
ffd7
fff9
0000
0001
001e
ffe0
ffc4
ffe3
ffc4
0028
0001
fffc
fffe
ffe3
ffda
ffd0
0032
000a
0001
000f
fff4
0004
0002
ffe9
fffe
ffdc
0001
000a
0000
0000
ffc2
0018
fff8
0019
0000
ffbd
000c
ffef
ffc5
000a
ff8e
ffe9
0000
0016
004c
001a
ffd0
ffee
0000
0000
0000
0000
0000
0000
0000
0000
0000
0000
0000
0000
0000
0000
0000
0000
0000
0000
0000
0000
0000
0000
0000
0000
0000
0000
0000
0000
0000
0000
0000
0000
0000
0000
0000
0000
0000
0000
0000
0000
0000
0000
0000
0000
0000
0000
0000
0000
0000
0000
0000
0000
0000
0000
0000
0000
0000
0000
0000
0000
0000
0000
0000
0000
0000
0000
0000
0000
0000
0000
0000
0000
0000
ffff
0000
0003
fffe
0000
0000
0000
0000
ffff
0000
0002
fffe
0001
fffe
0000
0000
ffff
ffff
0000
0000
0000
fffe
0000
0000
ffff
0000
0000
0000
0000
ffff
0000
0000
0000
0000
0001
ffff
0001
fffe
0001
0001
fffd
ffff
0002
ffff
0004
ffff
0000
0001
0000
0000
0001
0000
0002
ffff
ffff
ffff
0000
0004
ffff
0000
0001
ffff
0000
fffe
ffff
0004
0000
ffff
0000
ffff
0000
ffce
ffb3
0000
ffe8
0005
ffd3
0002
fff6
ff98
0007
0000
0004
ffb6
ffd6
0056
0002
0072
ffe5
0000
ffba
001c
ffe8
ffd6
ffd3
ffd0
ffdf
0000
ffe1
0002
ffe7
ffe4
000a
ffb4
ffe2
0000
000f
0004
fff5
0015
fff2
0031
ffe5
0000
ffe3
ffea
0031
0000
0022
0027
0025
0000
ffe7
ffeb
001a
0000
0027
000a
0001
0000
fff0
ffd9
0016
0021
fffa
0004
0005
0000
ffcf
ffc7
0026
001e
004b
0000
0000
fffe
ffff
0000
0000
0000
ffff
0000
fffd
fffe
0002
0000
0000
0000
0001
0001
fffe
ffff
0000
fffe
0000
0002
0000
0000
0000
0000
0000
0000
0000
0002
ffff
0000
fffe
0000
0000
0000
0000
ffff
0000
0000
ffff
0000
ffff
0000
fffe
0000
0000
0000
ffff
0000
0000
0000
0000
0000
ffff
fffe
fffe
0000
0000
0000
fffd
0000
fffe
ffff
0000
0000
ffff
ffff
0000
0002
fffe
fff1
ffbc
0006
fff5
ffee
0047
0032
ffa8
0009
ffb6
001e
0008
ffa4
0061
002e
0018
0016
ffe9
0041
0003
ffb8
0029
002b
003a
ffe5
0006
ffce
0006
0003
0023
fff6
ffdf
ffc1
000a
0000
0027
ffce
003c
0013
0013
0007
0002
0035
001c
0001
0000
002d
ffff
000b
ffcd
ffed
001d
ffd1
fff6
000d
ffdc
fff9
ffe5
0011
0018
0003
0036
ffef
0007
0023
000c
000d
0049
0016
fff0
fffb
0004
0000
0000
0000
0001
0000
0000
0001
ffff
0000
0000
ffff
0000
ffff
0003
0000
0000
0001
0000
ffff
0001
0000
ffff
0000
0000
0000
0000
fffe
0000
fffe
0000
0000
0002
ffff
0001
0000
0001
0000
0000
0000
ffff
fffe
0000
0001
0001
ffff
0000
0000
ffff
0000
0001
0000
0001
fffe
0000
0000
ffff
0000
0000
0000
0000
0002
0000
0002
0002
0000
ffff
0001
0001
0003
ffff
0000
0000
0002
ffd7
001f
0021
0007
001e
ffd4
ffd8
0032
fffa
ffec
0030
0022
005e
ffdc
ffdc
ffed
ffc1
ffd4
0000
0005
0034
ffe3
0011
002b
ffd6
0025
001f
001c
ffd3
ffd5
fff2
0009
ffc2
0019
0013
0020
fffe
ffd6
ffe9
ffe4
ffb5
002f
fff7
0019
ffea
ffc5
fff8
0029
ffd1
ffc9
0006
ffe5
0034
000b
001b
0062
ffbd
ffc2
ffd2
ffe1
0077
ffee
000d
0023
ffd2
fffa
000a
ffed
0033
fff4
ffe8
ffd4
ffd9
0049
000e
0030
ffc1
ffe2
fffd
ffe5
000c
fff0
0021
0032
fff6
0023
fffa
ffdd
0021
ffb0
ffde
0015
0010
0000
ffe2
ffe7
ff9d
0023
0001
fff9
ffc8
0021
0008
000b
ffeb
0000
ffdb
ffe7
ffe4
0026
fff5
0011
ffcf
001f
0031
fff5
0004
fffc
ffc7
ffdc
ffdc
000a
0000
fffe
ffd4
ffcd
0025
ffae
ffab
fff6
ffc3
0000
ffc3
0008
ffee
fffc
ff95
0044
0053
0010
0003
001d
ffe4
0000
0000
0000
0000
0000
0000
0000
0000
0000
0000
0000
0000
0000
0000
0000
0000
0000
0000
0000
0000
0000
0000
0000
0000
0000
0000
0000
0000
0000
0000
0000
0000
0000
0000
0000
0000
0000
0000
0000
0000
0000
0000
0000
0000
0000
0000
0000
0000
0000
0000
0000
0000
0000
0000
0000
0000
0000
0000
0000
0000
0000
0000
0000
0000
0000
0000
0000
0000
0000
0000
0000
0000
fffe
0000
0000
0000
0000
0000
0000
0000
0000
fffe
fffe
0000
0001
ffff
0000
0002
0000
fffd
ffff
0001
0000
fffe
0000
0000
0000
0000
ffff
0001
0001
0000
0000
0000
0002
0000
ffff
ffff
ffff
ffff
0000
fffe
0005
ffff
ffff
fffe
ffff
ffff
0003
fffe
0002
0000
ffff
ffff
0000
0000
0002
ffff
0000
0000
ffff
0000
ffff
ffff
0000
0000
0000
0000
0000
0000
ffff
fffe
0000
0000
ffff
000e
002a
0050
fff1
0027
fff7
ffd7
0015
005a
0019
0018
000d
0007
0041
fffb
ffd4
ffb5
002f
ffe1
0013
0058
fff6
ffec
ffe6
fff2
001e
0013
0001
003a
ffee
0006
006a
0014
001a
0001
0004
ffeb
006c
ffef
fff3
ffbe
0025
fff5
0001
005f
ffde
ffdd
0000
ffe7
000c
ffe9
ffed
0037
002a
0002
0010
ffc3
005d
0009
ffec
ff8c
004a
ffde
fff4
fff2
0009
ffd8
fff7
0009
ffed
0017
0000
0000
0001
0000
0000
0000
0000
0001
0000
ffff
0001
0000
0000
0000
0000
fffe
0000
fffe
0000
0000
0000
0000
0000
ffff
0000
fffe
0001
0000
0000
0002
0000
0000
ffff
0001
0000
0000
0001
0000
0000
0000
ffff
0001
0000
ffff
0001
ffff
0000
0000
0000
0000
0000
0000
0001
fffe
ffff
0000
fffe
0002
0000
0000
0000
0000
ffff
0001
fffe
ffff
0001
fffe
0000
ffff
0000
0000
0000
002e
ffd6
fff8
0017
0022
ffdc
0003
ffc7
0016
ffd9
0012
fff5
0014
ffe3
000f
fff0
fff2
ffe3
fffb
001d
000a
ffcd
001c
ffe6
003b
ffdd
0024
000f
ffe4
0006
002c
fffb
0015
ffc8
fff0
ffef
ffee
ffb3
ffee
ffdc
0009
ffdd
0000
fff2
ffca
ffb1
0034
0040
0045
fff0
fff4
000b
001c
ffe3
0033
0043
002d
ffc9
000a
ffb8
ffe8
ffee
ffdd
0006
ffef
ffd5
0015
0004
0012
ffd9
0014
fffe
ffff
0000
fffd
0000
0002
ffff
0000
0001
0000
0000
0000
ffff
0000
ffff
0000
0000
0000
0001
0000
0000
0000
ffff
ffff
0000
0000
0002
fffb
0000
0002
fffe
0002
ffff
0001
0005
ffff
0002
0000
0000
fffe
ffff
0000
0000
0000
0002
0000
0000
fffd
fffe
0000
fffe
0000
fffe
0000
0001
fffe
0000
0000
0003
0001
0005
0000
0000
0000
fffe
0001
0007
0001
fffe
0000
fffc
fffd
ffc9
ffdc
ffe0
002b
ffd7
ffbd
fffb
ffec
ffef
0008
0031
fff6
ffdb
ffa7
0007
0009
000e
ffe9
002b
ffde
ffd8
ffb0
ffe8
0007
0019
0032
ffdc
0047
000c
fff3
002d
0016
0038
fff0
ffdb
000a
fff5
0028
0031
0030
0022
fff9
0007
ffec
ffc7
fffe
fffd
0045
0018
0022
001a
000c
fff8
ffdd
fff6
0003
000a
fff6
0032
0025
ffe9
0001
ffec
0009
fffa
0008
0053
0020
0002
ffa3
000f
0039
ffeb
0002
0032
003a
ffe5
ffd0
0017
ffcd
ffde
ffe8
000a
ffcd
ffda
ffad
0008
ff9f
0016
fffb
0003
ffb8
0036
ffd7
001a
ffd7
001a
0035
0055
ffd2
ffc4
0003
0003
ffd0
0025
ffcf
002b
fff5
0034
ffef
ffbb
fffe
fffe
fff9
0045
ffff
0003
0013
fff0
ffa7
ffe0
000c
0026
ffd6
ffdb
ffd4
0031
ffce
fffa
fff3
ffda
fffe
0022
0023
ffca
001a
001b
0009
0013
0016
ffc8
0025
ffef
ffcb
0000
0000
0000
0000
0000
0000
0000
0000
0000
0000
0000
0000
0000
0000
0000
0000
0000
0000
0000
0000
0000
0000
0000
0000
0000
0000
0000
0000
0000
0000
0000
0000
0000
0000
0000
0000
0000
0000
0000
0000
0000
0000
0000
0000
0000
0000
0000
0000
0000
0000
0000
0000
0000
0000
0000
0000
0000
0000
0000
0000
0000
0000
0000
0000
0000
0000
0000
0000
0000
0000
0000
0000
ffff
0000
0000
0000
ffff
0000
0000
fffe
0000
0001
0001
0002
0001
ffff
0000
0000
0000
0000
0000
0002
0000
0000
0000
0000
ffff
0002
0000
0000
0000
0001
0000
fffe
0000
0000
0000
ffff
0001
ffff
fffe
0000
fffe
0000
ffff
fffe
ffff
ffff
0000
0002
ffff
0000
0000
ffff
ffff
ffff
fffd
ffff
0002
0001
0000
0000
ffff
0000
0000
ffff
0001
0002
0000
0000
0000
0000
ffff
fffe
000d
0057
ffc5
0009
fff5
0018
fff4
fff6
ffce
0012
fff2
002c
ffd3
0000
0014
ffcf
fff5
0000
0000
0014
fff1
ffdd
ffcd
000e
001b
ffcf
ffe0
0002
0030
ffca
ffe4
001f
ffe2
000a
fffd
0016
ffcc
003d
ffd4
ffd0
ff94
0013
0023
0010
ffd0
fffa
0014
0009
0032
001c
000b
ffed
0036
ffd9
0053
0004
0030
0042
ffdc
001e
ffbf
0040
0007
fff6
ffc1
001d
003c
0026
000f
fff2
fffe
003c
0000
0000
0000
0000
0000
fffe
0000
ffff
0002
0000
ffff
ffff
ffff
ffff
0001
0001
0000
0000
ffff
ffff
ffff
fffe
0000
ffff
0000
0000
0000
0001
0000
fffe
0000
0000
0000
0000
0000
0002
ffff
0000
0002
0002
0000
0000
ffff
0001
ffff
0001
0001
0001
0000
0000
0000
0000
fffe
0001
0000
0000
0001
0000
0000
0000
0000
0000
0001
0000
ffff
0000
fffd
ffff
0000
0000
0001
0000
ffd2
002a
002e
fffa
ffdd
ffda
0002
001d
ffc4
0016
000a
0040
ffd7
ffee
0049
0025
0000
ffff
ffdc
005a
ffdd
004b
0019
fff0
ffff
0035
000e
0010
ffc9
ffff
0021
005f
001c
0046
004f
ffd4
fff8
ffc9
0043
0027
fffb
004c
0026
000b
0024
fffc
0012
ffd9
ffcb
ffc8
0043
ffb5
ffc9
0006
0028
0050
ffe3
ffee
0026
ffa7
0066
fffe
000d
001f
fff1
ffe9
ffe8
ffde
0037
0024
000d
ffd4
fffa
0002
0000
fffe
0000
0001
0000
0000
0002
0001
fffe
0000
0000
0000
0000
0000
fffd
0002
fffe
0000
0001
0000
ffff
0000
ffff
0003
ffff
fffe
0002
0000
0001
0000
fffe
0000
0000
0000
0000
0000
0000
fffe
0000
0000
0000
0001
0001
0000
ffff
ffff
0000
0000
ffff
0001
0001
0000
0000
0000
0001
0000
0000
0000
fffe
0002
0000
0000
ffff
0000
ffff
fffe
0000
0000
0000
fffe
fff4
0029
000b
002a
0017
001a
ffea
ffd8
ffb8
0011
fff3
000d
ffe5
ffe6
fff0
fffa
fffe
0014
ffdc
ffd9
0013
0000
0026
003d
0049
fffd
ffc7
ffec
000f
0026
0022
ffde
ffcf
ffde
0003
fffa
ffc9
0021
ffd3
fff4
0008
ffbe
ffe2
ffd1
ffbc
0009
0002
0032
0015
0026
0024
0015
0018
0008
fff6
0005
0013
001a
0032
fff7
0013
0032
ffbf
0038
ffc3
0010
0047
0016
ffff
ffd3
0012
002d
0037
0015
002e
ffe1
0007
0046
0023
001c
fffd
0029
0061
ffc3
001a
0050
005e
0013
0012
ffe9
ffe5
fff6
ffdd
ffb5
ffe1
0032
002c
0007
001e
ffd1
0007
ffe8
001a
ffc0
ffe9
0041
001e
ffd0
0009
0029
0025
ffcc
ffeb
fff3
ffb5
ffd8
ffa1
ffe2
001b
0025
ffd9
0012
ffd3
0061
0004
ffc3
ffc5
ffe0
fff6
003a
fff2
0024
000a
fff7
ffb1
ffff
ffe5
002e
001c
0026
ffd9
0027
0039
004b
0000
0000
0000
0000
0000
0000
0000
0000
0000
0000
0000
0000
0000
0000
0000
0000
0000
0000
0000
0000
0000
0000
0000
0000
0000
0000
0000
0000
0000
0000
0000
0000
0000
0000
0000
0000
0000
0000
0000
0000
0000
0000
0000
0000
0000
0000
0000
0000
0000
0000
0000
0000
0000
0000
0000
0000
0000
0000
0000
0000
0000
0000
0000
0000
0000
0000
0000
0000
0000
0000
0000
0000
fffe
0000
ffff
0000
ffff
0000
0000
0001
0000
0000
ffff
0000
0000
0000
fffe
ffff
0000
0002
0000
0000
ffff
ffff
fffd
ffff
ffff
0000
0000
0000
0000
0000
ffff
0000
ffff
ffff
ffff
ffff
ffff
0000
0001
0000
0000
ffff
ffff
fffe
ffff
0001
0001
0000
0000
0000
0000
fffe
0000
0000
0002
0000
fffe
ffff
0000
ffff
0000
fffe
0002
fffe
ffff
ffff
0000
ffff
0000
ffff
0000
fffe
ffee
fffd
0025
0023
ffe1
0041
ffdf
ffdf
0037
ffd6
ffe5
0004
0008
ffa2
fff5
ffe8
ffc0
ffd3
ffeb
0022
ffdb
ffec
ffe3
ffde
fffb
ffc2
0046
0018
000d
001f
0022
0004
001b
fff8
ff7a
fff8
0025
ffa3
0011
ffed
ffd1
ffbc
ffe6
ffc9
0000
ffcf
fffa
ffff
ffc7
0017
0003
0000
000e
0029
0004
0023
ffe4
ffee
fff2
ffeb
000b
ffd0
fff2
ffe8
000a
ffe4
ffde
ffdb
ffea
000f
ffdb
0039
ffff
0000
0000
0000
ffff
0001
0000
0002
0000
0000
0000
0000
0000
0000
0000
0000
0000
ffff
0000
0000
fffe
0000
0000
0002
0000
0000
0000
0000
0000
0000
0000
0000
ffff
0000
0000
0000
0000
0000
0001
0000
0002
0000
0000
0002
ffff
0000
0001
0000
0000
ffff
ffff
0000
0001
ffff
0000
0000
0000
0001
ffff
0003
0000
0000
0000
ffff
ffff
0000
fffc
0000
0000
0000
0000
0000
ffe7
0007
fff3
0000
0005
0005
0008
0018
0005
0033
0015
0000
0008
0005
ffb9
fff5
0031
ffdf
002c
0000
0032
000c
ffe5
fff7
ffe5
ffd9
fff8
0000
0011
0043
0015
fff6
ffff
0005
fffe
0000
000d
001d
ffff
ffdd
0014
0000
003d
0000
0036
ffe1
003a
fff4
002d
0020
fffb
0000
000e
0031
ffe6
0004
0036
ffca
ffe7
0000
0023
0005
000a
0013
0014
ffd7
003f
0000
0062
ffd8
0051
ffcd
fffe
ffff
fffd
0001
0000
0000
0000
0000
0000
0002
0002
ffff
fffe
0000
0000
0000
fffe
0000
ffff
0002
0000
ffff
0000
0000
0000
0001
fffe
0000
0000
0000
ffff
0000
0000
ffff
0001
ffff
0000
0000
0001
0000
0000
0000
ffff
ffff
0000
0000
0000
0001
ffff
fffe
0002
0000
0001
0000
0000
0007
0001
0001
fffd
0000
0000
0000
ffff
fff7
fffe
fffe
0000
0000
0001
0002
ffff
0001
0013
001b
0032
fffd
0024
0053
0059
000a
0011
ffdb
ffc2
0001
ffff
0001
fff9
fff5
ffbe
0021
0018
fffd
0000
001b
0005
ffe8
fffb
0032
004e
fffe
ffe7
ffab
0002
003f
fff8
001a
ffc4
0000
fff1
ffa6
ffe7
fff0
ffc8
ffd9
ffd3
0000
0003
ffeb
0009
001e
0037
ffcf
0023
ffff
0017
ffc4
fffd
0038
000c
ffe8
ffec
0000
ffed
ffda
0016
ffe6
0034
0000
ffee
0000
fffc
0007
002a
fff8
0028
fff8
0018
0001
fff4
fff9
fff4
0043
ffe7
ffc7
0037
0001
0001
ffe8
ffdb
fff7
fffd
ff9d
fff0
0000
0000
ffca
ffe5
ffd8
ffcc
0013
003c
0000
fff9
006c
fff0
001b
fffe
000a
0019
0000
ffc9
0039
ffea
0019
0036
ffb2
ff98
0000
ffd5
000a
fffb
001b
ffca
0016
ffed
0000
000b
000a
001d
ffd7
ffa7
ffff
ffbc
0000
ffc9
000e
0003
0035
fffd
ffda
ffae
0000
ff86
fff3
ffff
0035
0000
0000
0000
0000
0000
0000
0000
0000
0001
0000
0000
0000
0000
0000
0000
0000
0000
0000
0000
0000
0000
0000
0000
0000
0000
0000
0000
0000
0000
0000
0000
0000
0000
0000
0000
0000
0000
0000
0000
0000
0000
0000
0000
0000
0000
0000
0000
0000
0000
0000
0000
0000
0000
0000
0000
0000
0000
0000
0000
0000
0000
0000
0000
0000
0000
0000
0000
0000
0000
0000
0000
0000
ffff
fffe
ffff
0000
0000
0001
0000
0001
0000
ffff
0001
0001
0000
0001
0000
0000
0000
fffd
0001
0002
0000
0001
0000
0000
ffff
fffe
0002
0000
0000
0001
0000
ffff
0000
0000
ffff
0000
0002
0000
0001
0000
0000
ffff
0001
0001
0002
ffff
ffff
ffff
ffff
0000
0000
0000
0001
0000
0000
0000
ffff
0000
0000
0000
0002
0000
0001
0002
fffe
0000
0001
0000
0002
ffff
0000
0002
ffd3
0024
0038
0000
fffd
001b
ffe7
ffe1
fffc
fff7
ff9e
0000
0009
0016
004b
ffdd
ffe1
001d
ffcd
0000
0002
ffdf
ffcf
0000
000f
fff3
003a
0000
0012
0006
0045
fff2
004e
ffc3
fffd
0000
fff8
ffd7
0023
000f
0025
0030
ffa2
0000
001c
ffe0
ffc0
ffd6
fff1
0000
ffd9
0000
0011
ffee
000b
0011
0034
fff5
ffd5
0000
ffdd
ffc6
0000
001d
000e
ffec
fff1
0000
0008
ffe9
ffb9
0000
0000
0000
ffff
0000
0000
0000
ffff
ffff
0000
0000
ffff
0000
0000
0000
0000
fffe
0001
0001
ffff
0000
0000
0001
ffff
ffff
0000
0000
0000
0000
ffff
0001
ffff
0000
ffff
0000
0001
ffff
ffff
0001
ffff
0000
0000
0000
0000
0000
0001
0000
fffe
0000
0001
ffff
ffff
0000
0000
0000
0000
0000
0000
fffe
0001
0000
0000
0000
ffff
0000
0003
fffe
0000
0001
0001
ffff
fffe
0002
ffcb
0000
ffeb
0011
ffea
fff9
0015
fff2
ffb8
0000
0009
fffa
000d
fffb
ffe7
fffd
ffe5
0000
fffa
003c
000a
000c
ffb8
0012
fff6
0000
0000
fffd
ffd3
ffee
003b
fffa
ffdf
0000
0033
0007
001b
0000
ffed
ffd8
0025
0000
005a
0038
001a
000a
ffbc
0001
0007
0000
ffda
fff1
ff8c
fff2
0045
000e
0030
0000
0002
0007
ffdc
fff4
0005
ffdf
001a
0000
0083
ffff
0007
0000
0011
ffe7
0007
0000
0000
0002
0001
fffd
0001
ffff
fffd
0000
0000
0000
0000
0000
0000
0001
0002
0000
0000
0001
0000
0000
0001
0000
0000
0000
0000
0000
ffff
0001
0001
ffff
0000
ffff
0000
0000
fffe
0000
0000
0000
0000
0000
ffff
0000
ffff
ffff
0001
ffff
0000
0000
0000
0000
fffe
ffff
0000
0000
0000
0000
fffd
ffff
0001
ffff
0000
0000
0000
0001
0000
0001
fffe
ffff
0000
0000
005d
0000
ffde
0032
0031
fffb
0011
ffaf
ffb7
0000
0002
0009
ffe9
fffe
0012
0015
ffed
0000
ffa3
ffee
0003
fff5
0029
fff9
002b
0000
ffcb
0002
006e
fffe
001e
0005
0011
0002
001b
ffff
0021
0004
000c
0009
0024
0000
fff7
0002
000f
0005
ffc9
0015
ffd0
0000
ffdc
0012
0030
fffc
0017
0037
0000
0000
0000
0014
fffc
000d
ffe3
0011
ffdd
0000
0041
000a
0026
000c
0020
0021
fff7
0000
ffad
001a
000a
0004
001e
ffc8
ffe0
0000
0030
ffe3
005c
0012
0021
ffe4
001a
0001
0019
0012
004c
0005
0026
ffe9
0000
0001
ffcd
0014
ffea
000e
0011
ffd1
0017
0000
0001
ffad
004e
0003
001e
0057
0000
0000
ffe4
ffdc
ffe8
ffff
ffb9
fff1
fff8
0000
ffcb
fff5
ffb2
000c
0009
0023
0006
0000
fff1
0001
0005
000e
0000
0000
001c
0000
002b
ffc5
ffe2
0009
ffd5
fff3
0000
0000
0000
0000
0000
0000
0000
0000
0000
0000
0000
0000
0000
0000
0000
0000
0000
0000
0000
0000
0000
0000
0000
0000
0000
0000
0000
0000
0000
0000
0000
0000
0000
0000
0000
0000
0000
0000
0000
0000
0000
0000
0000
0000
0000
0000
0000
0000
0000
0000
0000
0000
0000
0000
0000
0000
0000
0000
0000
0000
0000
0000
0000
0000
0000
0000
0000
0000
0000
0000
0000
0000
0000
ffff
0001
ffff
0000
0001
0000
0000
0001
0000
0000
0000
fffe
0000
0000
0000
0002
0000
ffff
0000
0000
0000
0000
0000
0000
ffff
0000
0001
ffff
ffff
0001
0000
0000
0000
fffe
0000
0004
0000
0000
0000
0000
0001
fffe
0002
0007
ffff
0001
0000
0000
0000
fffe
0000
0004
0000
0000
0000
ffff
0000
0000
ffff
0001
0000
0000
0000
ffff
0000
0000
ffff
0000
0000
0000
0002
ffe6
0000
ffc0
0010
0000
fffa
0020
ffd7
001f
0000
0036
ffe9
0007
fffc
fffe
0023
003b
0000
0010
ffde
ffe5
0001
000e
0026
000f
0000
002e
0009
001d
0008
0032
000c
ffd6
0000
0024
ffdf
003f
fffa
ff88
0016
0021
0000
ffec
ffe9
0017
0000
001c
ffdb
0010
0000
ffcb
000a
001c
0000
0040
fffd
ffc5
0000
003c
001a
000b
0000
ffcd
0038
fffe
0000
ffd7
fff1
0019
0002
0052
ffde
0000
0000
0000
ffff
0000
0000
0000
ffff
0000
0002
0000
0000
0001
0000
ffff
0000
0002
0000
ffff
0000
0002
fffe
0000
0000
0000
fffd
0000
ffff
0000
fffe
0000
ffff
0001
0001
0001
ffff
ffff
0000
ffff
0000
0002
0000
0001
0000
0000
0000
0000
0000
0001
0000
0000
0000
0000
fffe
ffff
0000
0001
0000
0001
0001
0000
0000
0000
0000
0003
0000
0001
0001
0000
fffd
0001
0000
0000
fffa
0018
0000
fff2
0018
0009
0003
0000
ffb1
ffc7
ffff
ffba
fffe
0000
0002
0000
003a
004b
0000
ffee
ffe7
ffd3
0004
0000
0023
ffe3
0000
ffc9
0010
ffdb
fffe
0000
ffda
000c
0000
ff81
0054
ffbc
0002
0000
0058
fff7
0000
ffea
002b
ffe8
0004
0000
002d
ffd4
0000
ffcf
0006
ffcc
fffb
0000
ffdd
0011
0000
fff9
0029
ff90
0001
0000
0010
fff7
0000
000a
fffa
ffc5
0005
0000
0001
0001
0000
ffff
0000
0001
0000
0000
0000
0000
0000
fffe
0000
0000
0000
0000
0000
0000
0000
ffff
0000
0000
ffff
ffff
0000
0001
0000
0000
0000
0000
fffc
0000
ffff
0000
0000
ffff
0001
0000
ffff
0001
ffff
0001
ffff
ffff
0000
0000
ffff
0000
0000
0000
ffff
0000
0000
0001
0003
0000
0000
0000
0000
0000
0000
0000
fffc
0000
0000
0000
0000
0000
0000
0001
0003
0000
0013
ffbf
ffff
ff9a
ffbb
0009
fffe
0002
0001
0093
0000
ffd3
ffee
ffe9
fffe
0002
ffef
001f
0001
fffb
0011
001a
0004
0000
0007
0003
0000
fffd
0007
fffd
0002
0000
000b
0007
0000
0007
fff6
0065
ffff
0000
0037
000e
fffe
0020
0028
ffef
0000
0000
001a
fff7
fffe
0025
0008
ffff
0001
fffe
fffe
ffe5
fffe
000d
ffde
ffed
0000
ffff
fff7
0000
ffff
fffa
fffd
ffdc
0002
0001
0022
ffef
0001
fff3
fffa
fffe
fff8
0000
0079
ffb8
0002
fffe
ffeb
ffa2
ffff
0000
0028
00a5
0000
000b
0014
006a
fffd
0000
002a
002d
0000
ffe9
fff3
ffe5
0001
0000
0028
ffe1
ffff
ffec
fff9
ff9d
fffe
0000
0026
0080
0000
0010
ffe6
0058
fffe
0000
0037
000f
0000
000e
fff8
000d
0004
0000
0025
0021
0002
0016
0018
0064
0000
0000
0013
0002
0002
006b
0037
ffeb
ffff
0000
0000
0000
0000
0000
0000
0000
0000
0000
0000
0000
0000
0000
0000
0000
0000
0000
0000
0000
0000
0000
0000
0000
0000
0000
0000
0000
0000
0000
0000
0000
0000
0000
0000
0000
0000
0000
0000
0000
0000
0000
0000
0000
0000
0000
0000
0000
0000
0000
0000
0000
0000
0000
0000
0000
0000
0000
0001
0000
0000
0000
0000
0000
0000
0000
0000
0000
0000
0000
0000
0000
0000
0001
0000
0000
0000
0000
0000
0000
0000
0000
ffff
0000
0001
ffff
0000
0000
0000
0000
fffe
0000
0000
0000
0000
ffff
0000
0001
fffe
0000
0000
0000
fffe
0000
0001
0001
0000
0001
0000
fffd
0000
0000
fffd
0002
0001
0000
0001
fffe
0000
fffd
fffc
0001
0000
0002
0000
0000
0001
0000
fffe
0000
0000
0000
ffff
0000
ffff
0000
ffff
0000
0000
0000
0001
ffff
0000
fffe
ffff
0000
0018
ff94
0000
fffe
fff0
ffb2
fffe
0000
fffe
ffed
0000
000c
ffea
ffe8
0000
0000
ffea
0018
ffff
ffca
0002
0038
0000
0000
000c
ffc5
0000
ffec
ffd9
ffcb
0000
0000
0020
001c
0000
ffec
ffd6
ffd6
0003
0000
000b
0050
ffff
ffdc
0015
005c
0000
0000
001e
fff1
0000
ffe9
fff9
002e
0000
0000
ffec
ffd9
0000
0005
ffe1
ffe7
0003
0000
0008
ffe1
0000
0025
002a
ffff
0001
ffff
0000
0000
0000
ffff
0000
0000
ffff
0000
0000
0000
0000
fffe
0000
ffff
ffff
0001
0000
ffff
0000
0000
0001
0000
0000
0000
ffff
0000
0001
0000
0000
0000
0000
0000
0001
0000
0000
ffff
fffe
0000
0001
0001
0001
0000
0000
0000
0001
0001
0000
0000
0001
0000
ffff
0000
0000
0000
0001
0001
0001
ffff
ffff
fffe
0000
ffff
0000
0001
ffff
fffe
fffe
0002
0004
fffe
0000
fff5
fff9
ffad
ffd4
fff2
fff7
0025
0000
005d
0034
0021
fff7
000c
ffed
ffff
001e
ffe7
0022
ffcd
0024
ffdb
0007
0019
0004
ffd5
ffbd
ffd3
ffcc
0029
0006
001b
fff9
0032
ffbb
000e
ffbf
ffec
fff9
000b
000d
0020
ffe1
ffe9
0035
ffc6
0003
fff4
001f
ffdd
fff9
0009
001b
0047
0014
0008
fff5
000d
fff7
0027
ffce
0012
fff0
0000
0011
000f
0024
ffe9
0027
fffd
fff7
ffec
003b
0005
0003
fffe
0000
0000
0000
0000
0000
ffff
ffff
0000
0000
0000
0000
0000
0001
0000
0001
ffff
ffff
0002
0000
0000
0000
0000
0000
fffd
fffe
0000
0002
0000
0000
0000
ffff
ffff
0000
0001
0000
0000
0000
0000
0000
0002
0000
0000
0000
0000
0000
0002
fffc
0000
0000
ffff
0002
ffff
0000
fffd
ffff
ffff
fffc
0003
0000
0000
0000
0000
fffd
0000
fffd
0001
0000
0000
0001
ffde
fffc
ffd4
0025
0020
fffb
ffed
000d
0029
ffd6
0007
ffe2
0020
0004
fff0
0002
0002
ffca
0011
000a
001c
0012
fff7
001a
0000
ffca
ffa9
0000
0005
fff6
fff4
fff8
0053
001e
0011
001f
ffee
000a
000a
0001
001d
fff5
001c
001c
ffff
0009
0030
ffee
ffed
0014
ffe9
ffe7
0037
fffb
ffe7
0012
fff6
0008
0028
ffe6
ffbf
fffd
000b
000c
000a
0013
0002
003b
0001
0005
0001
ffcf
ffe8
ffe2
002b
0000
fff3
0008
ffef
0013
0015
ffe4
fff2
ffcd
001f
001e
ffe9
fff6
0017
0011
0058
ffb9
0004
0025
ffde
0033
0006
fffd
ffed
0040
ffd8
fff1
000d
ffee
004c
ffb7
0024
0022
0000
fffb
0020
ffae
ffb7
fffd
004f
ffb4
ffef
0015
000b
ffd7
ffc8
fff7
ffd8
0058
000f
0011
fff0
0016
ffea
ffa4
0027
0086
002e
000d
0017
ffd2
fff2
fffa
0026
ffc9
0025
0008
001c
ffef
0000
ffff
0000
0000
0000
0000
0000
0000
0000
0000
0000
0000
0000
0000
0000
0000
0000
0000
0000
0000
0000
0000
0000
0000
0000
0000
0000
0000
0000
0000
0000
0000
0000
0000
0000
0000
0000
0000
0000
0000
0000
0000
0000
0000
0000
0000
0000
0000
0000
0000
0000
0000
0000
0000
0000
0000
0000
0000
0000
0000
0000
0000
0000
0000
0000
0000
0000
0000
0000
0000
0000
0000
0000
0000
0000
0001
0000
ffff
0000
0000
ffff
0000
0000
0000
0000
0000
fffb
0001
0000
0000
0000
0000
0001
0000
fffc
0002
ffff
0000
0000
0001
0000
0000
fffe
0002
0000
0000
0000
0000
0000
0000
0000
0000
0000
0000
fffc
ffff
ffff
0002
ffff
0001
0000
0000
fffe
0000
0000
0001
fffd
ffff
ffff
0000
0001
0000
0000
fffe
0001
ffff
0000
fffe
0001
0000
ffff
0000
0000
0000
0046
ffc7
ffe0
0014
001c
fff3
ffd5
0014
fff0
ffd1
0028
ffc9
001d
fff8
ffff
fffa
0011
ffdc
ffd6
0044
ffe9
ffed
ffed
ffcd
0001
ff96
fff5
002e
ffdd
fff0
0006
0016
ffbd
fff0
0055
0041
003d
fffb
ffdc
0004
ffdd
fff7
ffe9
fff1
ffd9
0007
0014
fff3
0001
ffe0
ffc6
001c
ffec
fffa
ffea
0013
0008
ffcf
003e
0001
fff1
0010
0017
001e
fff4
fff7
ffa8
0004
ffe7
0013
001d
ffeb
0000
0001
0002
0000
0000
ffff
0000
0001
0001
ffff
0001
0001
0000
0000
0000
0000
0001
0002
0000
0000
ffff
0000
0000
0000
0000
0000
0003
0001
ffff
ffff
0000
0000
ffff
0002
ffff
fffd
ffff
0000
0002
0000
0000
0001
0000
0000
0000
ffff
0001
0000
0003
0002
0000
0000
ffff
0000
0000
0000
ffff
0000
0000
0000
0000
0000
0000
0000
0003
0000
0001
fffe
fffe
0000
0001
0002
0000
ffd5
ffd3
fff2
ffe1
0004
0022
001a
0000
fff8
0014
fff9
ffea
ffe0
001b
0056
0000
0019
ffd5
0028
ffed
ffe8
ffdf
ffec
0000
ffaa
fff2
ffda
ffb4
ffcc
ffde
0024
0000
ffdb
0023
0017
ffdc
ffa0
ffcc
fffa
0000
000a
ffec
000c
0000
0017
001f
ffe4
0000
ffd0
0007
0000
0012
ffc8
0058
0056
0000
001b
000d
002c
0072
ff7d
ffe3
0021
0000
fff3
0013
001d
0006
ffdc
ffc2
002f
0001
ffff
0000
0000
0000
0000
ffff
fffd
0000
0002
0002
0000
ffff
0000
0000
0001
0000
0000
0002
fffe
fffd
0000
0000
0000
0000
0000
0000
ffff
0000
0000
fffe
0001
ffff
0000
ffff
0000
0000
0000
0000
0000
0001
0000
0004
fffe
0000
ffff
ffff
ffff
0000
fffd
0005
ffff
0000
ffff
ffff
0001
0001
0000
0000
0000
ffff
0001
0000
fffa
0001
0000
000b
0000
0000
0000
fffb
fffe
0000
0017
fff1
000e
fff7
0053
ffe5
0005
0000
0017
ffe7
0014
0001
000d
0000
ffe2
0002
fffa
ffed
0009
fffe
0008
0012
ffa9
0002
0009
0020
ffe9
ffee
0009
ffdc
ffc9
0000
0023
0054
000d
ffe6
ffdc
001e
fff0
0001
fff0
0039
ffd7
0007
0010
0004
001e
0000
fff4
0030
fff9
fff6
ffeb
ffd6
ff8b
0000
0023
0011
fffb
000a
000f
ffe6
ff9c
0000
0017
ffdc
fffe
000b
002d
ffdd
0004
0000
001e
0006
ffda
0009
000c
ffff
0034
0000
ffff
001c
004d
ffe7
0009
fffa
0025
0001
fff2
0057
ffff
fff0
ffe7
ffd2
ffbc
0002
0049
ffce
0040
0045
0000
0053
0001
0000
ffc0
ffbb
0067
ffd1
001c
ffe9
ffde
ffff
ffdf
0049
ffe5
ffb8
005e
ffd4
ffe5
0000
001a
0011
0009
0047
0008
ffcf
ffcf
0000
fff0
ffa8
0023
ffef
fffb
000f
ffd1
fffe
0025
fffc
ffeb
fff9
0084
fff5
ffea
0000
0000
0000
0000
0000
0000
0000
0000
0000
0000
0000
0000
0000
0000
0000
0000
0000
0000
0000
0000
0000
0000
0000
0000
0000
0000
ffff
0000
0000
0000
0000
0000
0000
0000
0000
0000
0000
0000
0000
0000
0000
0000
0000
0000
0000
0000
0000
0000
0000
0000
0000
0000
0000
0000
0000
0000
0000
0000
0000
0000
0000
0000
0000
0000
0000
0000
0000
0000
0000
0000
0000
0000
ffff
0000
0000
fffe
0000
0000
0000
0000
ffff
ffff
ffff
0000
0002
0000
ffff
0001
ffff
0001
ffff
ffff
0000
ffff
0001
0001
ffff
0003
ffff
0000
0000
0000
ffff
0001
0001
0001
fffe
ffff
0000
ffff
0000
0000
0000
0000
fffe
0000
0000
ffff
0000
0000
0000
0001
fffe
0000
0000
0000
0000
0001
0000
ffff
fffe
0000
fffe
ffff
0000
0002
0000
ffff
fffe
0000
0000
0002
0000
0001
0000
000f
ffdc
000b
fff7
ffd5
000f
000a
0000
0004
000d
ffde
0042
0016
fff8
0012
0000
ffd6
003a
ffe3
0037
ffd2
0021
ffd9
0000
004e
ffc3
0008
ffde
ffa9
0049
0016
0000
000d
0017
003b
002b
ffea
ffeb
ffee
0000
000d
004f
000f
ffff
ffc9
001e
ffd1
0000
0035
ffb3
001d
000b
fff3
000f
0007
0000
0011
0013
000d
0009
0012
fff3
fff6
0000
fffe
0006
0034
fff0
fff7
ffe1
ffe5
0001
0000
0000
0000
0001
0000
ffff
ffff
0000
0000
0000
ffff
0000
0000
0001
fffe
0000
0000
0000
0000
0000
0000
0000
ffff
0000
0000
0000
0001
ffff
0000
0000
fffe
0000
0000
ffff
0000
0000
ffff
ffff
0000
0000
ffff
ffff
0002
0000
fffd
ffff
0000
0000
fffe
ffff
0003
0001
0000
0000
0000
0000
0000
ffff
fffd
0001
0000
ffff
0001
ffff
0001
0000
fffd
0001
fffc
0000
ffff
001f
0012
0002
0010
fff3
0024
ffd7
0003
ffff
ffd9
fffd
fff2
ffe5
ffc6
001e
0000
0028
0010
002e
0003
ffed
ffa2
fff3
0002
000f
ffe0
003c
0014
002b
0014
ffc3
0003
ffe9
000e
ffb3
ffe1
ffef
ffbd
0006
0000
0057
0055
0051
ffcf
ffe5
ffb9
ffdc
ffff
002d
ffc2
ffc9
ffc9
0031
fff1
ffbc
0001
000b
0062
ff7f
ff9f
000c
ffb8
ff93
fffd
0042
0054
0007
ffc1
0019
ffb7
ffca
fffe
0006
ffff
fffd
ffff
0000
0000
0000
0000
fffe
0000
0001
0000
0000
0001
0002
0001
0002
0000
ffff
0000
0001
0001
0000
0000
0002
0000
0000
0000
0001
fffe
fffe
ffff
0000
0000
fffe
0000
0003
0000
0000
0000
0000
ffff
ffff
0000
0001
0000
0001
0000
ffff
ffff
0000
0002
0000
fffe
0000
0000
0001
0002
0000
0000
0001
0002
0000
ffff
0000
fffd
fffe
fffe
0002
0003
0000
0005
0026
ffb0
0005
fff6
0002
0022
0022
0001
0040
fff6
0055
0098
fff2
002c
001b
0001
001f
0009
0019
002f
000f
0003
000e
0000
0000
ffef
fff2
000f
ffb1
000c
002a
0000
fff2
fffa
0040
0025
ffbb
0024
002d
0001
0000
ffff
0033
0027
000a
fffc
000f
0002
ffeb
fff9
fff5
ffbf
ffe1
0032
0013
fffe
fffe
002c
ffce
0005
fff1
003d
0007
0001
001a
0063
fffe
ffc5
fffc
0012
fff1
ffff
000a
ffda
0006
fff6
ffe1
0006
0033
fffb
0041
0027
0018
0026
000b
ffec
000c
fffe
fff2
003e
0045
fffa
fffd
fffd
003a
0001
001a
ffdc
fff8
ffaf
ffee
ffe3
ffe0
fffc
0033
002c
ffc3
ffb8
0013
ffec
ffed
fffd
ffd5
002d
0045
fff0
0031
0007
000b
0002
0002
ffec
0026
0010
fff5
0028
ffe0
fffc
fff7
ffff
ffdc
fffe
0002
ffed
ffb9
0002
ffd2
003c
0016
ffa0
002b
ffe1
ffdd
fffe
0000
0000
0000
0001
0000
0000
0000
0000
0000
0000
0000
0000
0000
0000
0000
0000
0000
0000
0000
0000
0000
0000
0000
0000
0000
0000
0000
0000
0000
0000
0000
0000
0000
0000
0000
0000
0000
0000
0000
0000
0000
0000
0000
0000
0000
0000
0000
0000
0000
0000
0000
0000
0000
0000
0000
0000
0000
0000
0000
0000
0000
0000
0000
0000
0000
0000
0001
0000
0000
0000
0000
0000
0001
ffff
ffff
0000
0000
ffff
0001
ffff
0000
0000
0004
0000
0002
0000
ffff
0002
0000
ffff
0005
ffff
0000
0000
0000
0002
0000
0000
0002
ffff
0000
0000
0001
0001
0001
ffff
0000
0000
ffff
0000
ffff
0000
0001
fffe
0002
0000
fffd
ffff
0000
ffff
0001
fffe
0002
0000
fffe
0002
0001
0001
0000
0002
0000
0001
fffe
0001
fffe
0002
ffff
0000
0000
0000
ffff
0002
ffff
0003
fff8
ffbc
ffb8
ffa0
fff8
0021
ffde
0000
001f
0035
001c
fff6
0006
0006
ffee
0000
0023
0000
0039
0085
0013
fff9
000f
0000
0013
0002
ffad
ffeb
002f
0033
ffe3
0001
ffd9
0038
0020
0038
001d
0028
0011
0001
0006
001f
0063
0047
0019
0018
0018
0002
0008
ffe3
ffe0
0010
0050
002c
ffdf
0001
ffdf
ffcf
ffe1
fff2
0013
0015
fff7
0004
0012
0021
0020
ffda
0012
fff2
fff7
0000
0000
fffe
0000
0000
0000
0000
0001
0000
0001
ffff
0000
0000
0000
0000
0000
ffff
0000
ffff
0000
0000
0001
ffff
0001
0000
0000
fffe
0000
0000
0000
0001
0002
0000
fffe
0000
0001
0002
0001
0000
ffff
0000
ffff
ffff
0001
0002
0000
0000
ffff
0001
fffe
0000
0000
0001
0000
0001
ffff
ffff
ffff
0000
0000
0000
0000
0000
0000
ffff
ffff
0000
0000
0000
fffd
0000
0000
fffe
0025
0012
fffb
ffe0
ffd3
0012
0014
0026
0078
fffc
ffe1
fff3
ffd7
fff4
0072
0005
0055
fff9
fff8
ffa5
fffd
0045
0053
0015
0017
0025
ffc6
ffd7
ffe9
fff1
ffdb
0025
004b
0027
ffec
0016
ffec
ffed
0003
000d
005b
ffb8
ffcc
ffd8
fffd
0045
0002
0011
fff6
ffb6
ffcc
0047
ffef
0000
004b
0054
003b
ffff
ffc0
0006
ffda
ffa2
0030
fff2
fff7
ffd1
ffa9
ffd2
fff2
002f
000c
0001
0006
0000
fffd
0000
0005
fffd
ffff
0000
0001
0004
0000
0000
fffe
0000
0000
0001
0001
0000
fffd
ffff
0000
fffe
0000
0000
fffe
fffd
ffff
fffe
fffe
fffe
0001
0000
0003
0000
ffff
0000
0000
0000
0000
0000
0000
ffff
0000
ffff
0000
0000
ffff
fffe
fffd
fffe
ffff
fffd
fffd
0000
ffff
ffff
0008
0003
0001
fffb
0002
0000
0000
fffe
0005
fffc
0002
0001
0001
fffe
0000
0006
ffdc
0031
0018
0025
0049
0007
fff4
0005
ffaf
0013
0004
fffc
006d
fffb
ffdf
0001
0007
0005
0038
ffe3
0011
fff1
ffc3
0039
ffcf
0003
002a
001a
fff4
0002
ffb6
0026
ffed
001a
fff5
ffd3
0025
ffd9
0012
ffe2
fffa
0049
ffe6
ff93
0008
ffce
ffef
ffed
fffc
ffe8
ffce
ffd5
ffcf
0038
ffb9
003a
0006
ffe1
002e
ffa9
ffe1
0021
fff9
002f
ffed
fff5
001c
ffdf
0009
001e
000a
ffe6
001e
001c
0007
0029
fffa
ff9f
0006
fffd
0027
ff95
fff7
0020
ffb7
ffef
ffbc
ffaf
ffaa
ff3d
0000
ffdc
000f
0003
ffc6
fffb
ffb9
fff5
fff8
0034
ffee
ffab
0016
0009
0002
ffc9
ffd9
0000
0000
000d
0008
ffd7
ffc3
ff9d
0004
ffaf
ffea
ffe3
fffd
ffdb
0004
ffb3
ffeb
0008
ffbf
0053
ffd3
ffe6
0026
0013
0005
000f
ffea
007e
0015
ffc1
0046
0090
0031
ffec
0017
0018
ffe4
ffc7
0000
0000
0000
0000
0000
0000
0000
0000
0000
0000
0000
0000
0000
0000
0000
0000
0000
0000
0000
0000
0000
0000
0000
0000
0000
0000
0000
0000
0000
0000
0000
0000
0000
0000
0000
0000
0000
0000
0000
0000
0000
0000
0000
0000
0000
0000
0000
0000
0000
0000
0000
0000
0000
0000
0000
0000
0000
0000
0000
0000
0000
0000
0000
0000
0000
0000
0000
0000
0000
0000
0000
0000
0004
0000
0000
0001
0000
0000
0000
0001
0000
0000
0000
ffff
ffff
0000
0000
0002
0000
0000
ffff
0000
ffff
0000
0000
0003
0000
0002
ffff
0000
0000
0000
0000
0001
0000
0000
0000
0000
0001
0000
ffff
0001
fffd
0000
0001
ffff
0001
0000
0001
0000
fffe
0000
0000
0000
0001
0001
0002
ffff
0000
ffff
0000
0000
0000
0000
0001
0001
0000
fffe
0000
ffff
fffe
0000
0002
0001
003a
0029
001a
0024
0000
0005
ffea
003e
ffc8
ffc2
ff94
0011
0044
002d
ffe0
ffe1
ffed
0002
0014
ffbd
0003
fff9
ffdd
0006
ffd2
fff5
ffe2
0023
fff7
0040
001d
ffee
ffe2
ffbe
ffbe
0048
0008
0067
002c
0022
0007
0028
ffe2
ffea
fff6
0007
fff2
ffc5
0044
ffbf
000b
fffc
ffe5
002f
0003
ffde
001a
ffde
0006
0094
002c
004f
0020
ffd4
000a
ffa1
000b
0024
0049
ffce
0022
ffcc
0000
0000
0000
0002
0000
0002
ffff
0001
0000
0000
0000
0002
0000
fffd
0000
0000
ffff
0000
0000
0000
0000
ffff
0000
0000
0000
0000
0000
ffff
0000
0001
0000
0001
0000
0001
0003
0001
ffff
0000
0000
0003
0002
0000
0001
0000
ffff
0001
ffff
0003
0000
0000
0000
0000
ffff
0000
0000
ffff
0000
fffe
0001
0000
0000
0000
0002
0000
0001
0000
0001
0000
0005
ffff
fffe
ffff
0002
0025
0025
fffa
0004
0025
fffa
0017
fff1
ffea
fff3
fff4
000c
0012
001f
0023
ffa4
000f
ffc1
ffee
0017
ffd1
003b
0064
fffe
003e
fff9
fff5
fff9
fffe
fffa
000c
0047
fff8
ffc8
fffc
ffb9
ffce
004e
fff7
ffde
001d
ffc2
ffea
0009
ffd9
002b
006f
0005
ffe2
004a
fffc
fffe
0010
fffb
ffca
004f
fffd
ffe6
0009
fff6
ffee
008d
ffcf
0023
fffe
ffd0
fffb
fffa
fff6
006f
ffaf
0003
0000
fffd
0000
0000
0001
ffff
ffff
0000
0000
0000
0000
0000
ffff
0000
0001
0002
0000
fffb
0000
0001
0000
0002
0001
fffe
0000
fffe
0001
ffff
0000
ffff
0003
ffff
ffff
0000
0000
fffe
0000
0000
0000
ffff
ffff
ffff
0000
0000
ffff
ffff
ffff
0000
0000
ffff
ffff
0002
fffd
fffd
ffff
0000
0000
0002
0002
fffe
0001
0006
0000
0000
fffd
fffd
0000
0000
0000
fffe
0000
0014
002c
001f
0003
0015
0017
001e
fff0
fffc
0022
ffe7
0008
ffc4
fff0
0007
0010
ffc4
000c
0014
0004
0013
ffe9
ffe7
000a
0010
ffd5
0002
0003
ffdc
ffe1
0038
0001
0035
001a
0022
0000
0026
000b
0020
004e
0013
ffee
0027
ffff
0034
000e
fff4
0021
fff3
0013
fff5
0009
0003
fff1
0000
000a
0029
ffc1
0015
0000
0066
001e
fff8
fff3
0023
ffe7
0000
0003
ffff
0069
ffdc
001e
0040
fff3
ffd8
0007
fff7
0030
000d
ffa9
0024
000b
ff9a
0013
0021
fff6
0009
000b
fffc
0021
0004
000a
0021
ffe5
002a
ffc0
000c
0008
0000
fffc
ffe3
ffd9
0015
0039
004f
0003
fff9
0005
0003
0000
003b
0007
fff1
fff0
0028
0004
001b
0044
0006
0057
ffd0
fffe
0012
fff0
001f
ffab
ffaa
0034
ffdf
fff4
ffb5
0000
fff8
0008
0050
ffd2
0036
ffc0
0005
fffc
0027
0065
001b
0065
0000
0000
0000
0000
0000
0000
0000
0000
0000
0000
0000
0000
0000
0000
0001
0000
0000
0000
0000
0001
0000
0000
0001
0000
0000
0000
0000
0000
0000
0000
0001
ffff
0000
0000
0000
0000
0000
0001
0000
0000
0000
0000
0000
0000
0000
0000
0000
0000
0000
0000
0000
0000
0000
0001
0000
0000
0000
0000
0000
0000
0000
0000
0000
0000
0000
0000
0000
0000
0000
0000
0000
0000
0001
ffff
ffff
ffff
0000
0000
fffe
0000
0001
0000
0001
0000
0000
0000
0000
ffff
0003
ffff
0001
0000
ffff
0000
0000
0001
0002
ffff
0000
0000
0000
0000
0000
0001
ffff
0001
0000
0000
0000
ffff
0000
ffff
0000
0000
0000
0000
0001
fffe
0000
ffff
ffff
0001
ffff
0000
0000
0000
0002
ffff
0000
0001
fffe
0001
0000
ffff
ffff
0000
0000
0000
ffff
0000
0000
fffe
ffff
0000
fff9
ffef
ffe9
0002
fffb
001e
ffe8
000d
fff7
0010
ffbc
0005
fff6
ffd5
0031
0036
ffb3
ffbb
ffdc
ffff
ffc0
0017
ffdd
ffe2
fff4
0004
000a
fffc
001d
0020
0004
001f
0006
0031
ffd7
fffd
fff9
fff9
fff7
fff8
0013
ffd4
ffe5
ffee
ffe0
ffeb
ff60
002a
0000
ffc4
ffe3
fff9
ffd1
fff8
0035
ffe4
ffd4
0019
001e
fffe
0005
0046
0035
ffea
0035
fffb
ffd5
fff7
ffec
ffff
ff7f
0028
0000
0001
0000
fffe
0001
0001
0001
0000
0003
0001
0000
0000
0000
0000
0002
0000
0000
0002
0000
0000
ffff
0000
0002
0000
ffff
0000
0000
0000
0000
0000
0002
0000
ffff
0000
0001
0000
0001
0000
0000
0000
0000
0000
0000
0000
0001
ffff
0000
fffe
0003
0001
ffff
0000
0001
0001
0001
ffff
0000
0001
0000
0000
0000
0002
0000
0002
0003
0000
0000
0000
0000
0000
ffff
0001
0000
000d
0005
ffcd
ffd2
0000
ffe6
0000
0000
fff4
0001
ffa9
ffe9
0000
0006
0000
0000
0051
0038
ffd8
ffdb
0000
0000
0000
0000
0029
0020
ffe5
fff5
0000
0015
0000
0000
0000
0010
ffe6
0026
0000
002b
0000
0000
fff1
0003
0011
0004
0000
003d
0000
0000
001b
0037
ffc5
ffe2
0000
0021
0000
0000
fff9
002b
ffc2
fff7
0000
0011
0000
0000
ffe7
0062
ffe9
0029
0000
0027
0000
0001
0000
0000
0001
0000
fffe
0000
0001
0001
0000
0001
0000
0001
0001
0002
0000
0002
0001
0000
0001
0000
0001
fffe
0003
0000
0000
0000
0001
0000
0000
0000
ffff
ffff
0000
ffff
0000
0000
0001
0001
0000
0000
0000
fffd
0000
0000
0000
0000
ffff
0000
0000
0000
0000
fffe
0000
0000
ffff
0000
0000
0000
0000
0005
0000
0002
0003
0000
0002
ffff
ffff
0003
0003
0002
0002
ffff
0020
fff7
fff6
ffdb
0000
ffe4
0002
fffe
0004
000f
0007
ffc3
0002
001e
fffe
ffff
ffff
004e
0028
ffe5
0001
003a
0000
0000
0007
ffd1
0023
0001
0000
0008
0000
0000
0060
ffe8
003d
ffc0
0000
fffc
ffff
0000
003e
ffda
0017
0012
0000
0005
0000
0000
ffd5
ffd7
000e
0010
0000
ffa8
0000
ffff
0033
0002
0017
ffd0
ffff
0003
fffe
fffd
0039
001f
0024
ffe4
0000
fffb
ffff
0003
ffd4
0029
0017
ffb4
0000
0055
0000
0000
fffb
fff9
ffc0
0013
0000
0000
0000
0000
ffa7
ffe0
000a
0005
0003
0018
ffff
0002
0006
004c
0010
ffd7
0001
0018
0000
0000
0017
ffc1
0029
002b
ffff
fffb
0000
fffe
fff0
ffc0
001b
0039
fffd
0039
fffe
ffff
0047
005e
ffec
004a
0000
ffc8
0001
0000
003f
0013
fffa
004b
0001
ffd9
0001
ffff
003e
0004
002e
0008
fffc
fff5
fffd
0000
0000
ffff
0000
0000
0000
0000
0000
0000
0000
ffff
0000
0000
0000
0000
0000
0000
0000
ffff
0000
0000
0000
0000
0000
0000
0000
0000
0000
0000
0000
0000
0000
0000
0000
0000
0000
0000
0000
0000
0000
0000
0000
0000
0000
0000
0000
0000
0000
0000
0000
0000
0000
0000
0000
0000
0001
0000
0000
0000
0000
0000
0000
0000
0001
0000
0000
0000
0000
0000
0000
0000
0000
0000
0000
ffff
0001
ffff
0000
0000
0000
0000
0001
0001
0000
0001
0002
0001
0001
0001
0000
0000
0000
0001
0000
0000
0000
0001
0000
0000
0000
0000
0001
0000
0000
0000
0001
0001
0000
ffff
ffff
0000
fffd
0000
0000
0001
0000
fffc
0002
0000
fffb
0000
0001
0001
ffff
fffd
0000
ffff
fffe
0001
0000
0000
0000
0002
0000
0000
0000
0000
fffd
0001
0000
0000
0001
ffff
fffe
0000
ffe2
0013
ffdb
fffa
0001
002f
0000
0002
0008
ffde
0024
001e
0000
ffe1
0000
ffff
fff0
ffbc
fff9
ffd0
0001
002f
ffff
0000
ffcb
001f
ffcf
0018
0002
fff1
ffff
0001
000c
ffdb
ffea
0019
0000
000d
0000
fffd
0022
ffdc
001a
ffba
0000
0043
fffd
0001
ffef
003f
ffb9
001c
0000
ffe0
0000
0002
001d
0017
ffb6
ffea
0000
0000
0001
ffff
000a
002b
fff6
ffb2
0001
0005
ffff
fffe
0000
ffff
0000
0000
0001
0000
ffff
0001
0000
0001
0000
0000
0000
0001
ffff
0000
0002
0000
0000
0000
0000
0000
0000
0000
0003
0001
0001
0000
0000
0000
ffff
fffe
0000
0002
fffe
0000
0000
ffff
0003
ffff
0000
0001
0000
0000
0000
fffe
0002
0000
ffff
0000
0000
0000
0000
0000
0001
0000
0001
0002
0000
0000
0000
0000
0000
0000
0000
0007
0000
0000
0001
0000
0002
0000
0001
0000
ffbf
ffff
0001
fffb
ffde
0000
0034
0000
ffca
ffd8
001a
0003
ffeb
0000
0000
0000
ffb4
ffe9
ffe8
0002
000b
0000
fff5
0000
ffe5
0084
003f
fffe
ffff
0000
0017
0000
001b
0041
002a
0005
ffe9
0000
ffee
0000
ffb5
0033
0033
0000
fff2
0000
ffe8
0000
fff9
001c
ffe1
fff8
000e
0000
0007
0000
0002
0052
fff1
0001
002b
0000
ffe5
0000
ffec
0018
ffec
fffc
ffef
0000
0001
0000
0002
0000
fffb
0000
0000
0000
ffff
0000
fffd
ffff
0000
0000
ffff
0000
0002
0000
0000
0001
fffe
fffe
0001
ffff
0002
0000
fffe
0001
fffd
fffd
0001
0001
0000
0001
fffe
0001
0000
0000
0003
0000
0000
0000
fffe
0000
ffff
0002
0000
ffff
0000
0000
ffff
ffff
ffff
0000
fffd
0001
0001
ffff
0000
0004
0000
0000
0005
0000
0000
0002
ffff
0000
0001
0000
0003
0000
0005
0000
0003
ffa8
0006
0002
0004
0000
ffdc
0000
fff6
ffed
001a
0000
ffe5
0000
0009
0000
000d
0002
0015
0000
0008
0000
001e
0000
003d
ffd8
000c
0004
0041
0000
0018
0000
0046
ffd5
0028
0001
fff1
0000
0034
0000
0023
ffd5
000a
0003
003b
ffff
000e
0000
ffd9
0019
ffee
0000
0034
ffff
0003
0000
000f
0048
fff6
0000
0014
0001
ffec
0000
0023
000f
0004
0008
0013
0000
0007
0002
006e
000e
0015
ffff
0030
0000
ffc5
0000
0060
0017
fffc
fff7
0074
0000
ffcf
0000
0000
0001
fff4
0000
0036
0000
002e
0000
002f
ffd9
004a
fffb
0026
ffff
fff3
ffff
0021
ffb3
0029
fffa
0001
0000
ffcf
0000
fff8
ff9e
ffd8
0000
0023
0000
001c
fffe
0049
ffc0
002f
0000
fff3
0000
fffa
0000
0018
ff5b
0010
fffa
ffe5
0000
ffc4
0000
fff5
ffd7
001e
0003
ffba
0000
0000
0000
0000
0000
0000
0000
0000
0000
0000
0000
0000
0000
0000
0000
0000
0000
0000
0000
0000
ffff
0000
0000
0000
0001
0000
0000
0000
0000
0000
0000
0000
0000
0000
0000
0000
0000
0000
0000
0000
0000
0000
0000
0000
0000
0000
0000
0000
0000
0000
0000
0000
0000
0000
0000
0001
0000
0000
0000
0000
ffff
0000
0000
0000
0000
0000
0000
ffff
0000
0000
0000
0000
ffff
0002
0000
0000
0003
0000
fffd
ffff
0000
0000
0000
ffff
0000
ffff
0000
0000
ffff
ffff
0000
0000
0000
ffff
0000
fffe
0000
0000
0000
0000
0002
ffff
0000
ffff
0001
0000
ffff
0000
fffe
0000
0000
0000
ffff
0001
fffd
0000
ffff
0000
0000
fffe
0000
0000
fffe
0001
0001
0000
ffff
fffe
0002
fffd
0000
0001
ffff
ffff
0000
0000
0001
ffff
0000
0001
ffff
fffe
fffd
fffe
0000
fff5
0000
0002
0039
0006
fffe
003d
0001
0010
0000
001b
0019
0005
ffff
002c
0000
fff8
0000
0007
ffb7
0009
fffe
0032
0000
ffe9
0000
0028
0064
000e
fffc
0004
0000
ffe2
0000
ffc1
0046
0005
fffe
ffd1
0000
0001
0000
fff2
0001
0030
ffff
001b
0000
fff9
0000
ffde
0017
0006
0001
ffe6
0000
fffc
0000
ffeb
0074
ffbf
0000
000c
0000
0003
0000
fff2
ffe2
0005
0006
fff3
0003
0000
ffff
0004
0001
ffff
0001
0000
0000
0000
0000
ffff
0000
0000
0000
ffff
ffff
0000
ffff
0000
0000
0001
0000
0000
0000
0000
ffff
0000
0000
0000
0000
0000
0000
ffff
0003
0004
fffd
0000
0002
0000
0000
ffff
0006
0004
fffe
ffff
0002
0000
0001
ffff
0004
0003
ffff
ffff
0001
0000
0000
0000
0002
0001
0000
0000
0000
ffff
0000
fffe
0006
fffe
ffff
0001
0000
ffff
fffa
000c
0003
ffec
fffd
0008
ffda
0000
ffbe
ffa7
ffff
000b
ffc9
0004
ffb8
0000
ffb5
ffef
ffe4
fff1
fff2
0015
fff1
0000
ffd4
001a
ffdc
0009
ffe3
0016
0011
0000
0012
ffc3
0005
0010
fffc
001d
0000
0000
000e
0009
ffd9
0009
ffd1
000e
002f
0000
ff71
ffff
0031
fffd
fffd
001e
ffcd
0000
002d
ffe6
0039
ffe0
0037
ffe4
ffe9
0000
0000
fff6
fffd
ffef
0024
fff7
ffe0
0000
fffd
fffe
0004
0003
fffd
0001
ffff
0004
ffff
0000
fffe
0001
0000
ffff
ffff
fffb
0000
0000
0000
0002
0003
0000
0000
0000
fffd
0000
fffe
0000
0000
0000
ffff
0002
0000
0000
fffe
ffff
fffe
0000
0001
ffff
0000
0001
0000
0000
0000
0000
ffff
0000
0000
0001
0001
0000
0000
ffff
0001
0001
0001
fffc
fffe
fffe
0001
0000
fffe
fffe
fffe
0002
0004
0000
0000
0000
fffb
0000
002f
0003
0035
000f
0034
000d
002a
0000
0008
fff7
ffe2
000c
0075
ffca
0003
0000
ffff
fff8
fffe
0009
000d
fff0
ffe2
0000
000c
fffe
000c
0018
ffac
002b
0045
0000
003a
003f
000b
0019
ffc3
0011
ffff
0000
fffb
ffc2
0027
fff7
ffbf
0022
fff7
ffff
ffd8
ffe7
fff2
0007
0013
0006
0027
ffff
003c
ffdf
0012
0017
0037
ffd3
fffb
ffff
ffe0
ffca
002f
ffed
0007
fff4
ffdd
0000
0027
0012
002f
fffb
0019
001b
ffd8
fffc
fffd
fffd
ffbc
fff8
ffae
ffe3
ffc9
fffe
fff0
0017
ffe0
ffff
006c
ffdf
ffaa
fffd
0000
0019
fff3
0004
ffdb
fff5
ffe2
0000
002e
fffc
ffc6
fff7
ff9c
ffce
ffce
ffff
0004
001c
0006
ffe5
0046
ffee
fff1
ffff
001e
002d
ffa6
0003
0003
0014
ffff
0000
0005
ffef
ffec
0018
0006
ffef
fffd
0000
ffc9
ffc3
001f
fffc
0038
0000
0046
ffff
0001
0000
0000
0000
0000
0000
0000
0000
0000
0000
0000
0000
0000
0000
0000
0000
0000
0000
0000
0000
0000
0000
0000
0000
0000
0000
0000
0000
0000
0000
0000
0000
0000
0000
0000
0000
0000
0000
0000
0000
0000
0000
0000
0000
0000
0000
0000
0000
0000
0000
0000
0000
0000
0000
0000
0000
0000
0000
ffff
0000
0000
0000
0000
0000
0000
0000
0000
0000
0000
0000
0000
0000
0000
ffff
0000
0000
ffff
0000
0003
0000
0000
0002
0000
0000
ffff
0000
0000
0000
0001
0001
ffff
0000
0000
ffff
0000
0000
0001
0002
ffff
0000
0000
ffff
0002
0000
ffff
fffe
0000
0000
0000
0001
0001
ffff
ffff
fffd
ffff
0000
0000
0000
0000
fffc
0000
fffe
0000
ffff
ffff
0000
0000
fffe
0001
0001
ffff
fffe
0000
0001
0001
0003
0000
0000
0000
0000
ffff
0003
0000
0001
000b
ffeb
ffd6
0020
ffd5
0006
0016
0006
ffea
0018
fff9
0005
fff0
ffcf
fff4
0001
002d
0010
0046
0011
0018
ffe8
001c
0004
ffe7
ffec
fff1
0000
ffe4
fff1
fff6
0001
ffb9
001b
ffe2
ffff
fffa
0034
ffac
fffe
004c
fff8
fffb
ffed
0016
ffec
ffe5
fffd
fff6
002d
0008
0006
001f
0046
0010
0000
0027
ffe5
ffe7
fffd
0012
fff7
0009
0001
0056
ffe8
0000
0009
0021
ffc9
fff8
0000
0000
0000
fffd
ffff
0003
0000
ffff
0003
ffff
0002
0000
0000
0000
0000
0000
0000
ffff
0000
fffd
0000
0000
0001
0000
0000
ffff
0000
0000
0000
0000
0000
0000
0000
0000
0000
0000
ffff
0000
0001
ffff
0002
0001
fffe
fffd
0000
0000
0000
0001
0001
0002
0000
0000
fffd
0000
ffff
ffff
0001
0003
0000
0000
0002
0000
0000
0000
0001
0001
ffff
fffe
0004
0000
fffe
0006
fffe
0017
0005
0004
0014
002b
fff4
ffd7
0007
fffe
ffe1
0023
0012
fff7
0064
0041
0017
001a
0038
0034
ffdf
0011
001b
ffe5
0017
0007
fff6
000d
0003
001c
000d
fff0
ffd8
0000
0000
fff4
fff5
0003
005a
0043
ffdd
0010
0034
fffd
ffe9
002e
0068
0031
ffd5
000f
0001
0059
0012
001f
ffe4
ffe4
000d
0013
0016
0045
0030
005d
0015
ffd8
0056
0031
0002
0000
ffe0
006c
0030
fff5
004f
0003
0001
0001
0000
0000
0000
0000
0000
ffff
0000
0000
0000
0000
0001
0000
0000
0000
0002
0000
0000
0001
0000
0000
0000
0000
fffe
0001
0000
0000
0000
0000
0000
0000
0000
0000
0000
0000
0000
0000
0000
0000
0000
0000
0001
0000
0000
0000
0000
0000
0000
0000
0000
0001
0000
0000
0000
0001
0001
0000
0000
0000
0000
0000
0000
0000
0000
0000
0000
0000
0000
0000
0000
000a
0011
fffc
000b
000e
fff3
fffd
fff1
fffd
fff9
ffeb
0034
ffce
0022
ffcc
fff5
000c
ffdc
0005
003a
0028
0037
0003
ffe8
0000
fff7
ffd4
0006
ffad
0047
ffcd
0002
002b
ffe7
fff0
fff7
ffb5
ffea
ffb8
ffb3
0036
ffd1
0005
fffd
ffd5
fff6
0037
ffc4
0006
fff4
0035
0024
001e
0010
ffe9
001d
fff2
ffe3
0014
000a
0000
000a
fffc
000f
ffe1
0019
fff1
000a
ffed
ffec
001d
001e
0025
0011
ffef
ffeb
fff2
ffc0
0019
0040
ffec
ffdc
0019
ffd4
ffda
0017
0003
0060
ffeb
ffc5
0009
0015
ffcb
ffca
ffaf
0054
001c
fffa
ffec
fff8
fffa
ffae
0034
004e
fffa
fff5
ffcd
ffde
ffc7
ffab
0027
ffca
0005
ffe8
0018
fff8
0000
ffb0
fffc
003a
fffa
fff8
ffd3
ffe4
ffe7
ffb3
0022
ffde
0017
fffb
ffb8
fff5
ffc1
ffcc
005b
ffd2
fffd
0008
0030
001d
fff3
ffcb
0034
ffca
0000
0000
0000
0000
0000
0000
0000
0000
0000
0000
0000
0000
ffff
0000
0000
0000
0000
0000
0000
0000
0000
0000
0000
0000
0000
0000
0000
0000
0000
0000
0000
0000
0000
0000
0000
0000
0000
0000
0000
0000
0000
0000
0000
0000
0000
0000
0000
0000
0000
0000
0000
0000
0000
0000
0000
0000
0000
0000
0000
0000
0000
0000
0000
0000
0000
0000
0000
0000
0000
ffff
0000
0000
0001
0000
0001
0000
0000
0000
0000
0000
0004
0000
0001
0000
0000
0000
0000
0000
0003
0000
0001
0000
0000
0000
0000
0000
0002
0000
0000
0000
0000
0000
0000
0000
0000
0000
0000
0000
0000
0000
0000
0000
0001
0000
0000
0000
0000
0000
0000
0000
ffff
0000
0000
0000
0000
0000
0000
0000
0000
0001
0000
0000
0000
0000
0000
0000
0000
ffff
0000
0000
0000
0000
0000
0000
0028
ffe9
001f
ffea
002f
0012
fff8
fff2
0021
ffff
005d
ffac
ffcf
003c
ffeb
0021
ffed
ffe5
ffcb
0032
0060
0015
ffec
ffcd
001c
fff0
0000
ffe6
0039
fff8
0016
fff0
0013
ffe0
fff4
0021
ff9b
fffc
003e
ffe6
fffa
0001
0024
004e
005d
0028
ffc1
0013
fffe
fff9
ffe8
fffa
0038
ffdf
0037
ffe0
fffd
ffec
0008
ffe8
ffad
0028
0060
0000
0008
001c
0021
001c
fff7
000b
0005
fffc
0000
0001
ffff
0000
0000
fffd
0004
0000
0002
ffff
0000
0002
ffff
0000
0000
0000
ffff
0000
0000
0001
ffff
0000
fffe
0000
0000
0000
0000
0000
ffff
ffff
0000
0000
0000
0000
0000
ffff
0000
0002
0000
0000
0000
fffe
0002
0001
ffff
0002
0000
ffff
0000
0000
0001
0000
ffff
0002
0000
0000
ffff
0000
0000
fffe
ffff
0002
0001
0000
0001
fffc
ffff
0001
ffff
0000
0000
ffff
001e
ffe1
fff9
0048
000a
0026
ffda
0000
000d
ffa2
ffe4
0022
ffe3
ffbc
ff7f
0000
0006
ffce
fff7
002a
fff3
ffdf
ffbc
0000
ffe6
001f
ffe3
0016
fffb
0079
0023
0000
fffd
ffb0
000c
ffd4
0056
0014
ffcc
0000
fff2
ffcc
ffe4
ffee
ffd4
fffc
ffd0
0000
fffd
ffeb
ffd6
0000
ffe1
0035
0009
0000
ffe5
ffb6
fff1
0000
006f
002e
0054
0000
0000
ffd9
0000
fff2
000a
0010
ffff
0000
0000
0000
0000
0000
0000
0000
0000
0000
0000
0000
0000
0000
0000
0000
0000
0001
0000
0000
0000
0000
0000
0000
0001
0000
0000
0000
0000
0000
0000
0000
0000
0000
0000
0000
0000
0000
0000
0000
0000
0000
0000
0000
0000
0000
0000
0001
fffe
0000
0000
0000
0000
0000
0000
0000
ffff
0000
0000
0000
0000
0000
0000
0001
0000
0000
0000
0000
0000
0000
0000
0002
ffff
0000
fff1
ffec
fffd
ffff
0043
fff8
0027
fffd
001d
ffff
ffbb
003e
0035
003e
fff9
ffff
fff4
0004
0002
0009
0001
fff8
0013
0000
0010
fff9
002a
ff99
0004
ffd0
0028
ffff
000e
0065
fffe
ffb4
002f
ffe0
0029
ffff
ffec
003b
0020
ffa6
000c
ffd8
000f
0000
fff1
000b
001f
0036
ffeb
0030
ffe5
ffff
ffd1
0045
0035
0085
ffb2
fff4
006d
ffff
fff7
ffd0
000a
004a
ffee
0001
ffe0
0000
000e
0002
ffe1
ffee
ffde
002a
003e
0000
0035
0034
ffb7
0001
fff2
ffd3
fffe
0000
000b
fff9
fffb
fffa
fffe
fff9
ffda
0000
002f
0012
ffdd
ffeb
fff0
0003
0021
0000
0076
0045
0023
000d
0010
ffc8
0051
0000
0046
005a
0047
ffe1
fff9
ffc3
001f
fffe
0031
0004
ffc7
0026
fff2
0042
0001
0000
000b
fffa
0006
ffe5
ffd9
005d
fffb
0001
0023
002f
0051
ffe3
ffe7
0051
005b
0000
0000
0000
0000
0000
0000
0000
0000
0000
0000
0000
0000
0000
0000
0000
0000
0000
0000
0000
0000
0000
0000
0000
0000
0000
0000
0000
0000
0000
0000
0000
0000
0000
0000
0000
0000
0000
0000
0000
0000
0000
0000
0000
0000
0000
0000
0000
0000
0000
0000
0000
0000
0000
0000
0000
0000
0000
0000
0000
0000
0000
0000
0000
0000
0000
0000
0000
0000
0000
0000
0000
0000
0000
0000
0000
0000
0000
0000
0000
0000
0000
0000
0000
0000
0000
0000
0000
0000
0000
0000
0000
0000
0000
0000
0000
0000
0000
0000
0000
0000
0000
0000
0000
0000
0000
0000
0000
0000
0000
0000
0000
0000
0000
0000
0000
0000
0000
0000
0000
0000
0000
0000
0000
0000
0000
0000
0000
0000
0000
0000
0000
0000
0000
0000
0000
0000
0000
0000
0000
0000
0000
0000
0000
0000
0000
0019
001a
0051
000d
0009
fffe
0015
0000
ffe8
ffe6
0012
ffb3
ffb3
002a
0004
0001
0008
0061
0007
0049
ffc8
fff4
002e
0000
000c
fff0
fff4
001f
0030
0009
fff1
ffff
ffcc
000d
0018
ffc2
ffd0
002b
ffd5
fffc
fffe
0025
ffef
0089
fff0
fff2
0055
0000
002f
000b
ff98
ffee
ffef
ffd6
001f
fffe
ffe9
0040
ffe1
ff6a
ffe5
ffe2
ffaa
fffe
0000
ffe3
ffef
000e
ffec
ffd4
0046
0009
0000
0000
0000
fffe
0001
0000
0001
0000
0000
0001
0000
0000
0001
0000
0000
0001
0000
0000
0002
0000
ffff
ffff
0001
0000
0000
0000
0001
0000
0003
0001
0000
0000
0001
0003
0000
0001
0000
0000
ffff
0000
0000
0002
0004
0000
ffff
0002
0000
ffff
0000
0001
0000
0001
0000
0002
0000
ffff
0001
0002
0000
0001
0000
ffff
0000
fffe
0000
0002
0000
fffc
0000
0002
0001
0000
ffef
fff9
ffdb
ffd8
ffec
0018
0010
fff0
0015
ffee
0046
ffef
ffde
0001
0013
ffd6
0010
0001
0031
0000
ffef
0001
0007
0000
ffde
fffa
ffe3
ffe7
003c
001e
0000
fff2
ffe1
ffe3
fff8
ffe3
0026
0008
ffc2
0002
0027
0010
ffe2
0000
fffd
fff6
ffe4
003f
ffde
000b
0008
ffde
002b
0003
0013
fffc
fff2
ffe6
ffe0
0021
002e
fffa
ffdd
ffe7
0020
ffff
ffe2
000b
fff0
fff2
ffdc
000d
0000
0000
0000
0000
0000
0000
0000
0000
0000
0000
0000
0000
0000
0000
0000
0000
0000
0000
0000
0000
0000
0000
0000
0000
0000
0000
0000
0000
0000
0000
0000
0000
0000
0000
0000
0000
0000
0000
0000
0001
0000
0000
0000
0000
0000
0000
0000
0001
0000
0000
0000
0000
0000
0000
0000
0001
0000
0000
0000
0000
0000
0000
0000
0000
ffff
0000
0000
0000
0000
0000
0000
0000
0011
000d
ffd9
0026
004d
fff2
0014
fffe
fff0
0011
ffcb
fffc
0003
fff3
003f
001b
fff1
000f
fffa
ffc5
0009
fff9
0016
0003
0008
0000
ffc6
fff4
0023
ffec
ffc6
fff3
ffdd
0013
ffea
fff9
ffb0
ffeb
ffe5
0018
ffd4
0010
0000
0000
0000
fffd
ffe0
ffff
002f
0002
ffea
000c
001a
000d
0035
0027
001d
0002
ffd7
0002
ffff
0000
0008
001d
fff0
0000
ffe9
fff7
0033
0000
003b
0020
fff5
0003
0024
001f
ffcd
fff1
fff5
ffea
fff4
0008
000c
0001
000f
0004
002d
000f
fff2
fff3
0028
ffcc
ffbd
000c
ffd7
002a
fff6
0008
002a
0012
0006
0002
ffda
fffe
ffdf
0006
0010
0018
ffaf
fffe
ffe4
fff8
ffce
fffa
0049
0009
ff7b
000f
ffc9
fff1
000e
0009
fff5
000e
001e
0016
ffdd
0016
fff5
000f
0024
001a
ffdf
ffff
ffab
0035
ffd1
001a
0000
ffd8
ff82
0006
ffcf
0010
0000
0000
0000
0000
0000
0000
0000
0000
0000
0000
0000
0000
0000
0000
ffff
0000
0000
0000
0000
0000
0000
0000
0000
ffff
0000
0000
0000
0000
0000
0000
0000
0000
0000
0000
0000
0000
0000
0000
0000
0000
0000
0000
0000
0000
0000
0000
0000
0000
0000
0000
0000
0000
0000
ffff
0000
0000
0000
0000
0000
0000
0000
0000
0000
0000
ffff
0000
0000
0000
0000
0000
0000
0000
0000
0000
0000
0000
0000
0000
0000
0000
0000
0000
0000
0000
0000
0000
0000
0000
0000
0000
0000
0000
0000
0000
0000
0000
0000
0000
0000
0000
0000
0000
0000
0000
0000
0000
0000
0000
0000
0000
0000
0000
0000
0000
0000
0000
0000
0000
0000
0000
0000
0000
0000
0000
0000
0000
0000
0000
0000
0000
0000
0000
0000
0000
0000
0000
0000
0000
0000
0000
0000
0000
0000
0000
0000
0008
000e
0003
ffcd
000a
0036
0009
0019
0021
ffe2
ffeb
ffe8
0002
0013
ffd2
ffe3
fff6
0037
ffda
000b
fffe
ffeb
0038
0005
fff4
001b
ffeb
0004
ffd1
fffe
fffe
0008
000d
0014
0001
ffe9
ffd1
003f
ffdb
fffb
ffea
002d
fffa
ffbe
000c
0021
ffe7
fffe
001a
0018
fff7
000d
0002
0002
0024
fff8
fffe
fffe
0003
ffe2
fff0
ffd6
0008
fff9
0016
ffb2
fffa
ffda
000a
0041
ffed
0001
ffff
0000
ffff
0000
0000
fffd
fffe
ffff
0000
0002
ffff
0000
0000
0000
0000
ffff
0000
0001
0001
0000
0000
0000
fffe
fffe
0000
0002
0000
0001
ffff
0000
ffff
0000
0000
ffff
0001
ffff
0000
0000
0002
ffff
0000
ffff
0001
0000
fffe
ffff
0002
ffff
0000
fffe
0000
fffd
fffe
0000
0000
0000
0000
0000
0000
0001
0000
0000
0001
0000
0000
0000
ffff
0002
ffff
0000
0000
0021
0007
0000
ffe7
ff97
ffff
0008
0000
000c
fff5
006d
ffcb
fff3
ffd5
0008
0000
0029
fffe
0051
fffb
ff9e
0020
ffd9
0000
fff3
0000
0008
ffd0
ffa7
0018
0004
0000
0019
fffc
0037
fff6
ffc2
fff8
ffcf
0000
000e
0007
0037
000c
ffea
ffcd
0021
0000
fffd
ffe5
002f
0035
ffa0
003b
ffc9
0000
0006
fff4
fffd
ffe6
ffdb
0025
000c
0000
ffe8
000a
ffd5
ffbd
ffdb
ffd4
fff9
0000
0000
0000
0000
0000
0000
0000
0000
0000
0001
0000
0000
0000
0000
0000
0000
0001
0000
0000
0000
0000
0000
0000
0000
0000
0001
0000
0000
0000
0000
0000
0000
0000
0000
0000
0000
0000
0000
0000
0000
0000
0000
0000
0000
0000
0000
0000
0000
0000
0000
0000
0000
0000
0000
0000
0001
0000
0000
0000
0000
0000
0000
0000
0000
0000
0000
0000
0000
0000
0000
0000
0000
0000
0018
fffc
0002
000b
0020
0000
fffc
0001
0011
000e
ff72
0007
0059
ffd1
ffc3
0000
0011
000a
004b
ffce
0020
0015
001e
0000
0010
0003
ffe6
000a
ffec
fff9
0002
0000
0004
0013
0015
0003
004f
ffc2
0035
0001
0000
0009
0035
ffe5
fff7
0015
001c
0000
0013
0008
000c
ffeb
0003
000d
000c
fffe
000d
fffc
002c
0002
fff2
fff4
000f
ffff
000a
fffc
0038
0011
0006
0008
004b
ffff
ffe7
fff7
ffdb
0013
0017
0023
0004
0001
002f
0006
ffa9
0037
ffc8
0016
000b
0002
003d
0000
ff8e
0019
ffca
000e
0034
0003
000a
0000
ffae
ffe0
005e
0012
fffd
0000
000b
0008
ffa8
fff6
0001
000e
ffe3
0000
0018
0005
ff64
0024
ff28
002f
0029
ffff
0027
000e
fff2
ffd8
fff8
0007
0022
0000
ffe6
fff8
0019
ffd7
ffe9
0004
ffe9
0000
0014
0004
fff7
ffd5
ff7d
0005
0073
0000
0000
0000
0000
0000
0000
0000
0000
0000
0000
0000
0000
0000
0000
0000
0000
0000
0000
0000
0000
0000
0000
0000
0000
0000
0000
0000
0000
0000
0000
0000
0000
0000
0000
0000
0000
0000
0000
0000
0000
0000
0000
0000
0000
0000
0000
0000
0000
0000
0000
0000
0000
0000
0000
0000
0000
0000
0000
0000
0000
0000
0000
0000
0000
0000
0000
0000
0000
0000
0000
0000
0000
0000
0000
0000
0000
0000
0000
0000
0000
0000
0000
0000
0000
0000
0000
0000
0000
0000
0000
0000
0000
0000
0000
0000
0000
0000
0000
0000
0000
0000
0000
0000
0000
0000
0000
0000
0000
0000
0000
0000
0000
0000
0000
0000
0000
0000
0000
0000
0000
0000
0000
0000
0000
0000
0000
0000
0000
0000
0000
0000
0000
0000
0000
0000
0000
0000
0000
0000
0000
0000
0000
0000
0000
0000
000c
000b
001b
0020
fffb
002b
ffef
0000
001a
0006
ff87
ffd6
ff48
0023
ffaa
0000
ffd9
fffc
ffc7
0000
0068
ffd4
0035
ffff
fff0
000b
ffe7
0006
ffa6
fffc
ffe7
0000
003b
fffa
ffe6
fffb
ff45
0015
ffd4
0000
fff0
fff5
ffe5
ffe2
0004
0011
0023
ffff
fff4
001a
001b
ffdc
0002
000a
ffd1
0000
0002
0009
ffd0
0001
ff32
004d
fff5
0000
0008
fffd
fff1
0027
0036
001c
003e
0001
0000
0000
ffff
0001
0001
0000
0002
0000
0000
0000
0000
0002
ffff
0001
0001
0001
ffff
0000
0000
0002
0000
0000
0001
0001
fffe
ffff
0000
0000
0000
ffff
0002
0000
0001
0002
0003
0002
0003
0003
0000
0003
0001
0000
0000
0000
0002
0003
0000
0004
0001
fffe
0005
0000
0001
0001
0000
0000
0002
0000
0001
0001
0002
0001
0000
0002
0000
0000
fffe
0004
ffff
0003
0000
0002
0000
ffec
0000
fffd
fffe
0001
ffdd
ffff
0000
ffee
0000
0000
fffd
0000
ffce
ffff
0000
ffe5
0000
ffff
fffe
fffe
ffee
0001
0000
ffc8
0000
0000
0000
0000
ffb9
ffff
0000
000b
0000
fffc
0002
ffff
ffb9
0000
0000
fffb
0000
0001
0000
0000
fff3
0002
0000
ffb3
0000
ffff
0001
0001
004b
0001
0000
fffc
0001
fff9
0000
ffff
0010
ffff
0000
fffa
0000
0001
0000
fffe
0023
0000
0000
0000
0000
0000
0000
0000
0000
0000
0000
0000
0000
0000
0000
0000
0000
0000
0000
0000
0000
0000
0000
0000
0000
0000
0000
0000
0000
0000
0000
0000
0000
0000
0000
0000
0000
0000
0000
0000
0000
0000
0000
0000
0000
0000
0000
0000
0000
0000
0000
0000
0002
0000
0001
0000
0000
0000
0000
0000
0000
0000
0000
0000
0000
0000
0000
0000
0000
0000
0000
0000
ffff
0000
fffe
ffe6
0000
0000
ffff
0000
005a
fffe
ffff
0008
0000
0000
0000
0000
002f
0000
ffff
fff3
0000
0000
0000
0000
fffb
0000
ffff
0014
ffff
fffe
0000
0000
ffe6
fffe
0000
ffe9
0000
0000
0000
0000
ffe2
0000
0000
fffd
0001
0000
ffff
fffe
fffb
ffff
0000
0025
0001
ffff
0000
0000
ffd1
0000
0000
0045
ffff
0000
0000
0001
ffbd
0000
ffff
0022
0000
0000
0000
fffa
0014
0000
ffff
0027
0000
0000
ffff
0002
0025
ffff
0000
0000
ffff
0000
0002
0003
00a4
0000
0001
ffe9
ffff
0000
0000
0001
ffdc
0000
0001
000b
fffd
ffff
ffff
0001
ffd7
0000
0000
ffd4
0000
0000
0002
0000
000a
0000
0000
ff92
ffff
ffff
0001
ffff
ffdf
fffe
0000
fff2
ffff
fffe
0000
ffff
ffe6
fffe
0000
ffc8
fffe
0000
0001
fffd
ffca
ffff
fffe
ffef
0001
0000
ffff
ffff
ffbe
fffe
0000
0000
0000
0000
0000
ffff
0000
0001
0000
0000
0000
fffd
fffe
0000
ffff
fffe
0000
0000
0000
ffff
0005
0000
0000
ffff
0000
0000
0000
ffff
0001
0000
0000
ffff
0000
0000
ffff
0000
0000
0002
0000
0000
0000
0000
ffff
fffd
0000
0000
0000
0000
0000
0000
0000
0000
ffff
fffd
ffff
0000
0000
0000
fffe
0001
0000
0000
ffff
0002
0000
ffff
ffff
000b
fffa
ffff
0005
0000
0000
0000
0000
0000
0000
0000
0000
0000
0000
0000
0000
0000
0000
0000
0000
0000
0000
0000
0000
0000
0000
0000
0000
0000
0000
0000
0000
0000
0000
0000
0000
0000
0000
0000
0000
0000
0000
0000
0000
0000
0000
0000
0000
0000
0000
0000
0000
0000
0000
0000
0000
0000
0000
0000
0000
0000
0000
0000
0000
0000
0000
0000
0000
0000
0000
0000
0000
0000
0000
0000
0000
0000
0000
ffe3
ffff
ffff
fffb
0000
0000
0001
0000
ffea
ffff
0000
0000
0000
fff2
0000
0000
001e
fffe
ffff
fffe
0000
fff3
0000
0000
ffe0
ffff
0000
fffe
0000
ffff
0001
fffe
ffdc
0000
fffe
0001
0000
002e
0000
ffff
ffd1
ffff
fffc
0000
ffff
ffa3
ffff
fffe
ffd4
0000
fffc
0001
0000
fffc
0000
ffff
000c
0000
fffc
0000
0000
0022
0000
0001
0004
0000
fffd
0000
0002
ffa7
0000
0004
0002
0000
0000
0000
0001
0003
0000
0000
0001
0000
ffff
fffe
0000
0001
fffe
0000
0000
fffe
0001
0000
0000
0001
0001
0000
0000
0000
0000
ffff
0001
0000
0000
0001
0001
ffff
ffff
0002
0000
fffe
0001
0001
0000
fffe
ffff
0000
fffe
fffe
0003
0000
ffff
0000
0001
0002
fffe
ffff
0001
0003
0000
ffff
fffc
0000
0005
fffd
0000
0003
0000
ffff
ffff
fffd
0006
ffff
0003
fffa
000a
0052
005a
0008
0002
000c
0027
000f
0035
0015
0012
000f
0000
ffe8
0017
001e
fff8
0010
ffe6
fff8
0001
fff3
0038
0007
ffca
0039
001a
ffaf
0001
0013
ffe9
ffe8
ffcd
000e
fff5
000e
fffa
fff6
0024
ffc0
ffa3
ffee
ffed
0024
ffff
fff2
ffe6
ffaf
ffdb
002b
fffe
ffd0
0000
0000
0019
ffea
0032
ffde
ffea
fff2
fffc
ffe5
0036
fff3
ffe6
ffe7
fff4
ffc8
ffff
fff6
ffbf
0001
0000
0000
0000
0000
0000
0000
0000
0000
0000
0000
0000
0000
0000
0000
0000
0000
ffff
0000
0000
0000
0000
0000
0000
0000
0000
0000
0000
0000
0000
0000
0000
0000
0000
0000
0001
0000
0000
0000
0000
ffff
0000
0000
0000
0000
0000
0000
0000
0000
0000
0000
0000
0000
0000
0000
0001
ffff
0000
0000
0000
0000
0000
0000
0001
fffe
0000
0000
0000
0000
0000
0000
0000
ffcd
ffff
fff2
fff3
0009
0000
ffec
0008
000e
000f
0009
0006
ffe7
0000
ffec
ffb2
fff2
0025
0019
0019
ffce
0000
0004
ffe6
fffb
fff6
0000
0015
002b
0000
0005
ffaf
0015
0025
ffd7
0006
0016
0000
ffff
ffcd
001b
ffd5
0001
001c
001a
0000
0007
0011
0010
ffea
fff6
003e
ffb5
ffff
ffef
0039
0008
fffc
0005
0003
ffe5
0000
ffec
005c
0010
ffcc
fff3
ffe5
ffb5
0000
0008
0010
ffe3
0007
0007
ffdd
002e
0000
001e
ffc6
0026
0013
0004
fff6
ffb7
0001
000e
0014
0003
fffd
0004
ffee
ffe7
0001
0012
0004
0011
001b
fff4
ffed
0003
0000
000f
ffb3
003b
0024
fff0
0013
0004
ffff
0016
fffc
003f
ffae
ffa9
002e
0033
0000
0010
002a
0041
fffe
ffc4
ffcc
ffd1
0002
000a
ffb1
0004
fff0
fff4
ffd9
ffd7
ffff
0025
002d
ffe3
0008
ffa6
003e
fff3
ffff
0005
0016
0000
0000
0003
ffff
0005
ffff
0000
0001
0000
ffff
0001
0001
0000
ffff
fffe
ffff
0002
fffe
0001
0001
0004
0000
fffc
ffff
ffff
ffff
0002
0000
0001
0000
fffe
0001
0000
0000
0000
0001
0000
0000
fffd
0000
0000
0003
0000
0002
0001
fffe
0000
ffff
fffe
0002
0000
0000
0000
ffff
ffff
ffff
ffff
0004
0000
ffff
ffff
0000
fffd
fffe
0000
ffff
fffe
000b
fffe
ffff
0000
0000
0000
0000
0000
0000
0000
0000
0000
0000
0000
0000
0000
0000
0000
0000
0000
0000
0000
0000
0000
0000
0000
0000
0000
0000
0000
0000
0000
0000
0000
0000
0000
0000
0000
0000
0000
0000
0000
0000
0000
0000
0000
0000
0000
0000
0000
0000
0000
0000
0000
0000
0000
0000
0000
0000
0000
0000
