0009
fffa
fffb
0000
0001
ffff
ffff
ffff
0005
fff9
fffb
0002
0000
0002
fff8
ffff
0005
fff9
fffc
0004
0002
fffe
fffa
ffff
fffd
fffe
0001
0000
0001
ffff
fffe
fff6
0000
0001
0000
fffc
0004
fff9
ffff
fff7
fffe
0002
0001
fffe
0000
0000
0000
fffa
0000
fffb
0000
0001
0002
0008
0000
ffec
0000
fff8
fffc
fffe
0000
fff5
0002
fff0
0000
fff8
fffd
0000
0000
fffa
fffb
fffc
ff56
fff3
0011
ff89
0003
0022
ff9d
0008
ff38
fff5
001b
ff34
0004
0096
ffb5
ffa5
ff31
ff82
fffb
ff60
0000
002b
009e
ffe6
ff80
fff6
0004
008f
fffe
0034
ffd0
0013
ff15
0004
fff9
0014
fffd
0002
0051
0072
ff38
fffe
ffe8
0020
ffff
ff83
00d5
003a
ffb0
ff36
fff9
ffe0
fffc
ff83
00ac
000b
0015
ff96
ffeb
ff98
ffff
ff16
009e
ffff
0000
ffde
fffb
ffc4
fffe
ff40
fffa
ff52
006e
ffc4
0012
fff1
fffe
ff5f
ff44
ffc3
0017
003e
ffbd
ffef
ffff
ff0d
0025
ffd4
ffa5
0096
000c
fff7
0000
ff85
009a
002b
001c
ff21
0007
0052
0001
ff2c
fffc
ff85
ff43
004b
fff1
0033
0002
ff24
0089
ffae
fff3
001d
000c
ff7f
0003
ffeb
0098
ffe7
ffe5
ffdf
fff5
0093
0000
ff9c
000b
ffd6
ff90
0004
0054
ffe2
0003
00be
ff8f
ffd5
ff61
0038
0017
ff95
0001
ffdd
ff67
008e
ffe7
fff3
001c
ffe7
0000
0005
ffeb
fff8
0021
0004
0004
0021
0000
ffe6
ffe8
ffba
ffe5
0026
0006
ffd5
0002
000e
ffec
ffd6
ffeb
0004
0023
ffe7
0000
0033
ffb9
001c
fffc
0010
fff8
0000
ffff
ffee
ffa5
0006
ffe3
0028
0000
fff3
ffff
0000
ff92
0008
ffd3
0009
0019
0007
0001
0023
ffae
fffa
fff3
ffea
fff5
0014
0000
000b
ffb3
fffd
fff9
000d
0000
ffca
0000
fff9
ffc1
ffe4
ff17
ffea
fffe
ffaa
0009
ffec
ffce
fff3
ff71
ff88
ffd9
ffc1
0008
0059
0004
ff63
ffc0
ff5d
0000
ffb5
0000
00cc
0004
0014
ffc8
0029
0006
ffaf
0000
0018
0014
005f
ff90
001e
ffec
ffc3
0005
00a4
003e
0013
ffd0
0012
001b
ff55
0000
01ed
ffbd
0029
0047
ffd9
000c
002b
0004
ffb2
0000
001f
002c
fff8
000a
ffe8
000a
0000
ffe5
0000
ff8e
0060
0022
0018
0001
017a
ffb7
0012
fffd
fffe
ffff
0000
fffb
0001
0002
ffff
fff5
fffe
ffff
fffe
fff9
0009
0002
0000
fff8
0001
0000
ffff
fffb
000b
0002
fffe
fffa
0003
0002
fffd
0000
0003
0003
fffe
fffb
0002
0003
0000
0000
0005
0009
ffff
fff9
0002
0002
0001
0000
000b
fffe
0000
fffd
0002
0000
fffb
0000
0002
0002
fffc
0000
0001
0000
fffb
0001
0003
000c
fffc
0000
0001
0000
fffe
0000
0006
0000
fffd
ff1d
00b8
ffef
001a
0000
002e
ff88
0090
0021
003e
0007
ffe5
0000
0018
0057
0076
ffde
0049
000c
003b
0000
0039
0081
00bb
ff88
0059
ffe2
0057
0000
00a8
0018
00d3
fff8
ffc4
000b
ff96
0001
0017
00d7
00c3
0082
003f
0009
006c
0003
ffad
00a0
001a
005e
006f
ffe8
ff77
0000
007e
00bc
0019
0057
002e
0006
ff3d
0000
0023
fff6
0002
0059
000b
001d
ffee
0001
ffd0
0031
001e
fffe
fffc
0000
0000
0004
fffd
fff1
0000
000c
fffe
0000
ffff
0008
0001
0005
fffd
0008
fffa
fffe
0000
000e
fffc
0001
fffe
0000
0000
0004
fff1
fffd
fff5
0000
0000
0000
0000
0003
fff6
0001
fffd
ffff
0001
ffff
fffe
0002
fff9
fffd
000a
fffe
fffc
000a
0000
fffe
fffe
0007
fff1
0001
fffc
000d
0000
fffe
0001
000b
fffe
ffff
0004
000a
ffff
fffe
0002
0008
0009
fffe
fff5
fff8
0000
fff2
0000
0006
fff5
0000
0000
fff4
0006
ffee
ffff
000d
0003
fff4
0004
fff8
0010
fff4
0002
0000
0012
0000
ffff
0005
fffb
0005
0003
000e
0008
ffff
0000
000c
fffe
0007
0004
0007
000d
fffc
0002
000a
fffe
0004
fffd
0002
0013
fffb
0004
0000
ffef
fffe
fffc
000a
0000
0001
0003
0007
fffb
0002
fffb
001c
fffc
0001
ffff
0009
0000
0004
fffb
000d
0009
fffa
0003
ffa9
ffef
ffd7
0041
ffa3
0010
ffec
0002
000c
0019
0020
ffef
ff4c
ffdf
0000
fffd
0016
ffec
001c
ffda
febb
ffb8
0048
ffff
005d
003f
000f
ffa6
003f
fff0
ffca
0005
00c1
fff2
ffa2
ffa4
ffce
ffd5
ff59
0003
004a
ff19
ff3f
ffd9
ffb4
fff7
ffd2
0008
fff6
ff2e
0017
ffdd
ff8f
0007
0038
0003
0000
ff11
fff8
004e
ffdc
ffed
000a
0005
0029
ffb2
001b
ffc2
0087
0019
002e
0004
ff83
ffa6
0047
ff82
00b0
001f
0007
fff4
ff45
ff32
005c
001a
0104
ffae
ff59
fff9
ffd4
ff72
0022
fff1
007e
00a6
007f
0009
ff72
ff80
0043
0103
00fb
0033
0064
ffff
feec
0084
0013
0116
00ee
0033
0014
fff5
fedf
0039
000b
ffee
0051
0042
002a
0002
ffdd
ffff
0021
002d
0019
ffdf
ff31
0000
ffcd
0029
ffbf
0054
00aa
005b
005f
fffd
ffc9
0056
ff13
0046
003c
0013
012c
0001
fff9
ffd6
0022
0041
0002
fff0
fff5
0007
ffdb
0018
000e
006a
004d
fffb
ffff
000e
ffef
0037
ffe4
000f
0036
000a
ffef
0009
0025
ffaa
0015
0039
0013
ffd8
0013
0000
0016
fff5
001e
ffef
0008
ffc0
0023
0008
002f
0016
ffcf
fffe
ffec
ffc7
0023
0000
001c
ffc3
0024
004a
003d
ffe6
0000
fffe
0008
ffed
0022
0010
0002
ffca
002c
0005
ffe0
ffc3
ffe7
000a
ffcd
ffc9
0028
0000
ff8a
ff77
0027
0007
0002
ffde
0067
0000
ffbf
0044
001e
007a
ffd8
ffe4
0053
0001
ffe0
005f
ffc2
ffc1
ff9c
ffd1
003b
ffff
fff3
ff54
007e
0018
ffc6
ffff
0044
0001
ffac
0050
0097
ffe9
fff1
fff4
0085
0001
0022
ffd0
ffdd
fff2
ff59
fffb
007d
000a
ffe6
fff5
0025
009b
0099
0032
0073
0000
ffb0
ffa9
0011
0021
0093
0022
0051
0003
ffc9
ff87
0000
0034
ffca
002c
0083
000c
fffc
0002
0004
0003
0002
0005
0007
fff9
fffe
fffd
0001
0005
0001
0001
0008
fff7
0000
fff9
0000
0007
0000
0000
0008
fff8
fffc
0002
0005
0007
0003
000b
fff8
0000
fffc
0005
0003
0006
ffff
000d
fff4
0000
fffc
0000
0000
0003
ffff
0009
fff7
0000
fffa
0000
0004
0004
0006
0009
fff8
0000
fff4
0000
0004
ffff
0000
000c
fff8
0000
fff6
0003
0003
0000
ffff
0007
fff7
0000
fff0
ff66
00b1
0035
0096
fffa
ffb0
000f
0063
ffef
0071
ffa5
ffeb
0031
ffcc
0017
fff5
ff71
ffee
ffa5
ff70
0038
ffa6
0014
ffe7
ffe4
004a
fffa
ff6c
0018
0041
0001
0047
0050
ff82
002e
fec4
0011
fffd
0001
fff2
0014
004a
fffe
fedc
0003
ffbc
ffff
ffb1
006e
0032
ff97
ff71
fffa
0059
0006
ff6d
00be
ffb3
0051
feec
ffc9
ffc1
0000
ff5c
ffdb
004c
ffa8
ffc5
fffb
002b
0002
ffff
0000
fff8
ffff
0003
0002
fffe
0003
000c
ffff
0008
0000
0001
fff3
fffd
fffe
fff5
fffe
fffb
fffc
fffc
0016
0002
0000
0000
fff0
ffff
0001
000a
0001
0000
0000
0000
000a
ffff
0001
ffec
0000
fffd
fffb
fffe
ffff
ffff
ffff
000e
0002
0000
0004
0000
ffec
0000
0006
0009
0000
0001
0000
0000
000f
0000
0001
ffe9
ffff
fffe
fffe
fffe
fff9
0000
ffff
000c
0003
0000
0006
0003
0000
0005
0019
fffd
fff9
0002
0003
0000
0002
0001
0016
0000
fff4
fff3
0009
0003
0000
0005
000d
ffff
0002
fff1
fffd
fffa
fffd
0001
0003
0003
fffe
fffa
fffd
fff4
ffff
ffff
fffe
0004
ffff
ffff
ffff
fff9
0000
fff7
fffc
0011
0004
0000
fff7
fff3
0000
0007
0004
fff7
0007
0005
0002
fff3
0000
000f
0007
fff9
fff8
fffa
0004
fff2
0000
0003
ffff
0007
fff4
fff6
fffa
fffb
ffe4
ff8c
003d
0023
ff61
ffea
ff82
ff6e
ffc0
0002
ff84
ff92
ff70
0067
0029
fea2
ffed
0005
ff74
ff35
ffde
0012
0018
00d1
ff44
0004
ffdf
0014
fff5
ffc5
ff6c
00b1
ff60
001c
ffd4
0022
0005
ffd8
ffce
ffbd
ff7a
0006
ffe8
0069
007b
ffe2
ff92
011d
ffa9
ff7e
ff0f
ffcd
002f
ff74
ffe0
011f
ff73
ffad
ffb4
00b2
011c
ffc5
ff53
004d
ffba
ffab
ffca
fff0
0064
ff98
ff5c
0052
0066
ff94
ffe3
ff78
0012
ff19
005e
00bc
ff9d
00da
fe83
ff95
00b8
ffb0
ff0a
ff89
0057
004f
ff23
ffc0
009b
ff7a
ffd9
0034
0059
ffd3
ff34
003c
0018
ff95
0051
ffbf
ff2a
0091
ffcc
0014
01f6
ff27
ff95
ff70
003a
0043
0064
ffcf
007e
ffec
00bb
0048
ffd1
ffed
ffbd
000a
0054
ffe5
ff9f
ffcd
ffc2
0082
00bf
ff47
00d3
0032
00ad
0084
0032
0055
0094
ff96
ff61
ffcb
fff7
0013
0007
ffde
ffec
ffe9
0025
fff4
ffeb
ffe0
ffce
ffe1
ffdc
001d
0039
fffd
ffe7
fff6
ffa6
fffb
fff2
0016
004c
0004
fffe
001c
ffd8
fffe
0000
0018
0027
fff1
ffe3
0021
ffa8
ffcf
ffe5
0028
000e
001f
ff9a
0014
ffab
fffb
0006
ffd2
0029
001e
ffaa
0023
000c
fffa
002a
000c
0024
fff0
ffba
0028
ffe7
ffd9
0013
000d
ffe0
fff2
ffc5
0043
ffcb
ffe8
0014
0008
fffb
0032
fffb
0018
ffa1
0021
0031
000b
0015
0084
0053
ffde
fff7
0007
ffe3
ffda
ffa2
0047
00a2
ffaa
ff7a
0046
0095
ff2f
ffe7
004e
0076
0076
ffd3
0013
ff95
0059
0027
000d
ffed
003f
ff50
ffca
ffcd
0063
000e
ffbd
005f
ffd2
0001
0048
004a
ffdc
0012
ffa3
0060
004c
0025
ffcc
ffa3
0064
ffd9
fff1
0023
0077
ff92
ffb1
fff2
0079
0073
001e
ffb4
ffb1
ffb1
0005
007d
ffea
003f
0061
003a
fffa
0000
0002
0001
fffe
0000
ffff
0001
fffc
ffff
0002
0000
fffc
0003
0001
fffd
fffa
fffd
fffc
0000
fffa
0001
fffe
fffc
0003
fffe
0005
0008
fffc
0000
0003
0002
0000
fffe
000b
0000
0001
fffe
0000
0006
fff9
ffff
0000
0002
0000
0003
fffb
0003
0001
fffd
0004
0000
fffd
fffd
0000
0007
0001
fffe
0006
fffa
0005
fffd
fffe
0011
ffff
fffc
0004
fffa
0002
0001
fffa
0009
ff7e
0031
0003
0006
ff87
0047
000a
ff9e
0027
ffe4
ffb8
00f8
006b
0025
009b
007e
0090
ffb0
ffe0
0076
0084
ff83
0026
006f
ffbb
ffce
0042
00ad
ff91
0029
0028
ffe9
00b0
ffda
ffd7
00a5
0016
ff3c
00b3
0092
ffc4
0051
0046
ffdb
0070
fec1
0024
00a7
ff9f
ffbc
0088
005a
ff99
001b
004d
0086
0098
ff40
ffeb
00ab
fff4
ff66
00e4
0088
ffc0
0022
ffab
0065
fff9
ffa2
0068
00e7
0000
fffd
ffff
fffe
0002
0000
0003
fff8
ffff
fffa
ffff
0005
0000
0000
fffb
0000
0003
000b
0000
0000
fffd
0000
fff8
0009
0003
0000
fffb
0001
0001
fffc
ffff
0003
fff3
0000
0006
0000
0000
0002
0001
0000
0004
0000
0000
fffc
0004
fff9
0009
fffb
0005
0000
fffc
0003
0000
ffff
fff9
0004
fff9
0000
0009
0000
0000
0005
0002
0000
0013
0001
0002
fffd
0003
fff5
000c
fffb
0003
fffd
0006
0002
0001
000e
fff5
0000
0003
0000
0007
0000
0006
000c
fff8
0003
fffb
0005
0000
0000
0002
000a
fff8
0003
0006
fffb
0000
0000
0003
fffd
fffe
fff8
0004
fff7
0004
0000
fffb
fffd
fffd
fffe
0003
fff8
0004
000a
fffd
fffc
ffff
fffb
0008
ffff
fffb
0002
0003
fff7
0004
0000
0004
fff6
fff9
fffe
fffe
fffc
fffc
ffff
0004
fff4
ffff
fff9
0001
fff9
0002
fffb
ffaa
fff9
001e
ff80
0008
ff77
0021
ffca
0084
ff87
ff29
ffbd
fff8
ff3f
0040
ff8d
005b
ffa1
ff60
002b
fff2
ff9e
0095
0009
ff82
ffe9
000a
ffd6
fffc
0046
fff0
ffc5
ff5a
001c
ff85
0006
ffec
ffd4
00a4
ff5c
ffbe
0011
fff0
ffea
fff3
ffe4
001e
ff94
ff29
0039
002d
006a
0005
0014
ff9f
ffe0
ff5f
fff6
ffe5
ffb9
ffec
ffc1
000f
ffcb
ff86
ffb6
002c
0003
fff4
ff4b
0036
ffea
ff7b
0019
0022
0000
ffe4
0060
0036
0105
000f
feed
0085
0026
ffe9
00de
fed8
ffec
fff7
ffd8
0107
ffee
0002
ff37
ffbb
ffcd
ffa9
ff14
0025
0023
fff1
0092
0038
0073
ffeb
ffa0
004b
000c
0001
005b
ff19
009c
00a5
ff41
0020
ffee
000a
ffe1
0016
0051
0018
ff5c
fff5
ffcc
fff0
ff6c
00b7
0081
ff5f
fff8
0016
0037
fff2
ff2e
00e7
fff2
ffc8
ff80
000d
ffaf
fffe
ffd6
ffca
00a6
0013
ffe0
0015
ffed
ffff
001c
0036
ffe7
ffb6
ffde
0000
0027
fff8
fffd
0002
ffea
ffec
ffd0
ffea
fff6
fff9
ffe9
ffd6
ffdc
0014
ffce
0004
0021
0002
000a
002f
0001
002a
ffb4
000a
002c
fffe
ffef
000b
ffe8
0033
fff5
ffea
ffe1
0000
ffdf
0029
ffb8
ffff
ffb9
004f
ffe4
0001
001b
0024
ffd9
0014
ff89
003c
ffe1
0000
0019
0012
ffda
0021
ffbd
002a
ffd5
0002
ffd0
fff2
ffc4
000c
ffb4
0043
ffc4
000c
ffe2
ffec
0013
000e
ff78
fff8
fff9
0005
ffc1
0067
0018
00d6
ffc4
0012
ffa8
ffff
ff87
0043
ffea
0011
0020
0077
0032
000e
004f
ffcd
ffd6
fffc
ffc2
0039
006a
000f
0005
003a
ffda
000c
ffda
001f
0036
000e
fffe
0031
002e
fff2
001b
001d
ffcd
0015
fff2
0009
000a
ff8e
ffd1
ffa4
ffa8
0012
0044
ff81
002c
fff0
ff97
ffb4
ffe6
000b
0009
ffb6
ffcf
0001
fffa
ffff
fffe
0000
fff9
fffb
fffd
0007
fffe
0003
0000
fffc
fff7
fffc
0003
0008
fffd
0004
0001
fffe
fff9
fffc
0002
0008
fff9
fff9
0001
fff9
0000
0003
0001
0002
fffb
0000
0001
fff9
0000
0001
000e
ffff
fffe
0000
0002
fffa
0002
0000
000a
0000
fff9
0001
0001
fff9
fffc
ffff
0006
0004
fffc
0007
0005
fff7
fffe
fffc
0012
0001
fffd
0008
0002
fff9
0001
0000
000d
ffb6
000d
0034
0045
fffc
0090
ff4c
ffb0
ffb5
ffd5
007d
008f
fffc
008e
002c
001f
ffb1
010f
006c
005d
0001
ffb9
0006
0096
ff91
000a
0062
0049
0000
0025
ffd4
ff5f
fff0
0095
0009
0091
0006
ffa8
ffb6
004a
0039
005b
ffea
005b
0017
ff9a
003e
0066
ff8a
00f1
001d
007f
0014
ffcd
ffc0
fee3
ff85
006d
0011
006b
0013
ffeb
ffca
fec6
ffe7
ffa0
ff11
002a
001c
0052
0052
fff6
0004
0003
0000
0000
fff6
fffa
ffff
0003
ffff
0001
fffe
fffe
fffd
fffa
fffe
ffff
fffb
fffb
fffe
fffe
0012
0002
0003
0001
0000
ffff
0000
fffc
fffd
0000
0005
0001
0000
fffe
fffd
0008
fffb
fffe
0001
0000
0003
0002
fffe
0008
0000
0002
fffd
fffc
0002
ffff
0000
fff5
fffb
0000
0005
0003
0000
fffe
ffff
0006
fff7
fffe
0004
0000
0002
ffff
ffff
0015
0001
0003
fffa
fffc
0000
0000
0003
0005
0000
ffed
fff4
0006
ffff
0000
000b
0002
ffff
fffc
ffe8
0007
fffa
0000
fffb
0003
fffd
fffc
fff2
fffd
0004
fff1
fffd
0003
fffd
fff7
0002
0001
0007
fff1
fffc
ffff
0004
0000
0002
fff6
0004
fff8
0000
fffd
fffc
fffc
fffb
fffa
0003
0000
fffc
0008
0004
ffed
0005
0002
0005
fff6
fffe
0006
0012
fff9
0002
0003
0004
ffef
0000
0003
0006
fff4
fffa
0002
ffde
ffe8
ffe3
ffe2
0013
ff7b
0004
006c
fff9
002b
ff7a
0031
ffad
fff1
000d
0036
0000
0027
ffec
0039
0004
001d
0003
008d
ffcb
0017
ffaf
0094
ffc4
ffd8
0000
0027
ffcf
0011
febe
0083
ffd7
0044
0005
ffbd
ffe7
0054
ff5f
0023
ffc7
0062
0007
fff9
0032
ffc0
0071
0000
ff6f
0041
fffe
ff89
fffd
ffa2
ffed
ff7a
fff5
0025
0001
ff9d
0030
fffa
ffb5
ff80
ffff
ffe5
0004
ff88
000d
ff77
ffcf
ffb1
ffb0
ff6a
0000
ff07
fffb
ffc5
ffd6
00e5
ffa4
fed3
ffff
00c2
fff3
0013
ffc9
0093
ff8e
ff9c
fff9
0048
ffb8
ffb4
ffc6
ffe2
0061
ffcd
fff5
ff4a
002d
ff8f
0040
ffb6
004d
0038
fff1
0031
ffca
ffc2
005e
fff3
ff60
ff5e
ffff
ff97
006f
0027
ffe9
ffdb
ffed
0092
fff6
00d3
0074
ffae
fffa
ff64
ffd3
0162
fff3
ffd4
ffc1
ffbc
ffef
ffe8
ffa1
0076
0000
ff8c
fff0
fff1
000f
002b
fff3
ffd2
fffd
fff5
001f
fff4
001a
0008
ffe3
0005
0001
0014
0010
0038
0029
fffc
001b
002b
ffff
0000
ffda
0011
ffb5
ffff
ffe2
ffe0
0003
ffef
ffed
001f
ffde
0007
0028
000b
0003
fff1
ffd6
004c
0026
001a
001b
0040
0004
0009
ffd3
003e
fff5
fffa
001b
fff1
0002
ffe7
ffe8
0076
ffea
ffea
0033
0001
0000
fff8
ffce
0094
000b
ffdb
0036
0013
0003
002a
ffee
ffb8
009b
ff7e
ff90
0023
0000
000e
fff9
ff67
008f
ffa4
0001
ff5f
fffc
0073
ffd4
ff6b
ffa9
0039
007a
ff9d
ffff
0080
fffb
ffcb
fffd
ff96
ffa1
ffa3
fffd
000c
fffc
ffb4
0072
ffed
0050
ff40
fffc
0035
ffef
ffa0
fff3
ffb7
00e9
ff4c
0000
001b
004a
ffc5
003c
ff89
0027
ffce
fffe
ffed
fff0
ffcf
0043
0050
0068
fff3
fff9
ffb2
fff7
ff90
003a
ffdc
00c3
ff93
ffff
ffde
000a
fffb
ffff
fffd
fff1
fff8
0001
0006
000c
fffb
fffc
0004
fff3
fff7
0002
0004
0008
fff7
0002
0007
fff5
fffa
0000
0000
0001
0000
fffc
fff9
fffb
fffb
0003
0002
0001
fffe
fffe
0000
fffb
fffe
0003
0001
ffff
ffff
0003
0002
fffc
fffa
0002
0002
0001
ffff
fffb
fff5
fff5
fffb
0005
0001
0001
0000
fffc
fffc
fffb
fffc
0002
ffff
fffe
ffff
0001
ffff
fffb
fffc
0002
0002
0036
ff8a
000f
005d
002a
0025
fffd
00e4
0038
0017
003b
0070
0043
ffc0
fffd
004d
0009
0039
ffbe
0136
ffef
0048
fffe
0092
002e
000b
ffb5
00c3
ff7c
ff30
0000
ffa2
0009
0050
fff2
00bc
ff80
ff8d
ffff
fed7
0002
008a
0053
0080
ff93
0019
fffc
ff19
0015
001d
0051
0050
ff37
ff95
fffe
ffa7
ffdd
ffcb
00ae
0066
fee4
ff2c
0001
ff1b
ffd2
fff6
00a9
0028
ffbd
ff8c
fffc
ff7e
0001
0000
0008
0000
fffe
0004
0000
fff3
0000
fffe
fffd
0001
0000
0002
0004
fffb
fffb
ffff
fff9
0001
0001
fff8
0004
0012
0000
0004
0000
0001
0004
0001
ffef
0000
0000
fffe
0000
0002
0000
000b
fff5
0001
fffe
fffd
0001
0002
fff3
ffff
000d
fffa
0000
0005
0000
fffd
000b
0001
fff2
0000
ffff
fffd
0000
0000
fffe
0005
fff6
fffd
ffff
fff9
0002
0004
fff4
fffc
0012
fffd
000b
0003
0001
0001
000d
ffef
0009
0001
000a
0007
0000
0001
0006
0006
0013
0001
000d
fff8
0004
0001
fffd
001a
0016
ffff
fffe
0001
0002
fffa
fff8
fff5
fff8
fffa
fffa
0003
0002
fffa
ffff
fff8
fff6
fffd
fff6
0004
0002
0006
0001
fff9
fff2
0000
fffd
fff8
0001
ffff
fff5
0006
fff2
000d
0003
fff6
fffe
fffb
0004
000e
ffe9
0004
fff7
fffe
0000
fff9
0012
000d
ffe8
fff9
ffbb
ffda
0076
ff96
ff78
ffce
0002
ff78
ff69
0003
00a6
ffb7
ffac
fffc
ff6b
fef7
ffa9
0034
ffd8
ff4f
ff71
ffb8
ffef
fed0
0115
ffc7
ff27
fff9
ffed
0034
ff8b
ff41
0095
ffb9
000a
ff8a
ffa3
002a
ffb2
0082
fffb
ff6c
ffe5
ffa7
fffd
fff4
001e
005e
0001
ffd6
ff70
ff9d
0023
0059
ffaa
ffb6
ffa9
ffef
002c
ff78
000c
0063
ff4a
002f
ffb4
ffd6
0070
ffe7
ffdb
0012
ff68
0092
ff6d
ffc0
ff66
ff5f
009e
fff8
004d
0052
ffde
00d5
003c
ff85
ffb7
ff64
ff5b
feee
ffc8
0056
ffda
ff37
ff60
ff42
0001
ff44
ff37
ff71
ff0e
ff93
005b
003d
ff94
ff93
ffb5
fff8
00eb
ff9c
ff10
fecf
ff76
004d
ffe4
ffbf
0048
ffc8
ff6d
feeb
0096
001c
ffab
ffd7
ff59
005a
004e
0036
009b
005c
ffbf
ff42
003d
0084
0019
ff2a
ffc4
fff7
ff9b
ff9d
00d4
000b
ffe3
ff31
0010
0035
ffab
003e
ffef
fffd
001a
ffea
ffc8
ffc1
ffb6
0031
ffd5
fff8
0024
fffd
000d
ffcc
fffc
fff0
ffc5
fff4
0018
0027
fff9
fffd
0002
ffc9
ffee
ffea
0014
fff2
fff5
0017
0030
ffd9
ffe4
ffe6
0043
0016
0021
fffc
005b
ffee
ffd2
fffd
0006
002c
fff9
ffeb
0008
ffbd
ffe9
ffe9
0017
ffd7
001a
0037
001f
ffdb
000d
0017
004f
ffe3
0000
0023
ffe9
fff7
001c
001e
ffc3
ffee
ffc2
000c
ffe0
ffd3
ff73
0038
ffcd
ffc7
ff4e
ff99
ffa6
0017
0008
ffd0
0012
ffb7
ff6b
ff71
ffb6
006e
ffd3
ffef
0062
0006
ff46
001b
ffb9
006b
ff98
ffcc
ff94
ffef
ffa4
ff6e
0013
008d
0032
ffaa
0023
0016
ffc5
ff99
0036
00c3
0030
ffab
fffa
004f
ffbc
ffa2
0024
ffe6
ffda
ffeb
006e
000e
00b9
00d3
00d3
ffba
008e
0019
0006
ffec
00c4
0063
00fa
fffb
0053
0049
ff6b
005a
fff6
0007
0000
fffd
0009
fff1
0005
ffff
fffb
0000
fffa
fffe
0008
ffee
0004
fffd
0005
0000
fff8
fff8
0007
fff1
0006
ffff
0003
0003
fffc
0002
fff9
0005
0001
fffd
ffff
0000
0000
0001
fff4
0005
0000
0004
0002
0001
fffc
0000
fff0
0005
0003
fffe
fffc
0004
fffc
0000
fff2
0005
0000
fffd
0003
fffd
0005
0004
ffef
0004
0001
0004
0000
0001
fffd
0006
fff1
0004
0008
0001
fffd
ffff
fff9
ffb5
ffec
ffcf
ffc0
ff52
003b
fffa
ffdc
ffe3
0023
0000
ffbd
ff54
ff6d
ffa9
005a
0054
ffdc
003b
ffa2
0038
0030
0004
00ba
0047
ff78
000c
fff7
ff2d
00c8
ffe6
00ba
003f
0073
0073
ffd5
0027
001f
0025
00f0
0054
00d8
00a9
ff38
0098
0053
000e
006a
0070
0025
0020
ffdf
ffa7
00ba
ff97
011c
001b
001a
0088
ffa4
0013
fff9
ff38
00b3
002d
0076
0042
fedb
ff8a
ffca
ffb5
0002
0000
0000
fffd
fff7
fffa
0001
000c
0000
ffff
0000
0000
fff7
fff4
000c
0002
fffb
000a
0001
0002
0000
001d
fff2
fff5
0002
0000
ffff
fff5
ffff
0000
000d
0006
fffc
0000
0000
fff7
ffee
0008
0004
0001
0006
0000
0003
0001
0010
fff0
fff8
fffb
0001
0000
fffd
fffa
fffc
0000
000a
0003
fffd
0000
0000
fff3
ffee
0010
ffff
fffc
000c
0001
0002
ffff
0023
ffed
fffa
0000
000b
fffe
0002
fffc
0003
0008
0004
0002
000c
ffff
0008
0002
0000
0017
000b
0000
0002
fffe
0002
0000
0000
0008
0005
fff8
fffe
ffff
fffe
0003
000a
0002
fffa
0002
fffb
fffc
fffc
ffff
0002
fffd
ffeb
0004
fff8
ffff
fff8
0000
0000
ffff
ffe7
0003
0002
fff9
0000
0003
000e
fffc
0005
0000
0003
fffa
0007
ffff
000f
fff1
0007
ffff
fffb
fffc
0001
0001
000e
fff7
fff4
0002
0005
ffd3
0012
ffd9
004e
00c1
fff3
ff9b
ffef
fff3
0017
008c
0087
0082
ffa7
ff9f
ffef
ffe3
ff42
00e9
ffd1
0094
003c
ff9a
fffe
ffa5
ffe1
003c
0041
ff86
0002
ffac
fffe
ff96
ffeb
003d
0031
ffb6
003d
0094
0001
ffca
0043
0043
ffa7
ff99
0008
0005
ffff
ffd1
ffab
ff8e
ffe2
ff04
ffcc
00d3
fffd
ffed
ffbc
ffd7
ff68
fec1
ffe4
0098
0001
00ab
fffa
ff9e
0003
ff45
0007
003d
0000
007c
ffff
ffb8
ff93
006b
00b9
ff4c
fffc
ffd0
00f9
0137
002a
ffec
0099
ffa2
0007
ff7c
00a0
0008
fff8
0003
0021
ffb3
0000
00b1
0023
001d
ffcd
ffc6
0057
ffcb
0001
001c
00ac
0091
ff35
0024
00b5
fffe
0005
ffb0
0024
005d
ff8b
0193
004b
004f
0000
ffa3
0078
0023
ffd9
ff80
0098
00e4
0000
00cd
ff07
0001
0050
014a
0086
00c0
000b
ff62
007c
0079
ffdf
00dc
0063
000e
0000
ffdd
fff2
ffd5
ffc6
0005
ffe7
0025
0001
0011
ffe2
000a
ffb7
0015
fff9
0020
0001
fff9
ffd2
ffee
ffc9
0020
001a
0051
fff3
fff8
ffed
ffe2
ffc3
fffc
0020
0010
ffef
001a
ffec
000b
ffcf
fffd
0021
0016
ffef
0000
ffd3
001e
ffaf
0004
0065
fffb
fff0
0030
0000
fff8
0024
0016
0027
0003
ffea
0026
ffeb
0014
000b
fff4
0012
ffec
ffea
0007
ffe8
0048
0012
ffea
0013
ffed
0000
ff71
0012
0005
0067
ffdf
000a
0013
0000
ffa3
005d
fff4
00c6
ffcb
fff5
fff9
0000
ffe1
fffa
ffd8
0030
0050
001e
0031
0000
fff2
fff9
ffb6
0091
ff6c
ffa0
ffec
0000
ffe2
0044
fffa
008d
ffbe
ffe6
ffdf
0000
0011
ffd9
fffb
004c
0035
ffeb
ffd8
0000
ff98
0067
0016
0020
ffd6
0085
004b
0000
ff5d
0046
0007
008d
ff6a
0040
0084
0000
ff82
0066
ffd6
ffe5
ffe1
fff5
0021
0004
fffb
fffe
0000
0000
0002
0000
0007
0003
fffc
fffe
000a
fffe
0004
0000
0006
0004
fffd
fffd
0007
ffff
0007
0001
0005
fffd
fffc
0003
fffc
0003
fffc
0000
0000
fffe
0000
0008
fffc
0004
0000
ffff
ffff
fffe
fffe
0005
0000
0003
0002
0000
fffd
fffd
ffff
0004
fff9
0006
fffd
0002
0000
fffe
fffd
000c
fffe
0008
fffd
0000
0002
fffd
0000
000c
0000
0007
0002
0002
0000
0000
ff8d
0026
003c
0018
0006
ffe9
0045
0000
0093
fff9
004b
005b
0031
004a
002f
0003
0006
0033
000f
0069
0028
006a
fff7
0008
0062
0007
000f
0093
fffe
fea3
ff8b
000c
ffb3
ffeb
0029
0063
007a
ffa3
0034
0008
ff8d
0047
0035
0042
00a9
ffdc
ff8e
000c
ffdb
ffa5
ffde
0072
ffe0
ff0d
006d
000e
ff69
009b
ffef
0005
00d9
ffa4
001c
000d
ff84
0061
ffae
ff6c
007d
00a3
ffb3
fffb
0000
0004
0000
0000
fffb
ffff
0008
fffd
0000
0000
ffff
0000
0006
fff9
0004
fffd
0000
fff9
ffff
0002
0014
0002
fffc
0000
0000
0000
0000
fffe
0002
0001
0000
0000
ffff
0000
0000
fff4
0001
0001
0001
0000
ffff
fffe
0002
000b
0001
fffd
0001
0000
0003
0001
0000
fff5
0004
0005
0000
0000
ffff
0000
0000
fff8
fffe
0000
0000
0000
fffd
ffff
0002
001d
000b
fffa
0002
0002
000e
fffe
0003
0003
fffd
ffff
0000
ffff
000b
fffe
0000
0012
fff6
000c
0000
0000
000a
fffe
fffe
0017
0009
0007
0000
0000
fffc
0001
0005
0003
fff0
0005
ffff
fffe
fff8
fffd
0002
0009
fff3
000a
0000
0000
fffe
ffff
0000
0013
fff1
0009
fffc
000a
fff5
ffff
0008
0001
fff8
0001
fffe
000b
fff9
fffd
000f
0004
fff3
0001
0003
0009
ffff
fffe
0002
0012
fff5
0006
fff9
ffd1
0005
ffdd
fff9
ff7b
ff9f
003d
0076
fff7
00b9
ffc5
0000
ff89
005a
0001
010d
ffd7
00e9
fffb
000a
ffe3
00bf
ff84
009d
ffc5
fffc
ffc6
0006
ff83
0042
006f
ff5d
fffa
ffff
ffb3
fff3
ff62
fff5
0060
ff5c
ffda
ffcc
ffa7
ffdd
001f
ffa0
0052
ff71
ffe9
ffbd
0028
ffe9
0045
ffa8
00a2
fed9
ffc9
ff0c
ffed
ffd7
0005
ff76
007f
ff04
0002
ff0f
ffc9
ffd4
ffc0
ff90
004d
ff07
ffec
ff1f
0036
0004
ffa5
ff65
ff5b
ff5f
0055
ffb9
000b
0004
00a4
ff91
fe5c
ff29
fff2
0043
ffdf
000e
ffb0
ff43
ff51
001c
000a
ff12
0030
fffa
0069
0000
ff71
ff49
0042
0015
0002
fff5
0008
ffe2
ffda
ffa8
0024
0018
000b
000e
0024
004f
ffdc
001e
001b
ffc6
ffd3
fffa
001b
0068
00bf
0029
0085
ffde
ff49
fffa
ff70
0000
ffe7
0007
003d
0006
ffb5
002b
000c
000a
ffc8
001c
ffee
ffe3
0031
0000
ffef
fff2
ffe7
ffec
fffe
ffc8
000d
0000
ffd4
ffe1
ffdf
ffe4
fffd
ffc8
ffec
0000
ffcd
ffcd
0009
ffec
ffe4
ffc2
0016
fff8
0002
ffe6
fff3
ffc2
ffe5
ffe0
000f
fffd
0006
ffdc
ffd4
001b
fffc
ffe1
000f
fffc
0003
ffe3
ffc4
001c
0003
ffd9
0013
fffd
001d
0010
fff8
fffe
0009
fffb
004a
0006
0000
0003
ffcb
005c
000a
0048
0049
fffc
0029
ffe5
ffd6
0029
ffdb
ffa0
0047
fff5
0050
0012
008d
fffd
ffc8
ffc0
000b
fff5
0047
0008
0077
0068
ffc3
000b
fffd
fff8
ffed
0073
0042
0182
ffe1
ff6f
fffe
fff1
ffc1
fff7
ff99
ffc3
ffb6
ffff
0012
fff5
ffa2
ff7e
0018
ffd8
ffa7
ffda
ffd0
fff0
ffa8
fff5
0009
00cd
0003
fff4
0002
fff6
0025
0019
ff3e
fff2
ffba
001a
fffe
fff9
ffa4
0007
ffa2
ff96
ffd0
002c
fffe
fff5
ffc3
ffb9
0021
0048
fffe
fff9
fffc
fffc
0010
fffd
0003
0001
ffff
fffc
0000
fffa
000c
ffff
0000
fff7
0000
fffe
fffd
fffc
000c
0000
0003
fffb
fffd
0003
fffc
0009
0005
0004
0008
fffe
fffe
fffc
fffa
0003
0004
0000
fff9
fffd
fffe
0000
fffb
0004
0002
0006
fffb
0003
fffe
fffe
fff9
0006
0005
0002
0000
fffb
0001
fffb
fff8
0004
0005
0000
ffef
fffe
0002
fffe
fffa
0003
0008
ffff
fff3
0000
002f
003b
ff89
fffd
0026
ffe0
012a
ffb3
001e
005c
ffed
0003
00e5
ff6b
009f
ffc6
0000
ffe4
ffee
fff8
0098
009b
002b
00a8
004f
00cb
ffe6
fffd
0041
ff4b
0054
002b
0003
0081
0048
fff9
0080
ff96
ff40
004d
ffed
fff9
0044
fff3
0000
ffef
ff4d
00d1
0062
0030
fffe
fffb
0043
ff7f
ff00
00f7
0044
0037
0025
ffff
0027
000d
fecf
014c
0040
0052
002f
fff3
ff84
005f
ffee
0045
ffff
ffff
fff9
ffff
fff1
0001
0006
0000
0000
0001
0000
0000
0005
fff7
0000
fffd
0000
fffe
fffe
0001
0000
0000
fffb
fffd
0000
fffc
ffff
fff1
0001
0008
0000
0001
0000
0002
fffe
fff4
fffb
0005
fffd
fff7
0000
0000
0000
0010
fffe
fffa
fffc
0007
0000
fffd
0000
ffea
0002
0008
0000
fffe
0001
0003
0000
fffb
fffa
0002
fffd
fffb
0000
ffff
0001
000c
fffc
fff9
fffc
000c
fff2
0000
fff9
fff7
fff3
fffc
0014
fffe
0000
fffa
fff4
fff1
ffef
fff6
000b
0000
0003
ffff
fffb
ffff
fff8
fffc
ffff
0001
0001
0003
0005
fffd
0002
fff6
0002
fffb
0002
fffd
0004
0003
0002
fff5
0003
fff6
0002
0001
000c
000d
0002
fff5
0000
0000
0002
ffff
0005
fff9
0005
0007
0000
0007
0000
fff9
ffff
fff8
fffe
0005
0001
000a
0002
0000
0003
0002
0000
0000
0001
0000
0000
ff5c
ff20
fff3
002d
000d
fffa
ffff
fffb
ff9b
fe87
ffe8
fff9
002d
fffd
0000
ffff
0021
fed0
ff66
003c
0020
fffa
0000
0004
010a
007e
004a
005a
0006
0001
0003
0003
010c
000d
ffd3
fffd
ffdf
0001
fff9
0005
0058
0000
ffc3
0057
ff89
fffe
0000
0004
0159
0129
0039
0025
001d
0000
0001
0004
0079
00a1
0086
0098
ff70
ffff
fffc
0004
0067
ffeb
0012
0053
0044
ffff
0001
fffe
0000
00f0
ffec
0019
0145
fff4
0004
000b
0096
0098
ffb2
0049
001d
fff6
0003
0002
0055
fff2
ffa2
00fa
000d
fff5
0003
ffff
000a
ffbf
fff4
0081
ff9a
fffc
0003
fffe
0141
00ad
0004
00b9
ff22
fffc
0003
0001
0111
007f
0000
ffea
ffd5
fffe
0008
0001
fff3
ffc5
ffef
0061
ffd9
fffe
0001
0002
00ea
ff77
ffad
0029
010e
fffd
0000
0005
0064
ff9f
ffac
ff9c
007c
0000
0008
ffff
0027
ffed
000d
ffff
0024
0001
fffb
0007
ffd5
001c
ffdf
ffe6
fff1
0001
fffd
0002
001d
0092
ffe8
0005
ffda
ffff
0000
ffff
ffe0
ffec
001c
0009
0039
fffc
0002
0001
ffdc
ffe7
fffd
ffee
0044
fffe
0000
0000
0010
0044
ffff
fffa
000b
0000
fffe
0004
001a
ffd7
000e
0008
005b
fff9
0002
0005
002a
ffc1
000b
000e
0031
fffc
0003
0005
0025
ffe8
002b
0005
000f
0000
0002
fffe
ff91
003a
0054
00a5
fff8
fffa
0002
fffc
ff28
ff91
ffab
00b5
ff8e
fff7
0004
0000
ff39
ff4c
0032
0078
ffb9
fffa
0001
ffff
ffd9
00a3
001c
0043
ffd3
0001
ffff
0001
ff58
ff9a
ffd5
0084
ff5e
0003
fffa
0003
ff14
ff6b
0057
003e
ff8a
0002
fffc
0002
0021
0070
0039
001e
0007
0004
fffc
000a
0013
009b
0094
ffff
ff50
0007
fff4
000f
ff53
0032
009c
ffb0
ff80
0004
fffe
fffd
fffe
fff7
fff9
ffeb
0000
0002
ffff
fffe
0000
fff6
ffed
ffd3
fffd
fff4
0001
ffff
fffc
fffa
fff2
ffe0
fffb
0000
fffe
fffb
fffc
fffa
fff0
0006
fffd
0001
fffd
fffd
fffd
fff4
ffda
0001
fffd
ffff
fffd
fffc
fffc
fff7
ffe4
0002
fffd
fffd
0000
fffb
fff9
fff6
ffdd
0004
ffff
0000
fff8
fffd
fffa
ffea
ffc4
0000
fff8
0001
ffff
fffb
fffd
ffeb
ffd1
fffd
0000
fffd
fffc
0001
ff98
00a3
ff3a
0095
fff7
0000
0000
0000
00ff
0034
ff83
0017
0013
0000
0005
fffd
ff94
007c
004e
0033
008d
ffff
0002
0000
00dc
0024
ffb5
ffa7
00c8
fff8
fffc
0000
ffb4
0015
000f
ff4d
0070
fffc
0000
ffff
fec8
ffc3
ffb4
ffb1
00a4
fff8
fffa
0000
0065
ffd3
fffe
ff75
00f0
0004
0003
fffd
ffa6
ff78
ffd5
fff5
015a
0008
0004
ffff
ff95
fec1
fffa
0062
0132
0005
0002
fffc
ffff
0002
ffff
fffe
0000
0000
0001
ffff
ffff
0000
fffe
fffd
fffa
0000
0001
000a
0002
0002
0002
000c
fffd
0003
0004
0000
0000
0001
0000
0000
ffff
0000
0000
0000
fffd
ffff
fffd
fffa
0000
0001
0000
0002
0001
0001
0007
fffd
0002
0002
0002
fffe
0000
0000
fffd
0000
ffff
0002
0000
fffe
fffe
fffe
fffb
fff9
ffff
0003
fffc
0004
0002
0002
000a
fffd
0001
0005
0000
0003
0002
0002
fffc
0005
fff9
0003
0004
000f
ffff
fffe
ffff
000c
0000
0003
0007
000d
0000
fff0
ffff
fffe
000a
0001
0000
fffe
fff8
fff4
0000
0015
fffc
0000
fffe
0000
fff1
fff5
fffb
000a
ffff
fffc
0000
0001
ffe8
fff5
fffe
fff9
fffc
fff8
0002
fffd
0001
fff9
000a
000f
0003
0005
fffe
fffe
fff8
fff9
fffd
0010
0006
0001
fffb
0000
ffe9
fff9
fff3
0004
fffc
fff8
fffb
ff7c
ffea
ffc3
ff62
ff95
ff75
ffcf
0008
0009
ffd6
0009
ff3e
ff7a
0006
0094
0033
fffa
0036
ffc7
ff92
003b
ffec
0085
ff76
0018
001c
ffaa
007c
ffdd
0041
ff8a
0059
0004
00b8
fff2
0070
ff83
002c
ffa1
fff3
ffa9
00d8
fff2
0026
0006
0040
ff86
ffa6
fffc
0045
ffef
0042
ffee
008d
0039
ff60
ffc9
0004
ffa1
0076
ffbc
004d
ffc7
0005
001e
ff9b
0069
00b3
0049
000d
ff70
ffc8
ffbc
fefb
0039
002d
0088
ffa0
ffbd
ffee
0006
ff75
ffed
ffca
015a
fef7
0076
0100
ffb3
0033
0000
ff89
003b
006c
0072
00c1
001f
ff2c
004f
0066
ffad
ff90
0046
0006
ffed
ffe2
002b
ffaf
0105
00b3
014e
019c
ff91
ffab
0029
0023
003c
ff56
008e
0112
ff97
ff81
0072
ffd8
ff60
0073
00ba
ffde
ffd1
ffa1
008d
ff2b
ffcf
ffea
0056
006b
ff4e
ff89
002c
ffda
ff56
ffda
0005
004c
0002
ffec
ffe4
000a
000e
fff0
fff4
0008
0011
ffe2
fff9
000f
0043
0033
ffef
fff4
0008
ffc7
fff2
0001
0084
0086
0002
001c
fff7
fff2
ffe9
000b
0020
0002
ffd3
ffc0
fffa
ffca
fffa
fffb
fffc
0010
001f
ffd9
ffe7
ffd5
ffe2
000c
fffc
0048
fffa
fffa
ffd9
fffa
0001
0022
0014
fffc
fffc
0019
ffe0
0030
fffd
ffed
ffcf
0018
002a
ffd7
ffc0
0016
ffed
000c
fffa
0025
000b
ffba
0004
ff65
ff7d
0022
ffd4
ffb2
ffea
ff8c
ffbe
ff71
ff9f
fff2
ffc9
ff50
004e
ff0f
ffd3
ff34
ff7f
0020
ffda
ff28
00c2
00b1
ff91
001d
ffc3
0016
ffa1
ff97
0009
ff66
ff9d
005d
0026
0047
ff92
ff45
fffe
feac
0040
fff4
ffe1
002b
ffd0
ff49
00a1
ffc4
ffb2
0030
0056
007a
ff8f
0016
002e
ffe8
ffdc
007e
007c
00b8
001a
0033
fff7
ff60
fff6
0120
0080
00cf
00a4
ffb5
000a
ff37
ffff
fffb
fff6
fff9
0000
fff2
0009
ffff
0000
0000
fffe
fff8
0006
0012
fffc
0000
0001
ffff
0005
fffb
0002
0001
fffd
0002
ffff
fffd
fffc
0004
0002
0005
0004
0002
fffe
fffd
fffc
0003
0002
0004
ffff
fff9
0000
ffff
ffff
0000
0003
0000
0000
0002
0000
fffc
0000
ffff
fffb
0008
0002
0000
0000
fffd
ffff
0000
0003
0003
ffff
fff8
0000
0002
0001
0006
0000
0000
0000
0001
fffe
005c
009e
ff30
00f4
0006
0065
0030
00a9
0037
0049
000c
ff75
0052
002c
ff63
001f
0030
0014
0012
ffb7
000f
004e
ffe2
0050
0044
ffd6
fe91
fffa
00ae
005b
0052
0052
005b
ff92
ffce
ff33
fffe
0033
ffb5
fffb
005b
ffe9
0013
ff89
ff96
fff1
ff9c
ffff
ff64
ff64
fe70
ff95
00f0
005c
0028
002f
ffaa
ff5d
ffaf
ff72
0047
00cc
fffb
001b
0017
0040
006c
ff73
ffaa
0054
fff8
fffe
0000
ffff
0000
0000
0002
ffff
ffff
0000
0000
ffff
0000
0000
0005
fffa
0001
0000
ffff
0000
ffff
0000
0000
fff7
0006
ffff
0000
ffff
0000
0004
fffa
0001
0000
fffe
0003
ffff
fffa
0000
fff5
0002
ffff
fffd
fffe
fffe
fffa
fff2
fff3
0006
0000
0000
fffe
0000
0000
0005
fffd
0001
0000
ffff
0001
0000
fffe
0002
fff7
0004
ffff
fffe
0000
fffd
fffb
fff8
fff5
0009
0001
0003
0007
0006
0003
0001
ffff
fff5
0008
0007
0000
0000
0000
fffd
0000
0000
000b
0002
fff7
fffd
fffd
0003
fffc
000d
0006
fff7
0001
fff8
0002
fffb
fff1
0006
0006
fff8
ffff
fff9
0002
fff9
fffe
0002
0003
fff7
fffb
0000
0003
fffb
0000
0002
0001
fffc
0006
fff9
0003
fffb
fff4
0000
0002
fff6
0007
fff3
0002
fffb
fff8
0003
0003
fff8
fffe
fffc
0004
fffa
0002
ffff
0004
fff0
0067
007f
ffbc
ffb0
ff45
ff78
0001
ff9d
0029
00a3
ff5d
ffe2
ff34
ff60
ffbd
ffc2
0036
006c
000b
ff8e
004e
ff88
003b
0101
ff9e
0001
003c
fff3
ff3a
ffad
ffaf
00e3
ffff
0010
002a
ff7c
ffc9
0019
0013
0061
0040
0087
0055
ff17
ffed
0037
000b
0039
fff1
ff65
001f
ff72
0000
ffba
ffaa
0005
008a
ff76
ffd5
ff4d
004d
ffeb
ffe3
fff4
0062
0058
0019
ff4e
fffc
0018
005a
ffc1
000d
ffaf
000a
009e
ffde
00ac
0028
002d
002c
007d
0070
0014
ff21
00d1
000d
fffb
005b
0044
0035
00e9
fff2
0046
fffc
001c
005c
ffc1
ff88
ffb1
ff4a
ff52
0055
005b
ffce
004f
fff2
ff83
ffd5
0079
00a3
ffb4
0026
00a1
ffd4
00c0
ff7f
0000
fff9
002b
0196
ffb0
ff54
ffc6
00ae
ff42
0055
ff07
0115
004d
ff7f
ff04
ff9c
ff4d
ffce
ff31
019c
003b
ff7f
0015
ffa4
ff60
ffdc
fff3
ffea
000e
0007
ffc7
0012
ffef
0006
ffe5
fffe
0013
ffe0
ffa8
ffec
ffe6
0003
0004
ffdf
000c
ffeb
fffe
ffbf
0008
0013
0020
ffe7
004e
0018
ffcd
ffe6
ffeb
ffe6
0017
fff6
004a
fffd
ffca
ffea
000e
0007
003a
ffe9
0027
0003
0032
000b
0025
0013
0025
001f
000e
0000
ffe8
ffd4
002a
ffd8
0038
0030
001a
fff8
ffc2
fff6
0034
001d
0028
ffef
0024
0006
0013
001a
0030
0018
ff7a
0042
ff9b
ff71
0010
0001
0091
ffe8
ff91
0074
ff29
ffb8
ffb8
ff88
00c0
ffda
ffb5
000d
ff87
ffab
0091
0005
0036
0002
ffe4
ffce
ff4d
ffd9
ffb0
ffe2
005e
ffa3
ffac
fff8
ff1a
0011
ff7a
ff86
fff9
0018
ffcb
fff8
fff4
000b
ffd8
ffa2
ffae
ffbc
ffbd
ff62
ff74
ff7b
ffe7
fff6
00d7
fffc
ff86
ff66
ff7a
ffbd
ffff
ffe0
0040
0020
ffbc
ff8f
0029
ffdf
fff5
ff72
0022
0003
0000
fffa
0000
fff2
fffc
0002
0002
0004
fff6
000b
0000
000c
0000
0000
0005
ffe7
fffc
0005
0002
fffe
0000
ffff
fff6
0017
0006
0000
0021
0000
fffd
0006
0008
0007
fffb
0000
ffdb
ffff
0000
0008
fffa
0000
0001
0006
000a
0004
0000
0000
ffec
0002
fff8
ffff
0009
fffa
ffff
0006
0017
0009
0007
0000
ffe4
fffd
fffd
000c
ffc7
0002
0004
0005
0007
0000
ffff
0003
0006
0004
0054
ffef
0048
ff85
ffeb
ffc7
ff71
ffff
ffd6
ffed
004e
0054
0053
0049
ff6c
001d
ff9e
ff92
ffc8
004b
ffe3
00c7
ffc4
fff0
00e0
ffb4
00a7
ff84
fff7
0049
fefc
004c
ffd8
ffa4
003b
0003
001b
00a0
ff87
001a
ff44
ff5d
0047
0022
004e
0081
fff1
0045
002c
005a
009d
ffec
ffad
0057
ff14
fffa
000b
0039
00c7
0076
ff97
0076
ff95
001a
ffe1
ffab
ffe2
007c
0058
00eb
006e
005f
0000
fffe
0000
000a
0000
ffff
fffb
0000
0000
ffff
0000
0004
0001
fffb
fffe
0002
0002
fffe
0000
ffff
0002
fffb
0001
ffff
0000
0000
0000
0000
fffd
fffd
fffb
0001
0002
0000
ffff
0001
fff9
ffff
0000
0001
0000
0000
fff8
0001
fff9
0000
ffff
0003
0004
0000
0005
0000
0000
fffe
0004
0003
0005
0000
0000
0001
fffb
fffb
0002
0003
0002
0000
fffe
0002
fffa
0002
0004
0005
fffe
000c
fffc
0002
fffc
0006
ffff
0003
0002
0002
fffe
0006
0007
0000
fffe
0001
0004
fffc
0000
0005
0003
fffb
fffb
fff4
0002
fffe
0000
fffc
fff7
0002
fffc
fffd
0007
fffb
0004
0002
fff6
0000
fff9
fffc
0001
0000
000b
ffff
fff7
0000
fffc
fffc
000b
ffff
0000
0007
fffb
0001
0002
fffd
0006
fffa
0003
000c
fff8
0001
fff9
fffd
0000
ffff
0006
0006
fff3
0000
fffa
fffd
ffc5
000a
0041
002d
0003
0038
ff4e
0060
ff71
ffdf
007e
003f
ffeb
fff1
ff88
fffc
ff80
002a
0046
fffd
00ac
00da
0052
006d
0069
0035
ffbf
0033
ffa4
004c
ffc3
ffb6
0041
ffaf
001f
0016
001b
0033
ff2e
ffc8
0011
0047
004a
0000
ffea
00ce
ff74
000f
000e
ffb1
ffdc
ff6a
ffb5
ffb0
ffb9
0018
ffb8
ff7c
ff6b
fff0
ff92
ffa5
ffb0
ffc5
ffaf
ffb8
ffb2
ffc3
ff94
ff99
0016
ffb4
fffc
ffc3
0027
ff38
ff4b
0053
0002
0048
0017
0038
fff0
ff2c
ff30
ff65
ff66
011e
ff79
004d
ff46
ff7f
ffc2
ff2c
003b
0023
000f
0066
0040
ff63
0042
ff64
fee2
0046
ff94
0043
0011
0063
007c
ff30
ff29
006d
ff2e
00f2
0047
006d
00c5
ff6d
0025
ff27
ff2e
005e
000a
ff7b
0034
0047
ff4e
0002
ffa7
002a
00af
001a
fff3
00dd
ffd6
ff1c
ffbc
008c
00b2
ffbe
0006
00a2
0048
ff71
ffe1
0012
0010
fffe
0010
0021
0029
0009
fff3
fffb
0014
0009
ffeb
001b
000d
0029
ffe8
0000
fff8
0007
000e
ffea
ffeb
ffe0
0000
ffed
001a
0015
0002
fffd
0039
0020
0012
ffd9
ffef
0035
000b
ffc9
0000
0036
001b
ffe1
ffe3
000d
fffb
ffc9
0008
ffd4
0006
000e
fffe
0055
0016
0000
002d
0028
003a
001e
0002
0050
0037
fff1
001e
004e
0025
ffe9
ffe9
0012
000c
ffe5
0037
0014
004b
00a2
ffd7
ffb4
00f3
ffda
ffd5
00a4
ffb3
0071
ff7b
0075
00bd
ffb2
0003
0155
ffc3
ffd7
ffe6
0048
00de
00d6
004e
006b
003c
0039
0021
002f
0018
ffa1
0078
ffd9
ff9b
001c
ffdb
0083
0062
ff96
0085
002f
ff93
ffc3
0022
0006
0061
00e0
0087
0004
ffd3
0050
ffeb
004d
0048
ffb7
010b
004f
ffd9
ffea
000d
0057
00b2
002c
00d1
008b
ff9f
ff81
0007
0008
00cb
0089
00e4
0014
0002
0005
0001
0000
ffef
0001
0003
fff5
0003
0002
0001
fffa
001f
fffe
0001
fff4
fffe
0006
0001
0000
fff7
0000
0005
0000
0000
fffc
0000
000d
fffd
ffff
0002
ffff
0001
0007
0003
ffde
fffd
ffff
ffff
0003
fffe
0004
0009
0006
fff9
0002
0005
0004
0003
0000
0002
fff5
fffc
fffd
fff8
fffe
0000
0001
0004
0002
fffc
ffff
0000
0000
0001
0003
0009
0011
fff9
0001
0000
0004
ffd0
ffbb
0005
0041
ff35
0063
003d
fef6
0037
ffe2
0060
ffda
ff7b
fffa
003b
ff5d
0073
ffd7
0038
000a
00c5
003e
fffc
0064
fff2
0035
0016
0024
ff49
0001
000d
feb1
002e
003b
0004
003c
ffce
ffa4
004f
ff67
ffec
0011
ffe0
ffdd
007d
ffcb
000e
00f6
ffe5
ff7d
005f
0003
ff82
ff9f
001f
ffb3
009b
0075
ffa0
0041
ffba
ff50
0023
003c
0046
003a
0014
ffd2
0086
ffe4
fff6
006b
0002
0002
fff7
fffe
0001
fffe
ffff
fffe
0001
0000
fffc
fffd
0002
fffc
0000
fffd
0004
0000
0008
fffe
0001
fffd
0003
0000
0001
fffe
ffff
0003
0000
0000
ffff
0003
0000
0000
fffd
ffff
0000
0000
0000
0003
ffff
0009
fffe
0004
ffff
0002
0004
0006
0002
fffb
0003
0000
ffff
0000
fffd
0005
0000
ffff
0001
fffe
ffff
0001
fffc
0005
0002
0009
0001
0003
0000
0004
ffff
0009
fffc
fffe
0003
0000
0000
0000
0008
0002
fffe
fffe
000b
ffff
fffd
fff8
0002
0005
0002
ffff
0003
ffff
fff7
fff6
ffff
0004
fff7
0003
ffff
0001
fff5
fffe
fffc
fffe
fffb
0007
0002
fffe
fff1
fff7
fff6
fffb
fffc
fffe
ffff
fffa
fff4
fff7
fff1
fffc
fff6
0007
fffb
fffc
fffd
0004
fffd
0001
fffe
000d
0001
fffb
fff3
0008
fffc
0000
0001
0001
ffff
fff8
fff6
fffb
fff6
fffb
0021
ffb8
0019
000c
ff6d
0000
0014
ffdb
0070
ffc7
000d
0028
0016
ff6a
0031
0003
006c
ffb5
000d
fff9
0010
0031
00db
0021
0025
004b
00d7
ffb7
0006
fffc
ff60
000e
0013
ff8b
ffe8
ffd9
ffe9
fff2
ff26
ff8a
0007
fffb
0004
ffe4
fffa
0035
ffbc
ffa4
0027
00bd
007e
002e
0020
0073
ff83
ffbc
fff8
0071
ffc3
ffe5
fff8
ffc4
002f
fff1
ffc9
003c
002c
002d
fffa
ff55
003c
002c
0059
ffe1
ff62
0000
00c1
002a
000e
ff63
0007
ffd7
00a9
0065
00fc
0032
ff26
ffa4
00d0
fff2
001c
0047
0058
00c9
ffd8
ffe7
000b
ff92
004f
0023
005e
006f
ff69
ffb0
0064
000b
ff9d
0046
0007
ffb3
001b
0042
0039
fff8
ffcf
ffa9
ff8d
0023
ff8d
ffea
ffbd
0095
003c
ffe6
fffb
ffba
0039
ffd5
00cc
0051
ff7d
ffc2
febf
000d
0028
001c
ffd7
ffc5
0034
ffa2
ffb4
0012
ff71
ff91
ffec
fff2
0022
0013
001d
0038
fffe
0009
ffed
ffeb
000a
0029
0033
005e
ffea
fffc
004a
fffe
fff5
000c
0022
0031
ffff
fffc
ffca
0000
ffe2
004c
ffe0
002d
0006
ffef
0009
0002
0000
009a
0003
ffef
ffe1
ffe7
0049
ffe4
fffb
005e
fffc
0019
ffe7
ffe7
ffe4
ffdf
0000
0062
ffbd
0003
001b
fff8
0009
ffe2
ffff
0087
fffb
ffe0
ffd1
fffb
0015
ffcd
ffd9
0017
004f
ffef
ffe7
ffed
000a
ffd3
ffc1
001e
0027
0019
fffe
ffd8
000b
003e
ffb1
ffcb
ffe4
ff39
0085
ffc0
00c4
0009
ffff
ff9d
ff2b
ff4b
0112
0005
ff95
ffe5
fffa
0011
ffc4
0000
ffbd
000f
ff74
0025
0004
ffe2
ff2b
ff28
ffaf
0031
0012
ffd5
ffe6
fff0
ff3a
ff19
00c3
0021
ff81
004c
0052
005e
ffba
ff9d
fffe
001f
ff99
0080
ffe4
ffcd
ffe4
fffe
ffd1
008c
ffdb
0010
0020
ffe5
ffab
ffe4
0075
006a
0001
fffe
0002
fffe
0004
fff8
0010
0006
fffc
ffff
ffff
fffd
ffff
0005
fff5
0004
0000
ffff
0005
fffd
ffff
fff7
fffd
0005
0000
0003
fffb
0003
fffc
ffeb
0003
fffe
ffff
0000
fffc
0000
fffc
0007
0005
fffb
0000
fffc
0000
0002
ffff
fff8
0007
0000
fffd
0000
fff9
0003
0000
fff3
fffb
fffc
fffe
fffb
fffe
0003
000c
0013
000b
fff9
0000
fffe
0000
0003
0000
fffa
0003
ffff
00bd
0034
ffb6
0014
0068
ffa0
0063
006e
00a4
0011
ffd2
00b4
ffed
ffdf
0058
0056
fed8
004d
ff91
00b6
ffe1
0044
ffc8
ffdd
0019
0045
004d
ffe8
ff8f
0002
0013
0026
ff6f
ffd4
0008
000e
002d
0054
ff49
0066
ffe1
0012
0028
004b
ffd0
0087
fed4
0004
000b
ffff
0024
0054
ffc2
003d
ffc5
0065
ffb4
ffa5
0059
0056
000c
ffea
ff9f
0031
000d
0017
ff6e
0025
fff1
ffa4
ff9f
002c
0000
0000
fffd
0000
ffff
fffb
fffe
0000
0000
ffff
fffd
0000
ffff
fff8
fffe
fffe
0004
0000
0000
0000
0000
fffc
0002
fffd
fffe
0000
0000
0000
fffc
ffff
ffff
0000
fffe
0000
0000
0000
fffc
0001
ffff
0000
fffd
0002
0000
0001
fffc
0006
fffc
ffff
ffff
fffe
0000
ffff
fffe
ffff
0000
ffff
fffe
0000
0000
ffff
fffc
ffff
0000
ffff
fffe
0001
0000
0000
0000
0003
fffd
ffff
ffff
0002
0009
0000
fff6
fffe
0003
0004
0003
0007
000a
0000
0000
fffc
ffff
fffe
fffe
0000
0008
0003
0001
fff9
fff4
fff2
0000
fffe
0004
0000
fffb
0003
fffe
0001
0000
ffff
ffff
fffc
fffe
0000
fff9
fffb
fff9
fffe
fffd
0000
fffc
0007
fff8
fff8
0001
0000
0000
fffc
fff8
0007
ffff
ffff
0006
fffe
ffff
0006
0000
0006
fff8
0003
fffe
0000
ffff
0003
fffc
0002
ffed
fffc
0054
0031
fff6
ffef
00af
ffc6
ffec
00b3
0005
0097
ff70
ff8b
008a
fefb
ffec
0078
ffbf
008c
ff39
ff6d
00e2
ffa4
008b
004a
0108
0021
006e
ffa1
00fa
001b
ff8b
fff6
0065
001d
0066
fffb
0049
ffa1
ff33
0072
0021
0002
006e
ffc7
0070
ffd9
0026
0055
00ac
ff70
0096
0059
ff9e
005b
feed
ffe0
0065
ffe9
004b
006b
fff1
0059
fed7
ffb5
0023
001a
0073
ffb1
ffdf
fffb
ff7f
0013
ff95
ffbf
ffa2
00ad
ffe2
0039
ffd7
ffde
0135
000b
0133
002c
ffc3
ffc3
ff97
001b
0079
ff8f
00f0
ff2c
ff48
ffad
ffeb
0046
0065
0015
0020
00a1
006e
0019
ffac
ff08
0011
0050
01d4
0019
00ae
003f
ffa0
ff9d
fffe
ffc6
003c
007f
0055
0011
ffd5
ffd4
0072
004f
00a6
0037
0030
ffc0
0002
ff55
ffbe
0021
006f
0096
00af
007f
ff64
ff8d
0037
0045
ffad
0095
0072
0085
ffd1
0002
fff2
000a
ffee
001e
ffdd
ffff
ffef
0029
0008
004e
000c
ffeb
fffb
0008
ffe1
0031
fff2
002e
003c
ffe4
0009
0061
000a
0022
fff1
fffc
002c
ffee
ffec
fff0
fff3
004d
ffe5
fff3
0004
fff9
ffe4
ffe7
ffeb
0020
ffdd
fff2
0010
0017
0005
001b
004c
0019
0020
002d
0005
fff5
ffd1
ffec
ffe6
003b
0010
000c
0003
0020
ffba
ffda
0004
0012
ffe8
0009
0007
0022
0035
ffd7
0039
0008
0082
002c
0127
002a
ffc7
ffd1
005e
0032
00d9
0027
002f
001f
0003
ffa1
006b
0016
002f
ffeb
0002
ff79
ff54
ff9e
00ca
ff80
005a
0014
0043
ffad
0015
ffff
0010
ffc0
0086
0001
ffcf
ffe2
fffb
ffda
ffa4
000f
fffe
ffea
0035
ff93
ff8e
ffa6
ffe1
0021
0012
ff6b
ff71
006d
0062
003a
fffb
fff5
0003
ffaa
0001
005f
0026
006f
ffdf
fffe
002d
ffa8
00b7
0076
0000
0000
ffb9
0047
0003
fffa
0002
0002
0010
fffc
0002
0004
0000
0000
0000
0008
0001
fffd
fffa
fff6
0004
0001
0004
0006
0014
ffff
0003
0009
0001
0001
0001
0001
0000
fffa
fff4
0003
0004
ffff
0000
0022
0001
0006
fffa
fff1
0007
ffff
ffff
0005
0002
0001
fffd
0000
fff6
0001
0000
0016
fff8
0002
fffa
fffc
fffe
0000
ffff
0018
0001
0008
fffa
fff8
0004
0001
0000
0004
fffc
fffc
ffff
fffc
0043
00cf
0153
00ba
003d
00dd
ffc4
0097
ffe1
ffaf
004b
0007
005f
0042
fffd
0096
ff7e
ff86
ff75
001f
ff9e
ff46
0003
ffc3
ffaf
0045
006c
007d
ffbf
0063
0059
00d1
ffa0
ff2a
ffd5
0031
0031
0067
0046
008b
fff0
ff86
0000
fffa
ffc5
0011
ff8c
ffcd
000e
ffb6
ffd2
ff91
ff5f
001b
010f
001b
00b4
ffb6
0028
ff2f
0001
ffda
0071
0032
0118
ff1a
004c
001d
ffd6
ff77
ffca
ff8e
0000
0000
0000
0000
0001
fff5
0000
fffb
ffff
fffb
fffd
0000
0002
fff3
fffd
fffe
0000
0001
fffc
0000
fffe
fff1
0001
0000
0001
fffe
0000
0000
fffb
0001
ffff
0000
fffc
fffb
0000
0000
fffa
0000
fffd
0001
0002
fff9
0000
0000
fff4
0002
0000
0003
ffff
0000
ffff
0004
fff8
0003
0000
0005
fffa
fffd
0000
0002
fff6
0000
ffff
0003
0000
fffa
0000
0001
fff5
0004
ffff
0004
fffd
ffff
fffe
0003
fffe
0015
0003
000a
0001
fffd
fffe
ffff
fffd
000a
fffb
0010
fffe
fffb
ffff
fffc
ffff
0003
ffff
000a
0000
fffa
0000
0002
fff5
0005
000f
fffe
fffb
0000
fffe
0000
fffc
fffd
0007
fffa
fffe
0000
0000
ffff
fffe
fffc
fff7
fff7
0003
fffb
0002
0003
0005
0002
000f
0001
fffe
fffb
fffc
0002
0000
fffa
0011
fffd
fffd
0000
fffa
0000
0000
fffd
0006
fff9
ff70
fffd
ffef
ffa1
ff87
fff8
ffd5
ff0f
ff19
ffc4
ffd6
ffe8
ff7f
ff01
ffb5
ff32
ff6b
0009
ffe6
ffea
ffc1
ff63
0010
ff6f
0008
0053
007e
0009
0017
ff94
0025
ffed
007c
0074
0036
0005
ffc4
ffa3
000f
ffda
00e8
0022
fffb
ff7f
005e
002b
001a
ff98
0078
ffa9
0082
0039
00cb
0006
ffef
0041
008d
ff72
ffde
ffbe
00c6
0068
002c
ffd4
0068
ffbf
000f
ffd6
002b
0052
0013
ffcb
fff3
009a
0083
fff8
ffdf
0021
002d
007c
ffdb
000d
ffa8
0085
0131
000c
0039
00a6
000b
007d
ffbe
0031
ffbd
0042
000d
0027
0067
003d
0078
ffde
012d
ff4b
fff6
0000
0024
0035
ffd5
fff7
003c
00bb
fff6
0057
ffd8
ffa4
ffb6
ffdc
0000
000d
ffbf
fffa
0074
004a
ff99
0060
0014
ffad
002b
007b
ffbe
ffac
006f
fee2
ff1a
0007
ffe3
ffdf
ff6f
ff65
0018
ff81
ff50
0024
0013
ff00
fff0
fffc
ffcd
000e
0028
0016
0007
003c
0013
ffef
ffda
0003
0066
0007
fff2
000c
001e
ffd7
ffe2
0010
0023
0034
ffed
0000
0003
ffce
ffd9
ffe9
0039
0038
fffa
001c
fff5
fff8
ffe0
ffd9
0046
0029
ffe7
ffe9
0029
ffe9
fff5
ffc9
0003
001e
ffe1
ffc7
ffda
ffc1
ffe0
ffff
004a
fffe
ffed
0018
0009
ffe2
ffdc
ffbb
004d
001a
fff5
ffec
ffcc
fff2
ffd6
000b
0023
fff8
fff9
ffd9
ffb6
ff53
0018
ffa4
ffaa
0011
0013
ffb3
ffa2
fff2
ff9d
ffb7
ffb0
0057
ffe3
ff33
ff75
ff96
0048
ffd0
ff1d
007e
ffe5
ff3c
ff9f
ff5d
0013
ffcc
00c7
001d
0006
003a
ff95
ffbe
ff96
0074
006e
ffd6
0000
ffda
ff2f
ff6d
ff98
003b
ff6b
ffc6
fff6
ff7c
003f
0005
003b
ffef
00a2
ff9c
0009
006f
006f
ff95
ffe4
006a
0066
ffb0
002a
008b
002f
ff7a
ff53
002e
001c
002d
fff7
0055
fffc
fffd
fffe
0000
0000
0004
000b
000c
fffe
0000
fffa
0000
0000
0002
ffe0
ffff
fff9
fffd
fffc
fffc
fffe
0002
000a
0003
0000
ffff
0001
0002
0009
0007
000b
ffff
fffe
0000
fffa
0000
fffb
fff9
fff9
fffd
0002
fff9
0000
0000
0000
0002
0004
0000
fffe
0000
fffd
0002
0006
001b
0009
0000
fffe
0006
fffd
0003
fffe
ffde
fff9
ffff
fffd
ffff
fffd
0000
0002
0008
0005
0000
008a
ffee
ffdd
00ba
ff2e
ffa7
0013
ffb5
00bb
ff6e
0008
ffea
ff77
ffc3
0024
ffb9
003b
0032
0030
0013
ff7e
000c
001d
ff7a
0075
0000
0020
00e6
ff1d
ff82
ffff
003f
0078
ff71
0047
0068
ff14
ff9f
ffc0
0029
001a
ffda
ffd2
fff9
0000
002b
ffac
0015
ffdb
ffbe
003b
01af
ff90
ffb3
ffae
0064
ffc3
0031
00bd
0024
003e
fff8
ffb1
0079
0021
ff42
006a
ff97
ffee
0072
ffba
00b0
0006
0001
ffff
ffff
0000
0003
0003
0004
0003
0003
0001
0000
0000
0002
0000
0001
0000
0004
0003
0000
0000
0000
0000
0000
0001
0004
0000
0000
0004
0001
fffc
0000
0004
0000
0001
0000
0004
ffff
fffc
0000
0005
ffff
0001
0000
fffe
0000
0000
0000
0000
0001
0000
0000
0006
ffff
0001
0000
0002
0000
0002
0000
0006
0000
ffff
0000
0003
0003
0004
0000
0000
0001
ffff
ffff
0005
fffe
0007
000b
0026
fffb
0006
fffe
0004
fffc
0001
0009
001c
0011
0004
fffc
0002
fff4
fffc
0004
0007
0002
fffc
fffb
fffb
fffa
fffe
ffff
0002
0003
0000
fff7
fff7
fffa
fffc
ffef
000b
fffd
fffd
fffa
fff5
fffd
fffd
ffe6
000a
fff3
0000
fffb
0000
fffe
0000
0015
0000
0009
fffe
fff4
fffe
fffc
fffe
fff7
fffe
0009
ffff
ffec
fff7
fffb
fffc
ffe6
fffa
fff3
0001
fff2
ff92
0017
0040
003c
0106
ff6a
ffdf
ffc9
ffd5
ffea
0049
0009
007a
fefa
ffad
ffd9
ff97
0001
0024
ffe6
ffb5
ff29
0016
0064
ffab
003d
ff91
fee3
ffe2
ffa0
fff7
001d
0043
fffb
ffa1
fecd
ff60
0032
fffb
003a
ffe4
0015
ffea
ff00
0025
00a4
00d7
001e
ffd4
ffcf
ffba
ff77
ffca
0092
0036
0011
ffd6
ffbf
ffa2
ff7f
008e
006e
0037
0033
ff73
0024
ffbc
ff59
00e1
0009
0045
ffaf
ff53
004b
004d
ffc7
008e
ff55
0051
ffdf
ff76
ffd3
ff60
ff1d
0038
fff2
0099
fecb
0062
00a5
ffb9
0080
0044
ff1a
00b7
ff0b
0064
0002
ffcd
ff49
003e
0065
0060
ffbd
fefb
ff60
ff64
0077
00d8
ff10
00e9
ffbb
000b
0026
ffa6
0057
005c
ff66
010e
ffd8
004d
ffca
ff7d
ff4e
0053
0075
ffef
ffd1
ff41
ffdf
ff95
ff7b
0078
fee0
0030
0035
ff67
007c
ff96
fff7
ffff
0001
006a
ffd1
ffee
ffde
ffe5
0006
000d
001d
0004
ffda
ffd5
000f
ffeb
000d
0068
000a
ffb2
ffe0
ffd3
fffe
ffec
003d
0053
ffde
ffb8
ffdc
ffe4
fff1
fff2
0009
000f
0041
fff2
ffce
ffbd
ffcb
fffd
0000
001e
0013
ffde
ffd3
ffd3
0000
ffde
0008
ffe2
ffa6
ffda
fff7
0029
0053
0000
ffdc
fff6
0004
fff5
ffdd
000e
002a
fffc
ffe5
002c
ffeb
003b
ffba
0042
0026
0003
0009
ffd3
0010
001a
fff7
ff6d
002d
0042
ffcb
005f
ff8a
0000
ffc6
ff84
ff9e
ffc2
ffae
0023
001f
ffd9
fff3
0001
ff95
fffc
0005
003f
ffb2
ffdd
ffbc
ffaf
0088
0021
0012
ffe2
fff1
ffaa
ffb0
ffc3
005b
002c
ffee
0048
ffad
ffe4
ffa0
fffd
ffa2
ffda
002b
0090
ff74
0002
000e
0039
007b
ffb6
fff3
ff79
0073
fff4
ffee
00bf
0056
ffe8
0052
ff42
ffea
0014
ff8b
00ba
ffa9
ffb6
005a
0016
ffd5
007b
0093
0000
fffc
0004
0000
ffff
0002
fffb
ffff
fffe
0000
0007
0001
fffb
fff9
0000
fffc
ffff
0000
0003
0001
0000
000b
0000
0000
fffe
ffff
0006
fffe
0003
0003
0000
ffee
fffa
fffe
0005
fff2
0008
0002
0003
fff6
ffff
0001
0004
0000
0002
0008
0004
0005
0002
0002
0009
fff8
0001
fffd
0000
ffde
0000
0000
0004
fff9
0001
fffe
ffff
001a
ffff
0000
0002
fff8
0005
0005
0004
fff5
ffb6
ffa3
009b
00d5
ffbb
00b1
ffdb
00c5
0003
0013
0074
0017
0049
003a
fffd
004b
ffab
0025
0054
feaf
fff0
0046
002a
0003
ff86
ffbd
0095
feec
0016
0015
0032
fff0
ffe2
ffb0
0093
fedf
0007
0071
006e
0040
ffdb
0028
008a
ffbc
0039
008e
00c7
ff93
0012
ffdd
ffec
ff43
0029
000c
00b8
005f
0000
0026
0030
ff68
ffaa
0058
007e
00a4
00ab
fff7
001b
ffb5
ff8b
00c4
ffb2
0005
0000
fffc
0000
ffff
0000
0008
ffff
0001
0000
0000
0000
ffff
ffff
0004
fffe
0002
0000
0004
0000
0000
fffd
000c
fffd
0001
0000
0000
ffff
0000
0000
fffe
0000
0001
0005
0000
ffff
fffd
0000
0000
0000
ffff
0009
0000
0000
fffd
0005
0000
0000
0000
ffff
ffff
ffff
0000
0000
0002
0000
0000
0004
ffff
ffff
ffff
fffd
0000
0000
fffc
0009
ffff
0000
fffd
0001
0000
0000
0000
1703
1814
1247
1bd6
1629
0e11
eb7e
01e6
001d
00d0
fdb9
fd74
fd89
0014
fb97
ffd8
0021
ffdb
000f
0089
0006
ffe4
ffdf
0077
006d
ff8d
ffe1
0004
0001
0034
ff9b
000b
00cb
ff2c
fffa
0048
fffe
0033
ffa7
ffe5
002f
ffa6
0005
ffda
0000
ffea
ffc0
ff6d
00ed
ff97
ffcc
ffb2
0000
006c
0013
ff47
00b7
ff7e
ffd0
ffd5
0000
ff5c
ffe2
000e
ff92
ffaf
0036
ffb7
0001
009b
0015
ff9e
0005
0018
ffda
ff9a
0000
00a8
fff0
ffe6
ff95
0012
ffe3
004d
ffff
ff4d
ffe4
0023
ffcb
0032
fff4
0060
ffff
005c
fff3
ffbb
005c
0034
ffd8
0013
0000
ffef
0029
0033
ffca
0052
ffe6
ffc9
0000
002c
002a
006f
ff7d
feab
ffe1
ffb5
0000
0065
fffc
fe96
ff4b
fea8
ffcf
fef1
fffc
0058
0026
ff02
fef5
ff72
ffd0
ff48
ffff
ffef
0088
ffd4
009a
00b7
fff0
006f
fffb
007b
0050
0040
0077
000e
0004
00bd
fff9
ffcd
ffef
0012
0011
0053
fff6
0032
fffe
ffad
008f
ffea
0053
00a0
ffee
ffd3
fffc
00ac
ff9b
ffd3
ff03
0059
ffff
0019
0001
00df
0013
ffc2
ff98
000e
ffe0
0023
0002
0037
00a5
ffdf
0045
0085
ffc5
ff8a
0000
ff23
fff5
ff14
fe9b
004b
000d
0061
0002
00a7
ffa1
ff60
fecc
0056
fff0
003b
0002
0058
ffc4
0009
005d
0083
fff1
ff8c
ffff
ffb8
0002
ff92
0003
0099
000c
000e
0000
0070
000c
ff2c
ffd6
0007
ffec
ffc7
0001
00a6
ff62
ffa4
ff8d
0061
ffeb
007c
fffe
ff18
0006
0064
001e
ffee
ffe2
00cc
fffc
ffc2
003e
0049
00bc
0034
0019
0076
0002
fffd
0099
ff74
0047
0072
001d
0048
0001
ff00
0030
0105
009a
0061
ffd7
ff95
0001
0043
012d
feea
00c8
ff9c
001a
ffc2
0002
ffe5
00b1
ffc7
0103
0047
fff1
ffc5
0000
0007
00d2
0043
00d1
00ba
ffc8
ff8e
0003
ffaf
ffd9
ff0c
0072
003e
ffef
0031
ffff
0010
ffd7
ff33
0063
00b8
0008
0052
ffee
ff49
ff5f
0051
0002
ffed
0019
0026
ffe6
ff79
ff9d
005c
fff4
ffa0
001b
ffa6
ffef
0010
000d
0064
0058
00b2
0000
ff96
0003
002d
ff93
0015
ff14
002d
003f
fe86
0004
ff86
fffe
0011
ff3c
0056
0015
ff58
0002
ff8c
007b
006f
0069
006e
fff9
ffb2
0004
00b9
0010
0003
ff6a
fff8
0000
ff3a
0005
ff59
ffd4
0010
0065
006f
0011
ff8c
0003
ff0f
0002
ffd9
001f
ffe2
0013
ffc9
0000
fff6
0004
0024
005e
ffc5
0008
ffa8
ffff
ffc8
003d
0064
0048
ffc2
0004
ffc3
0003
ff9b
ffc4
0026
0028
000a
0004
ffa3
0002
ffd4
003d
0034
0085
ffe0
0014
ffb6
0002
ffcf
fff9
000f
0039
ffcb
0001
0012
0002
ffe0
ff7d
001f
0025
006f
0007
0025
0001
ffdd
ffbc
ffd9
0017
0055
0012
fff1
fffe
fffe
0033
ff99
ffd3
000f
fff5
0001
0002
fff5
004b
ffc5
fe5f
ffed
001a
0007
ffff
ffb4
ffe4
ff61
ff39
0022
000e
001c
0002
005b
001b
fff0
003e
0008
0011
ff90
0004
005e
0066
0030
ff70
fffc
ffed
fff9
0000
fff5
ff7d
0085
008d
ff90
0006
0008
0002
004f
0067
ffe5
0013
003c
000c
ffad
0000
0075
00c6
ff81
007f
0039
fffb
0016
0001
ffd1
ff6a
0047
00ca
ffea
ffe6
00f7
0001
ffe8
00d3
ff8a
0047
00f7
fffe
0050
0001
0015
00b3
ff4e
0000
fff5
fffa
0017
fffc
fff8
fff5
0000
ffff
fffc
fff8
ffff
0000
fff5
fff9
fffe
0001
fff1
fffe
0002
fff8
0000
0014
000e
0012
ffff
fffc
ffe8
0008
fff8
fffa
fffb
0017
fffc
0000
fff7
0000
ffff
fffd
0004
fffb
ffe7
0000
fff3
0006
0000
0000
001a
0003
fffc
fff9
fffb
fff6
fff9
0000
0009
fff8
fffa
fff2
fffb
0000
fff0
fffb
fff7
000f
0002
0003
fffe
0000
fffe
ffff
fffc
ff91
ffef
fff6
ff2f
0028
0034
0081
fffb
ff9c
ff7e
0003
ff9f
fff6
ffff
0054
fffd
009f
0002
ff7f
ff46
ff33
ffac
007b
0001
ffbf
0044
ffeb
ff91
0002
ffef
00da
fffd
0022
0010
007a
ff37
ffde
ffae
00e1
fffc
ffc6
fff7
ffdc
ff7e
ffa3
ff7d
ffb0
0008
ffa7
ffe3
ffd6
0040
ffd2
ffd3
00a5
0000
0089
ffd2
00b8
003b
ff5f
ffad
00a1
0001
ffc4
001d
0059
ffff
ff7b
ffdb
ffb5
0004
011a
006e
001c
fff4
0050
ffde
0119
0001
0047
0014
003f
ff68
0046
ffcc
006d
0005
008a
0061
0056
ffad
00ac
fff9
005f
0002
003a
0067
0056
ff3b
ffec
fff9
00eb
0005
ff2a
0025
ffb6
0005
ffc1
fff6
00b6
0000
ff14
0071
ffa9
ffd5
ff50
0007
fffb
0000
0039
0059
fff8
005a
ffe8
0014
ffaa
0001
005b
005a
ffa5
004b
001c
0035
ff9b
0000
0029
00ae
ff98
ffd4
ffb5
0039
0050
fffe
fffe
ffc6
ff8b
00b2
ff90
ffea
00b8
0001
ff6c
ffc0
ffe6
fff1
ff35
0004
011d
0005
fefe
0061
0018
0083
ffbd
0009
001c
0001
00bd
0082
ff88
ffe0
fff8
fffb
ffb3
0002
0050
001d
0010
ffa7
0077
000d
003c
0004
0000
0072
003e
ff85
00ab
000a
0010
0001
0039
0031
ffb6
fffd
007b
0015
ff13
0000
ffc7
ffc4
fffd
0017
0072
fffc
ff7d
0001
ffc1
0035
0000
ffa3
0071
fff2
ffb0
0002
0076
00d0
005c
ff18
ffcb
ffef
00e3
fffe
ff9f
0017
004b
002c
ff9f
ffe9
00c8
0003
ffea
fffc
00a6
00fc
ffc1
fffc
0051
0007
0086
ff72
007b
ff1b
ff6f
0003
012b
0002
ff2b
ffba
00bf
ff0c
0017
ffbe
0050
0000
fff2
fff4
ffee
0034
ff3d
000b
ff76
0008
0023
ffb1
001d
ffcf
003c
0039
ffe9
0009
ffbe
0003
ffc2
ff65
ff68
0006
fff2
0004
001e
ffa1
001f
000f
ffa0
001d
ff55
0009
0043
0064
00e1
ff96
0011
0009
003f
ffff
0040
0058
0030
ff90
0043
ffea
ffae
0006
ffdc
001e
0014
005a
fffb
001f
0062
0004
ffff
ffec
007c
fe87
ffe4
fff4
fff7
0002
fffb
fef0
ffcc
ff07
0046
ffc4
003c
000e
ffba
ff87
ff4a
0026
ff77
000a
ff5b
0002
0003
ffdd
0068
ff54
0028
002d
000d
ffff
ff37
ff8a
ff24
ffbb
ff9d
001b
0054
000b
00af
fffa
fede
0097
ff43
0013
001c
fffa
0014
ffaa
0050
0001
00a1
fff0
0028
ffff
ffe2
ffb5
0035
ffcb
004c
0011
004a
0000
ffd7
0049
002e
ffcd
ffde
ffd4
ffe4
ffff
ffe5
ff82
002d
ffa5
0003
ffe7
ffcd
0000
ff91
0018
0068
0011
005f
ffef
0066
0004
ffd8
0023
0042
0006
0047
ffef
001a
0002
0019
ff64
0003
0067
0041
0004
ff9d
fff9
ffe0
ffbf
004b
00b5
004e
ffed
ffe4
0003
0016
fff1
0031
0080
0035
fff9
0028
0002
0033
00d9
0082
007b
0032
0040
ffbe
0000
ff94
0086
ff94
005b
003f
003c
ff90
fffd
ffe8
007b
ffbb
ffd3
0055
0038
0041
fff8
ff89
ffdc
007b
fff7
ffdb
001a
ff1e
0006
ff67
ff68
000f
0005
fffa
0024
0010
0000
008e
ffa6
ffbb
ff71
ffd5
0022
0046
fffe
0075
006d
ffe5
ffd9
ff29
000c
ff31
0001
002d
ffca
ffeb
003d
ffad
fffe
0039
fffa
0095
0019
ffda
ff80
0029
0044
ff6d
0006
0000
0000
0017
fffa
0001
fffe
fff8
0001
fffb
0018
fffa
0001
0005
fff3
fffe
fffc
fffe
fffb
ffff
ffff
fffc
fffc
0000
0001
fff5
fffb
fffe
fff7
fffe
fff7
0002
0005
fff9
000f
fff9
0002
0001
0000
0000
fffc
fff9
001a
fffd
fff9
fff8
ffe9
0002
0000
fff7
fff1
0001
0001
fffe
fffb
fff4
0004
fffc
fff8
fff6
ffff
ffff
0004
fffa
0011
fff8
0000
0001
001e
fffc
0004
0002
0000
000f
0027
0002
ffcc
ffea
ff87
fff9
ff81
ffe6
ff9b
0045
ff40
00a2
ffb8
ff06
ff29
ffe1
ffc7
006e
ff94
00ae
006e
ff69
ff9a
ffd6
002b
ffb7
ff7b
ffa9
ff9b
ffce
ff93
006c
0076
ffb5
fe93
005f
0024
ffbd
ffe2
005f
ffd8
0038
008c
00b4
00ba
0041
ffcb
ff7a
ff87
001b
0005
ffcd
ffb0
ffd9
ffd9
0005
00a8
0028
ff86
008d
ffbf
006e
00b9
ff89
ffcf
ffe9
00df
0093
0007
0022
00c3
ff80
ff2f
0029
0013
00c8
003f
0093
001e
fed1
ff00
005b
0098
0083
00a1
003f
00c6
ff75
fed2
0045
0022
ffcd
009c
fff4
0066
ffca
ff92
0041
ff12
fee8
000e
ffb9
ff95
ff93
ffbe
0040
ff91
ffcd
ffb3
ff4d
ffa1
ffa7
ffa5
00db
ff33
ffd8
ffb2
ff97
ffc6
fff9
0000
006b
004c
003a
ffef
002f
ffbe
00bf
ff79
0007
0050
004c
ffdd
0004
ffdd
007f
ffcb
0043
ffe4
004e
ffa2
0086
ff5c
ffce
fffe
ffc7
005c
ffe2
ff8f
ff96
ff61
ff40
ffe6
ffd7
00d5
ffd7
ffe6
ffa2
fff0
ffbe
004a
002f
00b2
ffdf
ffa4
ffaa
0012
011f
ffe7
ffd8
ffe3
ff8e
0018
ff77
ffc7
0000
ffe3
ffd7
001f
0000
013d
ff50
ffbe
fff8
ffb9
0002
0002
0050
00b4
ff95
ffc0
009e
ff7b
00bc
007d
ff72
0016
ff8c
ff2e
0042
0049
0031
ff83
fff1
00c2
0080
0015
ffd1
ffff
004f
ff98
ffca
0027
0098
004a
000a
ffa5
002d
005e
ff9d
0088
ffe5
013e
ff47
ffdf
0164
000b
001b
006b
0079
00e4
ffde
0100
0049
ff19
004e
ff96
ffd2
fffa
005f
ff3c
00bf
ffd2
002f
0060
0021
015f
ff11
feeb
00b7
ff6d
ffff
ffe9
0015
ffe4
ffb1
ffa6
00a1
008d
ff64
ff54
ffd9
ffc8
0068
ffb9
0084
0036
ffd1
0090
00a9
0100
ffcb
00a3
0103
003f
ff54
ff97
ff5a
fff5
003a
006e
ffe5
ffd4
ffa3
ff20
ffe6
008c
ff04
ff4d
0028
0004
ff9d
ffd3
ffb6
0022
fe21
0077
0040
ff9f
0029
ffa8
ff2d
0019
ff66
ffce
0002
ffcd
00b7
ffe1
ff71
ffe6
fff3
ff37
0028
ffd2
ffbb
006b
ffc9
ffda
ffca
ff69
0026
ffb1
ff1d
ffd4
ffb8
ffe1
ffea
ff80
ff90
ff51
ffcf
ffd7
0000
ff62
0027
ffab
002b
003e
ffe3
ff19
00bc
ffe4
009f
ff99
00a3
0044
ff0a
0040
00c9
0027
0103
fff6
0042
005c
ff3d
ffcc
0082
0046
001a
ffff
0025
003d
0036
0040
000f
0001
ffd9
ff93
001c
000c
fff7
0065
ffec
0053
ffd5
ff63
0034
fff0
ffe0
fff2
ffd7
ffcf
004d
0021
001c
0002
ffff
002c
001e
ffc9
003f
ffda
0025
0001
003e
0049
0059
004d
ffb8
ffeb
ffd1
ffeb
001a
fff6
ffeb
fff2
0021
ffef
000f
ffd7
0022
005e
ffda
0037
0073
ffd6
ffe7
001b
ffbd
ffdc
0017
0015
000e
0058
0005
00bb
0013
0000
000b
fff6
003d
0079
003a
002b
ffc3
0082
0006
ffd5
0049
005c
ffcb
0032
ffe6
0057
008d
ffd6
005d
012d
0049
005a
003e
fffe
ff99
ff7e
ffdf
007c
001c
003f
ff6b
0134
ffb3
ffe2
ff51
00e6
0011
ff46
ffae
00c4
00b6
0025
ffa4
00b0
009a
fed9
0006
ff6e
ffbe
fff4
0060
006f
006d
00d4
0026
0075
ffd5
0012
ffdc
0032
003b
ffc5
ffc9
0032
0019
009f
0078
0035
0059
ffc3
002d
ff9e
ff6d
00a0
000a
0002
0000
0000
0001
0000
fffe
0001
0007
000f
fffe
0009
0002
0000
fffb
fff9
0003
000f
000e
0000
0007
0000
0000
ffff
ffff
0004
ffff
fff0
fffb
0001
0010
fffd
ffff
0000
0002
fff6
fff8
0000
0000
0000
fffd
fffc
0000
0014
0003
0004
0000
ffff
ffff
fffb
fffe
000b
0000
0000
fffb
fffe
fff9
fffb
0000
000b
0003
ffff
0000
0001
0001
0001
fffe
0004
0002
0000
0003
ffff
0022
0014
0059
ffda
ffe8
fec3
ff6b
005d
006d
0032
ffc4
ffc5
ffe9
ffa9
ff62
ffbc
0017
009d
ffe1
ffa4
ffdc
0028
003a
fff0
0053
0011
0048
0025
ffec
ff2a
0032
005b
00c0
ffbc
005c
000d
ffef
00b0
ffe5
0058
0063
ff32
ffe1
ffb9
ffe6
009a
0019
fff5
0000
0091
0075
ffcd
ffec
fff2
ffef
ffed
0029
ffb1
006d
004a
fff1
0011
0000
0067
0080
feeb
ffa8
006a
fff0
002e
ff6d
0028
ffb0
003f
0013
ffd1
fffa
ffc8
ffca
ff4e
ffd2
008b
0000
002e
fffc
ffd3
0035
fe98
008e
ff7b
0096
0017
fff4
0036
00d1
0034
0004
0013
0067
ff69
fff6
ff56
0039
0045
0058
0053
006c
ff27
0002
ff4e
0027
fffc
fff1
ffce
00fa
0013
0000
ff32
ff3e
004d
ffbf
0049
0001
ffa9
fff0
0108
ffff
0120
ffdd
007a
001e
ff75
fffb
0048
0005
012b
0055
005f
0021
ffbc
fffc
004e
ffd8
0041
0081
ff51
0110
007e
fff5
009d
ffb0
ffc6
ffce
008c
ffeb
001c
fff8
0081
0076
ff4d
ff87
00b8
ffea
fffa
fff3
00a0
ffdf
ff88
006f
ff90
ffd7
005e
fffe
fffb
ffc9
008c
fffe
ffbf
ffc2
0058
0000
0005
0040
008f
ff20
0019
ffd7
ffe3
fff6
0045
001a
ffaa
00b3
fff0
ff5d
001d
ffff
ffd9
ffb1
0109
00b6
007d
ff9e
006d
fffd
002f
ff9d
001f
ffae
0060
002d
0056
fffe
fff1
ffee
ffcd
0082
006f
008c
0033
000e
0006
ff46
fecb
000e
ff72
0078
ffcf
0011
007d
fe7f
ff50
ff66
ffd3
00da
ff7f
0020
fff3
001f
002f
ff84
ffc8
fff1
ff7e
0013
ffca
feba
ffce
0000
fece
ffb8
ffe7
0009
ff6b
ffaa
ff95
ffbc
ffc6
0006
002a
0017
feee
006a
ffd6
0048
003e
ff83
ffa3
0003
ffac
ff3a
0032
ffec
0035
005b
ffef
0012
0072
005e
0057
ff0e
ffd1
ffed
ff5e
001e
00b7
007d
0071
ff2b
ff98
00b3
0064
0002
ff27
ffed
0014
ffcc
ff2c
001f
0098
fff4
ffe6
0063
ff99
00bd
ffa3
ff56
001a
fffa
0078
006e
0006
ff5e
0069
0067
008b
000a
ffe1
ffe1
ff94
009e
ff7b
ffce
ffd7
0010
0065
0099
ff9d
005f
ffe4
0096
ff3e
0000
ffa6
003c
001f
004d
009d
ffe5
0020
0009
00de
ff79
0020
00e2
003f
0088
ff82
000a
002e
ffae
ffb7
007d
0053
015e
ffc9
0005
0030
002f
ffa8
ffe2
ff93
003f
ffda
fffd
008e
ffc9
0055
0022
ffb5
fffe
ff58
0001
0000
fff2
0006
0032
0004
ffeb
ff8e
fff9
0009
0011
ff8e
0022
ffd2
001c
ffd5
000a
005f
ffc3
0086
00a4
ffeb
000e
ff6d
0004
ffd4
ffb8
008a
0021
0009
000f
ff91
0001
0009
0017
fffa
fff2
ff89
ffe4
0014
0000
0038
ff9d
0038
0005
ffa9
ffc8
ffd6
0004
001a
ffd2
0038
0019
ffff
ffe1
ffc8
000b
0046
ffc6
0007
004d
00e0
001d
ffe5
ffff
0060
0011
0015
0068
000b
012d
0079
0004
005e
0032
0040
0028
ffce
0020
fff7
fffa
0081
0103
0012
ffbb
00de
0009
00a1
0000
ff55
0017
004c
ffae
00db
00ef
0082
0000
ffe5
0058
0013
ff88
0078
002b
005f
ffef
007c
007a
002b
ffc3
00b0
ffb2
0034
ffeb
0010
002f
ff9a
ff68
00ed
008b
00a4
fff9
ff7f
0042
fffe
ffe3
ffe3
ff43
fff5
ffee
003e
0000
000f
0004
0009
0002
ffff
fffb
ffff
000f
0008
0002
0000
fffd
fff5
0002
fff2
0002
0001
0002
0001
0003
0005
fff6
fffb
0001
ffff
0009
0006
ffff
fff7
fffd
ffef
fff7
fffd
0000
0009
fffc
fffa
0005
0002
fffd
ffed
0000
0005
0000
fffc
0005
fffc
fffd
000a
0000
0000
0000
ffff
0005
ffe8
fffd
0001
0003
0001
000d
fffa
fff6
0000
fffb
fff6
ffff
0002
fffe
fff5
ffe7
0009
0001
fff8
0028
003d
0043
fef8
ffd8
0079
ffff
ffed
004a
005e
0018
ff9d
fff7
ffcb
fffd
ff67
0041
006a
007a
0055
004a
000d
fffd
ffc7
0006
ff83
00a0
ff52
ffe7
000d
0001
0099
ffa1
ffca
005b
0080
009b
ff0a
0000
ffa5
ff7b
005b
ffec
0005
00fc
ff8f
0000
0049
ffa2
ffa3
002b
000d
fff7
ffd9
0002
ffdb
ff84
ffc8
00b4
fff3
fffa
0001
fffe
ffef
ff7f
ffd6
0003
fff8
007c
ffc6
fffe
00c6
0000
0067
ff74
ffa0
ff69
ff8c
fffe
003b
000f
0036
ffe3
ff8a
0023
ff9c
fffa
fffe
0030
0041
005e
ffcf
0025
0003
fffd
ff9e
0010
0017
0041
008f
0097
ffb9
0000
001a
fffd
0035
0047
ffb9
ff6d
0048
fffb
004b
ffde
fff0
0029
0095
fe8a
0048
ffff
0042
003a
007d
0028
0025
ffcd
0023
fff7
0029
0046
0084
0095
ff36
0097
0052
fff9
000e
0053
000f
0014
ff80
0105
003b
fff8
ffef
fff3
ffbe
001b
ffe8
00b8
0089
0000
ff98
0090
ffc7
fff2
0012
001f
ffc6
ffff
ffbd
0038
0050
fff3
00c0
ff9e
ff7e
0000
ffea
0020
ff78
0045
0070
0051
0064
0000
0098
0046
ff98
0034
ffff
0032
0025
ffff
ffe5
0018
001c
0078
ff76
fe45
ffbb
0000
ff8f
ffe6
ffe4
fff0
00f7
ff8c
ff72
0000
00e7
0060
ff42
00a9
0094
fff1
fed5
0001
ffcc
fffb
fff9
0003
ffc6
ffd6
ff44
0000
ff8b
0032
00ad
00a3
ff77
fff4
ff6a
fffd
00ce
fff1
012b
0019
ff08
fff3
ff87
fff7
014d
0031
ffc8
0000
ffc2
0000
ff28
fffb
003f
ffe8
0068
ff9d
0047
ff63
ffd2
fffe
0029
002d
00d5
ffff
001b
ff80
ffdc
0004
0050
fff4
001f
ffea
0100
00e7
ffb4
fff9
00d0
ffdf
ffe9
ffc3
fff1
ff60
ffe7
fffe
001b
ffb7
0044
0063
ff3f
002f
ff3c
000a
feef
fff5
00a0
ffa7
ff9b
004f
ffc6
000a
ffdf
0021
ffc3
0074
006c
ffac
006c
0001
0014
008c
ffdc
0034
002e
005c
003a
0001
0084
0080
006f
007c
ff33
00d8
004c
0005
0057
ff63
ff67
005f
0080
ffaa
ffd2
ffff
0014
ffb2
ff6c
ffe2
00af
fff5
ff93
fffe
0035
000b
ffbe
003e
ffe1
0067
ffd5
fff9
0079
ffa2
ff8b
0000
0069
ffa1
004e
fff9
007c
ff84
0028
00ef
0076
ff56
ff2c
fff6
0121
0016
0011
0077
0042
ffec
ff6e
fff6
00c0
ffca
0003
0020
fff0
ffd9
ffa0
0006
0031
fffa
0010
0021
ff83
ffc7
ffce
0000
0072
ffe5
fff8
003c
ffdb
fff6
ff92
fffb
0056
ff97
ffc5
fff0
ff7c
004b
ffcd
fff9
0005
ffdb
000a
0021
ffc0
000e
001c
ffec
0050
ffdf
ffe7
ffec
ffba
003d
0042
fff9
0044
fffe
ffdf
ffb3
ffc5
0059
0018
0002
0024
0008
000c
ffd4
0009
0016
0064
ffef
ffe8
ffda
0005
ffa1
0005
fff6
002b
fffd
0024
ffee
ff87
fef8
0031
00c9
fffc
fffb
0036
0060
fffc
ffa9
ffe4
fffa
009d
fffc
ffe5
0016
003e
0075
ffe9
ffdd
0020
fffc
ffdb
004c
0010
fee3
0007
ff55
0001
0000
fe36
0070
fff7
0024
0066
ffb4
ff8e
ffff
ffd1
001f
00c9
00b6
0049
00ac
ff32
fffc
0050
004e
ffff
002a
005d
ff4c
0045
0004
ff15
002e
ffe1
0036
ffd5
ff5a
ff6f
0006
0016
ffdd
0012
ff2b
ff4f
ff8a
ffff
fff7
ff79
0000
fff5
0005
0000
0001
fffd
fff7
fffd
fff9
0027
fffd
fffe
0004
0003
fff4
0003
fff8
0000
fffe
0020
fff2
0005
fffa
fffb
fffe
fffe
fff0
fffd
fffa
000f
fffd
0006
fff8
fff7
fff0
000b
0001
0004
000e
0000
0000
ffee
fff3
ffff
0002
0006
fffd
fffb
fffa
0000
fff1
fffd
0000
000b
0002
fffd
0011
0005
fffc
ffef
fffa
000e
0001
fffa
fff4
fffe
fffc
fff6
0000
000a
0008
0009
0046
0026
006f
ffab
ff95
007e
0002
0050
0012
ff7d
ff01
0009
ffed
ffa7
0010
0002
ffd1
0015
fee0
0018
0004
0050
00c4
ff7c
005f
009b
ffa9
0032
ffaf
004f
003c
ff64
0039
0037
ff9c
003a
ff21
007f
0071
005e
fffc
ffcd
003c
ffd1
ff52
0076
00cf
000e
00a7
00a0
ffd1
0046
ffc6
0067
00a1
003e
ffe8
0096
001f
0076
0045
007c
0054
0084
ffea
ff66
00ab
008e
002f
0015
ff61
004f
0036
0033
0002
001f
00c0
ffa7
000b
006b
0068
ffe2
ff4a
002d
00eb
0003
0046
003e
ffb1
001e
ff7b
001e
007a
008a
ff66
ff79
ff6c
ff0f
ff89
0059
feef
ffba
0002
ff85
ffb9
ff7f
ffb4
ffff
ff52
000a
fff2
006c
fe95
ffb3
ffcf
ff9f
ffa5
ffde
ff30
0046
ffed
0015
0015
000e
ffc8
fff7
0106
00b6
006f
0041
ffff
ffea
ff65
00b4
0015
fff3
fff3
0058
0042
ffb0
ffcc
0051
ffc9
ff52
ff5b
000a
fef3
ffe5
0004
ff6b
ff8c
ff49
000d
0088
ff13
ff8f
00b1
004d
0035
ffac
fff4
0079
ff72
ff8f
001a
0067
009e
ffc7
0042
0096
0082
0031
0000
ff3f
0047
001b
ffb4
00d3
0011
ffbe
003d
ff37
00c4
0059
000a
0029
ffa9
ffb1
ffd0
00c7
00c1
003d
0046
0008
00af
001d
ff98
0077
0027
00b1
ffa8
010d
005c
009f
00b3
002e
0093
00ae
005a
0048
0041
ffc0
004b
0026
00e9
009c
010c
ffa5
0054
0064
0017
00d9
003d
ff66
ff43
ffee
fff2
0099
00dc
001c
fff4
0006
ff29
0078
0029
ffcb
ff5e
ff91
003b
ff72
00a5
ffb0
0013
0083
003c
008c
0079
0099
ff7a
ff76
010d
0066
0125
0192
00cd
0049
0043
00b8
0009
0007
ff75
ffdf
fff5
ff76
00a2
fff5
00db
fefd
007e
006b
fff2
004d
00a8
fff6
0131
ff86
0052
0053
0085
ffcc
00e2
007d
008e
ffd7
ff7e
003a
ff64
ffcb
00d4
fff7
005d
004b
ffe1
fff6
003e
ffba
0067
ffb7
0034
fffe
0001
ffdf
fff6
ffc1
001b
008f
003c
0005
007e
ffc2
fff2
ff2b
0074
ff16
fff1
ffaf
0037
0012
ffb5
0095
0056
ffe1
ff8d
ff81
0034
ff5b
fefd
ffb3
ff85
00ac
fff9
ff55
008e
0027
000a
0016
ff89
ff8a
0052
001f
ffcc
00a8
ffef
0130
ff1e
003f
004c
fffe
002c
ff7a
ffc2
00ee
fe53
009b
0053
005c
002f
0077
0006
ffd2
0074
006e
0038
0011
ffed
007d
fff0
0055
0055
000a
ffe9
ff8f
000d
004a
0027
ffd9
0013
0021
0065
0012
000a
0065
001d
0033
0055
0029
00af
ffcf
ffce
0029
0046
0009
0053
0006
008d
ffeb
ffd5
000b
fff3
ffaf
0013
0005
0028
fff1
003d
0012
ff63
ffcd
ffd6
ffc2
00a0
ffc6
ffe3
ffa0
0036
ff99
0010
ffd6
ffb3
0052
fffb
ffab
ff93
ffc1
fff1
000d
ff73
ffc3
ffd2
ffe8
ff27
ffe3
ff4b
006b
0076
00bd
ff7b
fe46
0000
011c
ff52
0147
0082
ffab
0054
feaa
0074
ffd1
0001
00e6
ffa4
ffd4
0006
00e2
0087
0013
ff77
ffe0
0050
ff83
ffb4
fe5d
0028
ffb3
ffd5
ffeb
ff7f
ffc5
000f
ff53
0090
fdf1
ffc3
ffae
ff03
ff89
ff4c
007a
0037
ff6b
0006
005f
ff5c
0090
ffb6
0064
009f
ff48
008f
0009
ff34
ffaf
ffbb
0062
0010
fe83
fff2
ffe9
ffc3
ff97
ffd5
ffff
ff6d
009b
fffd
0003
0005
0005
fffc
0000
000c
000b
0003
0000
fff8
fff6
000b
0000
0000
0008
fff8
0002
fffe
0001
fffe
0003
fff3
0001
0003
0000
0001
0021
000b
0000
fffa
fff4
0003
0008
fff7
fff4
0000
0000
fffd
0000
0007
0000
fffe
0000
ffff
0000
0019
0002
fffc
0008
fffe
0002
fff8
0002
fffe
fffe
fffc
fff9
fffc
fffc
0005
0004
fffb
fffe
0007
0000
fff5
001a
0009
fffd
ffff
fffd
0000
00f5
0099
00bd
003d
ff96
ff60
ffed
0004
00d7
0040
0092
ffdd
ff85
ffba
fffd
0000
ffe0
0083
00c4
ff27
ff8c
ffbf
0065
0002
00d4
ff8d
0030
ffeb
ff5f
ff4d
ffa2
0000
005b
002d
0068
ffc9
ffd0
ffd5
0029
0000
0002
0062
006d
ff02
007b
ff04
ffdc
0000
00ba
ffe8
fffc
0040
ffef
ffb0
ff13
fffd
0088
006a
0046
0077
ff96
ff7d
ffd2
fffc
00c2
004f
0118
ff76
fff0
ff0d
ff9b
0002
00c8
ffba
0048
00de
0098
fffe
0012
0019
009b
fff0
ff3e
00b2
fffc
00ad
ff9f
0000
00b6
ff98
ff72
00c3
006f
007c
ffca
0001
ff90
008f
0056
ffe4
fff3
ff6a
ff49
0000
ffdd
0106
ffa8
ff67
ffc2
ff7f
ffc1
0002
ff8d
00ea
0006
004b
ffd1
fff8
ff8f
fffc
0096
ffe5
002e
ff89
0008
fffe
ff97
fffe
ffcb
ff12
0060
ff52
0019
ffbc
0047
0000
0004
ffba
00c5
ff9a
00af
ffd5
0036
0000
fff4
000d
ffe0
ffed
ffc8
fff3
0058
0000
0053
0017
0022
ffc0
0033
0080
ffa1
0000
0027
0005
ffbe
ff32
009c
000b
0075
0000
007a
0090
002b
0073
ff8c
00a3
ff8e
0000
0030
0048
005b
ffec
0044
007c
ff22
0000
fffa
ffec
00e8
ffba
ffcd
004a
ffc9
0001
ffdf
0026
0022
007f
ffa4
00d6
ff80
0000
ffd0
0083
00c1
00a7
ff8b
009c
fed4
0000
0011
0063
0029
00b5
0015
006b
fe69
fff4
ffd3
0033
fff4
0014
000a
ff9c
001d
fff5
0006
00ae
ffc8
ffa1
001b
ffdc
ff6f
fffb
ffd5
ffe5
ff26
00c2
00af
001b
ffb7
0002
fff7
0057
fffb
ff87
0057
ffa6
ff5b
0001
00be
0112
ffad
007c
0064
001b
005a
0000
ffe9
ffda
ffdc
ffab
004c
0018
001a
ffff
ff58
fff5
0073
ff26
ffae
ffdb
ffc6
0001
ff39
0082
fff5
ffb1
ffeb
ff94
ffda
0004
0001
ffcb
ff9f
ff3c
fedc
0059
002e
0000
0026
003f
ffa5
0034
003d
0043
0087
fff8
00bf
000e
feef
ffe0
00cc
0004
0001
ffee
0099
002b
ff00
ff92
001d
ff92
006d
0001
0071
0072
fff0
ff47
ffe6
ffdd
0001
ffff
ff85
003d
ff0c
ff6e
0054
ffef
ffad
0000
ff44
fff4
fe94
002b
ffb9
0003
ffad
fffe
0031
0011
0149
ff21
007e
ffb1
002e
fffe
fe61
0075
016c
ff49
0096
0005
fe88
ffff
ff65
00a2
003c
fffd
0058
ffe8
ff2a
fffe
ffd8
0039
0066
ffe6
001c
ffc7
ffd4
fff4
ffea
fffb
ffcd
fff2
ff75
ffb3
fff2
0000
0021
0017
0032
ffd1
ffad
fffc
fff5
0005
ffb3
fff8
ffe1
ffa5
0023
ffe9
ffc4
0000
ffe6
0000
ffc1
ffcd
0006
ff9d
ffb1
0000
0029
0013
0034
ffdc
ffcf
ff55
003d
0003
0018
000d
ffc1
0001
0045
ffe6
ffe1
0000
ffc0
002c
ffa0
0055
002a
ffbc
0010
0001
ffc7
000e
0031
003b
ffe8
ff7a
0057
0002
001c
0081
00a2
00dd
ffda
0067
ffe8
0003
ff50
00a7
00a5
009d
ffee
0012
ff84
0000
ffb6
0032
ffc0
005c
0070
0005
ffb5
0004
ff4f
00be
0063
0027
ff53
ffcc
ff63
ffff
0034
ff69
0011
006d
ffb9
ffb0
ff96
ffff
fffa
005d
ff67
ffed
ffd1
ffa5
ff83
fff8
0040
ff3d
00d5
0000
ffda
000f
ff48
0006
0048
feef
0035
00c2
ff82
0039
ffbe
fffe
ffbe
0061
ffdb
009c
000b
fff7
ffae
0006
fffc
000a
fff7
fff7
0007
ffff
fffc
fffc
fff6
fffe
fffc
ffe9
000f
ffff
0006
ffff
0016
0004
0000
0012
0000
0004
fffc
ffff
0001
000d
0001
fffb
fffc
0000
0000
fff8
0000
0002
fffb
fffc
0000
fffa
0003
002e
fffe
0006
0003
0004
fffb
0000
fff9
0001
0000
fffe
0000
000f
ffff
0000
0006
fff7
0000
0002
0017
0008
0000
fffb
0000
ffff
0002
ffff
000f
ffff
0000
fffa
0014
0074
ff8a
ff64
fff7
ff78
ffe7
fffc
0008
0070
ff4e
ffc8
fff1
ffb3
0022
003e
ffdc
0023
fffd
ffac
fff6
0011
0085
fec1
0045
003f
0088
ffa0
0000
fec4
ffb1
ff3e
0045
001f
0077
fff9
0001
000f
0025
ff6b
0087
003e
0061
000b
000c
0071
00f3
fef8
0062
0082
002c
ffca
fff3
0010
0025
ff90
007a
004c
00aa
0017
0000
0035
006a
ff89
007d
003c
ffeb
0041
0004
008e
0058
ffa9
ffa9
ffdc
007d
003d
fffa
ff3e
0065
ff42
002b
ffcb
008e
002b
fffd
0001
0054
ff62
005a
ffee
00b9
0014
fffd
ffb3
fffb
ff24
0097
0008
0021
001b
ffe0
ffb8
00e9
00ba
009f
0031
ffcb
0075
fff2
ffb0
0111
014f
0097
005b
fff0
0063
fff1
ffa8
0048
0093
ffe3
0005
0034
ffb8
0000
0059
00a8
005c
ffe6
0027
0034
ffc3
fff2
ffbf
007f
0119
ffd0
0040
0099
ffe3
fff1
0058
002f
0064
0025
ffe8
0049
ffd4
0007
00af
001c
006d
0123
004c
fef1
ffe1
000a
ff82
ffcb
011a
00b0
0010
ffb9
fffa
0005
ff94
0019
0098
0063
ffc7
ff95
0000
0008
00d0
ffac
ffee
0091
ffd9
ffe3
ffed
000d
ffca
0035
0005
0000
0004
ffe9
0019
0005
ff85
005c
0024
0062
0023
ff66
001f
0007
0078
0026
ff5f
ffe1
fff7
ffa2
001b
000e
00d0
0099
feea
0008
0014
0057
0057
0001
ffce
005c
ff6b
ffd6
003f
0017
001d
0006
0039
ff98
0027
0006
ff90
0007
002b
0006
00c6
ffbe
0065
ffbc
001b
00b6
008c
fffa
00ee
ffc5
ff96
0035
0065
ff72
0077
0005
fff9
ff0d
0087
0057
0017
008b
0068
0009
004c
0060
fffc
004f
0009
00ce
0062
ffed
ffeb
ffe9
ffad
0012
003a
0010
0009
fffc
0000
ffba
ff89
005c
0013
0085
ff9d
0013
0006
ffd1
0008
ffdb
0050
ffbb
ffb6
0003
ff53
ffdd
ffe0
ff42
0004
00b1
ffc0
0005
0023
ffc8
ffbc
0012
ffe8
fffd
0013
0004
00ea
0060
ff3f
004b
ffcc
ffc1
fffd
0002
0066
ffa7
000d
0013
0006
0020
000f
0007
0091
ffd5
ff51
007f
0027
ffe9
0058
000f
004f
0046
ff6c
00b3
ffe1
002f
0018
0003
ff89
ffab
ffa5
008f
0064
002e
ffcd
0013
00ae
00c3
0014
0020
0032
0012
0028
0010
0083
0107
ffba
ffa9
0008
0005
fffe
000e
005b
00a2
0027
0061
0018
000b
000a
fffd
ffc6
0069
ff66
0025
fff9
ffb9
0049
ffff
ffc7
0091
ff83
0035
0009
ffa2
0017
ffff
ffef
001b
ffe7
ffa1
0027
ffc3
fffb
fffe
0060
0074
ff2e
0022
fff9
ffba
0056
0006
0037
008d
ff51
0039
ffed
001d
003c
0010
0043
0004
ff68
ffd7
0024
fff9
001d
0015
ffd2
003a
ff97
ffd0
0015
ffb1
005c
ffff
ffcc
006c
ffd3
fff0
0004
0005
0030
000c
ffc7
005a
ffa2
ffe7
0032
006e
0019
fffe
ffd1
0112
00cf
ffb6
fff3
0021
ffcd
0001
ff73
011c
0147
000b
fffe
ff95
000a
fffb
0054
0045
0080
ffc1
0038
0039
0017
0000
fe8c
00ca
0003
ffdc
0015
0024
0014
000a
febf
0072
0093
ffb0
0037
0039
006f
fffa
0055
ffe0
006b
ffb3
0019
000d
ffe9
ffff
ff7d
002b
005c
ffb6
0035
0013
ffcb
0001
ff8e
005b
ffec
ff7c
0021
0004
0059
0016
006c
ffb4
00b7
ffe5
ffff
0010
ffff
0000
0001
fffd
0002
0008
0003
0001
fffa
0002
0004
fffd
0003
0001
0002
0002
000a
ffff
0000
fffe
0003
fffe
fffc
0000
fffb
0000
0001
000d
0001
0004
ffff
ffff
fffe
0000
fff2
fff9
0005
0010
0001
fffb
0008
0001
ffff
0000
000a
0001
fffb
0007
0002
0005
000c
0002
0017
0007
0000
0004
fffb
0000
ffff
0001
fff9
ffff
0000
0000
0000
0003
fffc
000e
ffff
0000
0000
ff45
005a
ff44
0113
ffe5
ffff
0002
ffff
00a3
00ac
ff30
ff9a
ff2e
0000
0002
0000
0034
fffc
ffd0
ff77
005c
fff8
0001
fffe
febe
0024
ff37
002d
ff4c
fffe
fffd
ffff
006a
ff75
ff8c
ffb9
ff97
ffff
0000
0000
001c
ff16
ff86
0068
fff6
ffff
0001
ffff
ff89
003c
ffa6
0027
ff23
0002
fffc
0000
ffd3
ff4a
ff0b
00ab
ff26
0001
fffa
0000
ff77
ff9e
0015
0051
ffb6
0002
0002
0000
0095
0040
0072
00c7
ff9e
fffd
fffa
0008
ffca
0057
007c
00c8
ffa0
0005
fffc
ffff
0002
0038
006d
0051
ffb3
ffff
0000
0000
ffcb
ffe5
fffb
004e
ff5f
0001
0000
ffff
0036
ffc7
ff94
0098
ffc7
0000
fff1
ffff
00b8
ffe1
ffb8
008a
003f
0001
fff7
0006
003f
ff6e
0067
ff7d
0066
ffff
fffd
0007
0009
0054
0044
ff13
00cc
0000
fff2
0006
ffaa
005f
ffe7
fffe
ffa6
fffe
ffe1
0000
ff27
00a5
ffd2
00a8
ff57
0001
0000
0001
fef2
0043
ff03
004c
ff46
0000
0000
0001
ff86
ffd6
ffe0
0056
0095
fffc
0000
0000
ffa6
ffa8
ff42
0089
ff66
ffff
fff7
0000
0084
002e
fddb
fff4
003d
ffff
0000
0000
0072
0099
fec3
ffc9
00f9
fffd
0004
0000
0088
ffe1
0027
011a
0054
0000
0002
0000
0072
0062
ffcc
00c0
0080
ffff
fffc
0000
0017
008e
ff48
ffcd
002c
0000
fff6
ffff
01b9
ffed
ffc4
ffdb
004d
0000
0005
0004
019a
00ae
0128
ffe5
ff9b
0000
000e
0007
009a
ff83
0108
ffb4
00b7
0000
0009
fffe
0077
0037
ffab
00ab
ffed
0000
ffff
fffd
0053
00c6
00ca
00da
ff66
000a
fffd
ffff
0010
fff3
017c
ffe3
014c
0004
fffc
0000
ff9d
ff73
ff0e
000c
ff6e
000b
0002
fffb
0054
0032
ff9e
0071
0045
0017
fffe
fffb
00cb
ffd2
fff6
0087
0110
000e
fffe
0009
0056
fff6
ff6d
003f
005f
0001
fffc
fffd
ffd2
0035
ffbd
0031
ff1b
fffb
0000
0005
ffa2
0071
0044
0013
0008
000e
0000
0000
ff52
ffbd
fefd
0005
ffec
fffe
0000
0000
ffcb
ff91
ff80
00d8
005d
0002
fffe
ffff
0044
007b
ffce
0037
ffd4
0003
ffff
0007
ff05
fed5
ff34
ffc8
ffe4
fffc
fff9
0009
feee
fefe
ff22
009c
0125
0001
0005
0006
ffa7
005b
ffbc
000d
ff9d
0002
fff6
0005
ffa2
0067
0050
ffe8
001e
ff3b
fe13
ffe7
ffcb
00d9
0032
0010
ffc7
0266
fe14
0018
ff7f
0078
ffee
0009
ff44
ff21
0349
0001
ffa2
0050
0037
000e
fe33
fd80
fe9b
0001
0047
00b3
0068
001b
fe28
fac1
fe5d
0001
ffcb
0077
005b
ffb9
fc3b
fe96
ff02
fffe
ffed
0024
0091
0008
ff0c
ff75
ff9f
0001
00a5
0079
00a1
0003
febd
fe6c
febd
0000
005e
0064
00cd
ffbe
fe3d
fe09
fe76
0007
fff2
0035
004c
fff8
fff7
fff9
fff9
000a
ffb9
003c
0072
ffed
0003
0000
ffeb
0000
fffb
0030
ffb6
ff99
ffbe
fffd
0006
0000
00ee
006f
ff7c
ffff
0043
fffe
0002
0003
0025
007e
ff98
0008
ffa0
ffe7
0000
0000
ff65
0051
fff8
001a
fefb
0003
0000
000d
016c
0014
ff88
0025
0087
0006
fff9
0000
0012
0000
0001
0051
fdfe
0000
0004
0000
fff9
ff88
005f
00cc
feea
0000
ffff
fffd
0001
0000
0000
0002
0003
fffc
ffff
fffc
ffff
000c
0003
ffff
fffc
000e
0002
0001
0003
0003
0000
fffa
0007
fffc
fffd
fffe
ffff
ffff
0004
0001
0000
0007
0000
0001
fffd
fffc
0000
0009
0001
0000
0005
001f
0000
0005
fffd
0001
0002
fff1
fff7
fffe
fffd
fffe
0000
fffb
0004
fff6
0001
ffff
0001
fffd
0002
0004
fffe
000c
fff6
0000
0000
0000
0001
0000
001c
fff6
ffed
005a
ff6e
003f
ffde
006a
00b2
0002
00b3
ffea
ffc9
002a
003e
00cf
006a
ffdd
004a
fff7
00bc
003a
003d
ff8e
001c
0018
ff91
ff92
ff53
0036
ff80
fff3
ffe8
fffc
0031
ffd1
001e
0006
ffcf
0075
0030
ffbb
ffd6
0035
0083
ffdb
ff7d
0025
ffe9
ffa1
002a
ff9c
ffc1
0035
003f
004f
0009
ffc1
fffc
ff6b
0066
002e
0050
000e
ffee
001b
ffbf
ffd7
002f
0003
007c
005e
ffa5
ffaf
001c
00a1
0076
ffd7
003f
ffd6
0014
00c7
003b
0071
0084
fff9
000d
0076
000b
00a7
0008
0073
0097
0010
0035
ffa6
ffb4
0079
0029
ffcc
fffd
ffcd
ff86
ffac
fffe
0075
ffd1
001c
00b8
001e
0020
0070
0057
0084
ffe1
ffe5
0074
001d
0058
002a
0068
002f
ffa7
00d9
ffd8
0068
00b2
fffb
002f
005a
0064
0086
ffda
002f
00ae
009d
0048
0028
0063
009a
ffdd
0044
00a3
0073
00f1
0091
fff3
00be
0093
ffe7
ff16
009b
00f4
008f
ffef
0124
00fb
0038
fe6e
00ae
0117
010f
009f
009b
00c0
ffd2
fe2a
00da
0105
0045
008d
007a
00e6
0025
ffe4
ffc4
000a
ffc3
ff9d
0110
01c6
002e
ff66
004a
003e
ff94
0035
003b
009b
0073
ff0e
0035
fffb
001d
00c5
ffcc
0009
0043
00a9
00d0
fff9
ffd4
001f
00bd
006f
0030
0009
00ba
0007
fffc
0080
ffe0
ffcf
0009
0000
0080
0017
0059
00d7
ffb7
0105
005f
ff5a
0013
0003
0018
00c3
ffe5
ff82
000e
0066
0008
ffa2
ffee
010c
0012
0011
000e
010d
ffe3
ff9b
ffb8
00f3
ffc4
ff68
0095
0016
0069
000f
010e
00c5
ffb6
fedc
ffc6
fe35
0076
0049
ff86
00b3
001f
ffde
ff27
fff2
003e
ff9e
0035
006a
0037
0032
0095
0075
fffa
ffbc
0076
ffbf
003f
007f
0007
0046
ff08
ff6e
0019
0082
009b
0000
ff63
00ab
0029
ffee
ffca
0086
000a
005e
0009
ff62
ffeb
ffb1
ffc2
ffab
0032
006c
008f
001a
ffdf
0047
ffbe
ff13
0047
0018
0028
006f
ffd6
ffa1
ffb8
ff7e
0040
005c
0039
ffbc
007c
ffbc
003e
004f
0039
004c
ffff
ffe7
ffd4
ffd6
0046
ffcf
0081
008a
0076
004e
fff5
003c
0040
ff16
ffac
ffff
0002
0046
0019
ff8d
ffb7
ffc0
003e
0014
00a9
002a
ff4a
ff01
00bb
ff5d
008d
ffc6
0081
ffe1
ffc5
fff9
004d
ff91
febc
fef2
fedf
ff2d
fdd3
01fd
0198
0117
feef
fea0
fec4
fe0d
019f
0154
0117
016d
ffa9
ff5a
ff5f
fe43
ff02
00ae
015e
0121
fff5
032e
02d4
fdc4
0153
0138
006e
0100
0348
0061
fe83
fec4
0156
01b0
018d
00fc
ff24
fe00
ff1b
fe8d
01b0
02c5
0197
0154
ff7d
fe67
02ca
037c
018f
020a
0102
010b
fe68
fe2e
0292
fef5
00cd
01a1
00f0
0130
ff09
fefb
ff5d
ff4d
00c8
01c9
0160
018a
ffc7
ffe4
0095
ff03
ff82
00ab
009b
0030
009a
ffd3
0017
0013
0024
0053
008e
ffea
011b
0032
0007
0123
0017
0041
ffd9
ffff
fff3
ffdb
007e
ff32
0070
0032
011a
006f
00df
ffbd
0003
0000
00ed
0074
ffe1
002f
00c0
ffe4
0022
005f
004a
0024
ff94
0045
004c
0041
001a
fed3
0096
00a7
fff2
000f
0038
ff98
ffc7
ff97
008c
00f7
ff6f
ff3b
0025
005f
ffc3
0046
0079
00a3
0039
ffd9
0000
fff9
ffff
0012
000b
fff9
0003
fffe
ffef
0002
fff8
fffc
fff6
000c
0006
0000
0002
0008
0009
fffb
0001
fffe
0002
0007
fffb
ffff
0007
fffd
0001
fff8
000c
0000
0001
fff6
fffa
0007
fffe
0004
0000
0000
0023
0001
ffff
0000
0007
0002
fffd
fff8
000a
0008
fffb
000d
0003
fffe
fffa
0002
fffd
ffed
fffb
0018
fff9
0000
0002
0003
0002
fffd
fffd
0000
000b
0009
0006
0001
0018
0044
ffa1
0036
ffcb
ffe2
ff3d
0050
008c
005e
0012
00b1
ffc0
ff51
ffa1
0070
0068
0012
ff8a
00bb
ffb3
ffce
ff36
ffe2
0058
0024
ff6e
fff6
003f
ffdb
ff45
0027
00be
ff93
ffc8
001e
0000
fff8
003c
003b
0073
0028
ffd5
ffab
0043
0047
ffc6
005d
fff6
ff68
ffb0
ff76
000e
0062
ffec
fff9
0028
ffe0
feeb
ffba
006b
00f5
ffd9
0008
fff2
ffb9
ffdc
ff55
0075
ffff
0023
007f
0019
ff8e
0034
00d5
ffef
00e4
00b1
0039
0037
fed9
004d
0141
ffb7
0027
0050
0067
0000
ffda
008f
00d8
fff0
001f
ff60
004f
ff74
0161
00f1
ffd7
ff85
00cd
ff6d
00b2
ff8b
021d
0071
ff9c
ffc1
00b4
ff38
00a5
ff83
01ac
00f3
ffb3
ffbb
00a3
ffbe
0087
ffd8
0039
00b2
015a
00c0
0044
0020
00ee
0022
000e
0035
00f8
00b0
ff6a
ffce
009d
ffba
0084
0077
00e0
0010
ffad
0017
00ad
000c
0068
00c4
0022
002a
001f
002b
005a
000d
0027
001c
001f
0080
0036
fff8
ffbd
ffff
ff67
ffa2
ffed
0017
ffa1
006d
ffd7
ffd8
ffc2
0068
0076
ff6a
008f
00d9
0033
00aa
0043
fff7
000c
ffd2
0060
0093
fff0
006f
0032
ff49
0029
fffc
ffa2
006b
ffc2
003a
0045
003b
0094
ff3e
0014
0033
004b
004b
0020
0054
ff95
fe90
00b0
000e
001b
ffac
00d8
ffed
ffbb
ff7a
ffaa
ffcc
ffe8
ff86
012f
ff09
ffbd
ff1d
ffe5
ffa0
0087
fed7
ffd3
ffab
ffed
008d
ff64
ffd7
002a
0037
ff80
ffc6
ffb5
000b
ff22
0069
ffec
007b
0029
005f
ffe7
fffe
0008
ffb7
0015
ffb8
016f
009f
002f
ff48
007d
ffef
009b
0025
0009
ffd2
0056
fff3
ffe3
01b0
0029
0097
ff90
008c
ff9b
004a
ff53
fff5
0051
fff5
0041
00b5
ff68
fff3
ffd1
fffa
00d1
ff70
ffdb
ff0d
003d
0061
004b
01cb
0059
ffd2
003b
ff83
fff7
ffd3
ff67
ff6c
ffef
0051
0048
0074
ffd0
0006
ffa2
0044
0012
0073
0015
001e
ffd5
0051
ff1a
003f
ffcd
00f7
0000
0008
0000
ffd3
ffb6
ff90
fff8
00cb
0113
00a2
fffc
00a2
fff7
ffe6
0047
ffd8
00d6
00b6
ffe1
ff6c
0004
004b
0031
006b
fe86
ff72
007e
00a8
00c6
ff67
0006
fffc
ffd9
003d
0046
00b2
fffd
ffae
0063
ff70
00fc
ff90
002f
ffd4
ffd6
006b
00b2
0136
0118
01a0
015f
fffb
ff9c
ffba
0021
00cb
0195
01d6
0173
ff90
ffcd
004a
ff9d
0104
0120
00eb
0150
ffd9
ffac
fff2
0020
00c9
00e8
0196
0165
003d
0054
0055
006a
008f
016e
031b
0065
0040
0073
0059
0060
007d
013c
01e3
006a
0013
0024
0036
0053
005f
0133
01ad
ffd4
002e
ffcc
0032
0057
017e
0121
0111
0051
ff8a
0001
0063
001d
00c2
007d
0121
0060
0029
0000
005e
ff69
ff74
005f
ff45
00ba
ffcc
00d0
0069
0056
ff82
006f
ffed
009d
ffc3
0087
0037
ffce
002d
0002
00f8
0099
ffa8
0081
006b
0029
ffc5
0102
0058
001d
ffe8
0088
0008
0075
ff72
014b
00ec
fff0
ffd9
0054
003e
0029
006a
0103
00ee
ffdf
ff42
ffbb
00a1
0029
003d
00a8
0007
0114
00dc
0060
ff98
0062
0056
018b
0086
007e
003a
ff5f
003d
0001
0039
00d6
0106
0069
fff1
ff37
011a
fffd
0003
fffd
0006
0009
0002
0003
0004
0002
0000
000e
0002
0005
fffe
0000
0000
fffc
fff2
fffb
fffd
ffff
0000
ffff
0003
0003
fffc
0002
fffc
0002
0004
0001
0001
0000
0000
0009
fff5
fff8
0000
0005
ffff
0003
0008
0000
0004
0000
ffff
0002
ffff
0004
0004
fff9
0026
0003
0005
0002
0001
0000
fff8
0009
0000
0002
0000
0003
0000
0000
0004
0000
000a
0000
0000
0005
fffd
0000
fff7
ff4c
ffd6
ffca
fff7
ffd7
ff05
fff3
ff04
0042
ff78
007e
ff95
fff8
ffbc
ff81
ff92
0055
fef2
00d2
0002
00b3
ff8d
009a
ffc8
ffa3
0031
0027
0059
0039
0015
0014
ff8c
004c
00e8
0038
0038
00f5
0036
ffd1
0051
00e3
ff7f
00ad
0038
0073
001f
00c0
ff96
ffe3
002c
0003
0091
00ca
0098
0027
ffcf
ffe4
00db
ffdb
00b6
0054
00c6
0052
002c
0051
0050
0006
0070
ffd1
005d
00dc
00a4
ffa4
0064
004c
0063
00b4
008a
ff6d
0026
0057
0038
008e
0061
00e6
001f
fefa
fffe
000c
0075
00c2
0069
ffe1
ffaf
ff16
002b
ff6a
ff45
0033
0093
ffeb
008f
ffa8
006a
fff5
006b
00c8
002b
005f
ffdc
0019
008a
0080
0063
fff1
0042
ff84
ff4e
002d
0015
ffc5
0026
ff82
ffe1
00f8
002d
ff5e
0004
ff94
ffa4
0047
0096
0099
ffe4
ff9b
ffc8
ffe8
0063
ff89
00f2
003c
ff9c
ff66
ffec
ff53
0049
fed1
0065
0065
0078
fffb
ffdd
feb9
003b
fe6c
ffe1
005b
0062
fff7
ffe4
ff5e
003a
fed9
fffd
007a
0048
ffef
003d
ffa0
ffe1
0039
0081
ff25
fff4
0091
ffd5
005d
0065
00ad
003f
ff2b
ffef
0051
ff6a
ff5d
00d7
fffb
ff70
0006
006d
0000
006c
ffed
ff79
0137
0045
ff61
fffb
003d
0040
0066
004b
017b
ffb5
ff45
fff7
ffdb
0044
fffc
00a7
00e0
fecd
ffec
ffd8
ff8a
ffeb
ffd0
0098
00ce
ff30
ff8b
ff23
fdf1
000c
ffd0
00b8
00c5
ffb4
0003
fee9
febb
ff91
0012
0049
0011
ffae
ffaa
ff98
ff5d
0045
ffe0
000d
ff7c
006b
0030
00c6
fec0
0101
00a9
0160
ffa5
0085
00c1
00f0
00f4
003e
0089
ffcd
fff1
ffac
0065
ffc2
ffe9
00a2
0010
0055
ffe5
ff76
0088
0043
ff8c
0059
00b5
0074
ffbf
0034
0109
006f
0086
ffc4
014d
0050
0066
fffa
0028
ff2b
ffc0
0089
ffdc
003e
ffb9
ff77
00a2
002f
ffc6
ffeb
0065
005a
002d
000d
0063
fff4
ff4e
004a
ff7f
00a9
fff4
ff77
fff4
003a
ffe6
002d
0005
002c
005c
fedd
0085
ff8f
0045
0103
fff3
ffd7
00fb
00af
0003
ff4a
ffe0
008e
0004
ff98
0040
0046
ff76
fff8
0010
00a8
009d
0083
ff8f
fef1
0026
ff40
ffad
0073
008e
0032
00ab
ffee
0093
ff19
ffaf
ff73
ff3f
000c
00a2
0014
0044
002f
ffdf
005f
0025
0056
ff9a
ffe8
ff9c
fff3
ffdd
ffff
fffa
fffb
ff97
ffa9
0006
ffbc
ff9e
ffad
ffd6
ffd9
ffe2
ffdb
ffff
ff9a
ffc0
fff3
002d
004a
fff2
0007
ffe4
0059
0030
003f
0032
0015
004c
0001
0034
006e
fff5
001e
0094
fffa
0015
005c
0054
ffd2
0047
0056
004c
ffac
0048
0046
ffb6
0112
00f2
0067
001d
0014
0037
002e
00f3
00a9
ffe5
0001
0071
fffe
0019
0065
fffe
0026
fff0
ffb6
00b4
004a
fff4
000f
ffa5
ffeb
00bf
002f
ffe9
0082
004a
ff30
fef2
0066
00b5
003d
ffe7
fff8
007e
003f
0013
0067
00f9
ff5c
0086
ff4a
ff5e
ff5c
ff59
0076
0035
ffc4
ffd5
ffd1
006f
002f
ff6c
00cd
0063
ffc9
ffa0
00ad
006f
004c
0007
ff92
012b
ff8c
ffda
ffce
ffc6
ff81
00b1
ffc9
0015
ff9b
ffda
ff96
007e
ff6a
0072
0001
0057
fff4
ffca
0040
006a
ffde
004c
ff57
ffe4
0000
0000
0000
0004
0001
0002
ffff
0005
0005
fffd
ffff
0004
0003
0000
fffd
0000
0000
0000
0001
fffe
0000
0001
ffff
0000
fffb
ffff
ffff
0001
0000
0001
0000
0001
0000
fffd
0001
fffd
0000
0000
0002
ffff
0000
ffff
0004
0004
fffe
0000
fffe
0000
0000
0002
0009
0000
ffff
0000
0001
ffff
0000
0001
fffe
0001
0000
ffff
0004
0003
fff8
fffe
fffa
0004
0000
0004
0001
ffff
ff74
ffcb
0038
ff7e
ffcc
0018
001d
008b
ff69
ffaf
0044
ffdf
004a
0043
0037
003a
ffd5
fff7
001f
0006
ffe3
003d
ffeb
0015
0017
ffb9
0000
ffa7
ff35
ffe0
0029
00c8
0018
ffac
fff6
ffd0
0033
ffe9
ff96
0026
0031
ffaf
ffea
0028
ff75
fef2
001a
0031
00d9
ffb4
ffd1
fff6
ffd5
000a
ff9f
0057
000f
ff59
ff8d
0046
fff1
011e
ffb8
002e
0019
ff56
0024
008e
0006
006a
0022
0066
ff94
0060
ffff
ffeb
ffec
ff9f
0073
ffa3
0091
0046
ffe7
ffe1
ffd7
00c5
0081
003b
006f
0012
000f
fef6
ffb0
0085
009e
0064
ffad
ffd4
00b8
ffc9
ff3a
ffd4
0062
0031
ff52
ff90
00c5
ff98
ff82
ff7a
0023
00b3
febb
ff6b
006f
ff73
002f
ffc6
ff76
00d5
002c
0025
0045
ffdb
fe8f
00bd
00c3
0077
ff64
001c
0076
ffe1
fee0
0064
fff8
0064
0013
0012
0022
ffe4
003e
0060
0055
0034
00c4
0035
ff81
0042
ff59
ffa9
fffc
0041
0009
007d
0045
0080
006a
ff49
0041
00a2
ffa3
0060
0049
ffd1
00a2
ff02
fffd
0080
0032
ffed
ff3b
001d
ff92
006a
ffa1
ff8e
00d4
ff76
0030
00cc
000e
005e
ffc1
0001
00a8
ffbb
0097
00d3
0066
fff7
ffd8
005f
ffdd
ff8e
ffc2
ffa3
000b
002e
ffa3
ff79
002c
ffb7
006d
0070
0043
004a
ff43
000a
00c2
007b
fff7
0082
0072
002b
ffc4
0065
0068
ff90
0097
0006
ff9f
0050
003f
0010
0062
0083
002b
ffe9
0021
ffe6
fff8
00fa
004d
fff6
fffc
ffb1
006e
006a
ff15
fff3
ff24
ffe2
004d
002b
ff7e
00ee
ff82
ffc6
ff4e
000b
0016
ffda
004f
0021
0008
ffd8
ffb1
ffa9
0041
0002
00d4
00cc
ffe4
ff93
0147
ffd3
0017
0008
ff38
ffb2
0035
0042
fff8
0032
003a
ff68
0049
ff65
ffad
006b
fffd
004b
00e9
003e
00c4
0057
0035
000a
0047
0020
00b9
ff4f
ffef
ffd5
0114
ffec
0011
002a
ff98
ffeb
ffbc
006a
0077
ffc2
ff76
ffe4
ffd9
ffd8
0029
00e0
004b
ffd9
ff9e
ffeb
00da
ffce
ff9c
ffb7
ff9a
0060
00a9
0072
006f
fffb
0011
ffcd
0022
ffe5
004d
00bf
0059
ffb3
0089
00b6
00cc
ffdb
0083
ff48
ffe6
ffc8
ffac
0032
fdd5
0095
0119
ffe9
00a9
ff96
0051
ffc4
ff5f
009e
0044
0025
004a
fff5
00b6
0022
011b
006d
0087
00a8
001c
fffb
ffd2
0011
ff96
ffc7
002c
fffb
0004
001f
0023
ffd6
ffdc
0035
0000
003c
ffe9
0031
006b
fffe
ffb7
ffe6
ffbe
0015
ffc3
fff4
ffdd
0048
ffc3
ffd4
ffe4
017b
ffba
ffe8
000f
003e
0000
001c
0015
005a
ffc8
002d
007c
000f
ffef
ffcd
ffdd
0067
ff99
0022
004e
ffd3
ffb5
ffe8
ff8f
0055
ffa1
0047
0037
fff6
ffdd
fff7
0021
0031
ffc3
0069
0061
0018
ffe7
ffdd
ffe8
fff3
003f
007f
ff6a
006e
ffeb
004b
ff87
0024
0048
004a
0012
0033
0025
ffea
ffb0
0040
ff6b
ff5d
002e
fff1
00ee
0005
0026
0013
0050
008a
ff9f
ffec
0017
005c
0029
007a
0034
fff5
ffbd
001c
005b
0001
0056
006c
0000
001f
0010
008f
0062
0015
fff0
0025
0020
0044
ffd7
ffc8
0032
006f
ffd3
0005
ffef
0023
0042
ffe3
ff89
003c
ffa1
0043
0001
fff4
ffba
ffee
ffa3
fff0
fffe
0002
0000
0008
0007
0000
0002
fff9
fffe
0000
0000
000b
0001
0001
0000
0010
0009
0000
0000
0000
0003
fffe
0000
0002
0002
0000
fffd
0001
0006
0008
0003
0003
0000
0007
0002
ffff
0005
000b
0000
fffd
ffff
ffff
fffa
0000
0002
0002
0003
fffc
0008
ffff
0004
ffff
0009
0000
0009
0006
0006
fffc
0002
0000
0003
0003
0004
ffe3
0003
0002
fffd
0000
ffff
0001
fffa
0001
ffc6
003d
0060
0043
007b
0044
0011
ff5a
0049
ffa6
006d
00c2
00e9
ffeb
0091
0063
0086
0009
fff9
ffaa
0011
0017
00cb
00dd
ffe9
ff41
ff80
ffc5
0086
0003
0018
ff7c
ffce
ffb8
0002
0011
002b
0039
009f
00a3
ffc4
ff5a
fff7
ff22
ffa6
ffe1
0099
0057
0047
ffda
ff96
004d
004a
008f
000d
ffb6
0019
ffc2
ffbd
ffaa
ffc5
0049
0058
0034
ffad
ffea
004e
fffd
ff92
001c
ffd4
ffae
ff11
fff2
0000
014d
0072
0011
00af
0082
ff38
0006
fff6
0118
00fb
0090
00a1
00ba
ffa3
ff45
0008
0100
00f3
ffe4
0054
00a8
0114
0041
0031
01ce
0000
ff54
001e
ff7c
0196
ffdb
004f
0117
ffe7
0028
0002
ffaf
006e
ff51
006c
0132
0065
0044
ffe4
000c
0075
003b
ffb3
ff86
ffba
ffce
ffef
ff99
fff7
002e
ffac
ff0a
ff94
0077
ff7e
ff60
ffc6
0004
002f
ffa3
ffff
0028
ff80
ff82
003b
ffc3
00a6
0015
0040
0005
0018
ffdb
0044
ff30
006f
0087
005a
00f4
006c
ffe6
ffef
ffa8
0043
002b
00f4
0062
001c
ffdb
ffcf
ff4a
00b7
00d8
00e2
0047
ffbe
ffaf
ffa2
ffd0
00ce
015c
0022
006c
ffd0
0027
ff59
0052
0015
010b
00f3
004f
0097
0045
0042
ffe5
010f
0086
01a4
fffe
ffec
ff69
0035
0006
0102
011e
0105
0039
ff5e
ff70
ffc2
0012
0054
010f
016e
0042
ffeb
ffa9
00fa
007a
ffd0
ff71
fff7
ff63
006d
00dc
0021
ffe3
0115
00b5
0081
fffb
003c
0096
0058
ffc8
0118
0041
0042
fff2
ff2c
00c4
00f5
00e9
feed
0049
00a6
010f
ff5c
ff9d
012c
0126
fff2
ffda
0081
0176
00e5
0048
ff71
007d
ffca
ff6b
ffb4
0041
008b
00e1
0066
008f
ff38
0061
ffca
0062
ff19
0027
0108
ff7c
ff6a
ff47
fed6
0052
ffb6
0017
001e
ff2f
0090
0027
ffa5
007e
00bc
0011
ff69
ff9f
ffef
ffc8
ff2d
0036
fffe
ffeb
0000
002d
ff81
ffee
0086
0087
ffdc
ff6d
ffc5
ff9f
ff56
001b
00bb
004c
000e
fff2
ff3a
00ca
00da
ffd2
0000
0034
0055
0068
ffd1
00bc
008a
0093
0060
ff35
0098
fff3
ffc6
0041
0063
ffb6
002f
ff9d
ffad
0030
ff35
00a5
ffd6
0043
ffc5
0061
ffc9
ffdb
fff8
00b2
ff18
007a
0059
ff1f
fff7
ffe6
ffd6
0029
0045
ffba
0092
ffca
ffbe
00aa
ffa3
0001
ffc7
000f
ffdb
0002
ffe5
0018
ff90
fff0
ffa4
0038
ffe9
0003
0037
000e
ff8e
ffe1
ffdb
000e
fff1
0028
002b
007b
ff96
0006
ffc8
0058
ffb1
ffcd
001d
0011
ffd5
ffcf
ffe5
0036
ffda
ffd9
0049
0039
ffdd
fffa
ffca
0014
fff7
0027
000e
002e
ffba
0040
0029
0098
0002
ffb0
003e
ffd8
ffd0
000f
0014
0048
ffd9
0011
000f
0004
ffe0
000c
004c
0043
ffff
0033
0041
002b
ff7d
fffa
0108
00b3
ff86
ffee
ffdc
ffae
fee5
ffbb
00f0
008f
fe7e
004a
fff1
ffe0
0027
ff9d
008b
00b7
ffbb
ffc9
003d
ffe2
ff10
0027
ffe0
0012
fe6e
ffcb
008a
ff17
0066
ffeb
003d
0004
fec6
ff9f
005b
ff2d
0160
004c
0098
0002
0067
ffd5
ffd2
fea9
0077
006a
ffbf
ff2a
ff09
ff61
008e
ffc4
014e
ff9a
0015
0006
012e
0093
00cc
ff77
ffde
007b
ffba
ffe7
00cd
ffd7
0021
ffee
fffb
000d
0003
0004
0003
000d
0000
0000
0001
0002
0000
0000
ffff
fffd
fff9
ffff
fffd
0000
0000
fffe
0005
fffd
0003
0000
fffe
0000
fffb
0005
0005
0000
000f
0000
fff5
0000
000f
fff6
0009
0001
0003
0006
0000
0005
0003
0000
fffe
fffa
fffa
000e
0000
0008
0006
0005
000d
fff4
0006
0000
fffd
ffff
0005
ffff
0006
0006
fffd
0003
fff8
ffff
0001
0000
0001
0005
0002
0000
0022
ffbf
ffde
001a
ff2b
0095
fff9
0075
00e3
ff6d
ffa4
003d
0018
0068
fffd
007f
0000
0015
ffef
007a
00a3
0009
000e
ff4e
ff55
ffe3
ff12
0039
ffdc
0001
ffe6
fff2
ffbe
00d3
fee8
ffc1
00c3
0070
ffc9
001d
001b
0038
ff5d
ffb3
0070
ffee
0028
ff7a
ffb9
001d
ffa3
001f
ffdc
ffdd
ff99
000b
ff28
0083
ffd3
ffe2
0038
ffc4
ffe9
ffda
00ba
ffd8
ffa4
ff39
ffab
ff30
0075
0051
0098
ff58
ffb0
ffe3
ff70
0034
0054
0020
00b3
ffe6
0031
ffe3
fff8
fff8
0067
000a
0097
004e
0017
fff8
ffca
fff4
0069
00a8
0053
ff96
ff72
00c7
003f
ffd9
ffaa
ff5e
0088
ff33
0039
0144
ff3c
ff99
ffb4
007e
0085
ff6b
000a
014d
ffd5
0010
ffe2
002c
ffd8
00fc
ff7b
0041
0052
fff8
0025
ffde
fff8
0078
ff7b
0097
0046
002e
0049
ff92
002a
0025
ff62
001d
0004
0014
0052
ff84
0063
00e3
fff8
ff99
ffb8
000e
001c
ffb7
0044
0056
0031
ffd9
fe6c
0061
ffc4
ffa7
0000
0017
003a
ff95
ff3e
0020
ffff
ff9d
006b
0028
0045
ffc1
00c6
ffdb
000d
009b
00d0
000c
0088
fff4
ffd3
0079
ffeb
0030
003e
000a
0049
ff86
ffe1
0006
ffeb
ff88
008a
004b
00e5
0098
013f
ff94
ffe1
00c0
00a0
ffae
007f
ff20
00a0
000b
ffcb
ffec
007e
001c
001a
ffad
ff5f
ff9b
ffbc
ffeb
0072
0161
ffe1
0000
0043
ffd0
ffba
0113
00c4
ff79
ffc5
003a
ff5e
ffe2
ffc1
007e
fff8
ff02
ffc5
0000
0077
ffa7
ffd1
ffc8
004c
0049
ffa6
ff0a
0059
004b
ffe1
0036
00c4
0049
000e
00cc
ff4c
ffd2
004a
ffd6
0003
0027
001f
0093
0004
fff8
ffd7
ff9e
00c0
0022
0003
ff76
000a
ff3e
fffa
0081
009c
004d
0082
0092
ffa8
ffd6
0024
ffcf
00a4
fffb
0069
007f
ff5f
ffbf
ffd3
ffa7
0070
0022
0061
0032
ffd1
ffee
0048
002b
ff9b
ffc0
0019
009b
00b8
0047
0044
002a
002b
ff72
0003
00a5
ffa7
0095
0030
ff88
ff8f
00af
0059
ffe4
0052
002b
0073
fffd
fff4
ffb3
ff9c
0091
0033
fff4
0049
00a4
000f
ff7d
ffcb
00f7
ff9c
ffb3
0065
ffd8
ffe9
005b
0000
fffc
0009
000e
0055
004a
0012
ffc4
ff46
00fc
004e
ffe2
0062
0077
007c
0094
ffd8
00e7
0025
003a
004a
0004
0017
ffe1
ffbe
0032
00a3
fffb
ffcf
00af
ffc6
001e
ffde
006a
0081
000b
ffd3
0036
0020
ffa3
ffda
0072
004b
fff9
ffc7
0036
004e
ffdf
fffc
0042
0063
0038
ffd1
009d
ffc8
fff5
0044
001f
fff9
0006
fff1
fff6
ffd0
ff57
0019
006e
001f
ffef
ffdf
002e
fff2
ffdf
001d
0021
0008
0009
fff8
001b
0014
ff90
003d
ffd9
ffc3
ffea
ffd4
0015
0052
ff41
0000
0035
ffe5
ffe2
ffb9
002f
ffcb
0068
ffdd
0000
000d
0008
ffee
000c
ffac
0016
00a1
010f
0042
002c
0017
0050
ff8d
ffc4
0082
004e
ff41
0032
0019
0050
fff5
ffe6
000f
006c
ff8c
001f
ff98
0049
ff8f
ff80
0008
00a7
fff8
0087
ffca
0090
ffc4
ffbf
ffb8
003f
ffef
0023
ffe1
0052
ffae
0047
0038
0024
fe70
005d
ffe5
fff3
ffac
0018
002e
0039
ff20
002e
fff9
ff99
0004
007c
ffd3
ffe5
0000
005f
000b
0014
fffe
0002
fffe
ffee
fffa
fff0
fffd
fff5
0007
0000
fff7
0014
000c
0000
fffe
0000
fff6
fff5
fff7
0002
0000
0000
0004
0001
0004
fffd
0001
000a
fffe
fff4
fff6
0006
0006
0002
0016
fff5
fffd
000a
000e
0006
fff7
000b
0003
0006
0008
0007
0002
0008
fffb
fff3
fffc
0003
fffd
000c
0008
0003
002a
0001
0001
fff1
fff2
fffd
000b
fff5
fff9
0001
fffd
fffd
fffe
0005
fff1
001b
0060
007b
0081
0040
0068
0125
0053
ff9f
00e7
ff9c
ff83
0044
007b
00ba
005c
0002
00da
febf
005d
002b
ffe2
00d3
ff90
000b
ffc7
fff0
002e
0018
ffd8
003c
ffad
0004
0070
ff31
ffb2
007f
fff8
007d
ffd7
009a
ffd7
fedd
ff72
0026
0073
0053
fff1
0058
0047
ff3f
ff89
ffd9
fff4
ffdc
ffcc
0010
0059
ffc8
ff83
0039
0079
ffc0
ffad
0067
ffb4
ff97
fecf
ff98
006c
0023
ff99
00a8
ffd1
001d
ff6f
ff8a
002c
0015
fff8
fff8
fff5
ffcb
fede
ff1b
0028
ff4e
ff7d
ffe0
0093
008e
001b
feee
ffdf
ff7f
ffd1
0075
ffac
0029
005a
00a6
0027
fff4
0029
0009
000b
ff9c
004b
0051
fff0
0036
ff9a
0058
ffbf
0007
00ee
0059
fff3
0044
ff7f
ffe8
ff37
0088
ffe4
00b2
0065
00a4
ff9f
ff4e
ff4a
002c
0070
00bd
00c3
00b3
001a
ff91
0008
004d
0076
005d
0067
002c
ffa4
ff6f
0022
ff81
000a
feac
001d
ff70
00ca
ffaa
012b
ffa9
002d
ff93
ff9d
ff1f
0082
00c9
0059
0031
0054
fefc
0023
ff97
0085
ffe9
ff20
0021
ff24
0047
ffe1
fe8a
002e
ffe5
0035
0014
0029
00ea
fffe
ff6f
0086
00cf
fff8
0028
ff8f
fffa
ffb8
ffb5
0080
0147
ff70
0050
ff3c
0051
ff5d
ff61
ffa6
001d
ffe4
004b
0026
0011
ffe6
ffbf
0000
00be
005c
ff45
ffa5
ffba
000d
004b
00a6
010a
0108
fefb
0006
ffc1
ffb5
ff8f
ff9a
00c9
00eb
ff95
fff8
ff6b
ffb4
ffe7
0074
008c
ffe2
0093
0039
ff7f
0019
ffa6
014a
ff4f
00f4
0134
0073
0096
0004
0032
ff56
0178
01ca
0098
ffa8
0024
fffa
0017
00fd
00b7
0069
ffa7
ffe5
ff65
ffc2
ffc2
0128
ffa3
0000
005b
00d0
0110
ffe9
009f
00a4
00de
fff8
0082
0010
005e
0028
0037
00ad
00a5
ffe5
0017
0096
ffc9
00c6
ffd6
0036
ffc2
ffa8
00d3
ff54
00dd
ffaf
00cf
009d
010f
ff95
004c
ff0b
ffcd
ffc7
ffb8
001e
00a9
0015
00d2
003a
000f
001f
0057
000c
0023
003b
0070
ff5f
00a6
ffdf
ff90
0000
0028
ffff
ff88
002a
ff2d
fef9
ffc9
0020
00ad
ffb7
fff0
012b
ff6f
0015
0056
ffd8
0027
00c8
005b
ff84
0043
fff0
0007
ff95
ffda
005c
fff4
004a
fffb
ffbb
002c
ffe5
0145
0025
fed0
007f
fff9
0032
010c
003d
0121
ffe5
ffc0
0004
0016
ff94
001a
ff77
ffd0
ffe3
ffe4
0032
ffd2
ff59
0009
ffc6
0007
ffbf
0018
005d
ffe7
ff57
009e
ffb3
001d
0045
0007
ffb5
006b
ff9b
0055
ffa5
ffd4
ff8d
ffdf
0041
009c
ff83
00cb
ff5f
0026
ffac
ff4e
0036
0095
fffe
006c
ffb5
0012
0015
0023
000c
ffdf
ffc5
0014
ffd5
ffec
009b
ffe9
004d
fff4
ff8c
004b
0012
0005
0041
ff7a
004a
ffd1
ffd5
0012
0074
0008
ffe4
0063
00e4
0149
00a7
ff9f
0013
ffb1
ff88
0050
0083
00cc
ffd6
feff
ffc7
ff9f
feec
fff8
ffde
ff8e
0019
ff7d
ffda
ffce
0060
008d
ffb9
00a3
ffe4
ff1b
ffa4
ffa6
0023
001e
fff0
0065
ffa4
ff4a
0076
0041
ff88
ffb3
0053
ffa3
002c
000f
ffc9
00b4
0014
ffbb
febf
fffd
0050
ff89
0007
003e
0016
ff88
0012
005d
ffe0
ffdd
000d
011a
0044
ffbe
007a
0001
0073
0072
ffc6
007c
fffd
fff4
0001
0000
0003
0000
0000
0000
fffa
fffe
0004
0000
fffd
fff7
000b
fffe
fffc
fff6
fffd
fffd
fffc
0001
0006
0001
fff7
0002
fff7
fff9
fffc
fff6
fffb
0001
fffe
0003
0002
fff9
fff1
fffe
0000
0004
fff9
fff8
ffff
ffef
0000
fff5
fffc
fff7
0003
0012
0006
fffc
0006
fff9
0006
0000
0004
0000
0000
0001
fff8
fffd
0008
ffff
0001
fff3
000d
fffb
fffd
0006
0001
0002
eb53
ef2e
e958
e5d2
ea20
f20c
e8d0
f775
f9fb
04b5
fd6f
fdc5
fc75
01e6
009b
ff71
0133
ffac
0019
ff9a
0006
002a
00ea
ffe9
0094
ffcb
ffee
ff4e
0003
0004
00d5
0020
fee0
fe39
fff2
ff8d
0001
00cf
ffe9
005c
00e6
00c1
000f
005e
0000
0109
0076
ffea
0067
006e
fff5
003f
0004
003d
0050
ff65
ff5a
ff53
fff3
0047
ffff
ffb5
ffd1
ff8b
fff8
0019
000e
004f
0002
002f
fff6
002c
0064
004a
ffe4
ffea
0001
0047
0059
0059
ffc6
ffdb
fff0
000f
0002
ff56
00cf
ffd8
0015
ffc4
ffeb
ff42
ffff
ff7c
fef6
ffd9
fffd
0003
ffe7
ff10
0000
ffdd
fe77
00a5
0026
ffb9
ffff
00ee
0001
ff04
fec8
fff2
ffd7
feb2
fff2
fef0
0000
ff68
ffae
0078
005f
ff8c
ffd5
fed6
ffff
ffa8
ff0b
ffba
0056
ff38
fffb
ff75
0000
ffb5
ff23
ff84
003b
0094
0005
0016
0001
ffc6
fff9
0019
002f
0070
fff1
ffe5
0002
00b7
ffc0
ffaf
0037
002f
001f
0032
0003
00e2
0015
0074
000f
0003
0010
000a
0000
0039
0081
ff7b
0048
0036
0004
ff99
0000
0010
ffe9
ffea
0046
fff7
fff7
0047
0003
0067
000a
ffd7
003d
002e
fff1
0009
ffff
000e
ffb3
ff8a
0044
0031
0002
008e
0007
ffd8
ff8b
ffe2
ffe2
ffcd
ffe4
001a
0003
ffe8
003b
ffaa
0062
ffe1
0005
ffcf
0000
ffe0
ff57
ffe7
002f
fffa
fffc
0084
0000
002c
ffc7
0001
005b
0031
fffc
0001
0000
0020
fffd
0033
0004
0002
fffe
0003
0007
0009
0003
0005
0002
000c
0002
0002
0004
000f
0005
0005
0000
0005
0000
0002
fff2
0005
0000
fffe
fffe
ffff
0008
fff9
fffc
fff8
0002
0003
0018
0002
0000
0000
fffa
000d
0006
0005
0002
0004
fffa
0010
0004
000a
ffff
0007
0004
fffe
0008
0003
fffd
0002
0000
fffe
0004
0000
0000
0006
0000
fffb
fff8
0001
0008
0010
0000
ffff
0003
fffa
0005
fff9
ffdf
ffcd
000b
001a
fffb
ffb1
00e9
ffd3
fff8
ffce
0005
0010
fffd
ffd8
ffd3
000e
001e
fff6
fffa
0019
fffb
0051
0019
ffd6
ffa2
ffd2
0018
0005
0000
ffd8
0049
ffc7
ff80
0028
0000
ffff
fffb
ffbb
0092
fffc
ffbb
0015
fff2
fff3
fffe
0015
0012
ffde
ffe2
000f
0016
0011
fffc
000d
0035
ffbb
000c
ffec
fff7
fff2
0000
ff54
0012
0028
0028
fff3
fff3
0006
0002
0022
001e
006a
01ab
004c
00b2
0289
0097
0003
ffcc
01bd
ffb6
0303
0027
0258
01f2
0202
ff94
02a5
0037
0081
0098
0018
0000
02db
02c6
0077
fff6
00a2
002a
00dc
006b
01f7
000c
00b8
0184
0089
0135
00ea
00a4
00a8
0033
004d
00e2
02a5
013a
0066
0000
00eb
0238
00cc
0066
026b
0029
0051
009f
004b
0263
005e
fff2
01f2
000e
0065
01df
0022
ffe1
00b8
0071
020d
005c
0071
00e9
002c
01f7
009c
ff14
00b5
0039
0016
fffb
ff6b
0063
0090
ffb2
00c6
0003
002a
fffd
008c
003e
0075
008b
00ae
fff6
0020
fffd
00a7
006f
ffba
0055
0082
003e
ff8e
0000
ffb0
0083
0000
ffbc
012f
000a
000e
0000
fff4
006f
001b
ff39
0052
fff2
ffdd
0002
015b
00ec
00a1
00b2
0022
003d
ff22
0001
ff55
0034
ffa8
002b
0034
0021
003a
0002
fec0
005b
ffda
0021
00ae
0006
0032
0016
ffdc
0069
ffb9
ff68
0045
ffef
001d
0000
fff2
0089
003d
ff6e
0084
000d
ff77
0000
ff10
0079
00a7
0041
0099
000c
0030
0000
ff65
fff7
004c
0001
0061
0010
0023
0000
0000
0086
ffb5
ffcf
0098
0013
ffdd
0000
ff78
0096
ffff
009d
0063
0012
0078
0000
000e
0053
0055
ff90
ffec
0032
ffa2
0000
ffa5
0078
0029
ffcb
0072
0020
ffee
0000
0069
00ba
0009
009a
000b
0015
ff85
0002
0049
fff8
001a
fff8
ffdc
0048
ffce
002c
fff6
ffe5
0000
ff79
ffce
ffed
ffc8
ff87
0054
0042
0000
fe80
ff92
fff2
ff47
ff65
ffbd
003b
000b
00bf
0008
0076
ff73
000c
000b
ffb0
0005
0013
ff78
0080
ffa1
0012
0023
00f5
0004
feec
fefd
ffa6
ff34
ffdc
ffea
00df
000e
0013
0018
ffe2
ff17
002d
0014
ffb7
0001
0024
ffb8
fff0
fff1
0052
000f
ffe0
fffc
ff0c
ff63
ffca
ffb7
006c
ffee
003d
0005
ffda
ff1a
0029
feee
ff00
ffd5
0035
0000
ff55
ff08
ffbd
002f
ffb9
ffbc
00a0
fffa
ff52
ff99
0069
019f
ffc5
ffef
0089
0004
ffa0
feff
ff92
ff02
ff17
ffdb
ff68
0008
ff3a
fe88
ff7a
ff71
ffc2
ffcf
0041
ffff
ffe0
ffdf
ffee
000d
ffbc
002a
00d4
0008
0031
0007
0037
00d0
007e
000b
ff21
0005
0057
ffc4
000b
00b5
0062
000f
ffb9
fffc
0092
ffc1
001c
003b
ffd2
0038
0067
fffd
0072
0017
0007
ffca
000e
ffd5
ff5d
fff6
0059
ff7b
fff4
003e
ffb1
ff96
0033
fffc
0003
ffc7
ffc5
009e
0016
ffb1
0011
fff8
0026
00ba
ffff
0033
0042
0001
ff86
fff9
002e
0000
ffe1
0043
0045
fff2
0058
fffc
0011
ff5f
0025
0064
ffca
ffaa
0036
0028
ffe3
0091
ffdd
0079
ffab
ffae
ffe3
fffd
fffd
0077
0013
0028
fff4
fff9
0050
0000
0014
000a
ffd1
0006
0017
ffdc
00a1
0000
0000
0000
fff7
fffe
000c
0005
ffff
fffe
0005
0000
ffff
0005
0000
fffa
fff9
0000
0000
fffd
0005
0001
fffe
0000
ffe5
0001
0001
0000
0005
0000
0006
fffc
0005
0004
0000
0000
0000
0002
0003
ffff
0003
ffff
0003
fffe
fffd
fffe
ffe7
ffe0
ffff
0004
0001
fffd
0007
0000
0002
0000
0000
0003
0007
0005
000f
0003
fffe
0008
fff6
0022
0000
fffd
0003
0002
fffe
ffff
0004
fffe
0025
ffe2
0063
0015
0068
ffff
ffda
0002
003b
004b
fff9
0038
003f
0018
006e
0005
0008
0010
ffc8
006d
0025
0010
fff1
0003
003d
0034
006d
0028
007f
0011
fff1
fffb
0030
ffe4
ffe5
0041
ffdd
ffdf
0001
0000
ffee
fffd
fff7
ffa0
ffe7
000d
ffe2
0000
ffc5
fff1
0034
004c
0038
0019
0049
fffe
0013
ffdc
ffe5
0045
ff4d
ffe9
007a
ffdb
ff9f
ffba
fff5
ffb5
ffe8
ffeb
0043
0003
00b8
0121
00a8
010a
007c
fffa
0029
0001
0225
00d1
004b
01fe
004b
ffb0
ffe7
0061
015a
0058
025b
003a
0077
0051
0039
0002
008d
0122
02be
00a2
0047
0037
0037
0047
ffeb
0246
01c5
004e
0029
003b
0032
fffd
0049
013b
00d1
012f
000f
fe79
0082
0018
008e
0263
0017
021e
ffe2
012d
00fb
0023
0122
0116
0089
00c7
0074
ff1e
ffef
0092
01a4
00aa
fff0
01a3
008a
0072
ffa6
fbb2
ffcc
ffc2
003a
ffb5
0021
0033
0043
0000
ffa7
ff9a
0050
ffc3
0046
0023
0027
0000
ffab
00a8
001d
0000
002f
0033
0021
0003
0096
ffb1
ffe5
ffbe
ffa0
ffdc
001e
0002
ff77
0004
0013
fff7
004f
0041
0091
0003
fee1
0059
0051
0009
0024
0018
0057
0005
0093
0044
0027
fff2
ffff
ff57
ffc3
0004
0009
003c
0020
000c
ff58
ffe7
003d
0005
ffa1
00ac
ffef
0059
001c
0035
ff74
0001
0099
00c3
000c
ffde
ffaa
0020
ff66
0003
002c
0061
ffd1
fecc
ff7e
005b
00a2
0004
ffb2
fff8
ff99
ffca
0064
0038
00a8
0001
0028
0080
007e
003c
ff4f
ffb2
ffa0
0001
0010
00c3
0084
ff81
ff61
000c
00a8
0001
ff1a
0003
000b
ffdc
ffb9
0006
006b
fffe
ff9a
0084
00dd
ffee
ffe3
ffba
ff00
0002
ff97
0060
0054
00f9
ff4f
ffaf
00af
0001
ffbb
0016
003b
0019
fe97
0003
006d
0000
ff9d
0088
ffa3
ff88
005f
ffd9
ff70
ffe8
ff9e
00d3
009b
ff2c
ff97
0028
0013
ffcf
0007
ff88
005b
ff4a
fead
fff8
fffa
ffbf
00bd
008d
ff1b
0010
0055
ffee
ffd3
ff86
ff81
00a2
002d
0029
001b
00a1
0078
ffe2
0012
ff5d
007b
ff85
ff06
ffd0
0082
004f
009a
00ea
002b
ffeb
ffb7
ffc8
0025
ff3e
ffb1
00bf
0063
ffc8
00e7
ffee
005d
000c
ff60
ff93
006e
ffd7
002c
ff6d
004f
ffee
ffcd
fff2
ff7c
ffee
ff21
0047
0018
0068
ff67
ff6a
ff2d
0074
fec4
0072
0023
009b
0031
ff7b
ff84
004e
ffab
0015
0008
00ad
ffa3
002f
fff2
ff6b
ffaf
000b
ffef
0005
ff30
0058
003b
ff41
fef3
ffab
fff6
ff39
003d
0062
ff2f
ffb4
fe95
001c
ff70
ff78
ff3d
00ac
0040
0023
0047
0045
0005
0075
ffba
0084
00c9
00ab
ff66
0008
0083
ff8e
0029
0019
0012
fff6
ff56
0056
004b
ffec
ffd2
0043
fffd
fff9
0094
fff4
ffee
ffbc
0024
0094
ff7f
0078
0060
ff99
ffd3
0049
ffef
fffe
002c
ffef
0005
ffd1
fff2
0024
ffaf
0046
000e
001e
00b2
002c
ffb7
0023
ffaf
ff63
0003
0003
006f
ffcc
ffa6
002a
0011
ff18
003b
ffa4
fffb
ffbf
0013
ffa5
0022
002b
ffa9
fff6
001f
ffc6
0029
0063
004e
ffee
ffc1
ffbd
002d
006e
ffe3
0028
009a
ffc6
ffc3
ffe5
0053
0074
0016
001f
000f
0003
fffd
0000
0006
000a
ffff
0006
0011
0005
0000
0004
0001
fffe
0000
0000
0006
001b
0007
fffe
fffe
fffd
fffe
fffe
0004
0006
fffd
0004
0001
fffb
0020
ffff
fffb
fffc
fffa
ffe8
ffe2
0000
ffff
fffe
0000
0003
0002
001f
fffe
0000
fffc
fffe
ffff
0001
0005
0004
fffe
fffd
fffc
ffff
ffed
fffc
ffff
0008
fffb
0002
0003
fffd
fffe
fffe
ffff
0003
fffd
0004
0009
0006
ffed
ffbd
0012
0026
fffd
ffd2
ffaf
ffd1
fff3
ff9f
fffd
0026
fffc
003b
ffe7
0018
001a
ff8c
001e
ffa6
ffdf
003a
ffb8
ffe2
00b5
0001
ffcb
0000
ff9c
ffa5
ffbd
00a1
004d
000e
ffa0
004a
ffa1
fff2
ffe7
002e
004b
ffa2
ffc7
ffc3
ff80
ffbb
0037
0055
00e3
0039
0041
0012
ff82
ffb6
ffff
0022
000e
000a
0062
005f
ffbe
ff73
0012
007d
000d
ffbb
0019
ffc9
ff8c
ffe0
004e
0018
00a9
0057
007f
0099
00c3
0069
0073
00f1
fffc
0029
00a5
ffdc
007a
0048
005d
00b2
0066
00f3
007c
002c
0070
0060
00c3
00e7
