fff7
00be
004b
ffe8
ffe6
fff5
00b0
0004
fff0
00be
002a
ffd6
ffed
fffc
0023
0005
fff6
0036
ff8c
ffe0
ff5d
fff9
fe3e
0000
fffc
00c4
0063
ffe6
ffa5
fff5
004e
ffff
fffb
009d
003b
ffeb
ffef
0004
fffb
0000
ffff
fffb
004e
ffde
0000
0000
ff03
0005
fffe
ffbd
ff7d
0000
fffd
fffc
00f1
fffd
fffa
ffa7
0038
fff3
ffe0
0000
00fd
0004
0000
ff6f
002c
fff5
0034
fffa
ffa3
0002
0000
0010
00b6
0008
ffe1
0000
feea
0001
0000
000c
015a
ffe9
0033
0000
ffb1
0000
0000
ffc1
0050
ffe3
fffe
0000
0057
0000
0000
0055
0023
fffd
fff4
0000
ffb4
0001
0001
0000
ffc9
ffe1
ffbf
0000
0058
0000
0001
001a
ff2a
ffe7
ffee
0000
00c8
0000
ffff
0095
ff3b
000b
ffcb
0000
ff54
0000
0000
0061
ff99
fff6
ffe7
0000
008b
0000
0000
fff0
ffa2
0017
ffe7
ffff
012a
0000
0000
002e
ffbe
0028
ffe7
0003
000c
0000
0004
ffd1
004a
0002
000b
0002
003d
0001
0000
fffa
0042
0001
fff8
0000
ffe6
0000
0003
ff78
0042
0009
ffef
0001
0091
0001
0001
ffaa
ff59
fff5
fff5
fffe
ff75
fffd
0000
fff1
ffe9
fff4
ffe0
fffe
000b
ffff
fffe
ffb2
002f
0007
0030
ffff
0030
0000
0004
ffe5
000d
001a
ff71
0000
0048
ffff
0001
ffc0
0026
fff3
ffaa
0001
0035
fffd
fffd
0003
ffe6
ffea
002a
fffb
ffef
0004
0000
0006
0000
0001
0014
fffe
0026
ffff
fff7
0012
ffcd
fff8
0022
0000
000a
0000
fffc
0006
0018
ffeb
0028
fffe
ffef
000a
fffb
ffe8
0009
ffed
0023
0007
0001
fffa
fffe
ffec
000e
ffea
0042
0006
000f
0000
0004
0005
001e
0004
fffd
0000
fff8
0001
fffa
ffff
002d
fff1
000e
0007
ffca
fffc
0000
ffe5
0033
fff8
001d
0000
ffd5
fffe
0002
002e
ffcd
0013
ffed
fffa
fff1
fff9
0003
010d
0000
001a
0020
0000
0060
fffb
0003
0090
0045
0023
ffa3
0000
0036
ffff
0004
fffe
ffcf
fff4
ffdc
0001
ff6b
fffa
0000
002e
ff35
001e
001a
0000
ff4b
0000
ffff
0069
ffee
0019
0015
ffff
ffbd
0000
fffe
001a
0019
0013
ffcc
ffff
001b
0000
fffe
001b
ff3d
001a
ffce
0000
ffdb
0004
0000
0035
002a
0015
ffb2
0000
ffbc
0008
fffa
ffe8
ffc3
ffff
ffa0
fff4
002f
0004
0001
0002
ff4d
fff1
ffce
0003
00a2
0004
fff9
0028
ff3c
fff9
0010
fffd
00b9
0005
fffe
0041
ff93
0002
ffdb
fff2
ffcb
0001
ffff
fff6
ffd7
0016
ffad
0000
007d
fffc
0002
ffd4
ffd9
0013
ffc1
fffe
ff9b
fffd
0004
008c
ffdc
ffcc
000f
0000
00a7
ffff
0000
ffcf
ffa0
ffd8
fff2
0001
0059
ffff
0002
ff48
ffa4
fff0
004c
0000
ffb4
0000
ffff
ffb9
0070
0016
002f
ffff
fffa
fffe
0000
0008
002f
0016
0026
0000
ffe2
fffd
0000
0007
0069
0007
ffec
ffff
0051
fffe
fffc
0053
ffae
0015
ffea
0000
ff5d
fffe
0000
0033
ffb7
fff5
0025
0004
fff8
0000
fffc
002e
ffac
fff4
002c
0004
ff73
0000
fffc
0067
ffd5
fff5
fffb
0001
ffa1
0000
0000
0002
ffe7
fffa
ffea
0002
ff6d
ffff
fffe
ffc7
ffe0
fff8
ffd4
0003
fef0
0000
0010
fff0
ffba
fffa
ffdd
0002
002e
0008
0002
ffea
ff69
ffef
0013
fff8
0052
fff7
ffff
0041
ff0c
0015
004f
ffff
0024
fffc
0005
ff24
0026
ffc2
fff6
0003
0058
0006
0002
fff1
0129
ffdb
0029
0000
ffd6
0001
0000
007e
004f
fffa
0003
fffe
0008
0002
0001
0035
ffbc
ffe5
0000
0000
000e
fffe
0002
ffb6
007c
fff5
ffb8
0000
ffc6
0001
fffd
ff7d
0083
0022
001e
ffff
0039
ffff
00b7
0022
ffd4
ffc9
0058
0015
0081
0001
ffd7
ffa9
feaf
ffdb
0046
fff6
ffca
0006
ffde
ffb6
ff97
ffc9
0043
0045
ffe1
0000
004c
006e
005b
fff3
ff9f
ff85
ffd2
0001
0000
ff66
00b8
0050
ffaa
ffc0
ffbb
0000
001d
001a
0015
ffe4
ff8e
ffee
ff7b
0000
ffdf
000f
0064
005c
fff0
ffa5
001f
0000
ff5b
ffc3
00a1
fff9
0025
ff4e
00a2
0000
fff1
0019
ff73
ff72
0007
ff4a
ff37
ffff
0096
ff9d
001e
fffa
000f
ffe2
ffa6
0002
0040
ffea
ffc2
0022
006b
003c
ffbb
0006
ffb7
ff98
fffc
ffec
00b0
0040
ffcc
0000
00b8
ff4a
0054
ffe1
ffef
0039
ffff
0003
0001
ffd6
fff6
0000
ff8d
fffa
ffb2
0000
ffc8
ffb0
0027
fffe
002b
ffd8
ffe2
0000
0045
ffc0
ffcd
ffe7
ffdf
006c
ff78
0000
ff53
fff5
ffb5
ffa2
ffff
ff73
ff7a
0000
ff76
ffaf
00a1
ffd2
0012
ff64
ffc5
0002
ffda
fffe
0067
000f
ffc5
fffa
ffcc
fffd
000d
0072
006e
ffdf
0046
ffea
003c
0006
ffe7
ffe0
0027
ffc6
0000
ffeb
ffb0
fffb
ff69
ffdd
ff83
0008
0062
ffce
ff8f
fffc
ffdd
0011
fffc
0027
002f
ffe1
fff8
ffff
ffe9
0016
0022
002c
000f
ffde
ffd1
ffff
ff2f
0035
ffbd
00a3
001f
ffbb
ff9a
fffc
ffc4
00a7
ff84
00bb
004c
ffc5
ffd1
fffe
0059
009b
ffb0
0020
0063
ffeb
0003
fffa
0004
0000
0011
fff3
0017
ffe5
0005
0001
0006
fff3
000e
0039
ffed
ffec
fffe
0000
fff1
ffe8
0007
001e
ffe7
fffc
002c
ffff
001b
ffdd
ffe3
0000
0020
fff2
0050
fffe
0004
ffc2
fffd
0014
ffdf
ffeb
0013
fffe
000b
ffe3
ffc2
0007
ffd3
ffde
001b
fffe
0003
ffe0
ffe4
0006
002e
ffd0
0045
0000
001e
ffbd
0000
ffed
ffe6
ffcf
ffe9
ffff
fffe
ffed
ffe2
ffec
ffe2
ffb9
fff8
0000
0010
0052
0015
ff42
ffdf
006e
0052
0004
ffa8
ffc9
ffde
0007
ffe0
ffcc
ffe5
fff8
008d
ff64
ff0d
0058
ffb8
0098
ff49
ffff
007c
ffa0
ffa7
0044
ffe9
00c0
0034
0003
fff4
0021
ffa4
ff4a
001a
ffed
0004
ffff
0005
ffc9
fec7
005a
ff88
fff6
0006
ffff
0064
ffcd
ffad
ffd6
006c
0024
ffbb
0000
ffb9
0014
ff2a
ffe9
006b
003c
fff7
ffff
ff83
0029
ffc2
0065
ffd8
fffd
ffd8
0000
ff77
ffb2
ff7b
0009
0001
ffc8
00e7
0000
ff97
ffcf
ffc4
00ec
ffa2
003d
0039
fffa
0073
002c
000f
0062
ffc4
0024
fffd
0002
ff81
ff7a
ff63
0020
0014
0037
ff6d
0001
ffb8
ffec
ff71
ff62
0028
0021
005f
fffe
009a
ffbb
0058
ff79
0062
ffff
0027
fffd
0035
fff4
ffd4
0054
ff4b
007e
009e
ffff
ffd3
0086
ff8e
00b6
fff8
0053
006e
ffff
0009
0070
004f
ff7a
0031
ff95
ffbb
ffff
ffef
ffe2
ffad
ff66
fff1
007d
0009
0002
fff2
ffe1
003b
0037
ff85
ffff
ffeb
0008
ff37
ff7a
0010
000f
ffc6
ffb4
ffcd
fffc
0024
0059
000a
ffc4
004b
008c
ffa9
0001
fff5
ffc8
0031
0096
007c
006c
fffb
ffff
ff17
ffbf
ffd8
0067
fffe
0036
0086
0000
00b9
0078
0011
004e
004e
0029
ffae
0001
0075
0004
ff8f
ffca
00b8
002d
ffc1
ffff
000a
0011
ffdc
ffbb
007b
ffe8
ffd7
0000
ff41
0031
ff3f
0025
fef0
ffd8
ffb9
0001
ffc9
0054
ff81
ff33
fff4
ff55
ff54
0000
0029
ffe9
ff5f
ff80
00fa
ffa2
0001
0002
ff88
ff83
ff3c
0017
ff56
0022
ffd9
ffff
ffa1
ffd6
ff28
ff70
fec3
0021
ff64
0002
ffc8
0044
ffad
ffe0
ff8c
0029
ffe1
fffc
ffd8
ffa5
ffaf
003c
ffed
005d
ffeb
fffe
0004
ff6a
0000
fff0
ffb6
0039
0093
fffe
0032
003e
ffea
0087
ffe3
006d
ffca
ffee
fffd
fff9
ff7d
0000
ffce
003b
ffdc
ff24
ffef
0000
ff68
0006
0094
0060
0052
fef0
001c
ffa1
ffaa
0005
009b
0003
0087
ff73
ff52
000f
ffc4
0004
ffbc
0037
ff7a
ff8e
ffcb
ffaa
ffe7
ffff
0044
0082
ffc5
ffe9
0043
ffa3
ffff
fffc
002e
006f
0015
fffb
ffe5
ff6e
fff8
fff8
ff54
0099
ff58
014f
004d
ff8a
ffa5
fff7
ffa2
008e
0033
00db
0038
0016
ffe7
fff6
0007
011a
ffd9
0073
ffc8
003c
006c
fffe
ffcf
004e
ffbe
ffb0
ffd4
0035
ffc2
0000
0000
0012
0010
ffca
ff0b
ffeb
ff94
0001
000a
0067
007c
003b
001c
007e
ffd5
0002
ffb5
0071
012a
ffd9
ffd3
ffc1
fff3
fff7
007d
002c
00ae
ff95
ff86
ffa1
ffb6
0004
0063
0036
0024
0019
006c
ff85
000c
0005
fff8
0096
0096
0000
006d
ffcc
001f
0009
fff7
0086
ffef
fff6
ff12
ffc8
004f
000f
0027
009c
ffb0
0028
003b
ffba
0041
0009
ffac
0012
ffd6
001f
ffcc
001a
003d
0005
ffad
0021
000d
0061
ffac
0016
0012
000c
ffaa
0012
006b
fffe
0020
fffb
0000
000a
fff8
0017
0009
0048
ff74
000a
fff6
fff9
0018
0060
0064
00a3
fffd
ffa7
0038
fff7
fff5
0044
ffdd
0084
fff5
ff9d
ffd4
fff9
ffd6
0029
ff7d
0043
ff92
ffc7
ffd3
fffa
002e
0049
ffda
fff6
ffaf
ff64
000d
fff7
fffe
005a
0011
ffe2
fff6
ffc2
0012
0000
0005
ffd2
0018
0000
ffe6
001a
001d
fffc
0008
0001
002e
ffec
fff4
0004
000e
fff9
ffda
0005
002a
0010
000a
fff9
0010
fffd
fff4
ffeb
ffe1
fffe
000b
001c
0019
0000
0009
ffee
ffff
fff3
fff7
0009
000f
ffff
fff1
fff9
ffe2
0010
fff4
ffe6
fffb
0002
000e
ffe1
ffef
0030
ffeb
ffd5
fff1
fffe
0008
ffea
ffec
000f
fff4
fff5
ffee
ffff
fff0
fff4
ffe9
0013
0003
00e8
ffc5
ffff
0058
ffc7
003b
0006
ffc3
00d8
ff8f
ffff
fff8
ffb5
0068
00c0
ff86
ffb2
ffcf
0001
ffe2
ff64
ffd5
0071
00ce
0095
ff9e
ffff
ffba
00e2
fffe
ffb0
0094
0105
ff7d
0002
ffe4
0105
00b0
0000
0018
007b
ff51
0007
ff98
fffd
0083
000c
ffed
004a
ffdc
0002
004c
0018
0003
ffc8
ffee
000d
ffef
0006
ff55
0020
0099
ff8e
0013
008a
ff82
fffd
fef1
ff4c
ffc9
ff9d
003a
0068
ff76
0001
ff92
ffb4
001f
ffb6
001f
ffff
ffa6
0004
ff50
006c
fff9
ff93
ff68
000f
ff63
0002
ffd5
000d
ff4e
004e
ffa2
007a
0003
0001
0078
0070
ff50
ff90
ffdf
ff99
ff91
0001
00b1
00d6
ff3c
ffe1
ffb1
ff80
ffe4
0000
00bc
0078
ff1a
000b
ffb9
005d
ffc8
ffff
0017
008f
ff0e
ff57
002c
ffb3
ffa8
0001
ffd6
0092
0058
ffdd
ff5c
ffd0
0018
0000
ffbd
004b
0021
008b
ff34
ffcb
001b
0001
0091
0025
0080
ff95
fffc
ffa8
0021
0000
0047
002b
0080
ffff
0077
fffb
fff4
ffff
0027
0040
ffa6
0028
fff6
ffeb
fff5
ffff
0013
003f
0083
005a
0020
0028
ffe2
0000
ffb4
000e
006c
007e
0039
000e
000a
0004
ff85
0037
ffb4
00a3
ff9f
002b
0007
0001
fff9
0008
0088
0060
ffe6
ffb0
fff3
ffff
ffe7
ff87
003c
fffb
0094
0000
ffd5
fffb
ff6e
0019
0029
005b
fffe
ff67
0023
fff4
fff1
001c
ff15
0044
0098
ffae
ffd2
0008
fff2
000d
ffa1
00f4
fffa
00c1
ffd9
fffe
ff30
ffae
0008
ffc7
ff84
ffd2
003d
fff7
0046
0042
feb0
ffe0
000b
ffdb
ffc4
0001
ffa5
fff9
ffca
0000
ffdb
00d2
fff9
0000
ffdc
ff79
00c7
001f
fffd
0016
0004
0000
00ae
0000
001d
0038
ffd4
005d
000a
0000
ffec
0031
0005
0016
ff95
0054
ffdd
fffe
ffa2
ff76
ffc3
ffb8
ff7d
0099
ff78
ffeb
0064
00b2
ffbb
ff96
004e
ffff
0076
ff66
ff1d
fff4
0037
00c7
ffa5
ffcf
0128
00bc
fef6
0085
0002
013a
ff98
0009
ff83
0008
0057
0031
ffaf
0016
ff81
ffb7
ffbb
ff83
ffa4
ff9f
000a
00b7
ff86
ffe6
0093
0091
ff9c
0019
0029
00a8
0022
fefc
ff41
008e
ffc3
fffc
000f
0005
00ba
feee
ff1d
ff72
0003
ffc8
0026
003a
00d2
0005
000b
00a8
ffa2
ffbf
ffd9
0016
0002
ffbd
ffa0
005c
00b5
ffb4
ffb5
0015
006d
0055
ffb5
0091
0050
0045
0015
0069
00b2
ffe7
ffda
ffb1
ffa2
ff72
ff9c
002c
0095
ff70
ffc8
ff94
fff7
ffde
ffbd
0064
fffa
fffe
fff3
ff9f
000c
0026
fff2
00a0
0010
ffb1
ff2f
ff95
ffdd
ff54
0018
0095
00c1
ffe8
ffdb
fff5
ffc4
ff86
0059
ffac
ff71
ff84
0034
fff4
ff7d
ff94
0069
0001
0039
ff92
ff95
0043
0035
ffb1
0030
000a
000b
0040
ffa4
ffe5
fff5
004c
003c
0043
000f
0036
0028
ffd3
ffff
fffb
ff89
0064
002a
0060
001a
ffe7
0025
0031
ffee
00a8
002d
ff95
ff78
ffdc
ffd1
ffaf
004a
006e
0063
ffec
0021
ffe9
0005
ff80
ff93
0065
0084
fffa
ffc4
ffab
0040
001a
0018
0028
fff5
ff4f
ff76
001a
ffee
ff7f
0036
ffe8
005d
ff9a
ffff
0033
003e
001f
0059
0014
007f
001c
ffc3
ffc0
fffc
fffc
ffdc
005f
003a
0026
fffa
ffe9
fffc
001d
001a
fff4
002a
fff3
fff5
fff2
fffc
0009
ffe1
001d
ffed
ffe6
fff2
0009
000e
0000
ffee
0001
000a
002c
0018
0001
ffe1
0020
ffe1
0001
0025
0000
0019
fff1
0008
0004
ffca
fffd
fff8
ffe3
0023
ffe7
001a
0002
ffea
001d
ffec
000b
0006
ffd5
ffde
0006
0004
0023
0003
001e
0020
ffc4
fffb
ffe4
ffdf
0039
0013
fff4
0036
ffcf
0014
fffb
fff8
003f
0033
0072
0057
ffa7
ffef
00be
ffb2
0056
0016
0003
fff0
ffb1
0039
004a
ffb2
0000
006d
ff61
0007
ff66
0013
0050
fff0
ffab
ffb9
0005
0023
004f
ffa3
00b1
001f
002a
0022
ffd4
0030
0119
ffe4
005d
ffbe
ffb3
002d
ff5d
0010
0041
ff70
ff89
ff93
ff8a
0003
ffc8
005b
0050
fffe
ffc8
ffed
ff60
0038
ffc3
004c
0083
0059
0017
ffbe
ff4b
00d6
ff8c
ffb4
ff70
ff5f
fffd
0027
ff57
ffb4
ff59
ffc2
ffd4
003e
0019
004f
00eb
00a2
ff1c
ffd5
0058
ffea
ffec
0019
005d
00a5
ff91
ff92
ffbd
ff7c
fff1
fff0
ff93
ffae
0075
004d
007b
000a
0069
0004
002a
ffec
ff6a
ffd5
0122
ff36
fff4
ffff
ffa6
0069
ffc8
ffd6
0007
ff64
ff1c
ffe4
ff15
feea
0091
ff2c
011b
ff7d
004a
ffbc
0018
009f
ffb2
0038
0084
feea
0023
fff0
ffbd
0066
000c
ff4d
0002
ff26
ff42
ffe2
fec5
ff92
ffac
ff9b
ffe1
ff57
ffea
ffc8
ff89
004d
008f
ff80
ffd7
ffd7
006d
0047
ffef
ff80
ffc8
ffb7
00ae
ff7b
0055
ffae
0090
ffcb
ffc9
ffd9
ffd9
ff99
ffd9
0010
ffe1
ffc7
0099
ffd5
ffa1
ffe3
ff68
fffd
0050
ff92
ff98
ffe5
002e
0039
ff36
ffd8
ffe9
004a
ffcc
fff3
003c
ffff
fff9
0054
ff70
ff6c
0033
ffd1
ff90
ffb3
ffb6
001d
0008
ff73
004e
ff6f
004d
ffd1
ffd8
fff4
ff6a
ff86
ff17
ff87
00ca
012b
ffe3
0005
fff5
0036
ff45
ff73
00ae
ff68
0027
0003
fe94
ff75
ff4e
ffac
ffba
ffd2
001c
ff99
0036
ffea
0065
ff99
ffd9
ffa6
ff9c
ffdc
ff3a
ff7e
ffda
ffe8
ffef
ff6d
ffd3
0006
fce4
fff9
0072
ffe8
006d
ffa0
ff96
000e
0053
ffee
00d5
0031
ff3d
0009
0073
ffe8
000e
0020
00a2
006e
ffec
ffa8
ffce
0001
fef4
00c2
fff6
0024
ffe7
ffc5
0011
0005
0022
ff34
0024
0001
ffb2
0069
000f
0000
ff51
ff3b
0040
0004
ffc1
0011
ffbc
ff99
ffa3
ffd2
fff6
0008
ff9b
0048
0036
0080
0055
ffdd
000b
0006
0005
00d5
ffe4
002d
ff6d
ff29
ff8b
0000
00a5
0099
0058
005d
005f
ffa1
ff6e
0003
ffad
0055
003b
00a4
0077
fff9
0003
0001
005e
ffff
ff9f
001b
0023
0087
ffba
fffe
ffe0
ffa7
ffcb
00c5
002f
00b7
002e
0001
ff25
0007
004a
0019
ffe0
ffef
002f
0001
fff1
001a
002d
003a
0025
ffa3
00a6
0001
0085
007a
0016
0031
ffbc
004c
ffab
0001
ffbe
0037
0058
0000
ff2e
ff66
ffe8
0004
005e
009f
004a
ffdd
ff72
ff06
ff8e
fff7
005e
00b0
000d
ffc9
ff64
005e
ff80
fffd
00ba
0069
ffe0
ffe9
ff95
0002
0070
0001
0082
0010
0058
ff94
ffc2
ffa4
ff80
fffe
00bf
0049
0087
0000
0022
005a
ffec
fff7
00d1
003b
ff8a
000c
ffc0
000f
ffd7
fffd
0026
0051
0037
ffbc
0057
004d
0038
0000
0021
ffe2
ffe5
0007
0015
001a
0038
fffe
0052
001c
004c
0053
ff92
ffe6
0028
ffff
0049
00b1
0061
ffbd
fff0
0061
ffb0
fffb
ffcc
002b
0014
ffa2
ff98
ffa9
004b
fffb
003f
ffe0
0001
0026
ff7d
ffc7
fff1
fffd
ffe8
0066
ffbd
000c
0007
ffc9
001b
fffc
0064
00aa
0003
ffbd
ffcc
ffd0
005b
fff8
0057
0088
0042
ff90
ff96
0025
ffed
0000
ffea
0003
0021
000e
fffd
ffee
fff4
0000
ffd4
fffa
0017
fff1
fff0
ffd6
0012
0004
ffe3
fff5
ffdf
0008
000a
0032
ffeb
0004
ffe1
ffea
fffa
0033
fffd
0000
ffd3
fffc
ffd9
fff0
000e
0036
002d
ffea
0014
0000
ffdd
fff8
ffe9
0020
0033
fff5
0017
ffff
ffdf
0002
ffdc
0013
0013
001c
fffc
fff6
fff5
ffeb
ffe4
000e
ffff
fffa
001b
fffa
ffe2
0004
ffd0
0016
0025
0011
ffe5
0001
ffde
0074
0031
fee5
ffb8
0023
ff7a
0001
ff80
ff90
fff4
ff84
0052
ffd7
00c2
0003
fff4
ffd2
fff9
ffaa
0055
00e8
0051
0004
0075
ffeb
0011
ffc4
ffb6
00b6
003e
fffe
004e
ff39
ffe7
ffb8
ffa6
ffcc
0087
fffe
003a
ff77
ffe1
ffb7
00ac
0035
ffc8
ffff
ffd8
ffec
fff8
ffbd
ffa0
ff9a
ffeb
0002
ffff
ffac
ff9b
0004
ffe1
ff82
005d
0000
ffcf
000f
004f
006f
0062
ffbf
ff68
fffd
ffe8
ff92
00c1
0016
ff3d
fff3
ffb2
0004
ffe9
ff19
ff7a
0032
ffcc
0000
ffd2
0004
ff39
0096
ff66
0085
ffdf
ffbd
ff6d
0000
ff2c
ff89
fff3
ff28
fed3
ff90
fed3
fffe
ff59
ffb7
ffb1
0076
ff6d
0079
ff71
fff9
ffc7
008c
ffaa
00c9
fff6
ff79
ffd1
fffc
ff69
ffc8
ffeb
0019
ff89
0034
ffe4
0006
ffdf
0052
fff8
ffcd
0040
0069
0058
0002
ff83
0040
0070
0068
0069
fff9
002c
fffe
008e
ff5d
002e
ffa0
ffbd
ff73
ffa1
0000
ffdd
000b
00ba
0048
0074
ffc0
ff79
0003
ff9d
ffc8
0088
0030
00c0
0009
0018
0001
006d
0024
0032
ff16
ffaa
ffd8
ffdd
0003
000c
0011
0075
fff5
0038
0014
ff93
0000
ff7f
ffcc
005d
005f
005c
0029
ffea
fff9
0010
00c1
0027
ff96
ff75
fffa
0065
0000
ffa6
ffbf
ffa4
ff90
ffed
ff74
ffd8
000b
ff7a
ffde
fff2
ffbb
ff7a
0020
ff1a
0015
ff07
ff34
0030
000d
0008
001b
ffa1
0000
ff72
0033
00fe
0082
002a
ffe1
ffcc
0011
fff0
ffdc
ff44
001d
ffd1
ffdd
001f
000d
ff22
ff83
ff4b
ffa6
ff66
ff5a
ffb1
0003
ff69
ffdf
ff1f
0000
00ff
0016
0047
0003
ff97
ff5e
ffd6
0044
002f
004f
0095
0000
0027
ff71
ff74
ffa2
ff44
004d
007c
0003
00df
ff99
001e
ff63
ff80
0059
0060
0001
ffb2
ffa8
0037
ffa6
ffbb
ffc7
ff8e
004b
ffd8
ffdb
ffbd
009d
00b5
ff61
007a
0094
ffa4
000e
ff77
0024
00cc
ff29
000c
004e
ffb5
005a
00ad
0031
0068
ffb8
ff9a
0024
ffdb
0012
0002
0021
fffb
fff8
ffeb
000b
ff7c
0006
ffc9
0105
ffbc
ff92
0050
0011
ff78
fff2
0010
0042
ffcf
ffe8
0073
ffe9
ffa2
ffbf
fff9
ff85
ff39
000b
005b
0022
fff7
ff9b
ffdb
00fd
fe92
0030
ffe8
ff94
ffe5
ffb3
ff56
003d
ff87
006f
ffab
ffd7
004d
ffe2
0018
0086
0013
000d
008d
ffc9
ffab
0040
ff9d
009e
002c
ffe8
ff76
ff94
ffd7
0052
fede
0062
ffee
0013
ff8a
0001
00a1
0009
007a
0040
ffc4
0036
0019
ffff
0061
fff2
ffd3
0026
ffd0
ff9c
ff82
0006
0028
ffca
ff55
003b
00a5
ffb7
ff34
0008
ffe7
0026
0097
ff60
ffe3
ffb6
ff8f
0075
0027
ffc6
ff8f
ff58
ffb4
ff22
ffee
ff9f
fffe
ff95
ffad
0018
0051
ffe3
ffed
ffda
ffa9
001e
0041
0048
0004
0051
ffee
fffd
ffaf
005d
00d0
ffdb
ffa8
001f
0002
ffa8
00ac
0038
ffdf
ffb3
ff71
0005
ffd8
ffd7
ffea
ffe3
ff6e
0079
ff3a
0045
fff2
ffcf
ffcc
ffc4
ff59
ffdf
ff61
00a3
fff7
ffd7
004f
0046
fff2
ffd9
ff86
ffca
0052
ffb8
0099
0007
ffbf
006e
ff4a
0051
ffe3
ffa7
ffd4
0025
ffa7
0030
ffcf
ffe5
0011
0000
ffce
004d
ffea
008a
003b
001c
0012
000c
fff2
0020
0005
ffc2
0015
003c
0016
0010
ffe2
0015
0006
0017
ffef
001a
0015
0007
fff7
0016
0000
0014
ffea
0012
0009
ffea
0003
0009
0000
ffe1
ffeb
0049
fffc
ffe8
ffcc
ffe8
fffc
0007
ffe2
0004
0004
ffda
ffe5
fffe
ffeb
0003
ffd1
0014
ffed
0007
0000
fff6
fff2
ffff
0020
004b
ffed
fff2
fff1
0017
0009
0009
0016
0005
0008
0000
0010
fff4
fff8
0016
0005
0000
0025
fff0
ff7d
ff0e
003f
00b7
0024
0000
fec7
ff76
ff5f
0024
ff8c
008c
fff1
ff73
ffce
003c
ff87
00ba
ffcb
ffd0
ff65
ff9d
fffa
0093
ffd8
ff91
0006
0079
ffda
ffcc
fef8
ffde
ff8a
ff7a
ffcd
0004
002c
ffc5
ff50
ff99
ff80
00ad
0046
ff9f
ffed
ffb6
0014
ffd9
0039
0077
00f0
0054
004c
ff45
ffbe
ffad
ffd0
0083
0023
ffa6
ffc8
ff79
ffbb
ffd9
ff76
0050
00db
ffa4
00a2
ff5f
ffa0
ffac
ff96
ffad
fec3
00d7
fff3
003f
ff71
ffa0
ffe3
007b
0029
fffe
ff74
0014
feeb
ff9c
ffe4
0012
008a
ff6e
fff9
ff9e
ffae
0005
ff16
ff74
ffd1
00e8
0062
ff0c
ff68
fff9
0034
feda
ff18
ffee
0037
ff61
ff93
ffc7
0045
008f
ffae
feed
ffcc
ff41
0009
ffef
001c
0067
005b
0057
fff8
ff27
ffb6
0001
ffa4
003c
fffe
fffa
ffb4
ffcf
fff8
fff5
0044
004c
ffdd
ff7e
0074
0091
0085
000a
000e
ffee
0031
ffb7
ff4a
ff82
00b9
fff2
ff9a
ff18
ffa5
ffa7
ffcc
ffa2
ffca
fff9
ff91
ffb1
000e
ffe1
ffe9
ffd5
005b
0096
0036
00b1
0048
0024
ffed
ffdd
0082
001f
0075
ffd6
002c
005b
00cb
ffb1
ffc7
0072
002a
fffc
ffb3
0014
ffe6
ffef
ffc2
0015
ffcc
0040
ffd2
003b
008c
ffc3
fffe
002e
ffba
0011
ff98
002e
ffc4
ffcf
ff7b
0043
ffc2
0027
ffaf
0008
ff72
ff77
ff72
fff8
ffaf
ffc0
fff0
ff0a
ffbe
ffe3
ffff
ff89
007d
ff28
ffa9
008a
ff62
ffca
005b
0031
0089
ff9a
004b
0122
000a
ff9f
ffd5
0076
ffb5
008a
001f
ffb1
fff6
0062
fff2
00b2
0072
0147
ff99
000c
ff46
008f
001c
0003
003e
ffc7
00fd
00bc
ffdd
0091
ff81
ffde
ffdb
0115
002e
ff85
001c
003b
0001
0065
ff90
0126
ffe7
0004
0041
ff6b
0027
ffe6
0033
0064
ffb8
0079
ffc5
00e4
ff9e
004b
fff9
0030
ffcd
00e0
001a
ffd0
0062
00a1
fff9
fff5
ff8e
0046
0065
00b4
004e
005b
fff7
ffb1
0003
0033
ff54
00bf
0036
0048
fff7
0013
006b
0067
0046
0115
00dc
feb1
fffe
ff3b
001c
ffb7
0077
0092
ff9c
ff32
0000
ff84
0063
fff8
ff75
008d
0035
ff69
ffff
ffea
ffe6
0028
00cc
fff8
004a
fe96
fffd
ffa8
ffa4
ff7d
0096
006b
ffd7
ff3e
ffff
ff96
0029
0054
0045
ffb8
ffe1
ffb7
fffe
0008
0067
ffc5
00ba
ffe6
ffe7
ffac
ffff
ffb9
0041
002f
008c
0019
ff7a
ffc1
fffc
ff8b
fff2
0008
0040
ff47
ffae
ff9e
fffd
005a
ffb5
000e
0068
002c
fffc
004d
0001
ffd5
0029
0045
ffbd
003f
ffc3
fff1
0002
ffb3
ff7a
0038
ff93
ff8f
0006
0081
ffff
ffd0
ffdd
002f
ffc9
ffc9
ff8c
00a5
fffd
0018
0069
fffe
001f
0049
0032
002f
fffa
ffa5
ff9b
ffc8
ff97
0099
008d
ff7c
fffc
000c
004e
ffe4
ff39
ffd7
fffd
ffc1
fffe
ff5a
001b
001e
ffb9
ffb9
ffb1
ffbf
fffc
ff52
ffe0
0010
0076
0054
ffc0
fff3
fffb
ffa2
00a4
0052
ff59
ffb1
0001
ffa6
0007
ffe9
0061
ffe8
ffe6
ffbc
0002
ffa1
0003
ff96
ffb6
fff9
fff9
00c4
fff9
ffa1
0002
ffab
0051
009b
ffea
0051
ffe5
ffc7
0001
000e
0006
ffa0
0045
ffe1
001e
ffa2
fffe
0053
001f
ffa2
fffb
0004
ffee
ffd1
0000
ffe6
fff6
004d
0019
0001
ffeb
0018
ffff
ffd2
fffc
002b
fff1
fff3
ffdb
fff1
0000
fffb
0011
001a
fff7
0021
001d
000a
0000
fffc
fff9
0015
fffe
0020
ffde
ffed
fffb
001a
ffe1
001f
ffff
ffe8
ffa6
ffe9
fffa
0047
0004
fff9
0016
ffe0
fff8
000b
fffc
0011
ffc1
000c
ffe4
0007
ffe3
fff6
fffd
001a
ffc8
0005
0010
0038
ffb9
ffdc
0000
0053
000d
0006
0007
001b
ffc0
ff31
0001
0062
ffac
ffde
ff6e
ff7b
007d
0020
ffff
ff69
ff82
0056
ffc0
ffdb
0022
00b3
0000
ff41
fef2
0073
ffc3
fff2
0013
ff4f
0000
ffff
009a
fff0
ff8e
ff82
0000
000b
fffb
ff93
002a
ff8c
ff71
ff93
ffa8
00cb
fffe
ff67
ffbe
0064
0006
ffd9
fff0
003a
fffd
ffce
ffe1
ffac
ffd1
0003
ffa9
004d
fffb
ff30
ffc8
ff97
00a2
0026
0029
003b
0000
ffb7
002e
ffbf
0038
feee
0021
ffb7
0000
ffae
ff4b
fff0
ffd6
ff1d
ffba
003a
0000
0028
ffac
0075
0021
ff7b
ff18
0038
0000
0024
ffb5
ffe1
0020
ff8c
0013
fff7
0001
fff3
0021
0043
ff48
ffcc
ff99
0041
0001
0018
ff9b
00c2
ffe6
0003
ff6e
00ac
0004
ff8d
ffec
00bb
ffd2
ff54
ff07
004b
0004
005f
0000
ff56
006b
0068
0044
0068
fffe
ffda
ff4f
ff4c
0008
0011
0055
ffcd
0001
fffa
0054
ff18
0047
003f
ffcd
ffd3
fffe
0050
0081
ff4b
ffc4
00a2
0069
0033
0000
001d
00c4
ff67
000d
0075
0077
0000
0000
0094
0072
ff99
0002
ffd1
ff95
ffbd
ffff
002f
0028
ff8e
ffaf
0089
ff52
ff6f
0000
ffcd
0045
ffd9
0037
0011
00d0
ffdd
0000
002a
0016
ffb1
0057
ffa7
0038
ffe6
0002
ff9f
003a
ffe2
ffb3
0021
ffb9
ffc5
0000
ff73
005b
0028
0055
ffeb
ffe7
0022
0001
0000
ffe2
ffcb
001c
ffcb
008b
008f
fffe
ffc4
fff6
007d
ff7b
ffa6
004a
007d
0000
fff6
001d
012c
ffec
ffc2
ffd4
ffb1
0000
ffff
008f
002a
0046
000e
0058
002f
ffff
008b
fffb
006a
ff60
00b4
0033
ffce
fff3
009b
00b1
0066
ffe6
ffea
ff08
ff92
ffee
0090
0039
0059
00bf
fffa
ff74
ff4e
ffff
0051
0013
ffc3
006a
fff2
ff66
ff6e
ffe4
000d
006c
ffa4
0121
0033
ffff
ffba
ffd7
0010
00aa
ff67
0070
ffd7
ffc5
0080
0024
ff9e
0000
fff2
003e
ff61
0002
00ae
00b9
ff2c
ffcd
ffcd
ff5b
ffa2
0008
0077
008f
ffbc
fedc
ff79
ffa2
ffae
ffc3
001a
0006
fee2
0086
ffc8
0054
ffd6
0097
ffc2
007b
ff1a
0026
ffe4
ff9a
ffc7
ff6e
ffd8
0024
ff3f
ff47
ff7a
ff80
0048
ff5d
0015
ff80
ffbe
ff5d
ff86
ffd9
004e
fff3
ff87
002a
ff46
0065
ffd7
ffc5
ffca
ffa0
0022
ffbb
ff2c
ffba
ffc6
ff73
0065
003f
00f8
ff90
ffae
ff58
ff87
ff9d
0060
ffff
007f
fff3
ff7c
ff4d
ffb0
ffcc
ffef
0094
001c
ffd7
ff8d
0030
0073
001a
005a
ffb2
ffcd
ffb6
ffbb
fff4
ff9f
ff83
006c
0049
fff0
ffff
ffb5
0024
0023
0019
0023
004c
006d
0076
ffec
0035
009d
ffec
ffca
ff83
ffe7
ffd0
0069
0026
ffc4
ffdf
ffd1
0041
0006
0030
0031
0094
ffbf
fff1
ffd4
ff71
0022
0029
0002
005f
ffd0
ffec
ffe5
0037
004f
006b
fff3
0097
0013
0024
fffd
fff9
0022
0049
0046
00b4
0019
001f
0019
ffed
fff2
ff90
0028
0051
ff96
008b
ffe3
0054
0058
0065
ffdd
00d5
0079
ff5e
ff89
ffb6
ffc0
002f
ffc5
0042
fffe
000b
ffed
ff0e
ff91
002b
fff2
ffd6
0000
fffc
002f
0046
ffc4
0077
000f
006b
004c
fff2
fffa
0043
ff76
ffd5
003b
004e
001c
002a
ffa4
ffe5
ff40
0025
0067
ffb9
0002
0010
0010
fff6
0003
fffa
fff3
0025
000a
ffe9
fff9
fff4
000c
fff2
0001
003d
ffde
ffff
002c
0007
0029
ffe8
000f
fff4
ffe7
000c
fffd
0019
fffa
0000
fff6
ffd3
001a
ffe7
ffee
0009
0000
ffe1
ffee
ffef
ffe0
0023
0040
0020
fff6
ffe7
fffc
ffd0
fff3
002a
0000
fff4
ffdc
fff1
0006
ffc4
ffe2
000c
0010
0017
000d
ffea
0012
ffbf
fff7
0030
0021
002b
0008
fff7
0018
ffe3
ffe3
002a
002b
fffa
ffd6
ffff
ffb3
0039
ffb6
0074
fffd
0043
ff9d
ffe7
ff3f
ffea
ffbd
0062
0047
ffc4
ff85
ffea
ff1d
0009
ffc6
ffcc
0070
ffe3
ff01
ffac
fed1
0006
0020
ffa7
ff27
ff9e
0026
ff9b
ff41
ffd3
ff69
ffad
ffa2
0018
0039
ffd4
ff6e
ff97
ffb9
ffe4
004b
ffb6
00f6
0028
0026
0034
ffec
ffac
0007
ff8f
002a
ff7c
ff96
0051
0035
ff6b
ffdf
ffe0
0072
004b
ffcb
ffad
000c
ff67
ff74
0023
ff5a
ff9f
ffae
ffd4
0076
004f
ffce
008e
0081
ffbc
ff93
00ae
fff8
002a
ffd0
ff73
005a
000b
fff0
ff5d
0004
ffef
ffbc
ffe8
004a
ffaf
0034
0002
0022
ffa7
ff98
003e
ffd8
ff8d
0068
ffe7
ffe6
ffc6
ff16
ffa1
005f
ff84
0076
ffd8
ffc6
ffe4
ffcf
00a6
006c
ff8d
00ac
ffdc
ff94
ffdf
ff98
fef8
0066
0085
004e
ff15
0071
ffc9
ff7a
ffce
002b
ffaa
0087
ffaf
ff74
ffdf
001f
002c
0039
ff59
ff6b
ff43
ff91
009c
0033
ffe6
004c
ffba
0041
fff8
0001
00bc
ffd7
ffbd
ff43
ffa3
0002
0072
0016
00ae
ffff
007e
ff78
ffcf
ffa8
ffb3
0013
ffdb
0024
0046
ffdf
0006
001e
ff9a
0062
ffa3
ffcb
0087
ffd2
000e
ffd6
0054
ffbe
ff6e
003c
0063
0030
0046
ffcb
ffb1
0013
ff78
0043
ffe1
0026
ffd8
ffd2
0008
00c0
ffb0
ff89
ffca
0038
003e
002b
008b
0047
fff0
ffcb
ff93
008c
ffa6
ffed
fffa
fff2
0060
000f
001f
00e3
ff74
007c
ffaf
ffbe
ffbc
fff8
fffc
0006
ffd6
ffbf
000e
ffc8
001b
ffa9
001f
0069
ff9e
00aa
0045
ffec
002a
ffb9
ffb4
fed1
00b6
0157
002d
ffbf
ff79
0091
001c
ffb8
fff6
ff8a
005c
0021
ffdc
ff8c
0065
002b
ff8c
ffd8
ffde
001e
008d
ffa7
ff99
ff7c
ff40
0017
0071
008f
0072
ffb6
ffcd
0075
fffa
0077
ffcf
ffd1
0039
0015
004a
ff90
ff0e
00f4
0098
ff8d
003d
002e
0057
00bd
ff43
0068
0057
ff27
ffc9
ffa3
fff4
00a7
0056
004d
ffa8
0064
ff3e
fff8
ffab
fff2
ff98
000c
ffd2
ffcc
001f
0072
ff75
007d
002a
ff94
0059
ffa5
fff8
ff3a
ffa1
fff6
fffe
ffa9
ffc9
0003
ff74
ffe4
ffe6
0000
008d
007d
ffc4
0082
ffad
0028
ffbb
0068
010b
ff81
ffd9
fffe
ffa8
ffd1
ff82
ffa3
ffcc
ffbd
ffc8
fff3
ff8c
ffa3
ff87
ffe5
0080
0053
002b
ffb4
ffd1
0044
ffbf
000e
0041
ffcc
ffc4
0013
ff81
0081
ff70
0000
fff1
009c
0006
00df
ffe2
ffcb
fff0
ffd2
0048
ffa0
006b
ffa1
fffb
ffc2
0020
ffea
0014
ffd9
0068
fff6
ff81
ff29
0003
005e
0007
ffd7
ffce
000d
ffb4
0028
002f
ffc7
fff7
ff8f
0083
002f
ffd1
005d
0053
ffee
ffc0
ffb3
00c7
0057
ffae
ff92
ffea
0002
0051
fff9
ffbf
ffc6
ffd7
ff2f
005a
ffe9
fffe
0088
ff64
ffa9
ffd9
ff4c
0094
fffd
0088
0085
0038
ffbb
0009
fff7
ffa7
ff93
00aa
fff2
000d
ffb3
fffd
ff6e
ffed
ffda
fff5
ff91
ff66
0043
006a
ffd4
ffd1
ffff
001a
0012
0037
0053
fffc
0038
0075
fff5
004e
0025
0061
fffe
ffec
fff3
fff4
ff9e
002f
ffda
0004
0099
ffe9
fff7
0070
ffc0
ffde
0039
ffd7
004a
ff94
0041
00a4
ffad
ffd6
006a
0034
0044
ff90
ffef
0017
0016
0009
0038
ffe7
0016
0000
fff0
002a
0018
fff4
fffc
ffd8
ffdd
0005
ffe4
0011
0003
fff2
0012
fff9
0023
002c
ffca
fffb
fff3
fff4
0042
ffe1
000c
0000
fffa
fff6
ffe4
ffe0
0016
ffed
ffdb
000f
0003
fff9
fff8
ffe6
000d
0014
0000
fff6
fff6
0001
ffc7
000b
0019
002b
fff4
000d
0016
fffe
fff6
fff8
002f
fff4
ffe6
0014
0009
ffec
000a
fffe
002a
0017
ffff
0003
0101
ffc4
ffe5
ff8e
0063
000b
0000
ffba
0028
000e
0051
ff13
007a
ffa9
ff8e
ffc4
ffa0
003d
002e
0036
ff7d
ffbc
ff68
002b
0040
0019
ff9c
0011
fffa
ff92
ff9c
0061
ffce
ff5d
000e
ffb5
ffc2
ff6c
0039
001a
0003
000d
0078
00aa
ff7a
ffd9
ffb1
ff9e
0049
000e
ffe2
0028
00aa
0015
0027
0084
ff5f
ffe7
001f
ff6f
ffd8
0048
ffb8
001e
ffb9
0006
005b
fff6
ffc5
005e
ffbc
ffa9
ffef
0076
005f
ffa6
ffdb
0025
ffd1
0031
ff90
0051
00aa
ffc7
0048
0023
ff69
002b
0020
0001
ff88
ff95
0002
00ad
0049
0053
001c
0026
0018
006d
0013
0079
0028
ffd1
ffc9
ff5b
000c
0046
ff95
0012
002d
ffd2
005e
ff3b
0065
004f
ffde
ffed
00cb
ffca
002b
0030
ffc0
0075
ffcd
ffd7
0069
ffcd
0063
0050
ffa2
0086
ff89
fffd
0052
ffea
ff88
ff40
002e
0009
ff23
00b0
0026
ffd1
003a
ff3a
ffcf
ffa7
0029
ffdb
0028
ffde
006b
0000
0004
0006
ffd3
000d
ffde
0029
00a0
0089
008b
000f
fff2
ff18
ff92
fff2
ff95
ffa5
ffaa
005e
ffaf
004f
fff8
fffe
ffba
ffc6
0032
0003
ff5b
0017
0027
0058
004b
fff3
ffe1
006f
ffee
fffd
fffd
0014
fffe
fff5
ffa0
000d
ffff
0050
ffd4
000b
0009
ff8d
005f
0007
ff98
003c
ffca
005a
ffa2
0028
0039
0068
ffaf
0023
ff9d
005d
ffba
003e
ffc2
001c
00ab
005d
003f
ff7c
00e4
0063
00a1
ff5f
ffe6
ff9e
ffea
ff9c
fff3
00b2
ffd2
0018
0013
00e0
fff1
007d
0054
fff3
ffe8
fffc
000c
ff76
008f
fff3
0169
ffcf
ff2a
ffeb
ff92
ff6b
fffd
0041
000e
ff95
0085
ffe5
0033
006a
0012
0025
ffe1
ffe7
fffc
0115
0051
ff6d
ffb0
ffcc
ffe3
0054
ffb3
ffee
ff87
ff7d
fefe
ffd6
ffc7
ffd4
ff8d
ffc3
ffce
0020
0054
fff0
0037
ff9a
fec5
ffae
ffdc
0034
0083
ffd0
ffee
0036
ff72
ff89
ffd9
ff73
0019
0057
0001
fff6
ff42
0001
010d
ffb0
0024
ff8a
ffdd
ff4a
ffbb
0099
003a
ff2d
008a
0026
ffd9
ff98
001a
001b
000d
0002
ffbb
00ca
ffd1
ffce
ffb9
0032
ffc7
0003
ff69
0090
fff7
ffbe
0059
00ae
0030
ff1a
009f
0028
000c
000f
00f5
0075
ff98
ffb5
000b
0081
0022
00a0
005c
0030
ffa7
0078
00a0
0015
0021
0094
ffa1
004e
ff9f
0047
003b
ff70
ffc3
00c3
ff5f
0080
0049
fff4
0067
ff2b
ffc7
004f
0011
ffb5
005e
ffef
ff9c
0027
0058
0032
ff98
0050
ffb7
ff89
0043
ff91
0049
0011
001a
ffb4
0062
ffba
0150
ff2b
ffe1
007f
005d
ff51
00f8
ff8a
0004
ffb7
fff5
ffcb
0041
0022
0014
ff4b
fff2
ffdc
006b
ff96
00cd
ffae
000d
ff7b
00d6
ff5b
ffd3
003e
004b
ffeb
00db
ff2a
0057
0007
000e
0043
ffd9
ff78
fff6
0064
0011
ff3d
fffa
fffc
002b
0020
ffd2
ff74
fffc
ffae
ffac
ffdc
fff4
ffb5
0056
ffd5
007c
ffc1
005a
0055
0014
ffef
ffe0
005b
003d
ff49
ffd8
0049
003c
ffb8
0003
ff9e
ff90
ff7c
ffda
006a
ffb4
ff81
ff9c
003c
0011
ffa9
0005
0002
0054
000f
0003
0012
0005
ff86
fff8
0056
ff9b
ff97
ffd9
003c
003c
ff55
0025
00ae
ff2d
0064
ffe9
003d
0073
ff89
002e
002a
0010
fff8
0021
0019
000c
0003
0016
fffb
fff9
fff3
fff0
0019
0004
ffd5
001b
ffef
ffe2
0011
004c
000a
003a
ffeb
0014
003b
0006
001e
fffc
0003
0002
0017
0005
ffce
000e
0003
ffd0
fff0
ffdd
ffe5
001f
0000
fff8
0019
0021
ffd6
fff4
fff6
0020
001a
0003
ffd0
ffb7
0044
ffdd
fffb
fffa
ffec
0013
ffdc
ffe7
002b
ffe9
ffdf
0004
ffec
000c
0005
0031
0000
000c
fff2
ff9b
0080
ffa2
ff5d
ff56
0005
003d
ffa1
ffae
ffa8
ffb1
ffdc
ffd4
0022
0006
ffcc
ffdc
ff8b
ff25
0088
ffb7
0069
ffe1
ffd2
ff7e
ffbe
ffb1
ffb3
0027
ffd9
008f
fff7
fff5
ffef
ffa8
ffb5
0009
ffd1
0095
ffdb
ffeb
ffce
ffb5
ffc4
ffc8
fff3
ffcf
002c
ffc4
ff9f
ff8e
0045
002e
ffd1
ffde
ff99
fffc
ffce
ff7d
000c
003c
0021
009e
ffec
0010
ffc2
fff7
fffa
ffef
0000
0005
006b
0000
0031
0044
ffbb
002e
fffb
fef7
ff98
ffdd
0027
fff8
ff68
003a
0049
ff08
fff7
ffe1
ff6a
ff47
fff2
0012
002a
002a
0060
ffcc
0000
0063
ffa1
0048
ff49
ff83
ff8f
ffb4
0005
ff8b
ffce
004b
ffe4
0051
ffb9
001d
0009
0017
0038
ffb1
002b
ffa7
ff66
0000
007b
00a9
0033
ffc6
001b
ffa0
ffb4
ffea
0066
0055
0016
0049
0016
004f
fffb
001f
0025
ffe2
ffbf
0000
ffea
0049
007b
0005
ff98
ff86
0072
0041
ff73
ffc7
ff66
0024
0042
007e
ffc2
fff6
ff9e
ff4e
003f
004d
0004
00c3
0028
0036
000b
ff45
0014
fff1
ff97
0060
0050
0047
ff68
ff6a
0001
001f
0062
0068
ffe1
0088
fff6
ff7d
00ae
006f
0016
001b
ffed
ffd7
001e
009c
00c5
0000
ffc2
001f
001f
ffa6
ff39
ffce
008f
0000
0028
fff1
004c
00c2
ff90
0022
006f
0001
0030
fff8
0006
ffdb
002a
0053
0019
0004
00c0
0086
ffe4
ffed
000d
0034
ffcf
ffe7
0045
002b
ffa7
ffec
0027
0118
0054
ffbd
0000
ffd7
ffd7
0045
ffec
0034
ffd4
0010
00a1
00df
ffa0
0027
0053
0082
fff1
0070
ffc4
ffbc
0027
ffa1
fff3
0140
006c
ffce
003f
ffba
000f
0000
ffc5
0000
ff82
0011
0052
003f
006b
ffed
0018
0000
0034
ffdf
ff94
ffac
00f4
ff1c
ff9e
00cc
003e
0012
0035
002c
003e
006b
ffe3
fff2
ffb9
ffe8
ffc7
0000
ffd9
00e2
ff85
ffcd
0027
ff5b
ff3c
0002
ff96
008c
ffb4
0020
0052
ffdf
ff5d
ffff
ffa2
0012
ffd3
0045
ff72
0090
ff54
0000
ffb3
ffd5
0001
ffe2
ffb7
0055
0022
fffe
ffff
003e
ffe5
0061
ffa6
000b
0064
ffff
0023
004e
ff65
0068
ff0f
ffe7
ffa2
ffff
001c
ffc9
ffea
ffc7
ffc3
002a
ffea
fffe
ffcb
ffd2
ffb7
ff4f
fffc
0058
0055
fffe
ffc8
ff5d
ff93
ffe3
ffb3
008b
0068
0000
0001
ff89
0017
0027
ff5b
fffc
fff9
0000
0073
ff9f
001d
0028
ffbf
fff5
ffe2
0007
fff2
0009
0044
ffde
0027
00eb
0047
0003
0031
0036
ffe1
fff0
ff74
008a
ffa6
0002
008f
ff72
0016
fffc
ffb5
0092
ff1d
0001
ffe8
ffdf
ffdd
ffbc
ffbc
0015
ff77
ffff
ff8c
0028
ff99
ff6c
0022
002e
ff74
0002
ffe7
0035
ff90
ff90
0015
002c
ff3b
0008
fff1
0018
ff90
ffbc
0024
000d
fff4
000b
0081
000e
ffd7
003a
0053
ffd6
0000
0006
ffe1
0049
ffe8
0080
0063
0048
ffdb
0014
fffa
ffb1
000e
ffec
0059
0027
0019
0010
008a
ffa0
ffe8
0072
ff7a
ffb8
ff9d
fffe
ffcf
ffb0
0053
003f
fffe
000d
ffbb
ffff
0000
ffe6
0005
ff94
004e
ffd8
ffdf
0000
0032
ff7c
000b
ff85
ffe4
ffdc
0067
ffff
0025
ffb0
fff7
ffee
0008
ffa4
fff3
0000
004b
fff4
ffe2
ffb6
002c
0002
000e
0006
0017
0018
fffa
ffa9
ffea
001c
001e
0005
ffe2
fffe
fff2
ffeb
ffec
0011
0022
0005
ffeb
ffe3
0012
fffa
ffda
ffe9
001d
0003
0021
0007
ffc9
ffc2
0000
ffee
0001
fffb
ffe0
0006
ffb4
ffe2
001f
0012
000e
fff8
0003
000d
ffb7
ffe8
000a
0009
ffff
fffd
0001
000b
ffd4
ffe8
001c
fff3
0015
fff9
ffcb
fff9
ffb2
ffe9
0022
0012
0009
fff2
ffca
0009
ffa3
ffbf
001b
003c
0087
ffff
0005
0010
ffb4
0038
0054
ffab
0056
ffff
ffee
ff8c
000a
004b
ffc9
0021
ff9c
0001
ffce
ffe7
ffbe
0073
ff6f
0008
ff86
0000
001d
001b
ffef
ffd6
0082
ffc4
ffb3
fffb
0049
0055
fff2
007d
0007
0052
ff7f
fffc
001f
ffb1
ff98
0021
ff8b
ffe2
ffa0
0003
005b
fff4
003b
0028
002b
ffb7
ff58
fffd
0038
0047
ffe1
0075
003a
000d
fff1
fff3
ffea
002a
ffb4
0041
ff30
ffc1
ffd9
fff7
ffe3
006e
0064
ffb3
ffe8
ff4d
000c
0013
ff87
ffdb
0032
00a0
fedf
ffb8
0009
000d
ff8e
00c5
fff2
0128
ff8f
0009
0000
fffb
001c
ffc9
004c
0025
ffcc
ffde
00ad
0001
0020
ffce
0016
004c
ff62
ffd0
0020
0000
ff9a
ff95
fff9
ffd5
ff72
0013
0000
0002
ff8b
00a8
0016
ffaa
fff0
0001
ffd3
0000
004e
002f
fff1
ff95
ff5f
ffdd
0037
0000
0081
0071
0002
ff2f
ffd5
ff79
ffc4
0000
0087
0036
ffcf
0028
0097
0032
0038
0004
004a
0066
fff2
ffbc
0017
ffe5
ffa6
fffd
002f
00bd
0076
ffe4
ff9f
0046
0063
fffd
0035
000a
ffb7
ffe5
005d
003d
ffe4
0006
006b
005f
0013
ffbf
fff0
ff98
ffa5
0006
0044
0082
0091
0060
ff85
fff5
004d
fffc
fff3
0007
ffd6
0043
0000
ffbf
0029
0000
ffd7
003d
0014
ff51
ff73
ff51
0024
ffff
ffee
003a
0073
fff7
ff52
fff5
ff1f
0000
0044
ff8e
ffbb
001e
ff8b
ff5b
ffdc
0000
0042
ffcd
ffc1
ffe3
fefa
002f
fffc
fffd
0063
000b
ff71
ff23
ffb1
0043
ff78
0000
0022
fee7
ffb7
0093
ff9e
012f
ffe4
0002
000d
009c
ffb1
ffe9
ff7a
0018
0045
0000
fffa
003c
ffa5
0060
ff92
fff6
ffc7
ffff
000a
ffef
0027
003f
ffcc
01af
ffef
0000
fff3
0008
ff80
0002
ff9f
ff90
ffff
0000
ffe8
fff2
ffc7
0077
ff43
ff8b
0008
0110
ffd4
0032
ffa9
0004
0027
ffcd
ffe1
00c2
0085
0058
001c
0031
0004
ffbe
ffed
feb9
003e
ffd2
0003
0088
0064
00aa
0027
0048
ffa6
0003
ff83
ffad
002a
008f
fff8
ffe2
00b1
009b
ffd6
0001
0004
003c
0000
ff2f
000d
0000
ffd0
0025
008e
00f4
0012
00ba
ff7c
ffde
ffc3
ffb5
007a
fff4
ff98
ffe5
ffd6
004f
0025
ffde
ffae
ffd3
0000
fffd
0009
000b
ffc8
ff31
ff2b
ffbf
ffda
ffe4
ff76
ffff
ffce
000c
0003
ffc3
ffe4
ffab
ff7d
0036
ffda
0062
ffb3
ffe9
0064
ffc0
ffa6
0000
001c
003a
0092
ffeb
ffad
fffb
ffea
0023
ff8c
ffe8
ff99
006d
0059
0013
0019
ffc8
fff5
0039
ffad
000a
fffc
0027
0035
ff78
001e
0033
0106
ff7b
ff51
fff6
00ee
ff7d
ff94
0037
fff8
0095
ffba
003f
004d
ff7c
001c
007c
0078
0025
ffe4
006e
0084
ffdc
fff4
0046
00ba
ffc6
0038
ffb3
0008
ffef
ffd8
fff7
ffcf
ff05
fffe
ff7b
fff0
ff7c
ffc0
002f
0033
ff8f
0017
003a
003c
fff9
ffb5
ffad
000c
ffe2
ffd6
ffe3
0037
001d
0055
0000
ffde
ff8f
007b
ffaa
0056
ff90
001c
0064
0057
0001
0050
0005
003e
002a
fff2
ffdb
001e
0038
008a
0073
ffed
006c
0069
0036
ffad
ff6a
009c
0038
002b
0024
0065
00a0
0014
ffe7
0059
0037
ffc1
0045
006b
0078
005b
fffb
000e
0019
fff9
001d
fff9
0006
fff7
ffee
0013
0012
ffe5
000b
0000
0003
fff6
fff8
001f
0016
ffda
001d
000e
fff3
ffb8
fff5
0002
fff3
fff0
fff2
ffe6
fffe
fffc
fff8
fff7
0004
ffdc
ffe1
fff6
fffb
ffdb
fff5
0009
fffc
ffd9
0009
0000
fffa
ffd5
0002
0020
0003
ffc3
ffde
0000
ffbf
fffc
000b
0027
fffc
ffd9
0000
0000
ffc5
ffc3
ffed
001a
ffef
fff0
0023
001d
ffc7
ffb9
005c
ff78
ff8f
ff82
ffee
ffb0
ff48
0012
ffff
0059
ffa7
ffdd
0026
ffc9
fedc
ffb0
0074
0004
ffa1
000c
ff99
0043
ffb1
007c
0050
fff8
ffd6
ffb4
ff0c
ffa2
ffe6
001b
003b
ffd6
002f
ff8a
003c
ff8a
ff53
0013
00a6
ffdc
ffa2
002a
ffc4
ffb7
ff8c
000b
ffbd
0085
ffc9
ffcb
ffbf
ffbf
ff8f
ff58
0039
0008
ffe7
ff99
ffba
fff8
ff50
ffa6
0035
ffae
ffb4
007e
ffa0
0000
ff51
0016
ffa8
ffb6
0047
ffe3
ffdc
ff81
ffdc
ffd9
004c
0034
0023
0025
fff9
ff91
fff2
fff3
ffab
00dc
0014
00ba
004a
fff5
ffca
ff55
ffe1
0036
00c9
0018
ffd8
0009
ff58
ffaa
003e
ff7e
fffa
ffa3
0004
ffa9
ff81
ff73
0013
ff98
ff66
004f
0070
0063
00a6
0086
ffab
ffc2
003b
ffc5
005d
ffe0
ffd0
001a
0012
ff55
006c
ffc6
ffb2
ff9d
ff76
000a
ffea
ff70
ff98
0070
ff94
ffd4
0028
005f
ffc4
ff8f
ffd5
ffcf
fff3
001f
ffe3
009a
0048
000e
006c
0081
0016
000c
001b
003e
0041
000c
ff93
002a
0043
ffaa
ff88
0003
000f
000f
ffdc
ffa5
ffab
fffa
fff5
0060
0029
0077
0079
001b
ff3d
ffc1
ffc8
006f
003f
ffef
ffef
0033
ff83
ffac
0004
ffcc
009d
ffe9
ff4d
0048
000f
0041
0062
ffdf
0077
0012
001c
001c
ffcf
005e
0012
fff8
001e
ffe2
0010
ffd4
001b
fff4
ffb5
ffbc
ffbf
fff7
ff7d
003b
0033
ff6e
ff88
ffcf
ff55
0036
ff94
0067
008a
ff48
ff19
004b
001b
0041
ff79
ffa1
0009
ff91
ff39
0070
ff70
0060
ff5f
0045
ffc4
ffe8
00b4
ffa2
ff9b
ffb6
ffa6
004c
ff97
0011
0053
ffeb
ff89
ffed
ff7e
ff46
0081
0021
ff7c
005b
ffef
00a4
ffd6
ff73
ffd3
fffa
004d
003a
006b
ffa0
0015
fff4
ffba
ffda
015b
00d2
ff6b
0054
ff88
ffa7
008b
ffcc
ff69
ffb3
0141
ff02
fff4
ff04
ffaf
0054
fff8
ff58
0088
006b
ff6e
00ab
ff36
ff97
ff89
0005
0089
00b2
0078
0095
ffc7
0091
ffe3
0047
ffe7
ff28
fff8
ffaa
0022
ffc8
fff2
0006
00a0
0000
005c
00b7
0017
ff0f
0054
ffd9
007e
ffac
0001
00ee
0018
0073
ffe1
001c
ff7c
0009
ff3b
ff4a
ffd7
0020
ffe7
ff9d
0095
fff2
0070
ffe3
0016
0000
0095
000a
0054
ff8e
00cf
0014
fff2
0087
0000
ffff
00a8
0003
ff54
ffee
ffe3
008b
ffc1
001e
0115
0073
003b
0052
ff9b
0018
ff0e
009c
00d0
0072
0052
fff4
ffdc
ff8f
fefa
002b
000c
0006
ffdb
004c
ff6a
0000
ff7c
003a
ffdf
005c
ffba
0085
fff1
fffd
ffa0
006b
ffc9
000d
0057
0062
ff54
ffb1
0006
ffc8
ffd7
ff48
0019
0025
fff9
ff9f
fff8
ffe4
ff6e
ff89
0004
00cc
ffaf
001a
ff80
ff20
ff3a
004b
0032
003a
ffb9
0025
ffe1
0053
0042
ff9e
0005
00a9
005f
001a
fff1
ffd2
ffe3
fef8
ffad
0085
fff8
001c
ff99
004b
000f
ffcd
fffd
00a6
0015
001c
ffcc
ffe6
006a
0045
ffea
0034
fff2
004c
008a
ffef
ffcf
ffc8
ffea
003c
0000
ffb2
ff9a
ffea
0008
005c
0019
0063
0051
ff9b
006b
ffeb
008e
fff1
0030
ffed
0053
fff0
0058
0022
0005
0013
fff8
0045
000f
001f
ffa2
0001
ffcf
ffc4
fffd
ffbf
001f
ff79
006b
ffca
ffe7
0001
000d
fffb
0046
fff0
0010
0000
0003
002a
ffdc
ffdd
0014
ffcf
ffde
ffd3
0016
0017
001f
ffe7
0000
0000
001a
ffe6
ffee
0000
ffec
0004
ffea
002b
0009
fff6
0007
0007
ffd5
0023
0002
fff8
000a
ffd1
003d
000c
fff1
002d
ffed
0011
0010
ffbe
0016
fff7
ffe7
001e
ffdb
0051
fff5
ffe4
0004
0016
ffc6
003d
0025
003d
0029
ffe6
000b
0014
fff7
0012
0001
0020
002e
ffc8
0028
ff7c
0029
001e
ffc5
ffcf
00a9
0027
0075
0087
00b0
ffb8
ff58
ffd6
00a6
003f
ffc4
0133
ffe5
ffdd
0068
0062
fff2
0033
ff75
ff46
008a
ff86
ffc3
ffde
0030
008c
ff45
ff9f
0058
ff48
ffb5
0017
0018
0068
000b
0059
0028
ff95
008c
004a
0040
0010
004e
ff6d
fff8
ffc4
ffd0
ffb3
00a0
0049
ff5c
ff93
0030
ffb3
003c
ffeb
ffca
0042
0016
fff2
0119
ffd1
00e3
008d
0028
ffee
ffef
00cf
ffad
004e
0096
ffe8
0036
004c
ff9a
005e
ffc8
ff54
0083
0006
00ed
ffe1
003b
ff79
0050
002c
0063
0056
000f
fff9
ff65
001b
fffd
ff33
0044
ff6a
ff5e
0052
ff07
0056
007d
ffa5
ff23
0082
ff58
00d9
ff86
fef1
0099
0015
001f
ffeb
fefb
002d
ff2f
005e
ffe7
0017
0062
ffaf
ff85
ff69
ff53
0026
fff5
0036
0019
008a
ff7d
00f7
ffc9
ff5a
004c
00a9
ff7f
fffd
ffa2
0010
0000
ffcc
ffe9
003c
000d
ffac
ffcf
000d
fff5
008e
fff2
ffd9
ffa2
ffe4
fffd
000b
ffa8
001c
ffeb
ffc0
ff82
ffdb
ffec
ffd5
007d
ff6f
ffd5
ffa7
ffd7
ffd5
0024
ffb9
0028
007d
002a
ffe1
fffd
ffd4
0031
001d
fff5
0050
00ab
ffd7
002f
007c
ff75
ffed
0033
0016
fff1
ffd8
ff3e
ffc4
ff88
ffcf
0083
fffb
0038
ffdd
ffaf
fff8
fffa
0071
004c
0004
0056
003d
0055
0099
ff8b
007d
ff55
00eb
0019
0043
0073
ffdb
0037
fff4
0071
ffd4
ffc0
ffe3
ff3c
003a
ff8d
ffb3
ffdb
ff49
ff56
008d
ffaf
ffab
ffb3
ff85
fedb
fff7
ffc5
ffaf
00bc
ffb4
ff50
0071
ff90
fefa
ffff
ff33
0040
003a
ffa1
0018
fff6
fff0
001e
fffc
ff78
00bc
ffd5
0000
0014
ff4e
0019
febf
ff17
002c
ffa8
0035
0025
ff28
0032
ff80
0034
0131
ffd8
0016
ff8a
0036
00fb
ff83
004f
ffa5
ffc9
ffd8
ff7f
00a3
ffd6
00bc
0030
0096
ff4f
0056
ff95
ffec
007b
002e
008b
0011
ff32
ffd0
ffe8
ffaa
004e
0085
0035
0030
ffc9
003e
ffb5
0010
ffae
ff92
ffe6
0000
ff9d
004e
0039
ff54
0003
ffb1
ff09
ff6f
ffc8
0083
005f
ff43
000f
ffad
ff4a
ff7d
00a4
0078
ffaa
003f
ff5d
ffde
ff7b
ffec
fff1
ffa7
fff0
ff9d
ff9f
ffc8
ff77
0002
0081
003a
ffc8
ff2d
ffc5
ffe6
0056
fff6
000d
0017
00dd
ffdc
ffcf
006a
ffe2
ffe4
ffe7
0053
0067
00aa
0091
0061
ffca
0044
ffd4
ff87
fffa
ffaf
0064
ff3d
0021
ff8a
0056
ff4c
0024
ffa2
ffff
fffc
0064
ff70
ffdb
ff3a
0027
0097
ffc8
000c
0093
ffdd
0015
ff99
0055
ff90
ffbc
0022
0034
ffb9
0046
fff1
ff1d
0042
ffe2
0044
0061
ffcf
ff7b
0000
ff5b
007b
fff3
0070
00b8
fff1
ffdc
006c
0019
0058
ff8b
0030
0016
ffd1
004a
0038
0024
0032
ffc6
006a
001c
ffba
ffb9
0000
008d
004a
ffa1
0029
ff82
fff6
0077
0036
ffa2
003e
003f
ffd5
ff88
0002
0055
002e
0047
ffc5
0020
ff9a
ff91
fff4
ffad
ff7c
0015
fffc
fff6
ffcd
ff9b
0036
0049
ffbb
ffc9
0036
ffb5
002b
ff84
0003
fffb
ffca
0005
004c
ffc5
0034
ffa6
fffc
ffb9
003c
ffbb
0002
fff5
0071
fff1
ffb1
0070
ff77
ffaa
002b
ffca
ffbf
ffee
001c
0004
ffbc
ffda
ffdd
fffa
0007
0022
0006
fff2
0017
ffdc
fff9
0004
fff6
0020
fff3
000a
002d
ffd9
0015
004a
ffe9
000e
000b
0013
004f
ffc5
ffd5
0010
0000
0019
ffe3
ffe3
0030
ffb6
000a
0022
ffee
000c
ffdd
0008
0040
ffc5
fffb
0024
ffd7
0011
fffd
001b
0062
ffb4
ffea
0004
fff2
0027
ffc5
ffc5
fffc
ffd3
ffe7
0048
ffef
fff8
ffe1
fffd
0039
ffd4
ffe0
0025
fff8
000f
fffc
001f
007d
ffd0
ffa9
0012
ff99
0028
ffc9
ff84
ff42
ffd4
005f
009e
ffe1
ff8a
ff57
ffca
0018
0070
009d
fffc
000f
0044
ff32
ffe4
ff6a
ff80
ffa4
001a
fffa
001a
0079
0055
ffe0
ff4d
ffbf
0058
0013
ffa6
ff79
ffd6
ff4b
000a
0022
ff50
ffa1
ffce
ffae
fff9
fe9c
0004
0078
004f
ffde
0024
ffa9
001c
fff6
ffad
000e
0014
ffea
ff82
ffd8
fff9
ff76
003c
ff83
ff32
0010
0029
0027
fff3
ff47
006d
0004
fff3
fff6
ff10
0042
ff41
ff55
ffd7
ff71
ff4f
ffbc
ff17
007d
ffc8
0071
0023
0018
fffa
fffa
ffcf
ff69
0014
0085
002d
0041
ff98
ffee
ffd8
0018
000f
ffbb
fef3
ffd3
00c6
ff6a
0012
ff91
0023
ff88
008e
ff9c
ffcc
0014
ffd6
0008
0012
ffe6
ff9c
0040
fff7
0073
004d
0047
0022
ffdf
ff99
ffec
004a
ffdb
0044
0043
000b
ff96
ffa2
ff9a
ffca
0068
fffb
0030
003c
ffed
000b
0066
006d
005f
0016
0027
003e
003b
0067
0083
0007
0080
001a
0031
00a2
0054
ffed
0060
ffe9
008e
0000
002a
0032
ff4c
ff97
ffc6
ffe4
0037
0096
0015
0044
0057
ffd7
0081
0010
ffe8
0030
000e
ffde
0010
0070
ff83
0044
0038
ffaa
0024
ffbf
ff57
ff34
ffdb
0023
000d
0046
ffd4
0047
ffbd
ffbe
001a
004a
000a
000d
0019
0054
ff8d
ffd8
ff5f
0021
fff8
ffdf
ffd6
0037
ff54
0047
ff26
0099
0046
ffd4
fff3
ffd4
ff74
ffb7
ff59
ffc4
0036
ffb6
ffb3
ff69
ff61
ffb6
ffd6
000f
0094
0008
ffb7
ff68
ffbc
006c
005e
0084
ffac
ffd5
002f
0090
ff78
ff52
007f
ff95
ffb1
ff84
ff79
0072
ffaa
ff9f
003c
0058
ff81
ffcf
ffff
0026
00b9
0029
fffa
ffc4
002d
008c
ffd6
fff9
ffac
ff40
ff8a
ff0b
000d
0006
0089
ffd5
0029
0041
0043
ffdc
ff9f
ffa7
001c
ff9a
ff86
ff79
ffd5
ff15
0007
ffbe
ffda
0069
0000
0015
ff55
ff7f
fffe
0016
0010
ff82
0036
0027
0028
0094
0004
0012
ff7d
ffc1
00b3
ff7c
ffa2
ff7c
0006
ffde
0090
00a6
fff7
ffc8
ffe7
ffa4
0002
0001
ffef
0019
0118
ff9f
008a
ffec
0001
005b
ffce
0051
00c0
002b
ffce
ff73
0004
ffec
ff92
ffd3
00d1
006b
002f
ffff
0000
fffb
fff0
0088
00c1
00bb
009f
003d
0000
ffeb
002e
00d5
003e
ff98
ffb1
005a
0003
000d
ffbe
00da
ff64
ffd8
ffb5
0084
0000
001e
007a
ffff
ff99
0038
005b
ffa1
0003
fff0
001f
ffd8
0017
001a
ffa9
002b
0003
ffe2
ffc7
ffe4
004f
fff7
ffb6
00fd
0001
0018
0005
ffbf
001e
ffd8
0054
ff1e
0000
ffed
ffd6
ffc0
0032
002c
ff64
fff6
0003
ffbb
ffe4
feca
0046
0042
ffd3
0089
fffc
0008
ffb1
ffe7
ffeb
0069
00ef
ff9a
fffc
0027
ffbb
007f
009a
0009
ffa8
0026
000a
fffb
ffff
0092
002d
007b
0025
0045
0003
ffc7
ffe9
002e
ff86
fff0
0049
007f
0003
0014
004f
006b
fffe
ffab
ffd9
fff0
0006
ffc7
ffe3
002e
000e
008a
ffd1
0004
0000
001c
ffd8
0006
003c
0029
0010
004d
fffe
002e
0031
0011
0045
ff6e
fff9
ff84
0002
002c
ffa9
ffe6
ffb1
0032
006d
ffed
fff6
000a
ff85
001f
0027
0035
ffae
ffcb
fff2
0024
0016
ffdf
0011
ffe5
003b
000a
ffff
fff7
0019
ffca
001f
001e
0028
0028
0001
fff8
0008
0004
001b
0038
0040
0039
0004
ffee
0032
004c
001c
fff6
0007
ffd5
0006
ffe8
000a
ffd1
ffea
fff0
003c
0001
fffb
0000
ffc9
ffe4
ffed
0031
0041
0025
fff7
0003
0018
0017
fffd
002a
0011
ffce
fffb
ffdf
0002
ffbf
fff5
0023
0049
ffe2
ffff
fffd
0007
000f
fff3
001a
0069
0010
fff9
0003
0010
0025
fffa
0058
0052
ffd5
fffb
001b
fffa
ff99
0001
0041
fff0
0095
0003
ffbf
ffe5
ff8f
007c
ffcf
fff5
008f
0005
fff0
ffcc
ff98
006b
0028
0059
0054
0001
004c
00a0
ffba
ff7a
ffe2
ffe3
0048
fffc
ffde
0047
ffbe
001c
ff48
0021
006c
0000
003a
ff6c
ffaa
ffbb
ffea
ff45
0085
0001
0071
000a
003e
001d
ff8a
ff93
009e
fff9
ffe1
ff9b
0006
0094
ff81
fff6
0066
0002
ffe6
fff9
ff6d
008b
002a
003e
ffcc
0000
ffd9
000a
fff5
0051
ff23
ffae
0038
0009
ffca
ffef
0048
00e2
001a
ffc3
0058
0008
ffe8
0024
007c
0040
009a
0033
0026
ffff
002a
008a
ffbf
ff9c
ff8e
ffc9
000f
ffff
0022
ffc7
0023
001b
004e
ffc9
0009
fffe
0001
002b
005e
ff7e
0019
ff6f
0056
ffff
ffe6
ffec
0059
ffde
0027
ffb8
fffc
0000
ffe9
ffff
00f8
ff93
00a2
ff4f
0024
0004
0001
0065
0044
000a
000a
003b
009a
000b
002a
0014
003c
ffe3
0042
ffc5
0077
fff6
ffbe
0002
0058
0026
fffd
ffc8
fff2
fff8
ffe2
ff85
0024
0006
ffc0
ffae
0040
fffd
000a
fff3
0021
000c
001c
ff88
0082
0001
ffe0
ffef
006a
ffd4
ff9d
ff64
000d
ffff
0013
ffcb
006f
ffd7
0064
ffb6
0042
0000
0008
fff9
0041
006e
0017
ff93
0095
fffb
ff96
0050
ffac
0023
ff9f
000e
0034
000b
ffde
0060
003d
003c
0016
00d4
ff3c
ffff
0052
0018
ff6f
ffb0
0066
007c
ffd2
0002
0004
0045
0019
feef
ffb4
ff0a
ffc6
0000
ffae
0007
ffaa
ffa9
0037
0005
ff02
0000
0000
ff95
003a
ffe0
ffe8
ff9e
ffa1
0001
ffd2
ff9c
ffc4
fefa
ff5c
ffd7
ffec
0000
0021
ffc8
fff3
ff5f
ff6b
0023
ff66
0000
0041
fffd
0040
0097
ffba
0064
ffd6
0000
fffe
002f
ff0a
ffe4
0055
0034
008c
0002
0006
ffac
0061
ffa7
001d
0003
0071
ffd5
ffd9
fff6
0000
00a0
ff23
0002
00ed
0024
0053
0015
ff9f
fecc
ffb0
0001
ffce
ffe2
004f
0007
0035
fea3
ff9e
0002
ffb9
0029
0027
fff7
ffef
fffd
ffb4
ffff
003c
0023
008e
fffc
fffe
ffae
ff18
fff7
ffd5
ff91
0002
0009
ff9d
ff84
ff5d
fff9
fff2
ffd5
fffe
ffd7
fff5
0071
ff5c
ffff
0027
ffd0
ffca
ffdd
0027
fff3
ff1f
fffa
ffd2
fff6
0015
ffe3
000d
ff42
0022
fffa
ffb7
001c
001f
ffe9
ff82
005b
0021
fff8
0052
0018
0016
0014
0024
0044
0042
fff6
004f
ffb4
0030
0016
ff4d
fff1
ff94
fffa
0002
ffdd
000a
0000
ffac
0032
0010
0003
0080
ffc3
001b
0008
ff94
ffe9
001c
0003
ffc5
ffb3
0025
0000
ff8c
ff60
ffb3
0000
0023
ffdb
ffeb
000c
0009
0019
ffc7
0001
005c
ffcb
ffff
000a
006b
ffdc
ff65
fffe
0089
0041
ffc8
0002
ffb2
ffd8
0047
0002
ffed
ffaa
001c
000f
0039
0049
00a1
fffc
005f
002f
0041
ffee
001e
fffb
0050
fffb
004b
0030
ffcc
ffe9
ffc7
ffed
ffb3
0004
0018
ffe5
003a
000e
0089
0020
ffda
0003
003a
ffe6
0002
ffd3
0090
ffd0
0006
0001
001a
ffd4
ffc0
ffe5
ffe9
0022
ffb7
0002
0036
0006
ffa8
fffb
0087
0005
ffb4
0004
fffc
ffe9
0000
fff8
0028
ffe9
ff4e
0000
0041
ffcb
0000
ffe9
0071
002d
0022
0000
0006
000a
fff3
fff8
000e
fff3
000e
0000
ffdd
fffa
0013
0013
ffea
0000
fffa
0005
0008
fff3
000d
fffc
001b
fffb
0026
fffe
0005
0018
ffeb
0002
0015
ffea
ffe7
0002
ffcc
0025
0012
0008
ffee
ffe6
ffe1
0003
000b
0005
0029
0001
ffe1
fff0
0030
0003
ffef
fffa
ffdd
0001
ffe0
001c
ffef
0000
ffed
ffeb
ffeb
0009
ffed
ffe7
ffdc
0000
0007
0006
ffeb
fffc
001d
0008
fee7
0000
ff81
002b
00b2
0016
ffe6
0019
ff4d
fffe
ff44
fff9
fffa
0021
fff6
00d3
ff86
fffd
ffa1
ffc2
0106
0034
fff2
0087
ffa1
fffa
002b
ffd3
0041
0001
fff9
001c
ff8e
0000
0012
ffdd
fff9
fff4
ffa1
005c
ffdc
fffe
ffb4
ffb9
0009
000c
001e
00e6
00a0
fffe
00b6
003d
ffd5
0026
ffdc
001f
fff4
0006
0087
003a
0006
001c
ffe6
0001
000b
0003
ff89
0000
0022
0020
0080
ffd8
ffb9
ffff
ff94
000d
ffef
fffc
ffaa
0075
ffd2
0004
0096
fffc
ffb5
0009
0044
0038
ffd9
0004
0019
ff60
ffa2
0000
00f6
ffc1
0056
ffff
0053
0009
0029
0004
0026
ff9b
002c
fffe
ff91
fffb
ff5d
0000
ffcc
ff72
0059
fffe
ff79
0008
fea3
ffe8
ff3d
0139
0009
fffe
004c
fffb
ffdb
fff3
0045
0080
00d6
ffff
ffab
fff5
ffca
ffff
ffb1
ffc5
ffc9
fffc
ffcb
ffea
ffb1
ffd6
ffd1
fff0
ff65
0000
ffc4
001f
0047
fff5
0062
0041
ffbd
fffe
0064
000a
0060
fff8
00ad
0010
ffe5
0000
005e
ffed
ff16
ffef
ff7f
ffba
0029
0003
ffc8
ffc6
0014
ffd8
007d
0021
0007
0001
ffee
0017
ffd3
fff4
00c4
0075
ff86
fffc
0009
fffa
ffdd
fff3
ffa6
001f
ffb9
0004
ff7a
0003
009a
0000
fffd
0041
ffd6
0002
ffbd
ffe4
ffe8
0008
ffea
0054
ffe2
fff9
001e
ffdd
ffd6
fffb
fff1
000c
0050
0002
ff7c
ffd7
ffcf
ffdb
0080
ffdc
004a
0002
ffea
ffa1
0077
ffdd
0075
ffa7
ff9e
ffff
ffba
ffe9
0040
0009
006d
fff8
00dd
0002
000f
ffe4
000f
0009
0093
005d
0018
0002
ff68
003a
00a5
0020
004c
0009
ff6a
fffd
fff6
0038
ffe1
0036
001b
ffd5
001e
ffff
0061
ffc8
ff5b
0011
000d
ff8f
ffc6
0002
0048
ff6c
0015
0019
fffd
ff96
fff4
ffff
0043
ffb5
0025
0012
ffcb
00b0
0005
ffe2
ffbb
0007
ff54
ffa8
0013
0002
0004
0055
ff39
0006
ffb6
fff2
ff79
ffff
fffb
0017
0020
000b
001c
001a
ffaf
0000
fffd
ffcb
000f
000b
ffe8
ffce
0096
fff9
0003
ff6e
ff8c
ffff
ffc0
0015
ff3c
fffb
0004
003c
0036
fffe
0058
fff6
ff85
ffff
0001
ffa6
ffe8
ffff
ffc2
ff94
007a
fffe
0005
0038
ff7c
0000
ff9b
0027
0073
fffe
0009
fffe
0005
0000
0031
fffb
ff91
0001
0000
0078
ff96
0004
0005
ffa2
ffb3
0002
0002
ff60
0119
0008
ffbb
002b
0029
0004
0000
0021
ff98
0013
ffd6
005c
fff0
0002
0001
007f
0017
0017
ff57
0022
ff4f
0000
fffa
fffd
00dd
ffff
ffda
006d
ffaf
0000
fff8
0000
ffad
fffd
ffaa
ffe7
fff7
fffc
ffff
0021
ffc5
0001
ff9e
ffd9
0067
0000
fffb
00cf
ffd4
fffe
005a
ffcb
002d
fffa
fffc
0035
ffae
fffe
ffdd
006f
0038
fffd
0001
ffee
0010
0000
001d
ffe9
0037
000b
0004
0085
00b3
fffd
0021
000f
ffe1
0008
0009
0076
0047
fff8
ff83
002f
001d
000c
0003
ff66
ffb5
fff8
000f
ffaf
ff91
0003
ffff
0015
0018
0001
0063
ff8f
ff9f
0006
0000
0077
0067
0000
0038
000e
0018
0000
0000
ff6f
0018
0002
ffc6
ff78
0017
0000
ffff
ffe5
fff0
0003
0088
ff6e
ffa7
0005
0000
ffe9
0053
0005
00bd
ffc3
001b
0008
0005
001a
fffb
0002
0005
ffd1
fff0
fffd
ffff
ffee
fff3
ffff
0014
fff0
fff4
0000
0004
ffd4
ffd7
0003
0029
ffd4
000f
0001
0001
000e
ffe5
0004
ffdc
ffb2
0005
0000
fffe
ffee
0011
0001
ffe8
ffef
ffe9
fffc
fffc
ffce
ffe2
0000
0001
ffca
ffeb
0004
0000
000d
0009
0000
ffed
fff9
ffee
0006
ffff
fffb
fff7
0005
0002
fffa
0008
fffe
fffc
fff5
0032
0005
ffea
ffbe
ffee
fffe
0000
0067
ffd4
0003
ff59
fff4
000a
fff0
0000
ffd4
0056
0003
0041
fffc
ffae
fffe
fffc
0027
002e
0005
0077
002f
0008
fff4
ffff
0047
0086
0007
fff2
ffe0
0061
ffee
fffd
0082
005e
0006
ffed
fff9
fff5
fff8
ffff
ffd7
001f
0004
0088
0001
0030
fffd
0000
009e
0046
0007
00bc
0021
fff8
fffe
fffe
0080
0019
0006
ffaa
ffd2
fff7
ffff
0002
ffca
00b1
0006
ff90
fffe
0023
0006
fffe
ffe7
ff52
fffc
fff4
ff94
ff76
fffe
0000
0080
0014
0000
0084
ffd1
ff8c
0001
fffb
0039
ffdd
0000
ffe0
ffb2
ffcc
ffff
fffd
ff9c
006d
ffff
0071
003a
00ae
fff7
ffff
ffca
ffbd
ffff
00ac
0052
003c
0002
0000
0016
ffae
ffff
0027
fff2
ffda
0003
fffd
ff7a
ffcd
fffd
ff75
ff76
ffca
fffe
0000
ff8a
006f
0000
fff0
ffbd
ff94
0002
0002
fff9
0038
fffe
ff91
00a8
001f
fffb
0006
ffb7
000d
0000
ffee
0005
002a
fffa
fff5
ffaa
ffb8
0000
ff8b
0040
00a4
0001
0007
0074
ff9c
0004
0006
001b
0030
0000
0005
ff1b
0024
0006
fff2
0078
00b0
0003
ffff
ffd0
ffe6
ffff
005c
0014
fffc
ffff
fffe
0028
ffe2
0000
0044
ffdb
ffae
fff5
0000
ff84
ffee
0002
ffb0
0023
0042
0006
fffe
ffa5
ffc7
0000
0015
fffd
ff89
ffff
fffd
ff60
0038
fffd
ffbe
ffe4
ffe4
fff8
fffc
ff2d
fffc
0002
ff46
004a
0004
0000
0000
fffb
ff32
0000
0060
0072
006e
fffd
fffd
002d
0023
fffe
ffd4
ffb6
ff6d
fffd
fffd
fff6
ffdc
0001
ffbf
001c
00ac
fff5
0001
009e
ffa5
0000
ff73
ffce
0132
fff8
ffff
ffd0
fefc
0000
0000
0045
fff5
0003
0000
0040
0048
0000
ffee
ffb1
ffd8
fffd
0002
000b
fffc
fffe
ff22
ff90
0025
fff9
0002
ffd8
0012
fffe
004f
ffb1
000d
ffff
0019
00ac
ff39
003a
ffd7
ffba
0019
003e
ff9c
0046
fe90
fecf
fff3
ffc3
0000
ffc9
008d
ffa7
ff2f
ff8c
0043
ffdd
ffe0
ff47
009d
007c
ffe6
0074
ffe0
ffef
0018
fff9
ff45
001e
ffc7
002a
fffd
ffbf
001d
ff98
ffcb
0038
ffa7
ffa3
ffda
ffdc
0046
ff50
ffa4
ff7c
005a
00aa
0040
fff7
ffb9
fff1
ff57
ff4e
00c7
0068
0052
002c
ffd9
ffd7
ffc2
ffd2
001a
ffe0
003f
ffc4
ffeb
ffb4
001f
ffa9
0047
00ad
005b
0001
fffb
004b
0015
ffee
fff4
0072
ffe0
ffcc
fff2
ffdc
0065
00f2
ff92
003a
fffe
ffbe
001f
ffca
0048
002c
ffe5
001b
000e
0010
0023
0013
006c
0005
ff5f
0047
ffcb
ffc5
0012
ffe3
fff2
003c
ffb3
000a
000b
ffdc
002c
ff91
004a
00b3
ff89
001c
0016
0007
ffe1
fff2
ff54
ffd4
ff87
0038
0068
ffc4
fff7
0004
000b
fef5
ff86
00b7
003d
001b
002e
ffbd
0017
0046
fffa
ffff
ffcf
0013
001e
0001
fff2
0079
0058
0015
fff6
fffd
ffff
0037
fff3
ffaa
000d
0052
001f
fffe
0013
fff0
0093
0049
ff91
ff78
ffd0
000a
0011
ff97
ffed
0077
0051
ff8b
0012
ffbb
0038
0007
ffc8
ff9c
0004
0049
ffff
ffaf
0006
0002
ffeb
0047
ffb6
ffe6
0022
ffd6
ffd3
0027
003d
002e
ffa2
ffcf
001e
ffc4
fffc
0007
00b5
002a
003a
ff97
fffa
ffd1
ffc0
ffdf
000a
0007
ffe8
0014
fffa
000b
fff1
fff8
ffdd
ffe6
0006
ffec
0017
001b
ffee
ffe6
0013
fff3
0010
001c
000b
000f
000b
0018
0026
fff0
0030
ffea
0000
001d
ffee
fff9
0004
ffeb
0000
ffe8
0028
000f
fff0
001c
002c
000c
0020
0001
0014
0010
0005
0029
004c
0013
0024
ffe2
0003
ffff
fff9
000e
0045
0022
0009
ffdd
fffb
0002
ffe1
0016
0046
0026
0005
fff8
000a
0000
ffe6
0016
00a1
ff44
001e
ffcd
ffaf
006a
0014
ffc1
0045
ff98
0010
ffa5
0000
003c
0090
0021
0016
004f
ff77
ffdc
fffb
ffce
005a
0058
0031
ffa5
0078
0067
fffd
003f
001a
ffe8
000e
0075
ffad
0058
0039
001f
0028
ffb6
ff62
0026
ffc6
000c
0068
ffd4
fff9
ffc8
0070
000f
0096
0025
ffb7
fff9
0029
ffcb
0019
0055
fff4
005a
ffe0
0001
0060
0017
ffb8
002a
ff9d
ffd0
0071
0006
0034
ffe4
ffb4
ffc6
ffcf
ff9a
0043
0016
0011
fff7
ffe0
0064
fff4
ff7d
0024
0017
ffbe
ffec
005a
000e
fffc
ffd4
002f
0062
ffdc
0009
ff72
0050
ffec
003d
0069
0000
ffe4
0023
0029
ffe6
ff70
ff99
ffbe
0063
0006
fffd
0068
ff6b
ff7b
0020
ff98
002c
ffda
fff7
fff7
0051
ffdc
0010
0057
fffd
fff2
ffe2
fff0
0009
0044
0023
ffdb
005e
003c
0011
003a
0015
0065
0029
ffeb
000a
0014
ffdb
ff5e
0008
00cd
0009
ffd8
000d
0039
ffd5
ff92
0035
008d
002c
002b
fff5
000a
fff1
0016
ffa4
0019
ffc7
0024
0021
0034
ffea
ffb4
fff9
ffea
ffff
ff9f
004e
ffdf
ff92
ff3e
ffd8
00a0
ffa4
0041
ffc6
0002
ffe2
0006
ffe5
fffe
ffa0
0049
ffe1
ffe5
ffc7
0076
ff5a
ff90
ffe6
0009
0047
001e
fffa
000d
ff93
0034
ff9b
fff1
0008
0019
0045
fffa
005a
ffd8
ff99
ffcb
003a
ffe4
0001
ff7c
000a
002d
004e
0019
0000
ffd9
ffe1
0064
003a
ff90
0106
ff4e
ffd1
ffb3
ffcb
0018
0098
0059
ff7d
0009
ffdb
ff9b
ffb5
ffef
ffcf
0119
007d
ffa4
ffd1
fffa
006a
005f
ffb5
001e
0071
ff5b
ffe4
003c
00a3
0036
0085
fff2
ff4d
ffc3
ffc8
0010
0025
ffae
ffba
0016
0021
0051
ffe0
0000
ffab
ff96
ff48
ffe8
0090
0047
ffe5
ffe3
0004
ffd2
ffd5
000b
0063
0057
ffba
ffc5
ffe7
0000
000b
0054
00b8
00b6
005d
fefb
0025
0000
000e
fee5
ffc5
fff6
000e
0026
0041
0000
0020
fe4a
002e
0019
001d
ffb9
ffe8
0000
ff9b
fff1
ffa8
ffb2
fff1
ff2e
0066
0000
ffbc
ff8d
ffd0
ff91
ff88
0062
ffff
0000
fff5
004e
ffcf
001d
ffb8
ffcc
000c
0000
ffe3
004e
ffde
ffa5
0058
ff7a
ffdf
0000
ffe6
004a
0008
ffce
00e8
004a
ff8e
0000
ffe2
00e2
ffd0
0056
ffc1
005e
fefa
fff8
ff87
0068
0110
ff91
00ee
ff8c
00ac
fff8
ffa5
0013
0097
ffa2
007e
006b
007d
fffc
ffad
003b
ff92
0056
000a
014a
00fb
fff7
006e
fffc
004c
ff45
ffbb
ffe8
0026
fffe
fff2
ff65
002f
ff7f
ffac
0008
002a
0000
ff6b
fffa
0057
0153
ff3d
0009
fffd
0000
000c
ffac
febe
ffde
fec2
00e0
004b
0001
fffd
0040
ff25
ffbb
ff24
007d
0007
0003
ff5d
00fc
001e
0053
ffab
ffd4
fff4
0001
ffc0
0025
000f
0019
0025
ff47
00e3
0000
fff9
005d
ffce
ff1b
007a
0024
0088
0000
ffb0
0015
ffbd
ffc1
fff0
006c
0026
0005
0000
fffb
0027
0000
0040
ff96
ffa8
0002
ffec
ffc2
0051
ff72
ff4d
ff80
ff21
000a
fff8
ffd4
ffe6
ffb7
ffe4
ffa1
ffe0
ffff
ffdb
001b
ffe2
004c
ff98
ffc0
0061
0001
002f
001c
003c
0010
ff12
ffde
ff7a
0007
0023
000a
001d
ffe3
0026
ff63
ffb4
ffff
fff7
ffcf
002a
ffd9
0000
ffdb
ffdf
0000
0015
ffe0
fff3
ffcc
001e
ffe0
ffcd
ffff
fff2
000e
0000
ffca
0022
ffd9
fff7
fffe
fffe
fff5
0025
ffd9
ffe7
ffcd
002d
fffa
0021
fff1
ffe8
ffdf
fff4
ffdb
000d
fff7
001b
000b
ffef
ffdf
002b
ffdd
ffe7
fff8
0018
0015
001d
ffe0
ffb9
ffba
fff7
fff9
001e
0007
0001
fff1
ffe0
ffcc
fffe
ffee
002d
fff1
0019
fff2
0033
ffe7
ffcb
0000
0001
ffce
0078
008f
ff48
ffcf
0095
ffff
0007
ff68
007d
ffed
ffc0
ff2d
fffe
0001
ffed
0000
0076
009e
001d
0009
ff7a
0000
0019
0019
ff7f
0043
0031
0043
0147
fffd
0013
ff53
006d
005d
ff8b
fffe
0050
fff9
ffa8
ff80
ff97
ff90
0011
fffb
ff56
fff9
0045
000c
ffc6
0043
0058
0034
0138
0002
ffea
ffbe
ffe5
0081
ff47
007b
ff99
fffa
0021
ffea
ffed
ffe8
ffca
ffdc
ff4a
0011
ffea
000b
003b
ffb7
ffd9
ffb7
ffb8
0001
ffa6
ff56
009a
0018
ffd0
0035
feec
0013
0038
0071
0064
00c6
0016
0017
0012
000c
0030
0009
0015
0035
fffa
ffc9
ff17
0000
fff7
ffd5
ffaa
ffed
000b
fffb
ff89
0002
ff74
002d
0011
004d
0010
0000
0025
0003
0055
ffb0
005e
00cb
ff3b
ff1d
0049
0002
0073
0066
ffde
ffe3
00ca
ff59
003a
0002
ffe0
0054
ff9d
0004
007b
ffcf
00ed
ffff
001f
ffd7
0072
ff48
ffa5
ff8b
0019
0000
0028
ff8a
ffc8
ff93
0019
003d
ffa2
0000
ffe7
ffa1
002e
00f5
ffe1
0088
0035
0000
0028
0062
ffe8
0020
0025
ff4a
0066
0000
fff1
ff82
fff2
ff84
0070
ffc2
ff52
ffff
ffae
ff62
ffc2
005c
ffc9
001a
ffc3
ffff
0010
0040
ffad
003d
0024
ffac
0141
0002
ffa2
002c
fff4
ffe1
0016
ff63
ffbe
fffb
ffcc
0023
ff8e
ff78
ffe6
ffbb
ff96
fffe
ffe4
00b4
fef3
008d
ff88
000c
fee6
0002
ffe2
00e6
fed6
0050
ff49
ffd4
ff5a
0003
0091
ff27
000f
004a
0087
ff20
001e
0003
00d0
00d2
fff4
0098
ff97
ff7f
ff21
ffff
0032
00a1
fff5
001d
ff22
ff45
ffa8
fffb
00a6
0030
0012
ffe0
0060
ffb8
ffe2
fff9
002b
ffa3
ffee
ffef
004a
0004
ff2d
0003
004a
00b2
ffd1
0119
00bf
00c7
0000
0001
ff82
ffdc
0095
004f
ffe8
ffdf
0065
ffba
00b0
febb
0021
0005
ffc6
000d
000b
0018
0070
ffa4
007b
ffdf
0062
0063
0004
0084
0029
001e
003c
002f
000b
0077
0008
ffe6
ff89
ff92
ffbb
fffc
ffe8
fffd
0004
006e
0031
0044
0005
0015
fff4
0002
0004
ffd8
fff8
0110
0022
003d
ff76
fffd
0001
fff9
0022
ffcb
000a
ff6c
00a3
ffe3
0003
000e
0041
ff9c
ff8c
ffc8
ff96
0067
0000
004e
ffb8
0049
ffa5
0007
ff83
0079
ffff
fffd
0108
ffc1
ffc1
fff2
ff1b
ff55
0002
0004
ffe6
ff3f
ffcd
005b
ffa0
ffb7
0002
0021
febb
0002
0052
0046
0026
ff79
fffd
ffa6
004d
0061
001d
ffd0
fff9
ff0e
0000
ffaa
ffd6
ffc0
0026
0062
0084
00bc
0000
0021
003b
002e
0042
0077
0099
006f
0007
fffb
ffc1
ffb6
ff9c
ffe6
006d
ff82
fffd
ffb6
00a5
0033
005a
002a
0089
009a
fffd
0032
00b9
0022
0056
00a8
009f
0059
0004
0045
0006
ffce
ffb4
ffd9
0011
fff1
0000
ffe6
0041
ffe5
ffa6
ff49
ffba
0077
0007
fff7
00b7
ff92
fffd
ffd3
000c
0056
fffe
000d
002d
ffe2
fff9
0005
0016
ffd6
0007
0036
0053
ffe9
fff5
ffba
ffa2
0030
000d
0000
0080
003f
004d
ffc4
0058
0024
0001
0011
0040
0023
ff4a
001f
001d
ffcd
0005
00a4
006b
ffd2
ffa1
005d
ffe5
0000
0005
ffe7
003a
0021
ff90
fffe
0063
ffc4
0000
001e
000d
0025
fff1
fff6
ffed
0019
0000
0001
0006
001a
0000
001c
0009
001b
0000
0013
000b
0026
fff6
0027
fff7
0028
0000
fffa
0003
000b
ffdd
fffc
ffd7
ffea
0000
ffec
fffc
fffa
ffed
fff5
fff4
ffdd
000f
fffe
004c
ffe9
0005
fff6
ffe9
ffe7
0015
0032
0025
fff1
ffdf
ffe5
ffdf
ffd1
0008
0021
ffd9
ffeb
0009
ffe5
0006
000f
0013
0010
fff9
ffd1
0004
ffd9
fff3
0046
0022
ff9d
ffa2
0056
0006
0030
0020
000f
fff0
ffc9
ff37
00be
ffaa
0058
0040
ff93
fff0
0009
ffd0
ffff
001a
fff7
0012
ff0b
ffed
0098
ff64
ff9c
0015
0075
001f
000e
fff2
007c
ffd8
001a
fffd
002f
ffd3
0010
fffd
ffd1
ffc3
ffeb
ffe6
ff84
ff80
ffdd
0003
0036
ff74
ffee
000b
0025
ffdc
0023
0002
0035
ff69
ffd7
ffe1
fff9
ff63
0020
fffa
000d
0022
003d
ff9e
0038
ff5c
fff2
0000
0077
0065
ffe4
ff94
ffea
003a
0120
0000
0078
fffd
ffe1
ff8a
0086
0028
ffcb
fffa
ffab
ff55
ff2f
ffa4
0049
0012
fff5
fff8
0047
009f
0026
00a7
ffd5
005f
0088
ffff
003c
000f
ff16
0172
ffc9
ffd2
0038
0005
0021
ffda
ff9a
001a
ff8c
fff5
004c
0007
0026
003f
0087
003d
ffb7
0053
ff57
0007
ffa8
fff1
00c7
0027
ff2f
ffdc
ff9d
0007
ffc9
ff7f
0000
0066
ff8b
ff81
0051
0007
0021
ff48
ff7c
0030
001a
ffe0
010d
fff9
ff71
0000
000e
001f
fffd
ffeb
ffb8
000b
ffba
004e
ff63
0025
0038
0039
ff48
fffd
fff6
001d
ff9a
ffed
0023
0021
0077
0002
0074
006e
fff4
ff9c
004e
003e
ff74
0003
fffb
000b
ffde
ff98
0003
0000
ff5b
000b
ffda
ffe4
fff8
ff98
000d
0041
000f
0005
0037
fff3
0092
006f
005c
ffcb
ff72
fffc
0003
ffb4
0075
fffb
ffc9
ff95
ff65
0012
ff85
ff38
fff9
00a4
ffbe
0021
0048
ffff
ff7b
feef
ff9f
016f
ff9e
0026
0024
0005
0011
ff4f
ffb0
ffd4
ff97
011a
ffac
0001
ff94
000b
fffb
ff8c
ffc9
005a
000d
0000
ffaf
ff67
0080
011f
ffcc
0063
ff48
fff8
fff4
009b
ffb7
ffdb
ff7a
0063
ff76
0004
ffdb
0050
ffbf
ff3e
ffd4
0063
00c2
fff6
004a
fff4
00dd
ff62
ffe6
0060
0062
fffc
002c
006a
ffd4
ffd4
ff60
fffc
fff2
000c
ffcc
ff91
004c
0014
0054
fff9
003e
0064
ffe1
ff40
fffa
ffaf
ffce
0070
ff3c
0045
0009
ff7c
0073
ffd5
003a
ffbc
ff99
ff30
0041
0012
0028
0039
ff66
004d
ff7e
00d4
0019
007a
0057
0042
003b
00a9
fee2
0017
0031
ff78
009b
000d
ff38
0019
ffbc
ff6a
0070
ff19
0109
000a
ff70
0081
ffb7
ffea
ffde
001d
00e6
0052
ffdc
0032
ff7a
ff95
002f
fff4
011d
0046
ffaf
0056
fffa
ffd2
ffb3
ffda
0036
0048
ffa0
ff75
fffe
0055
ffaa
ffb0
fff8
0059
002f
ffdd
ffee
000a
ffc0
ff94
003b
ffc3
004e
00c7
ffa4
ff94
ff7e
005a
0088
ffcd
ffb5
ffd2
0036
0039
001e
0015
0003
ffff
0005
004d
0043
ff81
ffce
0056
003f
0000
ff8c
004f
0043
ffb6
fff3
0044
ffc6
ffd6
ff5d
0025
0017
ffad
0024
002e
ff45
ff41
fecd
0093
ffae
ff53
ff3e
00ec
0063
004f
fffd
0019
0062
0007
000c
000e
001e
fffc
000a
ff73
0023
ffdf
ffe2
ff88
ffde
ffaf
0051
ffb5
009d
0075
0030
ff98
ffe4
ffa5
001c
ffb2
001c
007e
ffff
ffdb
ffb4
ffe6
002d
002f
ffd3
ff94
004e
ffbd
fff3
ffb2
0023
ffec
0092
0055
0028
0012
0057
ffb4
004b
ff7e
0048
0017
ffe7
0038
0000
001a
ffbe
fff9
0045
ff8a
001a
ffc9
ffd6
001d
0021
ffbe
002d
ffb3
004b
0036
ff48
ff8d
ffed
001e
0008
ffb8
005a
0015
ffd7
0026
fff8
ffec
ffff
0024
001f
000a
ffb6
fffe
ffe2
fff5
0019
0013
0024
004d
fff0
fff7
ffd9
ffce
0037
fff1
0068
0027
000b
ffe0
fffe
fff3
fff1
0013
fff0
003e
ffd4
fff0
ffdd
000c
ffea
001a
0013
000b
ffc9
ffea
ffac
ffe1
0003
ffec
0039
fffb
000b
ffee
0019
fff9
001c
ffe5
fff7
0023
fffe
fffd
001e
ffe8
002c
ffef
0020
ffee
fff9
ffe1
fff2
ffdc
fff4
fffa
ff9b
0044
ffd3
0009
fffd
ff9f
0021
0025
0052
00c1
ffcc
ffa3
ffcf
ffc2
ffda
ffbb
ffd2
0020
ffad
0078
000d
0094
ffec
ffb6
0060
ffe0
ffa8
ffec
009e
ff58
0040
0000
ffba
006d
000c
003c
0061
0053
ffaf
ff46
ffda
ffd3
ffaa
00f4
ffe5
00bc
ffad
ff35
0014
ff7b
0076
ff2b
009b
fff6
0029
005f
ffad
ff77
ffea
fff7
00b8
ffcc
006d
fff0
0008
ff9a
ff67
000d
002a
0000
fffe
ffe0
ffff
ffdc
ff29
0022
ffdb
003b
0037
ff73
0093
ffd1
ff49
0028
ffc2
ffa3
ffae
ff59
0049
ff85
ffa2
013e
007a
009e
ff88
ffc8
007a
0009
ff95
fff1
ff9c
005b
0040
ffba
003c
ff44
0042
0018
0021
001e
001f
fff4
ff72
ff9c
0093
00ae
ffe2
002a
fff5
003f
ffab
0042
0008
ff92
ffa0
ffa5
ffe2
ffc3
0010
003e
0032
ffc3
011c
000a
001f
00a8
fffc
0001
009f
008c
ffc3
fff0
007b
0011
0032
ffba
ff3a
ffd6
ff6f
ffda
00b2
0013
002b
0019
004a
008b
003e
0032
0063
ffdb
0082
fffa
fffd
001e
0000
ff87
0046
000e
fff8
008d
ffbc
002f
ff52
ffcb
004b
fff6
0060
0059
ff6b
010b
0039
ffe9
0078
ff10
ffd0
0013
ffb0
00c7
003b
ff61
0011
ff62
003b
0034
ffeb
ff47
fffb
ffc5
ffb7
008d
003d
0073
000b
001a
fffc
ff93
0053
0004
005b
ffdc
0038
0058
004b
ff04
0089
ff78
ffec
0000
ff41
008d
ffa7
0016
008e
ffd1
006a
ffd5
005a
001e
fff6
000e
0148
ff4a
ffa9
ff7f
0033
0015
ffec
fff9
00f1
ffa1
ffa0
ff48
ff3b
ffb7
0142
00fe
0050
fff9
0053
ff8e
00b1
00a3
0141
fffc
0021
0005
fffe
000a
ff48
0014
ff82
0037
ffb2
0048
ffd1
ffb2
fff4
0085
ffec
003d
fff4
ff6e
ffd6
ff4a
ffd9
ffc6
ff73
ff3c
009c
ffa9
ff73
ff83
ffd7
0077
ffeb
0074
002b
0013
ff9a
0028
ff80
fff8
009b
0041
ffa5
ffb7
ffe9
0037
ff70
0019
ff99
0052
ff65
ff02
0014
ffd9
ffb2
0009
ffaf
ff72
ff8e
0045
ff87
ff93
ff78
0010
00a2
0038
fff3
0004
ffee
00a2
ffae
000c
ff9f
ffec
ffd3
ffcc
ff99
ffc2
ff47
fffe
0003
ffd1
0003
0005
0003
ff6c
ffae
ffef
002e
003f
00d3
ffd1
0048
0000
fffb
ffe3
ff9f
fffe
0089
ffe7
0077
0027
ff58
ffe1
ffe8
ffc6
ffe0
0025
00fa
0055
ff46
0006
00fb
ffc8
009c
ff5f
007b
004b
ffc4
fffe
00f0
ffda
0136
ffc9
002f
ffcc
ffc5
001c
003f
0010
ffbd
ff87
0060
ff78
ff99
fffa
ffd1
ffdd
ff70
ff6f
ffe8
ffc4
0043
0003
0069
ffd6
0071
ffcd
ffc6
0083
001b
0020
fffd
0019
0023
ff99
ffee
ffb3
ff47
0003
ffe5
ff6c
001e
005a
ff66
0086
ffe8
000f
0025
ffa1
009b
0029
ffe2
003d
003e
0021
ffea
ff9a
005d
ff53
003c
0036
0037
0009
ffdc
002f
fffe
000a
ffe6
004e
004c
0000
0002
00aa
ffb5
0014
00a2
001d
0005
0010
0012
0069
ffe0
0077
002a
ffd5
0076
0011
0046
fff4
ffbf
0001
ffc8
ffbb
ff6d
ffeb
007b
0025
0001
0002
004f
ff65
ff87
fff3
ffcd
0003
ffe2
0020
0064
ffb9
ffc5
fff4
0007
000f
ffc0
0000
0022
ffae
ff82
ffe8
ff30
ffea
ffe6
fff9
0049
ffab
ff7f
ffef
ffb4
ffe7
ffc5
0012
ffed
0007
ffee
0000
0009
fff1
0017
ffe9
ffff
0012
fff6
fffd
ffbf
ffd5
002c
0013
0021
0005
0007
fffa
ffe1
ffd5
0013
0016
000b
0018
0006
fffe
000d
ffee
fff0
fffd
0001
0029
002a
0004
fff2
ffeb
001f
ffeb
0012
003e
0005
fff7
fff4
ffe0
fffa
ffe0
fff8
0020
fffb
0002
001a
000d
fff8
0004
0008
0019
001b
0000
fff2
fff0
0032
fff0
0019
004a
ffef
fffb
ffd6
fffb
0002
ffc5
ff77
ffd4
0035
0004
ffc8
005f
ffe6
ff9e
ff5b
ff9f
ffbb
ffef
0002
ffcc
ff31
fffb
ffcb
001a
ff88
fff5
00af
ff54
ff19
ffeb
0099
ffb3
ff48
fffd
ffb1
ffda
0037
ff09
0036
0010
003c
0008
003f
ff6a
001a
ff26
006b
0090
ffc4
fffc
0012
ff7f
ff73
fff6
fff3
0000
ffd8
0003
001e
002f
ffc2
fff4
000b
ffac
ffe3
fffc
0071
ffd4
ffdf
fff7
0027
ff8d
ff5e
0001
ff3b
fff0
ff6b
0038
0053
ffac
0058
fff2
0090
ff99
00e4
ff55
ffdc
ffa5
0060
fff9
ffae
ffb5
0072
ffd8
ff46
0005
ff81
ffec
ffa2
0001
ffc8
ffa9
0014
0045
ffde
000a
00ac
001d
007d
0016
004f
0068
0042
fff9
0074
fff8
ffa9
0001
ffdc
00c4
0008
fff8
00af
ffdb
ff79
ff84
fffd
0035
ff41
ffec
ffc4
0005
ff82
ff8e
ff6e
0015
ffb7
0006
0078
0000
ff97
ffb3
004b
ff64
ff58
ffe6
00c8
00a2
ff5f
ffdb
008d
0085
ffaf
fffd
0040
ffc6
0006
004b
00ae
0006
fff6
fffb
ff55
0027
ffc0
0025
0095
ffa6
004f
fff7
0034
003c
ff92
003a
ffb0
0078
fff3
fffd
0016
0022
0001
0064
001b
0070
000f
fffb
ff61
0033
0079
ffa1
ffba
ffd2
0053
fffc
002e
005e
007a
ffe7
ffe9
0022
ff9e
fff0
ffba
0000
ff8d
ffaf
007a
ffdf
0071
ffe4
ffaf
ff97
ff86
ffc7
ffe8
ff1a
ffbc
fff1
ffd9
0044
ffd9
fff6
ffe7
ff7c
ffc9
0006
00c5
000a
008e
003d
00d0
ff8f
ffb9
0015
004c
0021
fed1
ffe8
0069
0031
0000
001c
0021
ff5f
ffd9
004e
00ce
ffe3
ffce
fff3
00f7
ffe9
ff2d
0065
ffba
fffd
00ca
fffa
0138
ff6e
ff7d
ffd0
ffc6
ff81
fffa
0031
ff97
003b
0014
0085
ff53
ffcb
007c
ffdc
0051
0085
001b
0024
ff1b
0000
00b8
ffde
ff58
ffd4
0173
ff8d
004f
ff41
ffb3
0004
ffa9
ff9a
ffe6
ffb5
0000
000c
0063
ff8f
ffc7
0000
ffd6
0000
0000
ff5b
ff0b
ffb9
ffdb
0000
0034
0000
0000
ffb4
ffb7
fff6
ffc4
0000
ffcf
0000
0000
ffe1
0002
ffe1
0084
0000
003f
0000
0000
ffd5
0082
ff66
0092
0000
00c6
0000
0000
0000
ffa0
ff30
ffd7
0000
0060
0000
fffe
0036
0049
ffea
0025
0000
ffb5
0000
fffc
ffce
0085
0013
003c
ffff
ffa3
ffff
fffe
ff89
007d
ffaa
ffb9
ffff
ffdf
0000
0000
002e
ffbe
ff6b
ffb6
0003
ff99
fff4
0001
004f
ff2d
ff95
ff72
fffe
0049
fff7
0002
fff7
ffdf
ffb9
ffe3
0001
ffed
fff5
0005
005b
fff3
ff69
fff1
0000
ffdb
fff5
0000
ffa7
ffec
0065
ff92
0004
001a
fffe
0004
ff78
003d
ffc2
ff9c
0002
0029
fffe
0000
0041
ff6e
0074
ffe1
0000
ffac
fffd
0001
ffd1
007f
001d
0000
0004
004b
0000
0006
ff43
013a
ffe2
ffd5
0003
003f
0000
000b
003f
0049
ff44
0008
fffd
ffba
0000
0002
ff95
ffe5
ff87
0048
0000
0048
0000
0003
ffe7
0029
ffe3
0051
0001
0042
ffff
000a
0036
0025
ffbd
ffdc
ffff
002e
ffff
fffb
ff44
0000
0062
0014
0004
0022
0003
0000
ff49
0005
ffec
ff93
0002
ffe7
ffff
0002
ffe3
0028
003b
0022
0003
ffe8
fffa
fffa
ffdf
ff70
fffa
003c
0007
005f
0006
0004
ffca
ffe5
004a
ff61
0005
000c
ffff
fff9
fff6
ffd4
000b
0028
fffb
0000
0002
0005
ffe8
ffe0
0003
000f
0001
ffe8
0000
fffb
fffa
0008
0020
ffd8
fffd
0005
0001
fff9
0006
ffc1
fff9
001f
ffff
ffea
0001
fff9
0005
fff5
0021
ffdb
0001
ffe9
fffe
fff9
001d
ffec
0013
ffbb
0004
0008
ffff
fffd
000b
ffe8
0000
0016
0002
fffa
fffa
fffe
ffe8
ffed
000c
000b
0003
0009
0001
fffc
fff7
004d
fff1
ffd6
0009
0026
0001
0000
ffa9
ff7f
002c
ffeb
0001
0005
0000
fffc
ff5a
ff82
fff0
ffd1
0004
ffcc
0003
fffd
ff3c
00f8
ffc3
ffce
0004
0024
0001
fffe
00c0
0021
004b
003b
0002
ffe4
0001
fffe
009a
ffd1
ff99
0045
fffe
ffb0
fffd
0000
fffb
0110
ff9e
ff85
fffd
ff90
0001
ffff
0082
0000
ffb0
ff24
fffb
0011
0003
0001
ffd1
003b
0006
ffce
fffa
ffaf
0000
ffff
ff6e
001a
0003
0005
fffc
ffb4
0006
0001
0087
ffd5
ffd5
0003
0002
ffe8
0000
0001
0052
ffbe
009c
ffe9
0001
ffe7
0002
0000
ffe5
00ee
009e
00d1
0002
ff77
0002
ffff
0114
0053
005d
ffa3
0002
ff89
0002
0000
0115
0000
ff8b
ff1f
0001
0028
0006
fff9
0093
ffe4
ffda
fff9
0002
ffde
0001
ffff
0072
0029
ff71
00d1
0003
ff92
0003
0000
003b
fffb
ff47
ffa1
0000
0024
0009
fff9
003e
ffd9
0022
ffd4
0001
fff1
0007
000b
0026
002d
fff6
0017
ffee
0024
ffff
ffff
fffd
00a9
fff2
ff81
0008
ffe5
0000
fffe
009f
ffcd
003f
ffba
0006
0040
0000
0008
0064
ff74
ffe3
ffde
fff6
fff8
ffff
0001
004d
008b
ffa7
ffd6
0003
ffc6
0000
0000
fffd
0029
ff9f
fff5
0001
ffcd
0006
0000
005a
ffdc
0007
ffdb
0001
001f
0000
0000
007b
00bd
002b
0013
0004
0030
ffff
0000
fff9
0028
ffb6
ffca
fff9
ffb1
0001
0004
ff52
ff6c
0050
ffb7
0000
fffe
fffe
fffd
00ef
ffe4
00a2
ffc7
ffff
ffe5
0003
fffc
003f
ffd2
006f
ffd1
fffe
ffc6
0002
fffe
ff9b
ffa7
ffe9
fffc
fffe
ffb0
0001
fffe
fed2
ff93
ff41
0021
0001
ff74
ffff
fff9
001b
ffca
000c
ffc5
0008
001a
0000
fffb
00c7
ffa3
007c
0019
0006
0016
0001
0000
ffca
ff6a
ff22
ffb0
0002
ffc8
fffc
ffff
0059
ffc2
ff9f
001f
0003
008c
fffe
0000
002c
0000
ffed
0096
00b1
fffd
006c
0000
ffe0
0000
ffc4
0017
fff8
fff6
0087
0000
ffc5
0000
fee2
ffdd
ffc8
0001
ffac
0000
002c
0000
ff8b
0022
ff9a
0007
0005
0000
fff5
0000
ffc2
0015
004f
ffff
0064
0000
ffdb
0000
000d
0063
002e
0004
00be
0000
fffb
0000
ff31
003d
ff34
fffd
0065
0000
0010
0000
ff21
0046
ffe0
fff8
ffde
0000
0005
0000
fffd
0055
ff2f
fff5
002d
ffff
0024
0003
0044
ffa4
0080
0000
002f
fffe
0004
0000
fffe
fffb
0066
fffe
0054
fffa
0034
fffd
0018
0005
ffff
0004
007e
fffa
002f
fffe
0051
ffe4
0011
fff8
ffe8
0002
ffee
0002
ffb0
ffc4
ffd4
fffc
ffb9
0000
000a
0000
0024
ffd2
ffd9
fffc
fff3
0002
0028
0001
ffd2
0018
004e
0000
ffd6
ffff
fffe
0002
ff75
0019
ff75
0001
0032
fffd
fff1
0005
0054
0025
ff6d
fffb
ff5d
fffb
ffc5
0000
001f
ffe1
005c
fffe
ff09
0000
ffea
fffe
0039
0017
0028
0009
ffb9
fffc
0007
0000
ffe8
0013
0033
fff6
0014
0001
ffb3
0004
fffe
fff7
002d
fffa
ffc7
0005
000d
0001
ffd4
fffa
ff92
fffe
ffdf
0000
ffe7
0003
ffc4
fffa
ffea
ffff
004e
0000
0000
0002
0029
fff7
0004
fff7
006b
0003
000f
0001
0006
ffd6
ffa1
0006
fff1
0001
fffd
0003
ffd7
ffe3
0006
0003
000a
0000
0004
000d
0016
ffd7
ffc7
0000
fff6
0002
ffed
0008
0012
ffe3
fff3
0003
ffd9
0000
fffb
0009
0034
fffd
ffe5
ffff
fffa
0000
001d
0007
000b
fffd
fff1
0000
ffd4
0000
000b
0000
ffe6
ffd9
0008
fffe
ffe6
0003
ffef
0007
0000
fff9
000c
fffa
000e
0003
0020
0003
ffdb
fff7
0029
fff2
ffce
fffb
fff1
000a
ffca
ffd8
0016
fff0
ffc5
fffd
0013
0011
ffe1
fffd
0014
fff3
fff1
0006
ffeb
0001
0052
ffa5
ffec
000c
ffff
0004
0006
0000
ffb8
0003
002a
fffc
ffe5
0006
0000
0009
0067
0008
ffbf
fffe
002c
0006
fff4
0002
ffca
004c
ffe2
000d
ffda
0000
ffec
0000
0013
fff6
ff58
0009
ffeb
0000
0021
0001
00a5
ffba
ffb1
0004
0004
0000
fff2
0004
fff8
ffed
ffc2
fffb
ffb6
0003
0021
0000
ffdc
ffff
ff96
0003
ffc4
0002
004f
0003
0092
fff7
0065
000e
0067
0008
ffa7
0000
ffc7
0018
0035
fffd
fff7
0007
ff93
0000
ff9b
ffe4
004a
0005
ff27
0006
ff89
0003
ff55
003e
0098
0003
0025
0006
ffc0
0001
0091
0012
ff41
fffc
004b
ffff
fffd
0000
004b
0033
ffbb
fffe
ffb0
0000
0007
0000
0077
fffd
fff9
0008
0015
0000
ffcf
0000
003f
005f
fed9
fff6
00be
0001
fff3
ffff
005a
ffc1
ff8b
fffd
ff3a
0004
000e
fffe
ff82
006a
ff92
0001
000d
ffff
ffe3
fffd
ffbe
0060
000b
0002
00c8
fffc
ffe7
fff5
0004
ffef
fff8
0005
002f
0001
ffe8
000b
001b
ffb9
ffb2
0002
002a
0000
ffd8
000a
ff5d
003b
ffd0
fff8
ffe5
0000
fff1
0000
ff4f
0051
ff49
fffe
ffec
0003
ffe5
fff9
fffa
0001
000f
fff2
ffd0
fffe
0000
000a
ff4a
006c
ffdb
0006
ffa7
fffe
0005
0001
ffc4
0022
ffa5
0008
fffc
ffff
0026
fff0
0039
ffd4
ffb8
fff2
ffbc
ffff
ffd6
0000
00c0
fff6
006f
000b
ffc8
ffff
ffc7
fffe
ffc7
0049
005d
0004
ff63
fffe
0000
0000
0003
0076
000e
fffe
0073
fffe
0010
ffff
000b
000d
0023
0005
fffe
0001
ffd0
fff6
000b
0081
ff63
fffa
ffc6
0000
ffc9
fff2
0049
0008
002f
fffc
00be
0000
ffef
fff7
0041
004b
ff5f
ffff
0097
0002
ff99
fff8
ffdf
ffdf
0028
ffed
fffa
0002
0001
fff2
ff86
ff96
0038
fffd
003c
ff72
ff98
ffe8
fffa
0032
fe88
ff96
0000
ff75
ff6f
ff84
fffe
ffca
ff4a
ffef
0000
0000
ffff
ffe4
0001
0075
0148
006e
0000
ff8c
ffed
ff8f
fffd
ffe3
ffbb
ffbf
0000
ff9e
ff2c
ffef
fff2
0077
009c
0054
0000
004b
ff88
ffcb
ffe7
ffd0
00e3
0083
0000
ffe4
0012
ff95
ffd7
ffda
0067
ffe6
0000
ff51
ff66
ffe3
ffc7
ffbe
001a
0050
ffff
ffad
ff15
ffe1
ffd6
0050
00be
00e3
0000
0075
ff0a
ffbf
ffd5
0017
0042
0095
0000
0029
fff8
006a
000e
0076
00d7
005b
0001
007d
0065
0089
ffee
ff0e
0015
ff3f
0000
000e
ff97
ffc2
ffd9
007f
0025
00c8
0001
0033
0034
007f
0009
0045
0098
005f
0001
0055
0009
0070
001c
ffdd
002b
ffbd
0000
fffd
0054
000b
ffe8
ffbc
ff71
0026
0001
000e
0014
0070
fffc
ff65
fff7
ff97
0002
ffda
0056
0033
0009
ff91
0086
ff73
0002
ffcf
0030
ffb7
fff3
ffcb
ffda
ffc6
0006
ffb1
004f
ffe4
0011
ffd4
ffd7
fff0
fff9
fff1
00b4
ffe1
fff6
0009
0094
ffe7
0002
ffe5
0032
ffb9
000a
ffe2
0050
0000
0002
ffd8
ffac
ff5e
0025
0010
0006
0072
ffff
ff9e
0059
ffce
fff0
006a
009c
ffa2
0000
ffc4
004c
ff95
000e
0038
0037
0015
0000
ffe9
000e
ff2d
000c
ffec
ffad
0083
fffb
ff96
ffd4
ff91
ffd4
ffe0
fffb
ffdf
0000
fff7
ffe5
fffe
0000
000b
000c
0002
fffa
ffd8
0012
fff0
fff9
fffc
002d
0013
0003
0003
001b
ffeb
fff1
0010
000a
0028
0000
ffed
002c
ffc3
fff1
fff5
0006
fffb
0000
ffed
004c
ffe1
fffb
0010
0024
0021
fffd
001a
000f
0002
0002
001e
0030
0032
fffd
0024
0035
ffe2
0008
fff9
ffe4
ffde
fffe
fff5
0013
ffc6
0008
000b
fff5
fffa
fffe
fff2
ffdc
0006
0016
003e
0012
fff4
fffd
0001
008f
00ce
0024
005c
0093
ffcb
fffb
009f
008e
00ad
0032
fff0
00e2
ffe2
0000
0037
009d
003c
001d
0010
006b
ffcd
0004
007a
00cc
00c2
fff1
00b7
0021
00a5
0001
0071
0009
00c2
000a
ff76
0030
ffa8
0000
ff56
ffd2
ffbb
002e
feeb
ffd2
005d
0002
00be
ffe2
0039
001b
00ac
00ac
004c
0003
007d
0005
001e
0019
0054
0023
00c2
0000
ff90
ff87
ffc6
0038
0007
ffbd
ffff
0000
ffef
0008
ffc8
fff4
0053
ffb1
ffae
0000
00da
ff27
ff25
000f
ff9c
00d6
00ce
0000
00dd
0019
ffd1
fff6
fff9
002c
000d
ffff
008a
ffe1
0040
ffec
0025
0023
ffb4
fffe
004e
ff4a
ffe5
ffd6
000f
004f
000e
0001
0008
ff2d
002f
fffb
ff8d
ffa1
005c
0002
fff4
ff59
ffa8
ffcb
0002
004b
ff4c
0003
ffc9
0025
0014
ffb6
0091
003d
0026
0000
ff52
000e
ff6a
ffd6
004d
0034
0028
0001
003a
0042
0018
fff6
001e
fffc
006f
fffb
ffee
ffd4
0023
fffe
005a
ffc9
ff66
0000
ff6b
ffc1
ffe3
ffed
0033
ffea
ff5a
0000
0002
0069
ff85
0016
ffdf
ffb7
fffe
fffe
002a
000d
ffe4
ffed
fff6
000f
ffb6
ffff
0029
0090
0093
ffe6
0056
ffc9
ff9a
fffe
0056
00a0
ff84
0016
004a
ffb2
ffe1
fffc
0049
004d
0040
0005
0036
ffe9
ff76
0000
00c9
010e
0028
0005
001b
0014
ff90
0000
001d
0073
0018
0009
0022
0003
002d
fffa
ffc2
ff18
fff1
0015
ffe3
ff7e
ffea
0000
ff7f
ffc6
00b8
002a
000d
ff51
ffc7
fffe
0043
0003
00aa
ffd9
ff1c
0030
ffe9
ffff
ffeb
ff55
00ab
0014
ffed
004e
ffa1
0000
fffa
ff67
ffdd
0039
0016
ff77
ffca
ffff
ffdd
ffed
fffd
0005
ffb8
ffed
00b0
0000
0043
ff42
0063
fffe
ff85
0010
ffdb
ffff
0068
ffe5
0052
0021
ff9f
003b
001e
ffff
0025
ff8e
002b
0057
ffad
0091
ff5f
0001
ffdc
ffc7
0006
ffcf
ff70
fffb
ff5e
ffce
001d
ffb1
0038
000f
002d
0043
00f2
000b
006c
ffb6
fff6
fffa
001c
ffe6
ffe1
0082
0044
fff5
ffeb
ffb5
ffcf
ff9c
fffe
ffc3
0019
002e
004b
0012
00c5
ff97
ffe1
ffd6
0037
001d
005f
ffcc
001a
002c
ff99
007e
0056
0005
0003
ffd1
ffd7
0037
0075
ff9c
0031
0025
0066
0049
ffea
ffcc
ffaf
ffdf
ffdd
ffad
ffa1
ffca
0059
0033
ffa5
ff86
ff9c
ffcc
0011
ffba
0031
00bf
00c5
fffe
ff53
ffcc
001e
ffe8
ffee
ff8d
0030
ff25
0005
ffa1
ffba
0012
ff5a
000b
000c
ffc1
001e
ffb2
ffd3
004b
ffdb
ffd8
00ae
00de
fffa
0009
0005
ffd2
ffc7
ff64
005c
febc
0000
0002
ffe9
006b
ff35
0026
ff93
fffc
ffd5
fffb
ffa7
0068
ffb6
ff64
000d
000e
ffff
0006
ff59
ffd4
ffcb
ff5f
ffe1
ff3e
002c
002f
0049
ffb1
0014
002e
00d0
ffce
ff96
ffba
0016
008b
006a
0018
0004
0001
ffdc
ffb3
ff44
0019
0019
ffd9
0010
002c
ffbc
ffd9
0046
ffa7
ffd8
005b
0027
ffce
ff8d
ffbc
0037
0029
001d
006f
0000
ffcd
0000
ffed
ff74
0080
0017
0011
ffd1
ffe9
0050
ffe1
002c
0053
0060
0033
ff9d
ffd5
ffac
0021
0028
0078
ffe9
003e
0008
0012
ff91
0015
000f
00cc
ffff
0022
ffdc
ffc0
ffff
0003
0021
ffe3
0012
0019
0049
000a
fff8
0002
001f
ffc7
fffa
001e
001f
000d
001a
0025
ffe0
ffdd
fffe
0008
ffff
0028
000d
fff7
fffa
fffa
000b
000a
0039
fff3
0001
0004
fffc
fff4
0012
fffa
000b
ffe9
0020
002c
ffd1
ffec
0028
000e
000c
0012
0005
fff6
ffd3
fff7
fffa
0006
0007
fffe
0018
001d
ffda
ffd2
0027
0000
ffe9
fff3
0025
0024
ffc3
fff2
0033
0019
0006
0021
ff97
ffe5
ff77
ffd4
ff16
003f
ffdf
fff6
ff98
0032
ffd9
004b
0040
ff7c
000d
ffa1
ffa8
004c
008e
000d
0044
ffe2
ffd8
feff
001e
fff6
ff7b
ff8a
ffd7
ffa3
ff92
009c
ffae
0018
ffc9
ffcc
0016
ffd0
ffca
ff32
ff8e
0005
0057
0024
001f
fff1
ffd2
ff47
ffe3
0012
0041
fff8
003a
ff87
002d
0070
ff7f
ffe7
ffe2
ffc0
ffd9
ffd2
004b
ff45
ff6e
ffdd
0042
ff79
ffb9
ffba
ffe5
ff84
ffbb
0029
ffe3
0059
0055
003f
0000
0006
ffb0
fffe
0007
ffb8
ff97
0083
008a
0078
0035
ffec
000f
ffae
ff9e
0020
ffee
0046
ffe9
0011
ffd4
ffd8
0024
0039
001e
ff54
00a0
004b
ffef
0015
ff94
0043
000d
ffee
0057
ffbe
00ab
ff91
0065
0031
ffcd
ffcf
004a
ffd3
ffff
ff1d
ff3b
000b
ff7e
ffbb
ffe1
0056
ffe6
fef8
ff59
0010
001d
ff93
ffbf
ffe4
00b5
ffec
0029
ffd0
003c
ffd3
002c
ffcc
ff8d
ffaf
0058
ffc3
ff84
ffd7
0038
ffdf
0032
ffe6
0033
0033
0003
0026
0005
004e
0032
ffd6
000f
ffde
ffea
ff88
0031
ffa2
ff4c
ffcd
001e
0008
ff7b
0035
000c
ffb5
fffe
0095
0083
fff9
ff51
0010
fff9
fffc
004d
ff91
ff9a
fff2
ffb9
ffd3
0041
ff71
ff41
000b
0035
0016
ffbd
0003
0015
fff2
ffef
004e
00a8
0052
ff81
ffdc
ffd8
ffeb
00bb
0072
0028
0002
fffc
ffb9
fff8
0004
ffda
005e
ff28
0054
ff59
ffc4
0017
ff95
ffec
00c7
ff42
0053
ffa9
ff6c
000f
ffa8
0028
0014
ffc4
0064
ffe1
ffa0
ffb8
ff8f
003a
0028
002c
004a
0019
ff53
ffec
ff9e
0013
000d
fffb
0066
ff4e
fef6
0010
0023
0039
0012
ff9f
001d
ffe9
ff69
0000
fffa
003b
0066
ff7e
ffcf
ff31
0077
fff3
ffc9
ff70
ff37
ff52
ffcd
ff3c
ffd8
ffd9
0030
ffdc
ffff
0007
ff8b
ffb0
ffee
0027
ffd6
0025
ffb7
ffe3
0080
002e
0000
ffe7
fef0
ffff
ffb3
ffd9
ff8d
ff9a
0000
ffd8
fff2
ffde
ff9b
0000
ffb9
ffc0
0000
0017
ffd7
0024
ffa3
ffbf
ffad
0091
0000
ff75
001a
0071
0013
ffc2
ff47
0019
0000
000c
ff79
ffe6
ff86
0068
ff6c
fffe
0000
ffe1
004e
0082
0013
0032
0019
0000
0000
ff4f
ffeb
0077
0117
0029
0055
0017
0000
ffd2
ff99
004f
ffd3
0031
ff92
ffcd
0000
0016
001a
005b
ffb2
0065
ffb0
0051
0000
002a
0004
0034
000c
00b5
ffee
007e
0002
fff7
ff76
ff8f
0042
005b
001b
ff9c
0000
ffd5
ffa8
00a0
ffc6
006f
ffd0
ffe3
0000
003e
0004
0069
fffb
0026
0014
0032
0000
0033
ff74
ff6e
ffc9
ffb9
ff55
003e
ffff
fff3
0042
ff85
0011
ffeb
ff5e
ff40
fffe
003d
ffea
fffa
0032
ffdd
ffb4
ff5b
0001
fffb
ff3e
ff34
0082
0019
ff7a
ffec
0000
ffd1
fff8
ffc6
0011
ffdb
0018
fffc
fffc
0037
0004
0026
ff89
0013
0083
0027
0000
ff6e
ffb5
0056
ffbd
0008
ffec
ff74
ffff
0022
ffba
0025
0034
0015
0002
ffe3
fff8
0069
ff85
fff3
0009
0030
004c
ff82
fff6
ff87
ffa3
ffe2
004b
ffcc
0013
ff4f
ffff
0093
fff0
0007
0025
006e
fff4
0019
0001
0035
ff75
ffdf
0021
ffda
0060
ffb0
fffb
ffbe
ff3c
ffee
006a
ffd9
0023
ffbe
000a
0008
fffd
fff8
ffe1
ffdd
fffc
ffef
0005
0000
ffcf
001d
ffe9
ffc4
0023
ffbc
0002
0001
ffe1
003c
fff0
ffb7
003c
fffb
0005
fff3
000e
0018
ffe7
ffec
0024
0003
0008
fff0
ffed
0011
ffe9
fff0
0012
fffb
ffff
0009
ffbf
0023
ffd7
ffea
000e
fff1
fffd
fffe
000a
0008
ffe1
fffc
003e
fff7
0000
ffe4
001f
000b
fff9
fff6
0020
fffc
fffe
fff1
ffd6
000b
fffd
ffee
0014
001d
ffff
ffe0
ffa1
ff95
ff99
fee7
0081
0001
0003
002e
fffe
ff55
ffd3
ffa4
fff2
0056
ffff
fff5
0045
ff4a
006f
0088
0074
ffa7
0000
0012
0027
fff9
ff7a
ffb1
ffa7
ff9b
0002
ffee
ffed
ffc3
004e
0052
0031
ffb3
fffd
0022
0029
ff9f
005a
0041
0087
ff98
fffd
0021
ff7a
ffe6
ffc7
ffb6
ffb4
0081
0002
0016
ff9a
0046
0051
0091
0033
0075
ffff
0068
004a
0076
003e
0072
004d
000d
fffb
006f
ffbe
0098
ff79
ff63
ff7f
001d
0000
00cb
00d4
ff83
ffa7
ff89
ffbc
0038
fffe
0090
ffa4
fffa
fff8
00a3
0027
0077
fffc
0074
ffd5
0080
0043
ffb7
004c
ff8a
0000
0020
001d
0036
0093
ff8e
0015
ff30
0003
0091
ffde
0063
0091
003b
004f
00af
0001
008f
ff16
0088
fff4
ffba
ffb8
ffdc
0001
ffb2
ff0e
0020
fffc
ff4a
0063
0013
0001
ff6d
0026
000e
0024
0019
0091
ffbb
0001
fffa
0001
ffcf
004e
0003
ffb2
ffde
fffe
ffd5
001f
ff3e
000d
ff8b
000a
ff68
0005
ffb7
ffff
ff9e
ff8b
0009
ff6f
ff41
ffff
ffd6
006a
ffd6
0018
ffb2
0023
fffe
fffd
0040
0075
ff22
ffdd
ffd2
000f
ffd7
ffff
0000
fff1
ffa9
fff6
ffce
0076
ffe2
ffff
fff1
0063
ff8e
0048
ffea
0011
0067
0002
0004
0028
ffb8
0018
0032
0018
ffd9
0003
0024
0036
00ba
ffc4
0049
0063
ffd4
0005
ffb9
ff7a
007e
ffd7
ffac
0009
0015
0000
0040
ff62
002f
0030
0033
00a8
ffe1
0000
007f
ffb4
ffd3
ffed
0053
ffe1
ff89
0000
ff79
ff5d
0044
0022
0000
0032
0011
ffff
0003
ff89
ffa7
004f
0050
ffd1
ff75
fffe
002e
ffb9
ff2e
ffbe
0083
ffe1
ffc5
fffc
ffb5
ff7a
fff7
ffae
ffc0
0011
ffa0
fffc
ffc9
ff78
ffb3
ff8e
ffdc
ff8d
0085
ffff
002a
007b
ffff
ffdd
fff7
ffe2
ffc4
fffe
0026
ffe4
ff7c
ffb1
ff96
ffc3
0057
0015
00c9
ffa8
0013
0045
fff9
ffe6
ffec
0072
008a
ffec
00bc
ffd5
001e
ffe4
001a
0081
ff98
fffd
ff0f
ffa5
0008
fffe
ffb4
ff96
003d
ffd6
ffeb
001e
0023
0027
ff80
006d
ffdf
001c
00dd
0005
ff99
000d
0036
0022
fff7
0005
ffd1
ffdb
0044
0031
ff9d
ffca
ffc9
001a
0089
0080
ff6f
0063
ff0a
003d
0011
fff7
00da
fffa
ffaa
fffd
ffa9
0027
ff80
ffff
ffb5
0013
0025
fff2
ffcc
0024
ffec
0015
00c5
002b
00b4
0002
ffb1
0023
0019
000f
007d
ffcb
ff54
ffdc
0051
008e
0017
fff5
ff5d
0020
ffb1
ff9d
00a5
ffe4
fff1
0015
001c
0025
ff98
ffe0
ffcb
ffc1
0020
003d
001c
0023
ff08
fff4
ffa9
ffd9
ffd5
ffdc
ffbc
0020
ffbc
ffb9
0053
ffb2
ffd3
fffc
002a
0033
ffbf
0001
003b
ffb8
0080
0015
005d
000a
ff88
001b
0011
ffa9
0073
fff6
0020
fff0
0041
001e
ffe8
0009
0012
fffb
ffb2
ffbd
005d
ffe4
ff67
0028
003e
ffda
002f
001e
0026
0004
ffe5
ffdc
fff0
fffa
ffb1
000d
ffaa
fff9
0018
0010
001f
fffe
0051
ffae
ff93
0046
0048
ffd2
ffed
ffd0
005c
ffd8
ffdf
0036
006b
fffe
ff7e
000a
ff3a
007f
004a
0005
0006
0053
ffe8
0026
004d
fff8
fff3
0047
007d
ffd1
0013
ffea
fffb
ffab
ffda
ffdf
00ad
ffd3
ffef
0019
0033
001c
000d
000c
000a
0010
ffe0
000a
0017
ffe4
0008
fffe
ffff
ffe6
ffe6
000c
0009
0008
ffe9
fff9
0008
ffba
ffe9
0014
fff5
002d
fffc
fffa
0011
ffff
ffe9
0012
ffdd
fff5
0017
fff9
ffe0
ffce
ffe3
001a
ffcf
0011
ffec
0019
ffd2
ffb5
ffd3
000e
ffba
000c
0000
fff7
0007
fff8
fff7
fffc
ffd6
fff8
001b
ffe8
ffc5
ffd8
001b
001a
0000
fff9
0006
fff8
ffd6
ffc6
005c
ffe8
ffa6
000b
ff12
0002
0099
003d
0031
ff81
ffed
0038
0002
000c
0086
0082
ffb7
ff96
ff6a
0013
0001
000e
fffe
ffe9
0062
ffea
ffb0
ffdd
ffb6
ffde
ff83
0015
ffd8
0002
0011
0023
0009
0021
fff3
0135
ffa1
ffed
ff56
fffd
ffd6
0066
0035
006f
ffb2
ffd8
ffbd
ffd1
0022
ffa9
ff97
0016
0003
ffeb
0017
ffb4
fffa
ffe3
fffa
004d
ffce
ffcc
0000
ff79
ffd3
001a
003b
0055
fff4
ffe0
0033
0042
ff91
000d
ff73
ffef
ffa1
0003
006b
ff84
0038
0017
ff94
002e
ffb1
0013
0013
ffd8
000b
ffdf
005d
0093
ffde
ffa9
ffaa
ffb6
ffe5
000a
007c
ffdd
ffa8
0053
ff99
ffc2
ffec
ffd7
00b7
00ef
006d
fffa
fffb
002c
00c0
fffd
007e
0047
ff7b
ffbe
ffb4
ff81
007e
0009
0015
ffec
000c
fffc
004a
ffd6
0036
ffcc
0038
ffd4
0017
0035
ffeb
0011
ff76
ffcd
0008
0040
0035
ffea
00b6
ffe4
003c
ffcb
ffbe
007f
0044
000a
004a
0013
0027
000a
0088
0073
ffe5
0049
001e
0004
ffcd
0001
0079
ff92
fff4
fff5
00bb
0018
ffa8
ffdc
ffd0
0057
0018
fff7
0009
001e
ffe7
fff8
ffc5
0054
0015
004c
ffcb
000c
ff6b
0003
ffde
ffcc
ffc8
000b
0007
000e
ff41
ffb2
007c
007f
002f
000a
ffb7
0002
fff1
ffa7
ffe1
0081
ffe8
0038
ffdc
ffbc
004a
ffef
ff8d
0073
ffd9
00a0
0062
ffde
008f
005c
ff60
00e9
ff93
007e
002b
0006
001b
0075
ff09
00c2
ffc1
ffd2
ff2d
ffb8
ffd2
fff3
0006
00ce
0047
0023
ffaf
006e
0032
0056
ff88
002b
0001
0013
ffea
ffc6
0004
ffd5
ff88
ff96
fffe
ffe9
003a
fffb
ff4e
000d
ffc3
0041
0070
0025
ffb4
0077
ffd4
ffe7
0010
ffbb
0037
0051
0089
ff7a
ffc3
ff99
0069
ff65
fffa
000d
005f
005b
005c
000c
ffb7
ffb4
0034
ffff
0011
0016
0024
0030
000f
0000
0017
0004
0047
0059
00e9
0045
0076
0000
ffe5
000a
00aa
fff6
0003
001e
ffc0
ffff
000b
ffef
ffd9
0025
ffdb
0061
0053
0000
0000
fff0
001f
0056
00d0
fffb
0057
0000
ffb0
fff7
0001
ffe6
001e
0091
ffc9
0000
0000
fff4
ff7f
ff3e
fff7
fff6
0031
ffff
ffdc
fff3
005b
ffc6
0117
003a
ffa1
ffff
ffb3
ffec
fff3
ffd4
0055
0054
ff8b
0000
ffc5
fffe
002c
ff3d
ffbb
ffdb
ff91
fffe
ff8d
0012
ffed
ff89
ff3e
ffe7
ff68
ffff
0045
0027
0047
ffe4
ffb2
ff9f
0009
0000
ffe1
fffa
0036
ff44
001b
0050
ffc0
ffff
0006
fff6
ffb5
ffa6
ffc5
002d
000e
0000
fff3
001c
0016
ff9b
0004
0021
0112
ffff
0015
ffdf
0028
0008
ffba
002b
0069
0001
0000
0013
ff64
0081
ff6f
0049
fffa
0000
ffd3
001e
ff14
00ad
ff5c
000e
ffab
ffff
fff1
fff7
0065
ffc3
ffca
ffe3
0059
0006
004e
ffff
004e
fffb
ffcc
ffd9
0006
fffc
00a3
fff5
ff7f
0001
0033
ffbc
ffac
0002
0076
fff8
fffe
ffff
ffe5
ffd1
0040
0005
0022
ffe4
0024
fffe
ffb7
ffa1
ff10
0003
fff6
fffe
ffb8
ffe0
000a
ffd9
ffac
0003
0097
fffe
ffac
000d
0008
0035
0022
0000
ffd8
ffec
0011
0092
ffc1
fff4
ff92
0008
ffb4
ffee
fffa
0024
ffd3
0016
ffdb
0006
0012
0008
ffe6
fff2
0016
0016
0001
0003
0011
fffd
001d
ffe3
ffe7
0009
0036
0001
001e
fffe
0012
000f
fffd
fffc
0022
0000
ffea
0005
fff7
fff0
000c
001b
000d
0006
001f
ffff
ffee
fff4
fffc
0027
fff3
fff4
001c
fff4
ffe9
000a
0000
002b
ffde
fff1
ffdd
0006
fff6
0016
0020
ffe7
000f
fff6
0012
0002
ffeb
ffea
fff6
000d
0005
fff3
000e
fff9
ffbf
ffda
0013
ffff
ffef
ffee
0040
fff1
0006
ff3f
0086
ffdb
0017
0001
0004
0012
005f
ffb6
ffe0
0000
fff3
0004
fff4
0021
ffdd
0081
0018
ffb3
ff5c
0003
009d
ffee
ffbe
0069
ffb9
ffe1
ffed
0001
0011
fff5
006d
ff6b
ffdc
ff90
ffc9
fffb
000f
ffed
ffc8
ffe0
0040
ffd0
ffe2
fff9
004e
ffe9
ff55
00b8
ffa4
ffef
ffcf
fffc
ffa6
ffea
0039
ffed
00a6
ffc3
ff66
fff8
ffb4
fff6
0044
ffc4
00ec
0036
ffeb
fff5
ffce
0010
ff27
ffd4
0026
0003
0022
ffff
fff6
fff2
ffa4
ffd3
fffe
0067
ffb8
0005
0003
ffe8
0000
ffb0
ffef
0021
ffc2
0000
ffc6
000a
0098
ffa6
ffe0
ffd5
005e
fffe
002b
fff4
0125
ffc7
003f
0018
00d6
0004
003a
fffc
ffdd
000c
fffc
009b
ffb6
0002
ffe3
0021
0022
ffb5
ffb8
fff1
001c
0000
004f
fffd
00a5
ffac
ffb4
ffba
00aa
0002
fffb
ffe7
004b
002a
ffbf
0031
ff27
0002
fff5
ffde
ff67
fff0
fffb
ff95
004f
0002
ffbf
0005
0014
ffcb
0068
0003
00a4
0001
0079
000c
0073
0004
006c
ffe5
0041
0001
ffc6
0002
ffab
002f
ffd1
ffa8
ffd1
0000
ffcc
0011
0028
fff7
004e
005a
001b
fffe
0019
fff4
ffa0
ffb7
0078
ffc9
0006
fff9
ffd1
0001
ffd7
0056
ff94
ffea
ffec
0000
003d
0021
0053
0014
0061
0041
007c
ffff
0058
0005
ff8d
002a
0073
ffc7
ff45
fff9
ffe6
0011
011d
ff99
004e
fff5
ff44
0002
ff76
fffb
0118
ff0c
00b5
ffef
ff10
0003
ffed
ffeb
0002
0072
0031
ff55
ffcc
0001
ff83
0002
002f
fed9
ffe3
0055
ff91
0002
fff7
000c
0133
ff23
006c
0020
0134
0000
ffed
0000
00d1
ff88
001d
ffa3
ffdd
fffd
000b
0003
ff18
ffb4
ff50
ffd7
0035
fffc
0035
0024
fe8a
008e
ffa2
ffdb
00b6
0001
0015
0016
00a0
ffe9
fff6
000f
fff5
0002
0000
0031
0000
0000
0000
0000
003e
0000
0000
ffda
0000
0000
0000
0000
ff54
0000
0000
ffac
0000
0000
0000
0000
000c
0000
0000
0059
0000
0000
0001
0000
ffc6
0000
0000
fffc
0000
0000
0000
0000
0041
0000
0000
0048
0000
0000
0000
0000
ffc2
0000
0000
ffeb
0000
0000
0000
0000
00d4
0000
0000
ffc9
0000
0000
0000
0000
0079
ffff
0000
0043
0000
0000
0000
0000
002d
0000
0002
0014
0003
fffb
fffb
0001
0040
0004
0000
0071
0001
fff6
fffb
0000
003b
0003
0000
ffd5
0000
fffc
fffd
0001
ffef
0006
0001
fff9
0002
fffd
fffb
ffff
0005
0007
ffff
ffc2
fff2
fff8
0002
fffd
ffdf
0000
0000
ffe7
fff3
fff9
0005
fffd
0008
0000
ffff
0021
fff5
fff7
0001
fffe
0052
0000
fffe
fff4
fff5
fffb
0002
fffd
ffc5
0000
fffe
005c
fffb
fffe
0003
ffff
ffaf
fffe
0001
007c
0008
0000
fffd
0006
ffa9
fffe
0005
0029
0002
0000
ffff
fffd
ffbb
0003
0004
0041
0002
0000
fffd
0006
ffca
0001
fffd
ffe7
0008
0002
0000
0004
fff2
fffc
0000
002f
0000
0000
fff9
fffb
0009
0001
0009
001e
0000
fffe
0001
ffff
ffdc
0000
0000
ffaa
0000
fffe
0006
0003
0018
fffe
0001
0000
0000
0000
fffd
fff9
004b
0002
0005
0002
ffff
fffb
000b
0000
ffea
0000
fff7
0001
fffa
0000
0000
0004
ffec
fff4
fff9
0017
0002
0000
0000
ffff
0009
fffb
ffef
fffd
fffd
ffff
0000
0003
0010
fff8
fff5
001f
fffc
ffff
0000
0000
ffc4
fffd
0004
ffde
0000
ffff
0003
0001
fff1
fffb
000a
ffe6
0000
0000
0004
0000
fff4
fffe
0006
002b
0000
0000
0000
0001
ffc8
ffff
0007
ffee
0000
ffff
0005
0002
ffd4
0000
0011
fffc
0000
fffe
0005
0002
ffdc
fffd
fffb
ff9a
0002
0000
0001
fffd
008b
fffd
fff9
ff89
fffc
0000
0000
0000
00c2
fffd
fff8
ff71
fffc
ffff
0002
fffe
0025
0000
0001
ffcd
fffb
0000
0000
0001
0051
000a
fffe
ffdc
0000
ffff
0003
0000
00e9
ffff
fffc
ffd4
0000
0001
ffff
0000
0046
0000
fffe
ffa7
0000
0000
fffc
0000
00db
fffe
0002
ffe5
0000
0000
ffff
0000
006d
0002
0005
001f
ffff
0002
fff9
0001
fff9
0002
0006
ff7f
0001
fffd
0012
0002
004b
0005
0001
ffe2
0001
fffc
000a
0004
ff87
0006
0004
0021
0001
fffd
0013
0002
ffa8
0009
0003
ffcc
0002
fffe
0010
0003
0086
0007
0000
ffbf
fffb
0005
0000
0006
ff79
fffe
0000
ff9e
fffb
000c
0000
0005
ffe3
fffd
0000
ffe1
fffa
000a
0003
0003
006d
fffd
0000
0011
fffc
000c
0003
0004
ffa1
0000
0003
0002
fffe
0017
0002
0003
ffff
0001
fffe
005b
0006
0000
fffd
fffb
00a5
fff8
ffff
001c
fffc
0000
0000
0003
0013
0002
fffd
0017
ffff
0000
0000
0005
ff9f
0000
fff8
fff0
0005
0000
ffff
fffb
00df
fffd
0000
ffd9
0000
ffff
fffe
0001
0040
0003
ffff
0036
0000
0000
0000
0003
ffcc
0005
0000
ffa4
0000
fffe
fffd
0003
0073
fff5
0005
0007
0000
0000
0000
ffff
005b
0005
fffb
0001
0001
0000
0000
0001
ffc7
000d
ffff
ffeb
0005
ffff
0002
0000
0096
0000
0009
ffce
fffc
0000
0000
0002
005b
0006
000c
ffec
fffc
0000
0000
0003
0080
000c
0005
000e
0000
ffff
0001
0003
002d
000b
fffe
0035
ffff
0002
0004
ffff
ffe7
ffff
fffd
004f
fffd
0004
0005
fffe
000b
fffe
ffff
ffe0
fffd
0003
0002
fffd
ffef
fffc
fffc
ff93
0000
0001
0001
0000
ffb1
0003
0001
0021
ffff
0002
0003
0000
0055
0000
000b
ffbf
ff3e
ff74
0040
0000
fff0
000f
ffa7
ffd6
ff97
000e
ff9e
0000
ffd4
ffa4
ffe4
ff80
ff8d
ffac
fff5
0000
ffdb
ffcc
0038
ff60
ffd0
fff1
006d
0000
ffcb
000f
ffff
ff45
ffa3
0064
005e
0000
ffde
0028
0015
0007
0013
004c
001e
0000
ffb8
ffbf
ffff
001c
0005
ff92
0001
0000
fffd
ff8d
ffe8
ff9b
0000
001f
ffeb
0000
fffb
ffd7
0035
ffed
0048
0053
ffc7
0000
ffe5
ff2a
ffd9
ff4f
ff5b
002a
009b
0000
ffcb
fffe
ff64
ffc2
0048
0032
003d
0000
000f
0097
0007
0005
0089
ff3e
fff2
0000
0016
fffd
000b
ff8d
ff86
fff0
004a
0002
ff9d
fff5
ffe4
002b
0037
003a
fffb
0001
ffe3
0000
0011
0000
00ba
ff8b
ffbc
fffd
ffef
ffd8
0023
ff71
0000
000c
ff71
0000
ffbf
ffb7
002f
000b
005a
0026
fff1
0001
ffef
ff44
006e
ffdf
009b
ffc9
005a
0000
ffd7
ff8f
0008
0009
0010
000c
ff9e
0006
fff9
005b
0021
ffd0
ffec
005b
0098
0000
fff3
0026
fffc
ff60
fffa
0095
ffe0
0001
fff9
00a6
ffdf
ff8a
005d
ff91
ff60
0004
0012
0055
fffe
006f
ffee
0021
fffd
fffa
0005
fff3
001a
0015
ffef
0017
ffc2
fffd
ffed
002d
ffd9
ff90
004a
ffe7
ff64
0004
0005
0057
ff48
0015
fff5
fff0
ff9b
fffa
ffb4
006d
ff58
0074
002e
002c
ff73
fffd
ffc4
ffc1
0000
000c
0017
ffe4
001b
0003
0007
ffe2
0002
000a
002b
fff7
001d
0009
0001
ffe6
ffdc
0004
000c
0011
003e
0007
0012
0003
0000
0020
fff1
ffd4
003b
0002
ffeb
0016
000c
0013
0017
ffee
0036
fffa
fffb
fff2
fff1
0032
0016
fff0
0019
fff7
0007
ffe4
ffe9
fffd
000a
ffee
0006
fffd
0006
0007
ffeb
fff5
fffe
ffe6
0010
fff6
000f
001b
ffdb
ffee
ffe5
ffef
001a
fff6
0005
0000
ffc9
0025
0043
ffa2
003e
0006
ffe0
0040
ffd6
ffe1
002c
ff8e
00b3
0002
000a
ff48
0024
0043
fffc
ffd6
0083
0007
ffea
ff2c
0066
0000
0021
002f
003d
0003
ffdb
0046
002c
ff5f
fff5
ff82
0011
fffe
ffd2
ff62
ffe5
ff8e
ffca
ffb6
0016
fff9
ffc7
ff4b
ffa6
005f
ffa5
0017
0017
fff9
ffe3
ff6f
0004
fffd
ffa6
ff8b
0018
fff6
ffca
feea
002a
ffc4
ffe0
ff05
ffe3
fff7
ffd9
ff40
002c
ffee
0004
0006
ffb7
0001
ffd8
ff7d
ffdc
0017
ffed
ffe4
001a
0000
ffd9
ff64
ffdb
ffe0
ff40
ffeb
ffb6
0000
ffc7
ff6e
ffe6
001e
008e
fff0
005d
0000
001f
fff3
0004
fffa
0021
fff6
ffb2
0004
ffec
ff2b
0046
001a
ff10
001c
ff57
0004
ffdf
febf
ffce
000e
0020
ff6f
fffc
0000
ffe4
ff58
ffc3
004b
004f
ff9c
0030
0005
ffe9
fed8
0079
0054
001c
ff9a
ffad
0005
ffd6
ff64
ff92
ff9f
ffcd
0068
ff8f
0000
003a
0055
0059
007b
ffc4
000c
0084
ffff
fff6
0039
003e
0011
ffc7
0012
ffd4
fff9
ffea
ffe3
ff84
ff95
ff59
0053
ff3f
0006
0010
0055
fff9
0002
ff45
ffe2
003f
fffa
ffea
0012
fff5
fff8
fff3
ff97
0049
fff9
0004
ffc4
ffd5
003b
ff90
ffeb
ffe2
000a
ffd6
ffe4
ffc2
ffd6
ffbe
fffe
fffa
fffc
ffe9
ff8e
fff2
ffc0
ffd1
0013
ff94
fff4
ffe8
ff1b
005b
fffa
fffe
ffee
0053
0004
0027
ff9e
ffac
0095
ff6b
ff88
ff7e
fffe
0029
ff45
ff87
00f5
ff55
003e
ff96
fffe
fff3
0020
ff94
ff89
ff70
ffef
ff8f
0001
ffbf
005b
ff52
004c
002d
ffce
ffa2
ffff
ffc8
ffdd
ffea
0003
ffd2
0062
002c
fffc
ffdc
ffc8
ffa8
ffc6
ffe4
0025
ff82
ffff
ff7e
0088
ffc9
0058
ffc8
000a
003e
0001
ff89
ffbf
ffc9
ffe3
0004
003a
0004
ffff
0013
ffe9
ffb5
0000
ffe4
0012
ffe1
0056
00a4
ff21
ff99
0000
fffc
ffd2
ffd7
ffcd
fe89
ffe1
ffcc
0000
ffad
ff87
ffd3
ff62
ffcd
ffbd
ff89
0000
0068
00db
0028
000f
012c
ff8b
ff7d
0000
0012
0004
fffa
fff6
ff77
ffa2
fffe
0000
ffe5
0031
ffda
ffce
fff8
ffee
00fa
ffff
0051
0072
ffcb
0008
00d3
0038
00c3
ffff
0000
000d
ffbd
ffa5
00ed
007b
003d
ffff
ffdf
004c
ffe5
0084
0065
0039
fffa
0000
000e
007e
0002
ffbd
009f
0006
ff08
0000
005c
009c
002d
0038
ffc7
0051
0012
0001
0003
003c
0048
ffa1
ffaf
ffbe
ff7a
0001
ffb4
fff9
0014
ff3e
fff1
ffa6
ff03
0000
ffd4
ffd3
000b
ff30
ff27
0097
ffdf
fffe
0001
0035
ffee
ff0d
ffa2
fffb
ffb2
0000
fff5
ffd0
000f
ffc8
0028
fffa
0040
0000
0058
0025
0008
fed4
001f
008d
008b
0000
ff95
0017
ffdd
fed5
fff1
002f
0012
0003
001b
0039
ffd3
0081
00b4
fffa
ff65
ffff
0021
0006
000d
005c
ffab
ffc6
ffb5
0002
0066
ffe1
ffe8
0068
ffb5
ff95
007b
0002
ff47
ffd7
001e
007b
ff55
ffa5
ffc2
0007
0004
fff2
fff7
ffcf
ff4f
ffb6
ff7a
000a
ffbf
ffeb
ffd7
ffd9
ff48
ffda
000c
fffd
ff64
ffa9
0021
0028
ffd3
ffe0
ffa6
0003
ff97
ff95
ffe3
ffdf
ffce
000e
ff9a
0008
ffee
004d
000b
001a
ff50
ffd6
ffdb
0002
001a
fff5
0027
fff5
ffee
ffe3
fffc
0004
ffe9
ffe2
ffea
ffd0
fffa
ffe7
0031
0002
fff9
ffe5
fffd
0000
ffe4
0000
0013
0006
001b
0002
000a
0021
fffa
ffdf
0011
0002
fff9
ffc7
fff2
ffe4
0008
ffd8
0007
0000
ffe2
ffd9
0000
ffda
0001
ffe9
0018
0000
fff3
0011
002d
0004
ffde
ffe4
0020
0001
000e
0000
000d
ffe4
ffed
0011
000c
0002
0012
ffd9
0012
fff2
ffdc
fff9
ffe0
0000
ffad
0033
fff9
ffa6
004c
0030
0035
0006
ffa2
002c
ffbf
ff96
ffe8
ffa8
ff64
0008
009b
004b
fff3
ffb5
0003
ff02
006b
0005
ffae
0017
fff8
009c
00a7
0059
0058
0001
006d
ffec
0007
ffb4
ffeb
ff51
ffe4
0000
0004
0000
ffd0
ffa9
0033
ffbe
0095
0000
002e
fff3
0008
0059
ffcf
0054
ff8a
0003
00f0
ffba
fff5
ffba
ffa9
ffe6
ffc4
0000
ffd6
005b
001c
ff29
ffa3
003c
ffd7
0000
ffff
0081
0017
fffd
ffba
0040
005a
0003
ff82
ffa2
0033
ff9b
ffa5
00ea
007d
0002
ff7f
ffce
ffbe
00b0
003c
010d
008b
ffff
ff70
0049
001c
0004
002a
004a
008c
0004
ff6a
0024
0010
ff7a
0051
0000
004a
0005
0055
ffae
ffd1
ff95
ff35
ff36
ffb8
0007
ff37
0047
fffb
ff99
0045
ff0b
000e
0000
0056
00a7
ffea
ffdc
0001
ff74
0011
0006
003f
00df
007a
000a
ff7b
ffbe
ffc8
0000
ff28
0030
ffd4
ffe3
006f
ff64
ff5a
0002
fff7
ffc8
ffcb
0006
00e4
ffce
ff8c
ffff
ffb5
0037
0039
0041
0040
ffb0
000f
ffff
ffcd
003c
ffed
ffef
002a
ffac
ffe1
fffc
0015
ffd0
0040
004f
002a
ffc9
0011
0001
fff1
ff92
0020
0004
0053
0036
0016
0000
fff3
fff7
ffb8
fff5
003d
0021
ffb5
fffd
ffc7
0008
fff4
fff7
ffcc
0002
ff72
fffe
fffc
0028
0018
0005
0043
0025
ff6c
0000
ffdc
0022
000c
ff5f
001b
003c
ff2a
0003
0070
ffc2
ffaa
0063
ff81
ffd2
006b
0003
0031
ffcc
ff90
00ed
fff6
fffa
ff75
0001
006e
008e
ffe2
ffe9
009f
00df
ff75
fffe
ffbc
006a
ff51
ff53
0155
002f
fffb
fffc
000a
ff98
ffde
0072
0047
ffc7
fff7
fffa
0016
ffee
0026
0035
016d
ff7a
ff8c
0000
fff1
0036
004f
ff73
ffec
0052
ff52
fffe
ff7c
ffdf
0021
fff7
ffdb
ffb6
1684
1c74
e3e1
226d
1b48
1c88
e827
1ed0
ffde
fc04
fd2c
004e
0027
fea1
fce4
ff32
0003
fff9
ffe5
0007
fff9
0004
0007
0000
0007
0049
0048
fff8
006e
0000
ffbb
0004
0006
0043
fffc
ffed
003b
0005
ffcb
0006
0004
ffcb
ff8d
001c
ffbd
0005
000e
0005
0002
0022
ff98
fff9
0056
0000
ffc6
fffb
0002
ffd3
ffb7
ffe0
0017
0000
ff8e
fffd
0000
ffb9
ffbf
ffe8
002b
0000
ff8e
fffc
0000
ffe3
0000
ffd6
000e
ffff
0046
fffb
0000
ffcd
ffc5
ffc8
000b
0000
ffe0
fffa
0003
0005
0060
ffe2
ffdf
fff9
ffe7
0003
fffd
0006
ffd9
0001
ffea
0000
ffd0
0008
fffe
000c
0015
0007
fff6
fffc
ffa0
000a
0004
0078
0000
fff2
0001
0000
ffb2
0008
0003
00b3
ffe5
fffe
000e
0000
ffd2
fffc
fffc
ffc8
ffc0
fff1
0044
0000
ffd0
fffe
0000
0037
0019
001a
ffce
0000
ff67
ffff
0005
003a
ffd7
000c
0005
0000
003e
fffb
0000
ff87
ff9c
ffde
0012
0000
0001
fffd
0006
ffe4
009a
ffff
fff8
0007
0067
fffd
fffa
0061
ffa2
0006
0000
000f
fedc
fffd
001a
ffe3
ff60
ffff
0076
0005
ffd0
fffa
fff7
ff56
ffef
0009
ffd9
000a
ffdb
0001
0000
fffc
ff7d
0002
fff2
0000
ff37
0001
0001
fff6
002d
fff9
0045
ffff
0006
0001
ffff
ff5a
017b
fff8
ffeb
0000
00dc
0002
ffff
ff48
0041
ffea
004e
0001
fffa
ffff
0000
ff9c
fffd
fffd
fff7
fffa
ffcb
fffe
0000
0012
ff38
001a
0061
0000
0097
0000
fffe
ffdb
ffbd
ffe1
000e
0000
006b
0000
0000
001e
0076
ffd0
ff7e
0000
0012
0000
0000
0037
ff4a
0010
ff7b
0000
ff76
0000
0000
fffc
ffbe
fff0
ff79
0000
fff6
0000
0000
ffbc
0001
ffea
ffa2
0000
ffcc
0000
0000
000c
003c
0021
002f
0000
007d
0000
0000
fffd
ffb8
0012
ffcf
0000
ffeb
0000
0002
fff6
ff95
ffde
005b
0000
ff45
0000
0000
ffd5
0039
001e
fff0
fffe
0009
0000
0000
0049
0079
fff6
001a
ffff
0053
0000
fffe
ffde
ffeb
ffe0
005b
ffff
ffe9
0000
0001
ff9f
0051
0004
ffc6
0000
ffa8
0000
0000
ffcf
0042
0027
ff8b
ffff
ff88
0000
0000
ffde
ff49
0009
0023
0000
ff0e
0000
0002
ffd1
ffb1
fffa
0052
0000
fffb
0000
0003
000e
0022
fff5
0052
0000
ffa7
0000
0002
ffe1
0014
ffe8
00a0
0000
fef2
0000
fff7
0015
ffe6
fff0
ff93
ffff
00be
fffd
fff7
0017
0035
ffd1
ffd5
ffff
004c
0004
fff0
ffab
ffe1
fffe
0052
0000
001e
0004
fff7
00af
0038
0008
ff62
0000
0014
fffe
0001
0038
ff70
ffdd
ff62
0003
ffc8
0000
0002
ffa2
ff88
000d
0013
0002
fff0
0000
0000
ffed
00f1
ffff
ff79
0001
ffc2
fffe
ffff
0031
ffa0
0001
ff95
0001
ffbc
fffe
0000
0000
ff4f
000f
ffec
0000
ff87
ffff
0008
0053
0005
0014
0052
fffc
ffcd
fffc
fffe
ffed
ff55
0017
0053
0004
003e
fffd
fffc
0006
0098
0000
00aa
ffff
0033
ffff
0008
ff8f
ffe7
000e
0013
fffc
ffdd
fff9
0000
00ac
0002
0002
ffca
fffe
0013
0001
0001
0053
001f
ffeb
fffc
0000
ffe9
fffe
0001
ffb4
ff8c
fff9
0027
0000
ffff
fffc
0000
0002
fffd
000a
004e
0000
ffc0
fffd
ffff
ffb6
ffdd
0004
fff2
0000
ff31
fffd
0001
ffa8
ffb6
ffed
ffe9
fffc
0043
0000
ffed
001b
ffa0
ffef
fff3
0000
ffe8
fffa
0005
ffe2
004d
ffdb
002f
0003
ff42
0000
0006
ffa0
fffd
ffff
ff94
0006
ffb6
0003
0002
ffad
000a
0006
ffe9
0004
ffe5
ffff
0001
0042
ff81
0003
fff9
0000
ffd3
0000
0002
ffbc
ffb6
0000
0029
0001
00ba
0000
0000
ff4e
ffe8
fff5
0059
0000
003d
fffc
0001
ffd1
ff6e
0020
005d
0001
ffe7
0001
0014
0076
fff7
ffbb
0033
004f
ffd0
fffc
ffc8
0066
ffcf
ffbc
ffc2
007d
ff61
0000
ffb7
0050
ffec
fffe
0004
ffdb
ff66
0001
ff9f
0051
ffce
002e
ffe0
ffd7
ff81
fffd
fffa
0027
ffbe
004d
fff3
0017
0044
0003
ffc5
0053
ffff
0071
0010
0004
fff7
0001
ff7d
fff9
ffdc
ffea
ffed
ffc3
003d
0001
ff88
fff2
ffd3
0057
ffc5
0054
0064
0000
ff74
fffe
003e
0019
ff87
0062
005d
fffc
002a
0023
0046
0067
0032
ffab
ffab
fff1
ffe9
0013
003e
0014
00c2
ffb6
ff40
fff6
ff5c
0090
004a
0061
0072
ff73
fe88
0007
ffb2
0063
00bd
0030
000c
ffef
0014
fffb
ff5e
0090
0014
0029
ffeb
0071
007d
0000
ff3f
00f1
ff8a
ffdb
0036
ffbf
ffe3
0001
ffe5
008b
ffee
ffe6
003e
ffbf
00a0
0000
ffc6
003e
ff9b
001d
ffda
ffbf
0093
ffff
ff7f
0014
ffed
ff05
008c
0022
00c3
0000
ffd9
0029
ffde
ffde
ffac
0019
ff4d
fffe
0038
0007
ffc7
ffc2
00be
ffa3
ffc3
0004
001a
fff7
0008
ffaa
ffeb
ffc6
ffbe
0002
0026
fffc
ffaf
ffdd
0016
ffdf
ff77
ffff
0001
0081
0021
ff5f
fff8
003b
ffc0
000a
ffd9
0051
ff7c
006e
0043
ffd6
ff75
fffb
fff0
ff69
005d
0051
ff1c
ff94
ff58
ffeb
ffba
ffdc
0002
000c
ff39
005a
ff7d
0029
ff79
006b
000a
007a
fff8
ff98
ff27
0007
ffc9
00a0
001b
ffbb
0099
ffa5
0087
ffff
0006
ffac
008e
0006
ffe8
ffdb
0014
ffff
000d
ff2e
0007
0092
fedb
ffbb
ffd6
ffff
0014
0097
ff9e
ff90
006d
ff30
000c
0000
0061
ffbf
ff80
ffcb
ff49
0003
0053
0023
ffbd
ffbb
ffef
ffde
ffc3
ffa1
ff49
000e
0009
002e
ff0a
fff0
0121
ff7b
ff19
ffee
ffec
fffd
ff83
ffa3
ff9b
001d
ff6b
0038
ff87
ff93
ff2e
ff63
0011
ffbf
ff26
0000
ffde
ffcd
0002
ffc4
0056
0093
0014
fff2
fff8
ffd4
0063
0030
0055
00c3
ff7f
fff7
ff8c
008d
003f
ffe6
005d
0080
ffee
fff8
003c
ffb8
ffcc
ffb8
ffcc
0057
ffdb
fff9
002d
0028
ff3b
ffab
ffbf
ff92
ff9b
0000
ffcf
007b
fff2
ffb5
ff8d
fedf
ff64
0002
0086
005a
ff97
00af
002a
0054
ffd0
0002
0023
0032
ffe7
ff67
ffec
ffba
ffb2
0003
ffc5
0038
0000
ffcd
0041
fef5
fed0
0005
ff59
ffd0
fffe
0021
ffe7
0058
ff54
000f
003d
ffe9
ff34
0000
00dd
0027
ff40
0002
005f
003d
ffeb
ffe5
002a
00af
ff83
ffff
ffad
0046
ffd8
003f
ff6c
ff63
ff6a
0012
00ed
007a
ffc6
005d
ffd9
ffa5
ff8b
0001
00a7
0049
001b
0060
0054
0003
fefa
0001
ffbe
ff98
ffc0
fff0
ff9d
fffc
0024
fffd
0042
ffff
ff9c
005a
ff56
ffd2
000d
0000
0011
0028
00c6
003e
ffa1
0073
fff0
0000
ffa5
ffe2
ffe7
006f
ff9c
ff89
ffc9
fffa
ff8f
ffdf
003c
0101
ff94
ff80
ffa5
fff8
0003
005d
006a
00c7
ffde
ffd5
ffe7
fffa
ffaf
ffed
ffeb
0057
ff75
ffc4
00a3
fffa
ffe0
0052
fffc
000c
ff91
ffba
ffb0
0000
0028
000d
0088
0026
0079
ffde
ff9b
0000
ff69
0060
007d
fffc
0023
0014
004d
ffff
000a
0057
0008
ffab
0076
ff9d
ffad
0000
0037
0054
0052
ff87
ffc3
ff12
ff78
0001
0034
0011
ffdc
fffd
ffe7
ffc9
0040
ffff
ffb6
ffc0
ff89
ff7b
ffa4
ff9a
ff95
0000
0016
ffac
ffa9
ffc3
ff9c
ff79
ff89
fffb
0007
ff3a
ff83
00a6
ff9f
ff9c
003d
0001
ffcb
ff7f
ff54
0099
ff18
ff37
febb
0000
ffd6
ff6a
ff41
ffe5
fff3
ffaf
ffc2
0001
0012
003d
000b
0107
0021
ffc8
fff4
0003
001b
ff95
0005
ffbc
0041
ff72
fee1
ffff
ffbb
0002
ffb1
ff78
00c4
ffe6
ffd5
fffe
0014
ffb8
000f
0000
ffea
005d
ffde
001d
fff8
ffe6
0016
0000
002d
0042
0002
ffdb
0044
fffa
ffe0
fffe
000e
0024
0003
ffd8
ffc5
ffcf
fff1
0000
ffb3
ffd9
ffe4
ffea
ffef
0010
ffba
0000
000e
ffe3
ffbc
ffed
002e
ffff
fffe
fffb
0017
ffb6
0021
001e
ffab
007b
fff1
fffa
ff96
ffc3
0079
0007
ffc6
0028
ffd0
fffd
001e
ffb0
0021
ffaf
ffdc
0022
ffc2
fffc
004e
ffd1
fffe
ffe9
ff95
fff1
ffd2
fffc
0085
ffd2
002b
0138
ffd5
ffa1
fff5
0000
007f
0070
ffad
0019
008e
fff3
0024
0002
ffdf
004f
0058
ffbf
ff69
ff6b
002f
fffe
001f
ffda
00e1
ffc4
ff97
ff84
0033
0001
0028
005b
ffca
ffa5
0079
fee4
0002
fffc
ffce
0055
005f
ff46
ffa2
ffe8
0000
fffe
ffd3
ffb3
ffca
ffa6
ff70
004a
ffda
0000
0011
002d
ff0a
0066
ffd0
ff88
0008
fff9
ffb8
0055
0062
ff9f
fffd
ffed
ffc8
ffc7
fffb
0018
ff3d
ffec
005b
0060
0015
0023
005b
ff7c
0081
0069
0025
0026
0062
0011
005d
ffa1
0100
00a7
0011
ffa6
fff6
ffe3
ffef
0015
0012
ffed
0025
ff4b
005b
0001
001f
ffa0
00be
0053
0016
fff4
0028
0002
0070
ffb1
0044
003e
0000
ffaf
ffa9
0000
0010
ffb5
005b
ffc4
ffec
0081
0097
0003
ff82
ff4c
010d
ff5d
0013
00c2
000b
0000
0018
ff82
0025
ffc7
ff5c
ffa2
0020
ffbd
00dd
000e
ffef
ffc7
0036
ff71
0009
001c
ffe9
ff92
004a
00f4
ff4e
006d
000c
fff3
fff3
ffc1
008d
0031
ffe7
ffc7
ffc2
ffd0
0103
ffff
00ee
007c
ffd0
ffa2
ff8f
0005
ffec
ffa4
fff4
002e
fff8
0033
0043
fffd
ff6e
004f
002a
ffa6
004b
0053
ffe8
fffc
007a
000c
0058
008e
ffad
0000
001e
0000
007c
001d
00b5
0027
002d
0080
0006
fffc
ff5e
0099
0042
ffb5
ffa0
001f
fff4
ffff
0026
0068
0060
0052
0017
003e
0010
fffc
ffa9
0044
006c
00fb
fffe
ffa3
0079
ffff
ff97
0081
ffa9
ffe1
ff9e
0026
ff87
fffc
ff87
ffa0
0000
ffb1
00b5
0153
fffc
0003
ff95
0011
0081
004b
004b
0072
0013
fffe
ffc9
002c
ff36
ff9e
ff5f
ffda
ffb0
fffb
0024
ff11
ffe2
ffb7
0081
ff5a
001d
0000
006e
ff62
0032
0036
0109
fff4
ffb1
ffee
ff82
ff5d
ffac
0049
ffe5
0044
ffc6
fffd
ffac
0069
005c
ff96
0068
0057
002c
ffff
ff9f
fff0
007a
ff7f
ff6b
004e
001e
0000
0061
ff7d
ffaf
0003
ff7c
ff9f
ffdb
fffe
0079
009e
00c6
ff6c
ffee
fff8
fffa
fffb
ffda
006e
0030
ffab
