ffd9
ffd4
01a5
ff31
feae
ff9d
0025
fec8
ff9c
00dd
ff5f
fff1
0022
fe65
ffc1
ff8f
004e
0008
0013
001f
ffa9
0122
fe69
ffaf
ffae
0196
009f
0049
008e
0195
fe3c
005e
fec0
000e
0022
0040
ffc6
0161
008b
ff38
000e
0000
001e
0155
fff3
ff2a
ff51
007c
00b4
0078
00a2
ffcc
ffa5
001b
ffa0
ff24
00f5
ffd9
008c
ff47
ff4e
0053
00e1
ff4f
0113
0000
0047
00b3
ffce
001b
0160
0059
ffce
ffdb
fff4
ffb2
0014
00a4
00c5
ff84
ff99
005b
009f
012a
fff0
ff39
ffc1
ffae
00ce
fffc
ffcd
001c
ffc5
ff22
0092
ffc6
ffe6
ff92
ffa2
00ac
fef2
01a8
01c7
001b
000e
004a
0013
fe6c
00e7
ffe7
0047
ff79
fe39
0001
0103
ff3d
0096
ff43
fee3
005f
0022
ffba
0076
00e5
014a
ffa3
0107
ff7d
ffe5
0082
0022
fff1
ff71
0073
0053
fedd
ff0b
ffff
005b
fea0
ffb3
0112
0151
00ac
ffec
0062
0099
0094
ff38
005b
fef7
000c
ffbc
00e9
008e
fee5
0006
0151
0170
0155
ff8a
0004
01fd
fe50
005a
ff56
0010
000b
016b
00c6
ffef
ff4c
0069
ff0d
fe4a
0057
0008
0096
00d6
ffe5
006c
fead
ff34
fecd
0155
0000
ff23
0058
00a3
0041
0092
ff8a
0171
00ad
016d
010f
ff05
001f
fe76
ff7c
0051
ff7c
012a
ffe9
fee8
00d8
0098
016c
00e9
ffff
ffcd
ff39
0028
ff4f
ffab
0054
017f
0020
008a
0057
0001
003c
ffe5
0099
ff9d
0031
00ad
0039
0097
ff8a
0028
0069
002b
0000
0048
ff3c
002e
00e5
ffb8
001b
00c4
00ce
ff90
002f
ff2f
006d
ff27
ffd1
fe2e
0126
0145
0017
014b
0038
008b
ff56
fe34
0001
013a
0042
01cd
016f
ff69
ff36
01ae
fed1
00d8
011d
0044
003a
ff1c
ff7f
012f
ffc5
0060
ffd0
fdf6
ffc4
ffab
ff50
0000
fffe
00b0
ff12
00d3
ff47
008f
ffb5
fefd
00f2
ffae
fea4
009d
fef5
ff7f
01fe
ff19
0053
006d
0024
01a7
fe54
ffd5
0133
ff6c
0002
ff54
ffe3
ff81
0239
ff3e
fe59
ff07
ffd3
ff3e
ff89
fff0
ffb1
ffb3
003e
ffb8
ff0e
fee0
0004
00f2
ffcc
fefc
001e
ffe5
0000
fea3
0058
ff2e
0013
feab
fe24
ff9f
fea5
fec6
ff58
ff5e
00df
0291
fe1d
ff72
ff39
0049
fead
0006
ff66
011f
febc
005d
0000
003e
ff3a
00ec
01fe
ffaa
fede
0016
fff9
ff6b
fefb
ffca
005a
00c1
0190
fef0
ffa2
004c
ffeb
0063
001f
0033
00f4
ff6b
ffff
fffb
00bd
006a
0027
0024
0047
006e
ffc7
fe85
0028
002a
0096
003d
0066
fe61
ffc3
0007
ff96
ff47
0227
017e
feea
ff2f
0003
0034
0013
ff81
000a
008a
ff94
ffba
ffcb
0045
ff36
ff7c
0147
ff89
0120
00c8
ffd7
ffec
fe95
0089
ffa1
ff98
010a
0000
ffff
ffa8
012c
00c1
fe7c
fe89
ff5d
ff4a
fed7
01b8
fee9
0050
00dc
0065
00a4
004e
ffae
ff9b
ff61
feb0
fede
00d4
0145
0196
ffff
ff37
fe9f
fe72
ffc8
0023
006a
0070
00d8
010a
01a4
fe45
00f7
013a
ff94
fffa
0057
ffd5
00a0
ffdd
004c
0052
010e
feaa
0000
01e5
0013
ff9d
0067
ffe2
00f9
00c6
ffe6
0050
00d8
00c0
00b2
ff51
0031
008f
000b
006a
ffca
fff1
fff5
00f8
fff6
ffb2
0001
0007
0158
008c
ff47
fe82
0125
ff6f
ffb9
ff88
ff69
005f
0136
ffa3
000d
ff7f
001c
004e
00a1
00c0
00a3
ffbe
fff7
000a
ffff
005e
ff7d
00f4
000b
00d0
008f
ff6c
ff38
ffef
0026
ffa1
ffb2
feb2
0138
00de
ff71
ffe9
ff51
001e
007d
fff5
00e2
ff6e
0000
00bf
ff2f
fede
ffe4
0145
003e
ff7f
002c
ff99
0047
00be
0075
0224
0030
00dd
0057
001c
0028
fee5
013f
01e3
0018
0256
0000
fff6
012e
ffba
ff1b
00b7
ffd7
005c
ff00
ff62
ffd7
0064
00f5
00f3
fec7
ffdd
ffe3
ffde
001d
008f
0164
ffe9
ffdf
ff6e
011a
011f
000f
001b
fff9
ff79
ff76
0087
ffe0
feaa
ff3d
ff98
0092
013d
fed1
00ef
016a
ff1f
014d
0046
ffdb
0010
00ae
fe10
ff6f
ffdc
ffcb
ff71
0000
004f
ffe9
fdf5
0031
ff0b
fff3
005f
001b
ffcf
ffef
0094
014d
0115
ff74
00b5
0076
0024
00ec
fed3
fef5
0059
00bb
ff51
fffc
0113
fff0
00d5
012f
018d
001d
0020
ff0e
ff69
ff72
0038
fe83
ff8b
ff64
0070
0257
002a
007b
0076
0082
fffe
fed8
ff11
ffff
008f
ff4e
ffcf
00a7
ffed
00ac
0018
ffa4
fe94
00e6
00a5
fec8
ff69
004f
0009
ffc8
0078
ff0c
0172
0110
0002
006a
ff94
ffff
ff9d
ff71
ffd0
0096
006c
ff92
ff73
fe8f
0101
0159
fd47
00a1
0063
ff06
014b
ff53
ffa7
008e
0051
ff95
006f
ffb0
ffb4
fffc
ff99
ff8c
00b7
004f
0079
ff95
ff52
0136
001e
ff8e
ff87
ff01
0024
ffe7
0002
ff2f
0051
ffe0
fe45
004c
ffdc
004e
0064
0007
0058
0046
0021
ffab
0076
ff8b
ffd2
006c
002b
0185
0058
00da
012a
ffef
ffc1
ff52
ffb3
ffb9
0112
005c
001d
fde1
fff4
0004
fef5
000c
fddc
007b
00f9
0123
0052
0000
0003
009a
0027
fec7
00de
0099
009a
ffbe
ff63
fef5
00fc
ff6f
ff79
006b
ff54
ffff
002f
ff3e
0056
ffe0
0090
ff86
00bc
000e
00c2
0016
ffe7
000d
0026
006a
fffe
fe8a
0009
ffce
ff54
ff32
ffc9
ff96
ffb5
0002
ff8d
003f
011d
0044
004f
ffcc
ff9e
010e
ff88
ff4f
00f9
ff42
ff0a
fef6
002b
ff73
0064
ff93
ff6f
ff06
ffeb
fe7c
feb2
000b
fe7b
00b2
0052
002e
0072
ffd9
ff82
ff40
00e1
fff6
ffab
0015
0127
00af
00c0
0024
fff8
0077
009f
0000
0018
ff84
ff23
0000
00ce
0035
000d
0097
ff9e
feee
00ce
ffc4
ffe3
0078
00fa
0038
ff88
ff9f
fedc
ff54
004e
018a
0060
ff97
0055
ff53
00b5
fffe
0033
ffbd
003c
fe39
feb2
ff94
ffaf
007d
febf
ff62
008c
0011
006e
ff4d
feb0
00aa
ffa9
ffa5
fff8
ff83
ff49
0055
00f0
0004
ff3d
ff95
0003
fcba
00b2
003d
ff91
017c
fd32
ffc5
003f
ffd1
0095
fcb8
0061
01c2
0038
ff41
ff6c
ffdf
ffb3
ffbc
ff4c
fffc
0013
ff1c
ff83
0025
005e
00bf
fffd
fd57
00ba
007d
006f
ff93
ff84
0185
ff91
ff8e
fff5
ffb1
00d6
fffe
ffce
ff3a
ffc5
fffc
ff6c
ffa9
00f9
ff9f
fed2
ffd2
ff59
fe79
0089
fee1
ff8a
012c
ffcc
ff35
003c
0054
ffe5
0010
00c2
ff60
ff55
ffd9
0054
0003
ffc0
0068
ff69
004d
ff74
fffb
ff70
009d
ff52
00d8
015d
fe06
fff6
00ad
feb8
0058
ffff
ff8d
00cc
ff62
000c
ffe4
0075
0007
fe2c
0026
fda8
ffea
ffb2
0042
00f1
fff0
ff47
ff2f
004a
ff31
009b
ff24
016b
00a3
002c
0082
0081
ffbb
0042
0048
012b
fffc
00f9
0061
009d
003e
ff75
0021
fffe
ff1a
00ca
ff03
ff70
fedd
ff7f
0069
0016
0076
0095
ff64
0071
ff89
0000
ffeb
002f
0003
013a
ff2c
00a3
002b
0033
0017
0115
0018
016e
001b
00ae
0159
fe88
0218
00e2
feef
008b
ffee
fec4
fffa
007b
ffdd
0008
ffff
fffc
00bd
ff50
ffbb
ff8d
0064
ff87
005b
ffce
0068
ff72
ffa1
ff2a
0008
00b2
ff9f
001e
ffe3
ffed
0045
ff7a
0083
0058
fffc
0012
ffdc
ff8c
0006
ff6d
fff4
0007
ff94
ffe1
0141
0003
fe9b
ff83
0043
fe79
fe45
ff3e
ffb1
00d4
ffd2
fff6
00b6
0017
0007
fffa
004e
fe7e
ff4c
ff03
0072
0008
00af
ff04
fea3
012c
014b
ff69
fed3
0075
005b
0016
0113
fdcd
0092
00a8
0189
ff8a
0004
005c
011d
ff88
ff4a
ff87
ff75
00d6
fff1
ff2a
00b0
0046
0048
ff50
ffe8
ff15
0040
ffb1
00e9
0000
0000
0000
0000
0000
0000
0000
0000
0008
0048
ffdb
002f
ff2d
ffe0
0039
ffd2
ffec
fed0
010b
ff96
0063
ff92
0017
0003
0000
0000
0000
0000
0000
0000
0000
0000
ffea
0048
001d
ffeb
ff4c
ff52
0051
feec
0016
fffa
00e2
feaf
004b
0054
0032
feee
0000
0000
0000
0000
0000
0000
0000
0000
0056
0008
0008
ff94
011e
005c
0057
ff93
ffdf
00b8
00a7
ff62
ffd1
005c
ff60
ffc1
0000
0000
0000
0000
0000
0000
0000
0000
ffdc
000e
ffda
ffb0
00ec
00a6
0082
ff87
0015
001c
002a
0081
0038
0011
001b
0089
0000
0000
0000
0000
0000
0000
0000
0000
000d
ff1a
ff6d
0021
ffce
0078
00c0
008e
0015
0009
ff3d
0054
ffbc
00a4
008d
001d
0000
0000
0000
0000
0000
0000
0000
0000
006e
ffd0
00e4
0130
0130
001e
001a
00dc
ff9e
00ac
0006
ff28
ffdf
005a
ff2b
0180
0000
0000
0000
0000
0000
0000
0000
0000
012c
ff73
0050
00e4
0113
ffef
00e2
0135
ff9c
ff38
feb0
ff61
ff84
0095
0018
005b
0000
0000
0000
0000
0000
0000
0000
0000
0145
00a6
ffc2
0089
ffef
ff97
ff1f
00aa
fff0
00c2
ff3a
0036
000d
fe5b
ff20
ffe9
0000
0000
0000
0000
0000
0000
0000
0000
005d
0028
0019
001b
fffa
ff5c
0025
ffa1
ffbf
004e
00a4
0088
ffbe
00c8
0062
ffcc
0000
0000
0000
0000
0000
0000
0000
0000
0020
000f
ffe8
ffe7
0087
fffb
001c
00db
ffed
0033
00c6
01c0
ff50
02e7
007c
fff3
0000
0000
0000
0000
0000
0000
0000
0000
00ef
00a9
000a
ffaf
ff99
ffdb
0089
0003
0041
0069
00c5
ffb5
ffab
008b
0021
ff84
0000
0000
0000
0000
0000
0000
0000
0000
010f
00cf
ff2b
ffbe
0136
0013
0108
ffba
ff6a
009b
fee0
01dd
ffde
0133
ff9d
005c
0000
0000
0000
0000
0000
0000
0000
0000
ffac
feda
0076
004e
0011
ffd5
ff60
0009
ffae
000e
ffcf
01ea
ffa2
003d
ff2f
fe3c
0000
0000
0000
0000
0000
0000
0000
0000
fec2
ffad
0037
001c
fe51
ffb1
fe11
ffc1
ffe3
ff27
ffb2
00d3
fec9
00d0
0088
fe7f
0000
0000
0000
0000
0000
0000
0000
0000
0015
fef9
ff79
ffdf
0037
0074
fffc
ff78
ffeb
006f
0132
0036
0026
009f
0006
002b
0000
0000
0000
0000
0000
0000
0000
0000
ff03
006e
ff50
ffce
00cd
0015
ffff
00b8
0073
ffe3
006f
ffae
ff42
0071
ff63
ff87
0000
0000
0000
0000
0000
0000
0000
0000
00d6
ffcf
0000
0002
00c3
ffe9
0092
001a
ffb4
ff6a
0084
00c4
00d3
ff9a
ff9b
006d
0000
0000
0000
0000
0000
0000
0000
0000
ffc1
ff1b
ff6c
ffbd
ff3e
fff5
ffba
fe50
ffc5
ff5d
0061
ffaa
0057
fe63
fef0
ffb8
0000
0000
0000
0000
0000
0000
0000
0000
ff90
001d
0063
002f
ff39
ffdf
ff96
00df
0067
ffca
029d
0075
0011
ffbc
ffdc
001a
0000
0000
0000
0000
0000
0000
0000
0000
00af
013b
0001
0066
011f
0031
0073
002c
ff9b
010c
ffdd
ffd8
0072
fef1
0042
ff3b
0000
0000
0000
0000
0000
0000
0000
0000
ff37
ff4f
ffe2
ffad
ffa2
000a
ffb9
0026
000c
ff56
ff76
0032
ffcd
0060
0028
fee1
0000
0000
0000
0000
0000
0000
0000
0000
0041
ff2c
0032
ff63
0126
fff2
00a8
0027
0036
0098
0080
005a
ffd5
0043
0006
01dc
0000
0000
0000
0000
0000
0000
0000
0000
00b6
010b
ff7a
ff7e
ff89
005e
00a1
ffa3
fff1
ffa6
ff70
ff4e
00aa
ff9b
ffa1
ff11
0000
0000
0000
0000
0000
0000
0000
0000
1c88
2343
e2c3
da5c
e803
c848
300b
337f
27f2
d368
d8ac
0f76
19be
3c0f
e94b
dfdf
d968
d752
cc17
d13d
0fc3
dfbf
e859
268a
022b
fb99
ff78
003a
ff11
008f
ff3f
0119
0219
fe1e
fe62
01cb
042e
fd24
0400
f987
fff2
002d
fd14
02b3
0069
ff02
01be
fd85
ff8c
ff13
ffdf
fee9
00f7
ff45
ffc0
0123
fe46
012a
ff6d
ff01
0034
ffea
ff7c
0055
ff25
0000
ffdf
ff0f
fed9
02f5
ff64
ff61
0000
0000
0000
0000
0000
0000
0000
0000
0000
0000
0000
0000
0000
0000
0000
0000
0000
0000
0000
0000
0000
0000
0000
0000
0000
0000
0000
0000
0000
0000
0000
0000
0000
0000
0000
0000
0000
0000
0000
0000
0000
0000
0000
0000
0000
0000
0000
0000
0077
ff5f
0101
0064
00e9
0071
ff2e
feee
02e8
00c0
012e
013f
ff96
00dd
01a5
ffec
011d
0000
ff81
011e
001a
feda
ffcc
00e8
0000
0000
0000
0000
0000
0000
0000
0000
0000
0000
0000
0000
0000
0000
0000
0000
0000
0000
0000
0000
0000
0000
0000
0000
0000
0000
0000
0000
0000
0000
0000
0000
0000
0000
0000
0000
0000
0000
0000
0000
0000
0000
0000
0000
0000
0000
0000
0000
ffe9
ffe5
0083
ffad
0152
ff6e
fe0c
0124
00ad
0033
ff8c
00df
0005
0098
ff0b
00ed
ff2e
0000
ff13
000a
fe9e
fe18
fed8
0034
0000
0000
0000
0000
0000
0000
0000
0000
0000
0000
0000
0000
0000
0000
0000
0000
0000
0000
0000
0000
0000
0000
0000
0000
0000
0000
0000
0000
0000
0000
0000
0000
0000
0000
0000
0000
0000
0000
0000
0000
0000
0000
0000
0000
0000
0000
0000
0000
00c9
00c6
ff5e
feba
ffe3
ff22
ffa8
0029
ffb1
0002
007e
ffb4
fe80
00f4
ffb7
00a6
ffc5
0001
00f1
ffda
018d
0089
008e
ff3e
0000
0000
0000
0000
0000
0000
0000
0000
0000
0000
0000
0000
0000
0000
0000
0000
0000
0000
0000
0000
0000
0000
0000
0000
0000
0000
0000
0000
0000
0000
0000
0000
0000
0000
0000
0000
0000
0000
0000
0000
0000
0000
0000
0000
0000
0000
0000
0000
0027
ff5f
004f
ff5e
0038
ffbd
0052
ff8e
ff17
006f
0005
0041
ffc7
feb7
0070
ffbe
01a0
0000
ff32
ff75
ff6d
00ca
0121
0179
0000
0000
0000
0000
0000
0000
0000
0000
0000
0000
0000
0000
0000
0000
0000
0000
0000
0000
0000
0000
0000
0000
0000
0000
0000
0000
0000
0000
0000
0000
0000
0000
0000
0000
0000
0000
0000
0000
0000
0000
0000
0000
0000
0000
0000
0000
0000
0000
0092
ff95
0199
fe9e
ff78
0061
fe99
00f1
ff31
00d6
ff5c
0099
0059
0099
002c
00e8
0145
0000
fe55
ff23
fe3d
0138
0032
ffbf
0000
0000
0000
0000
0000
0000
0000
0000
0000
0000
0000
0000
0000
0000
0000
0000
0000
0000
0000
0000
0000
0000
0000
0000
0000
0000
0000
0000
0000
0000
0000
0000
0000
0000
0000
0000
0000
0000
0000
0000
0000
0000
0000
0000
0000
0000
0000
0000
ff1c
ff74
fed9
001d
006a
0045
0112
fff1
ffc2
ff96
ff51
ffc3
0053
002a
ffed
febb
fe80
0000
ff9d
fdee
001c
0044
ff6f
ffcd
0000
0000
0000
0000
0000
0000
0000
0000
0000
0000
0000
0000
0000
0000
0000
0000
0000
0000
0000
0000
0000
0000
0000
0000
0000
0000
0000
0000
0000
0000
0000
0000
0000
0000
0000
0000
0000
0000
0000
0000
0000
0000
0000
0000
0000
0000
0000
0000
0034
ff1e
01a1
ffd7
fff8
001e
ffe1
00d0
0081
002c
0010
0002
0173
ff6f
0166
0145
0045
0001
ff20
ff67
ff5c
01fb
ff8d
ff55
0000
0000
0000
0000
0000
0000
0000
0000
0000
0000
0000
0000
0000
0000
0000
0000
0000
0000
0000
0000
0000
0000
0000
0000
0000
0000
0000
0000
0000
0000
0000
0000
0000
0000
0000
0000
0000
0000
0000
0000
0000
0000
0000
0000
0000
0000
0000
0000
ffcb
fff0
ffc4
0011
002b
ffd7
0017
ffd3
ffab
00b8
ff40
fe24
ff3f
ff6c
fe9b
00a5
fe89
fff5
0027
ffd2
004e
0006
ffbd
ff62
0000
0000
0000
0000
0000
0000
0000
0000
0000
0000
0000
0000
0000
0000
0000
0000
0000
0000
0000
0000
0000
0000
0000
0000
0000
0000
0000
0000
0000
0000
0000
0000
0000
0000
0000
0000
0000
0000
0000
0000
0000
0000
0000
0000
0000
0000
0000
0000
ffd2
0113
ffbe
ff32
0067
ff0d
022a
ffe8
0128
00e1
009f
0111
0222
ffba
0176
ff3e
ff0c
ffb3
00a7
0094
ff2e
0000
006a
ff9a
0000
0000
0000
0000
0000
0000
0000
0000
0000
0000
0000
0000
0000
0000
0000
0000
0000
0000
0000
0000
0000
0000
0000
0000
0000
0000
0000
0000
0000
0000
0000
0000
0000
0000
0000
0000
0000
0000
0000
0000
0000
0000
0000
0000
0000
0000
0000
0000
0051
0272
fe24
0075
0075
fecd
016d
ff63
00b2
ffd7
ff4e
ffc6
ffa3
0159
ff8e
0068
fea4
fff9
00f2
0024
0048
0012
fffb
ffff
0000
0000
0000
0000
0000
0000
0000
0000
0000
0000
0000
0000
0000
0000
0000
0000
0000
0000
0000
0000
0000
0000
0000
0000
0000
0000
0000
0000
0000
0000
0000
0000
0000
0000
0000
0000
0000
0000
0000
0000
0000
0000
0000
0000
0000
0000
0000
0000
0038
0043
00cc
004b
0030
002c
0143
0040
fec6
0096
006f
0086
ff69
00dc
ff89
ffc1
ff22
ffb2
005b
0010
0069
0001
00ed
0022
0000
0000
0000
0000
0000
0000
0000
0000
0000
0000
0000
0000
0000
0000
0000
0000
0000
0000
0000
0000
0000
0000
0000
0000
0000
0000
0000
0000
0000
0000
0000
0000
0000
0000
0000
0000
0000
0000
0000
0000
0000
0000
0000
0000
0000
0000
0000
0000
ffcd
ffea
fdb9
0164
ff2e
ff7f
ff22
0084
002f
fe28
fffa
feef
000d
ff08
0027
007b
ff6e
00b8
0086
0019
0044
0001
00a6
0046
0000
0000
0000
0000
0000
0000
0000
0000
0000
0000
0000
0000
0000
0000
0000
0000
0000
0000
0000
0000
0000
0000
0000
0000
0000
0000
0000
0000
0000
0000
0000
0000
0000
0000
0000
0000
0000
0000
0000
0000
0000
0000
0000
0000
0000
0000
0000
0000
ff6e
ff2c
0090
0017
0187
ffc2
0014
005b
001f
ff5f
ffc4
0044
fef7
ff4e
ffe0
00aa
0136
ffaf
ffb9
00b0
004e
0001
0059
0111
0000
0000
0000
0000
0000
0000
0000
0000
0000
0000
0000
0000
0000
0000
0000
0000
0000
0000
0000
0000
0000
0000
0000
0000
0000
0000
0000
0000
0000
0000
0000
0000
0000
0000
0000
0000
0000
0000
0000
0000
0000
0000
0000
0000
0000
0000
0000
0000
0063
0069
fe3b
00e6
ff89
ffaa
009d
ffe7
0056
0059
00b1
ff53
ffc2
00c2
0056
00e7
010f
0121
ffee
0179
0083
fffc
ff3d
fff2
0000
0000
0000
0000
0000
0000
0000
0000
0000
0000
0000
0000
0000
0000
0000
0000
0000
0000
0000
0000
0000
0000
0000
0000
0000
0000
0000
0000
0000
0000
0000
0000
0000
0000
0000
0000
0000
0000
0000
0000
0000
0000
0000
0000
0000
0000
0000
0000
fea2
ff77
ff66
ff27
0062
005c
ff47
0098
0002
0013
00cc
fee7
fff3
ffbe
00d7
007e
fee5
000b
ff83
0055
0032
0004
0053
0065
0000
0000
0000
0000
0000
0000
0000
0000
0000
0000
0000
0000
0000
0000
0000
0000
0000
0000
0000
0000
0000
0000
0000
0000
0000
0000
0000
0000
0000
0000
0000
0000
0000
0000
0000
0000
0000
0000
0000
0000
0000
0000
0000
0000
0000
0000
0000
0000
007a
ffd3
ff70
ff95
ff85
fff7
ffa6
001e
000d
ffe7
feec
0086
ff41
0065
005d
0070
0000
0000
0000
0000
0000
0000
0000
0000
0000
0000
0000
0000
0000
0000
0000
0000
0000
0000
0000
0000
0000
0000
0000
0000
0000
0000
0000
0000
0000
0000
0000
0000
0000
0000
0000
0000
0000
0000
0000
0000
0000
0000
0000
0000
0000
0000
0000
0000
0000
0000
0000
0000
0000
0000
0000
0000
ffab
0066
00c9
0056
0153
ffe4
ffb6
00a1
ff86
ffae
ffcd
004a
015a
ff94
ffde
0045
0000
0000
0000
0000
0000
0000
0000
0000
0000
0000
0000
0000
0000
0000
0000
0000
0000
0000
0000
0000
0000
0000
0000
0000
0000
0000
0000
0000
0000
0000
0000
0000
0000
0000
0000
0000
0000
0000
0000
0000
0000
0000
0000
0000
0000
0000
0000
0000
0000
0000
0000
0000
0000
0000
0000
0000
00a9
006c
ff5f
0018
00a7
0029
01b1
0080
00ad
00d9
fff4
ff34
010e
feb3
ffb6
ffe4
0000
0000
0000
0000
0000
0000
0000
0000
0000
0000
0000
0000
0000
0000
0000
0000
0000
0000
0000
0000
0000
0000
0000
0000
0000
0000
0000
0000
0000
0000
0000
0000
0000
0000
0000
0000
0000
0000
0000
0000
0000
0000
0000
0000
0000
0000
0000
0000
0000
0000
0000
0000
0000
0000
0000
0000
ffd1
ffba
ffbf
00b2
0053
0056
ffd5
fffa
fffa
00f3
00a5
0041
fef1
0082
ff24
ff4d
0000
0000
0000
0000
0000
0000
0000
0000
0000
0000
0000
0000
0000
0000
0000
0000
0000
0000
0000
0000
0000
0000
0000
0000
0000
0000
0000
0000
0000
0000
0000
0000
0000
0000
0000
0000
0000
0000
0000
0000
0000
0000
0000
0000
0000
0000
0000
0000
0000
0000
0000
0000
0000
0000
0000
0000
ff35
0030
0007
ff83
ff91
ffa7
fff8
ff24
0000
0151
ffbb
0017
0087
0015
fff9
0099
0000
0000
0000
0000
0000
0000
0000
0000
0000
0000
0000
0000
0000
0000
0000
0000
0000
0000
0000
0000
0000
0000
0000
0000
0000
0000
0000
0000
0000
0000
0000
0000
0000
0000
0000
0000
0000
0000
0000
0000
0000
0000
0000
0000
0000
0000
0000
0000
0000
0000
0000
0000
0000
0000
0000
0000
003e
fe34
0042
ffa9
0050
ff63
003c
fee3
006a
ff19
ffc3
0027
ffd2
00e2
ffcc
fe8a
0000
0000
0000
0000
0000
0000
0000
0000
0000
0000
0000
0000
0000
0000
0000
0000
0000
0000
0000
0000
0000
0000
0000
0000
0000
0000
0000
0000
0000
0000
0000
0000
0000
0000
0000
0000
0000
0000
0000
0000
0000
0000
0000
0000
0000
0000
0000
0000
0000
0000
0000
0000
0000
0000
0000
0000
fffe
0031
ffad
002f
004b
ff7b
0048
0075
ff97
003f
fe00
ff23
015d
00ed
ff8e
0174
0000
0000
0000
0000
0000
0000
0000
0000
0000
0000
0000
0000
0000
0000
0000
0000
0000
0000
0000
0000
0000
0000
0000
0000
0000
0000
0000
0000
0000
0000
0000
0000
0000
0000
0000
0000
0000
0000
0000
0000
0000
0000
0000
0000
0000
0000
0000
0000
0000
0000
0000
0000
0000
0000
0000
0000
fff0
ffe9
ffcc
0047
ffa6
ff88
ffac
005c
ff4c
fe92
fe7a
006e
00c9
012b
008c
fe23
0000
0000
0000
0000
0000
0000
0000
0000
0000
0000
0000
0000
0000
0000
0000
0000
0000
0000
0000
0000
0000
0000
0000
0000
0000
0000
0000
0000
0000
0000
0000
0000
0000
0000
0000
0000
0000
0000
0000
0000
0000
0000
0000
0000
0000
0000
0000
0000
0000
0000
0000
0000
0000
0000
0000
0000
153b
2484
0f71
ca8d
277c
d5de
2b6d
2a3a
0000
0000
0000
0000
0000
0000
0000
0000
0000
0000
0000
0000
0000
0000
0000
0000
02bc
fc95
023f
0236
008e
fc61
ff49
009e
0000
0000
0000
0000
0000
0000
0000
0000
0000
0000
0000
0000
0000
0000
0000
0000
