fff1
0000
fffa
fff4
0000
0000
0032
0000
fffc
fff8
fff6
fffa
000d
fff6
fffa
fff6
ffa9
0000
0010
0000
0007
0000
000a
000c
0007
0000
fff2
fffd
0000
0000
0019
ffff
fff0
fff5
0016
000b
fffa
0013
0017
0007
fffb
0000
fff2
0000
0032
0000
0006
fff5
ff26
0000
ffd6
feed
0000
0000
ff83
0000
0027
ff18
008f
fe9b
ff2d
fefa
feb1
ff2a
ff98
0000
fff5
0000
002f
0000
ff08
0021
fff7
0000
0012
0000
0000
0000
004c
0000
0006
fff9
ffab
fffc
fff3
0003
ffdb
0002
002a
0000
0006
0000
0000
0000
fff9
ffc8
fff8
0000
000b
0003
0000
0000
fff2
0000
001b
fffe
0000
fffb
0000
ffee
ffe6
0000
fff6
0000
0017
0000
ffeb
0000
fffc
0017
0018
0000
0090
0018
0000
0000
0045
0000
006e
000e
0052
0018
0008
000e
0003
0015
006a
0000
001b
0000
001a
0000
0012
0047
0005
0000
ffdb
0005
0000
0000
005c
0000
002e
fffb
002b
fffc
ffef
0016
fffd
fff0
001c
0000
0003
0000
0001
0000
fffb
ffd8
ff30
0000
fede
feeb
0000
0000
ffce
0000
ff71
ff53
0079
fecb
ff0b
ffdb
ff44
ff44
0087
0000
0015
0000
001d
0000
ff52
ff6f
0000
0000
0000
0000
0000
0000
0000
0000
0000
0000
0000
0000
0000
0000
0000
0000
0000
0000
0000
0000
0000
0000
0000
0000
fff6
0000
0027
0009
0000
0000
ffc5
0000
ffd6
0004
fffb
fff4
fff7
fffe
fffb
fff1
ffe6
0000
000a
0000
fffc
0000
0003
0036
0014
0000
002c
0019
0000
0000
004d
0000
0042
0011
005c
0017
0008
0019
001d
0012
00bf
0000
0017
0000
0014
0000
000c
001e
0000
0000
0000
0000
0000
0000
0000
0000
0000
0000
0000
0000
0000
0000
0000
0000
0000
0000
0000
0000
0000
0000
0000
0000
ff38
0000
ff6c
fefd
0001
0001
ff68
0001
ff22
ffa4
ff34
fedf
ff6f
ffa3
ff92
ff84
0093
0000
ffe1
0000
ffe1
0000
ff7a
ff88
fff8
0000
0008
0009
0000
0000
0076
0000
fff4
0003
0021
000a
fffb
0009
0005
fff9
fffc
0000
fff7
0000
ffe4
0000
000d
000a
0000
0000
0000
0000
0000
0000
0000
0000
0000
0000
0000
0000
0000
0000
0000
0000
0000
0000
0000
0000
0000
0000
0000
0000
0013
0000
0023
0017
0000
0000
001c
0000
0013
0013
0018
0019
000e
000d
0015
0010
0095
0000
000e
0000
000f
0000
000e
0018
0002
0000
0023
0002
0000
0000
0007
0000
0002
0002
ffd8
fff7
0002
001e
0005
001f
000a
0000
fff5
0000
fff7
0000
ffd7
ff7e
0000
0000
0000
0000
0000
0000
0000
0000
0000
0000
0000
0000
0000
0000
0000
0000
0000
0000
0000
0000
0000
0000
0000
0000
fff5
0000
0001
0010
0000
0000
0058
0000
0019
000d
002f
0003
fffc
0010
0003
0002
ffee
0000
0022
ffff
000e
0000
000a
0010
0001
0000
0002
fffb
0000
0000
000c
0000
ffee
0000
000d
fffc
fffd
0003
000a
0003
0000
0000
0003
0000
002a
0000
0000
0000
0000
0000
0000
0000
0000
0000
0000
0000
0000
0000
0000
0000
0000
0000
0000
0000
0000
0000
0000
0000
0000
0000
0000
0000
fff1
0000
000f
fff7
0000
0000
002a
0000
000a
fff3
ffa8
fff9
fff7
ffe4
ffe8
ffef
0014
0000
0013
0000
ffff
0000
ffe4
ffa3
000a
0000
0003
fffe
0000
0000
fff8
0000
0016
0000
fff2
0004
0004
fffe
fff8
0002
fffc
0000
ffcf
0000
ffab
0000
0001
0000
0000
0000
0000
0000
0000
0000
0000
0000
0000
0000
0000
0000
0000
0000
0000
0000
0000
0000
0000
0000
0000
0000
0000
0000
0000
0006
0006
fff5
0007
fffd
fffa
0026
000b
0000
0000
0013
fffc
0000
fff4
fff6
0002
0033
ffff
0000
fffa
0009
0000
ffad
0000
ffc1
ffe4
fffd
001c
0001
000b
fff8
0002
0007
0000
fff8
ffe8
0000
0020
ffb5
ffdd
001d
0007
0000
000a
0000
0000
0004
0000
fffc
00bb
0089
fff7
ff16
ff8e
0051
fec8
ff13
0001
ff19
ff50
0001
feae
ffef
0009
fff3
fefa
0001
ff0d
ff5c
0001
0058
0000
fff2
000a
fffb
001b
0007
0012
ffe9
000b
002f
0000
fff5
fffa
0000
fffc
0003
fff7
0029
0009
0000
0001
ffff
0000
0013
0000
0021
001f
000a
fffc
0001
0007
0004
fff4
fff1
0000
0005
0014
0000
ffe0
0035
0029
ffd9
fff6
0000
fff3
0003
0000
000e
0000
000b
0015
0031
0022
001b
0034
004a
0015
0021
0000
0019
002c
0000
0006
0017
0017
0052
0009
0000
000b
0012
0000
0049
0000
0001
fff0
fff3
fff9
fff7
ffff
ffe7
ffee
ffff
0000
fff7
ffe2
0000
0035
ffe0
ffed
001a
0005
0000
0006
0000
0000
fffd
0000
00b9
ffd7
ffda
0022
fef0
feec
00d8
ff51
ff59
0000
ff42
ff74
0001
fef1
0038
ffed
001f
ff47
0000
ff49
ff2e
0000
ffe9
0000
0000
0000
0000
0000
0000
0000
0000
0000
0000
0000
0000
0000
0000
0000
0000
0000
0000
0000
0000
0000
0000
0000
0000
0000
0004
0010
001f
ffea
0017
fff0
001c
fff0
0008
0000
ffff
0013
0000
ffe9
003c
0001
fffb
fff5
0000
ffff
fff7
0000
0000
0000
0014
000b
001d
0028
0011
000f
0058
000f
0024
0000
0017
0015
ffff
0012
0014
0009
003b
000b
0000
0014
000e
0000
002f
0000
0000
0000
0000
0000
0000
0000
0000
0000
0000
0000
0000
0000
0000
0000
0000
0000
0000
0000
0000
0000
0000
0000
0000
0000
ffc6
ffc2
ffa0
ffc6
ff36
ff4e
00dd
ff71
ff71
0000
ff81
ffa9
0000
fef5
0041
ffdd
ff88
ff65
0000
ff6e
ff6f
0000
ffcf
0000
ffd8
0024
0020
ffe0
ffef
ffda
0003
0002
ffec
0000
fffa
0006
0000
0003
ffdc
0003
fff1
0004
0000
fff6
0004
0000
009b
0000
0000
0000
0000
0000
0000
0000
0000
0000
0000
0000
0000
0000
0000
0000
0000
0000
0000
0000
0000
0000
0000
0000
0000
0000
0002
0007
0013
0017
0013
0002
0065
0013
001d
0000
0016
0016
0000
0008
001c
0008
001e
000a
0000
0015
000c
0000
0022
0000
0004
ffea
ffcc
ff62
fffc
fff0
fff2
0031
000d
0000
ffe7
ffe1
0000
0004
fff5
ff76
ffd0
ffdf
0000
fffb
ffe8
0000
000e
0000
0000
0000
0000
0000
0000
0000
0000
0000
0000
0000
0000
0000
0000
0000
0000
0000
0000
0000
0000
0000
0000
0000
0000
0000
ffd9
001f
fff9
fffd
fffc
ffdd
fffe
ffff
ffe0
0000
0000
fff8
0000
fff9
fff7
fff7
004f
fffd
0000
ffe7
fffb
0000
003a
0000
ffe0
fff1
fff7
0020
fff8
0005
fff6
ffff
0001
0000
0001
0003
0000
000d
ff6a
ffed
fff6
fffd
0000
fffb
ffff
0000
0002
0000
0000
0000
0000
0000
0000
0000
0000
0000
0000
0000
0000
0000
0000
0000
0000
0000
0000
0000
0000
0000
0000
0000
0000
0000
fffe
0001
ffe6
ffd2
fffd
0008
ffec
fffc
003e
0000
fff1
0001
0000
fffb
ffff
ffd7
0041
0012
0000
0002
ffff
0000
0021
0000
0003
0015
000a
ffd7
0011
0003
fffb
0004
fffc
0000
0001
0007
0001
0000
0027
002c
000e
0000
0000
fffa
0008
0000
0003
0000
0000
0000
0000
0000
0000
0000
0000
0000
0000
0000
0000
0000
0000
0000
0000
0000
0000
0000
0000
0000
0000
0000
0000
fffb
0000
0003
fffd
0095
ffff
0000
0000
ffda
0000
ffe0
0017
000d
0000
fffd
000c
0000
0000
0000
ffff
ffff
0002
0000
0000
0005
0000
0003
000d
fff6
0032
0002
0000
002e
0000
fff5
0007
ff9d
0000
0019
0001
0005
0005
0000
0000
ffff
ffca
0000
0000
ff11
0000
ff2b
fee5
0059
0023
0000
ffff
fff5
0000
ffdc
00b1
002d
0000
ff04
0000
0001
0000
0000
0001
0000
ffa3
0001
0000
ffff
0000
000e
0016
005b
0034
0000
0000
ffd2
0000
ffc1
006e
0011
0000
0002
0006
0005
0003
0000
0000
0000
000d
0000
0000
ffee
0000
0000
ffec
0007
ffdb
0000
ffff
ffe1
0000
0010
fffc
003f
0000
ffd8
002d
fffc
fffc
0000
0002
0001
0026
0000
0001
001a
0000
0006
000d
003f
001d
0000
0000
0057
ffff
00a7
0079
0038
0000
000b
0056
0026
0017
0000
0001
0000
001a
0000
0000
0006
0000
0007
fff6
0006
0031
0000
ffff
0069
0000
ffd9
0016
ffde
0000
ffff
fffa
fffd
fffd
0000
0000
0000
ffed
0000
0001
ff37
0000
ffb8
ff10
0068
0011
0002
0000
0037
0000
ff6e
fff9
ffc5
0000
ff78
0002
ffff
ffff
0001
0000
0000
ffe2
0000
0000
0000
0000
0000
0000
0000
0000
0000
0000
0000
0000
0000
0000
0000
0000
0000
0000
0000
0000
0000
0000
0000
0000
0000
0000
fffe
0000
fff6
ffe2
0013
ffdb
0000
ffff
ffa9
0000
0045
ffea
002f
0000
ffdc
0015
0002
0002
0000
0000
0000
0021
0000
0000
001e
0000
000a
0013
0042
001e
0001
0001
0083
0000
0058
0068
001c
0000
0011
003d
001f
0011
0000
0001
0000
0017
0000
ffff
0000
0000
0000
0000
0000
0000
0000
0000
0000
0000
0000
0000
0000
0000
0000
0000
0000
0000
0000
0000
0000
0000
0000
0000
ff62
0000
ffe9
ff55
0048
ffe7
0000
0000
ffb4
0000
ff58
fffd
fffe
0000
ffb5
ffa7
ffeb
fff4
0000
ffff
0000
fff5
0000
0000
0001
0000
0006
0004
0069
ffec
0000
0000
ff58
0000
ffd0
fff2
ff9b
0000
ffff
000b
0000
0000
0000
0000
0000
0014
0000
0000
0000
0000
0000
0000
0000
0000
0000
0000
0000
0000
0000
0000
0000
0000
0000
0000
0000
0000
0000
0000
0000
0000
0000
0000
0021
0000
0007
0010
003d
0011
0000
0000
0042
0000
0034
0047
0020
0000
000f
0024
0016
000c
0000
0001
0000
0018
0000
0000
0006
0000
0027
000a
0018
ffed
0000
fffe
0016
0000
ffc6
ffd7
fff0
0000
ffeb
0001
0000
fffe
0000
0000
0000
0021
0000
0000
0000
0000
0000
0000
0000
0000
0000
0000
0000
0000
0000
0000
0000
0000
0000
0000
0000
0000
0000
0000
0000
0000
0000
0000
fff9
0000
fffc
0000
0067
0001
0001
0000
ff63
0000
ffcc
fff0
fff1
0000
0004
000a
fffc
0000
0000
0000
0000
000a
0000
0000
0003
0000
0006
000a
fff6
0033
0003
0000
0010
ffff
0009
0001
0001
0000
0002
0012
ffff
0002
0000
0000
0000
fffd
0000
0000
0000
0000
0000
0000
0000
0000
0000
0000
0000
0000
0000
0000
0000
0000
0000
0000
0000
0000
0000
0000
0000
0000
0000
0000
fff4
0000
001b
0011
0033
0052
0000
0000
fff6
0000
ffb4
0009
0010
0000
0010
0024
0002
0003
0000
0000
0000
001c
0000
0000
ffff
0000
fffe
fff9
0000
ffe3
fff9
0000
fff2
0000
0003
0000
0024
0000
fffc
0011
0005
0005
0000
0000
0000
ffda
0000
0000
0000
0000
0000
0000
0000
0000
0000
0000
0000
0000
0000
0000
0000
0000
0000
0000
0000
0000
0000
0000
0000
0000
0000
0000
0005
0000
ffbf
fffe
0000
0004
0000
0000
fffb
0000
0023
0017
0013
0002
0000
001a
000b
000b
0002
0023
0000
0000
0002
0000
0009
0000
fffd
0002
0000
fff9
0003
0001
0044
0004
ff74
003a
fff8
0003
0000
ffe8
000d
ffc7
0002
ffd6
0001
0000
0006
0000
ffd1
0000
fff9
ff23
0000
ffff
0007
0000
feab
ffff
ffbc
0000
fef4
0000
0001
fffa
0007
002d
fffe
00be
0000
0000
fffd
0000
fffd
0000
ffd1
000f
0000
0008
0000
0000
0011
0001
0007
0006
002f
0005
0000
0005
0005
0004
0008
0001
0000
0000
0007
0000
fff6
0000
fff4
fff8
0000
fff2
fffd
0000
ffbc
0000
007d
0015
fff1
0002
0000
0005
fff1
003b
fff4
0025
0000
0000
0001
0000
000a
0000
0061
0011
0000
0020
0002
0000
0006
000f
0048
004c
0029
0024
0002
0070
0046
0031
002e
0070
0009
0000
004a
0003
fff9
0000
000b
0003
0000
fff9
0000
0000
fffc
fffe
ffc8
fff2
fff6
fffb
fffe
ffeb
fff1
fff3
fff5
ffd9
ffff
0000
ffed
ffff
0011
0000
ffff
ff4c
0000
fffe
0009
0000
ff4d
ffff
ff84
000c
ff8e
0003
0000
000b
fff3
fff8
fffa
ffa3
0000
0000
fff6
0000
0000
0000
0000
0000
0000
0000
0000
0000
0000
0000
0000
0000
0000
0000
0000
0000
0000
0000
0000
0000
0000
0000
0000
0000
0003
0000
0006
fffb
0000
0002
0000
0000
ffb8
0000
005c
0010
0001
0000
0000
003a
0020
0014
ffff
004b
0000
0000
fffe
ffff
000e
0000
0043
0018
0000
0018
0002
0000
000e
000b
001d
003a
0047
001e
0002
004f
0027
001d
0022
0022
0007
0000
003a
0003
0000
0000
0000
0000
0000
0000
0000
0000
0000
0000
0000
0000
0000
0000
0000
0000
0000
0000
0000
0000
0000
0000
0000
0000
0003
0000
ff93
ff81
0000
fff3
0000
0000
ff69
fff7
ff25
ffb2
002e
ffe5
ffff
ff9b
ffcc
ffcb
ffed
ff81
fffb
0000
ffde
fffd
ffef
0000
004f
000c
0000
0000
0000
0000
fff1
0000
000d
fffe
0002
0000
0000
fffd
000b
fffb
ffff
0003
0000
0000
0004
0000
0000
0000
0000
0000
0000
0000
0000
0000
0000
0000
0000
0000
0000
0000
0000
0000
0000
0000
0000
0000
0000
0000
0000
0000
000b
0000
0023
0013
0000
0012
0001
0000
0003
0008
0026
0024
004f
0014
0002
0031
001d
0017
0018
0021
0005
0000
002a
0001
fffb
0000
fff9
ffec
0000
fff6
0002
0000
000e
ffff
0001
000a
0010
0004
ffff
0030
0035
0054
0004
0012
0000
0000
ffff
0000
0000
0000
0000
0000
0000
0000
0000
0000
0000
0000
0000
0000
0000
0000
0000
0000
0000
0000
0000
0000
0000
0000
0000
0000
fffe
0000
ffa2
0007
0000
ffff
0001
0000
fffa
0000
0010
fffb
0004
0000
ffff
0028
fff6
0009
fffd
001a
0000
0000
fff9
0000
ffdf
0000
fff5
0001
0000
fff5
ffe9
0000
0010
fffe
ffde
fff2
fff3
0001
fffc
0003
0004
ffe1
0000
ffff
0000
0002
0001
fffe
0000
0000
0000
0000
0000
0000
0000
0000
0000
0000
0000
0000
0000
0000
0000
0000
0000
0000
0000
0000
0000
0000
0000
0000
fffa
0000
ffe6
0010
0000
0008
0000
ffff
fffc
0005
000c
ffed
000e
0000
0000
ffe5
ffde
003e
0007
fffd
0002
0000
0003
0000
ffc8
0000
fffa
0000
0000
fffc
fffe
0000
fffe
0003
005c
fff7
0000
000b
0001
fff9
003f
000c
0005
0005
0002
0000
000d
0000
0000
0000
0000
0000
0000
0000
0000
0000
0000
0000
0000
0000
0000
0000
0000
0000
0000
0000
0000
0000
0000
0000
0000
0000
0000
0000
0000
0000
0000
0000
0000
ffff
0000
0000
0000
0000
0005
0000
0001
ff33
ffff
0019
0020
0000
fffb
0000
0000
ffef
0000
0000
0000
0000
0000
0000
ffff
ffff
0000
0000
0000
ffff
fff5
0000
0002
ffe5
0008
0010
fff8
0000
ffea
0000
0000
000f
0000
0001
0000
0000
0001
0001
0005
0000
0000
0000
0000
0004
00af
0000
0000
0079
0000
0038
0003
0000
ffe0
0000
0000
0059
0000
0000
0000
0000
0000
0000
0000
0000
0000
0000
0000
0000
ffff
0000
0001
ffeb
fffc
0059
000a
0000
0007
0000
0000
ffeb
0000
0000
0000
0000
0000
0000
0001
fffd
0000
0000
0000
0000
000d
0000
ffff
001a
000f
0001
0003
0000
001e
0000
0000
fffe
0000
0000
ffff
0000
0000
0000
0000
0003
0000
0000
0000
0000
0004
0000
000c
0064
0015
006d
0026
0000
0054
0000
0000
0032
0000
0000
0000
0000
0001
0000
0000
0000
0000
0000
0000
0000
fff9
0000
fffe
ffe8
0000
fff0
fff9
0000
ffed
0000
0000
fffe
0000
0000
0000
0000
0000
0000
0000
ffff
0000
0000
0000
0000
000e
0000
ffff
0022
0006
0002
ffee
0000
fed9
0000
0000
ff47
0000
0000
0000
0000
0000
0000
0000
0000
0000
0000
0000
0000
0000
0000
0000
0000
0000
0000
0000
0000
0000
0000
0000
0000
0000
ffff
0000
0000
0000
0000
0000
0000
0000
0000
0000
0000
fffa
0000
0001
0024
0004
0010
0006
0001
0013
0001
0000
ffeb
0000
0000
0000
0000
0000
0000
0000
0002
0000
0000
0000
0000
0002
0000
000a
003e
0012
005d
0017
0000
0018
0000
0000
001c
0000
0000
0000
0000
0000
0000
0000
0000
0000
0000
0000
0000
0000
0000
0000
0000
0000
0000
0000
0000
0000
0000
0000
0000
0000
0000
0000
0000
0000
0000
0000
fffe
0000
0000
0000
0000
000b
0000
fff9
0030
fff1
ffad
fffd
0000
ff26
0000
0000
ffc8
ffff
0000
0000
0000
0000
0000
0001
0000
0000
0000
0000
0002
ffed
0000
0000
ffad
fffd
fff2
ff7f
0000
0017
0001
0001
0010
0000
0000
0000
0000
0000
0000
0000
0000
0000
0000
0000
0000
0000
0000
0000
0000
0000
0000
0000
0000
0000
0000
0000
0000
0000
0000
0000
0000
0000
0000
0000
0002
0000
0000
0000
0000
0004
0000
0007
0047
000b
0034
0013
0000
0019
0000
0000
0013
0000
0000
0000
0000
0000
0000
0000
0000
0000
0000
0000
0001
fff8
0000
0000
000c
ffff
008f
002f
0000
0010
0000
0000
004f
0000
0000
0000
0000
0000
0000
0000
0000
0000
0000
0000
0000
0000
0000
0000
0000
0000
0000
0000
0000
0000
0000
0000
0000
0000
0000
0000
0000
0000
0000
ffff
0000
0000
0000
0000
0000
fffa
0000
0000
ff73
0000
fff6
0008
0000
0011
0001
0000
fffa
0000
ffff
0000
0001
0000
0001
0003
0001
0000
0000
0000
fffc
ffe1
0000
0002
fff4
002d
000f
fff2
0000
0000
0001
0000
0006
0000
0000
0000
0000
0000
0000
0000
0000
0000
0000
0000
0000
0000
0000
0000
0000
0000
0000
0000
0000
0000
0000
0000
0000
0000
0000
0000
0000
0000
0000
0000
0000
0000
0000
0000
ffff
0003
0000
0002
0005
0000
00a9
0002
0000
000d
0000
0000
0007
0000
0000
0000
ffff
fffe
0000
0002
0001
0000
0000
0000
0001
0018
0000
0000
0005
fff4
ffec
fffd
0000
0016
ffff
0001
0005
0000
0000
0000
0000
0000
0000
0000
0000
0000
0000
0000
0000
0000
0000
0000
0000
0000
0000
0000
0000
0000
0000
0000
0000
0000
0000
0000
0001
0000
0061
0000
0000
0000
0000
0000
0000
0000
0000
0000
0000
0000
0000
0000
0000
0000
0000
0000
0000
0000
0000
0000
0000
0000
000d
0000
0000
0000
0000
0000
0000
0000
0000
0000
0000
0000
0000
0000
0000
0000
0000
0000
0000
0000
0000
0000
0000
0000
0007
0000
0000
0000
0000
0000
0000
0000
0000
0000
0000
0000
0000
0000
0000
0000
0000
0000
0000
0000
0000
0000
0004
0000
ff46
0000
0000
0000
0000
0000
0000
0000
0000
0000
0000
0000
0000
0000
0000
0000
0000
0000
0000
0000
0000
0000
fffc
0000
ffed
ffff
ffff
0000
0000
0000
0000
0000
0000
0000
0000
0000
0000
0000
0000
0000
0000
0000
0000
0000
0000
0000
0010
0000
007a
0000
0005
0000
0000
0000
0000
0000
0000
0000
0000
0000
0000
0000
0000
0000
0000
0000
0000
0000
0000
0000
fffb
0000
0017
0000
0000
0000
0000
0000
0000
0000
0000
0000
0000
0000
0000
0000
0000
0000
0000
0000
0000
0000
0000
0000
0000
0000
001a
0000
0000
0000
0000
0000
0000
0000
0000
0000
0000
0000
0000
0000
0000
0000
0000
0000
0000
0000
0000
0000
0000
0000
0000
0000
0000
0000
0000
0000
0000
0000
0000
0000
0000
0000
0000
0000
0000
0000
0000
0000
0000
0000
0000
0000
0000
0000
ffda
0000
0000
0000
0000
0000
0000
0000
0000
0000
0000
0000
0000
0000
0000
0000
0000
0000
0000
0000
0000
0000
000e
0001
0083
0000
0004
0000
0000
0000
0000
0000
0000
0000
0000
0000
0000
0000
0000
0000
0000
0000
0000
0000
0000
0000
0000
0000
0000
0000
0000
0000
0000
0000
0000
0000
0000
0000
0000
0000
0000
0000
0000
0000
0000
0000
0000
0000
0000
0000
fff7
0000
0061
0000
fffd
0000
0000
0000
0000
0000
0000
0000
0000
0000
0000
0000
0000
0000
0000
0000
0000
0000
0000
0000
0000
0001
004c
0000
0000
0000
0000
0000
0000
0000
0000
0000
0000
0000
0000
0000
0000
0000
0000
0000
0000
0000
0000
0000
0000
0000
0000
0000
0000
0000
0000
0000
0000
0000
0000
0000
0000
0000
0000
0000
0000
0000
0000
0000
0000
0000
0001
0000
0009
0000
006f
0000
0002
0000
0000
0000
0000
0000
0000
0000
0000
0000
0000
0000
0000
0000
0000
0000
0000
0000
0000
0000
fffd
0000
fff9
0000
0000
0000
0000
0000
0000
0000
0000
0000
0000
0000
0000
0000
0000
0000
0000
0000
0000
0000
0000
0000
0000
0000
0000
0000
0000
0000
0000
0000
0000
0000
0000
0000
0000
0000
0000
0000
0000
0000
0000
0000
0000
0000
0000
0000
0000
0000
006f
0000
0000
0000
0000
0000
0000
0000
0000
0000
0000
0000
0000
0000
0000
0000
0000
0000
0000
0000
0000
0000
fffa
0000
0003
0000
0000
0000
0000
0000
0000
0000
0000
0000
0000
0000
0000
0000
0000
0000
0000
0000
0000
0000
0000
0000
0000
0000
0000
0000
0000
0000
0000
0000
0000
0000
0000
0000
0000
0000
0000
0000
0000
0000
0000
0000
0000
0000
0000
0000
0001
ffff
ff9f
0000
0000
0000
0000
0000
0000
0000
0000
0000
0000
0000
0000
0000
0000
0000
0000
0000
0000
0000
0000
0000
0001
fffe
fffa
0000
0000
0000
0000
0000
0000
0000
0000
0000
0000
0000
0000
0000
0000
0000
0000
0000
0000
0000
0000
0000
0000
0000
0000
0000
0000
0000
0000
0000
0000
0000
0000
0000
0000
0000
0000
0000
0000
0000
0000
0000
0000
0200
0200
0200
0200
0200
0200
0200
0200
0200
0200
0200
0200
0200
0200
0200
0200
0200
0200
0000
0000
0000
0000
0000
0000
0000
0000
0000
0000
fa00
0000
0000
0000
0000
0000
fc00
0000
0000
0000
0000
0000
fc00
0200
0000
0000
0000
0000
0000
0000
